[PAD]	0
[UNK]	0
[BOS]	0
[EOS]	0
[SEP]	0
[CLS]	0
[MASK]	0
을	-3.92658
.	-4.01449
를	-4.05639
▁	-4.20139
에	-4.21287
의	-4.21868
,	-4.31391
)	-4.3947
▁중	-4.48231
(	-4.59036
가	-4.62005
이	-4.63085
▁한다	-4.85263
▁작업	-5.00707
일	-5.12798
는	-5.13125
으로	-5.15337
▁및	-5.16365
로	-5.25721
월	-5.28129
에서	-5.33135
시	-5.37639
년	-5.47617
층	-5.52798
▁후	-5.53179
▁위해	-5.56135
하여야	-5.64625
▁1	-5.65411
▁발생	-5.7499
은	-5.75991
▁등	-5.77221
▁2	-5.77751
▁사고	-5.79343
동	-5.80366
과	-5.81965
▁거푸집	-5.88294
▁설치	-5.92977
한	-5.94836
분경	-5.95196
와	-5.99358
▁작업을	-6.04869
하여	-6.09382
▁작업중	-6.09666
m	-6.12812
▁이동	-6.12986
▁재해자	-6.13479
인	-6.18604
▁근로자	-6.18877
된	-6.19713
**	-6.2123
▁현장	-6.2716
1	-6.28488
▁작업자	-6.30751
서	-6.31059
▁있는	-6.33588
▁해체	-6.36928
▁자재	-6.38221
▁콘크리트	-6.38314
▁넘어짐	-6.3839
고	-6.3976
▁10	-6.39823
▁3	-6.40097
▁시	-6.40331
▁철근	-6.44386
▁하여야	-6.46409
▁지하	-6.48212
▁인한	-6.50126
▁걸려	-6.50939
▁2020	-6.52123
하는	-6.53107
▁왼쪽	-6.54167
▁미끄러져	-6.57094
지	-6.57633
▁2021	-6.61533
2	-6.62128
▁위하여	-6.62506
중	-6.63287
▁오른쪽	-6.63352
▁발을	-6.64216
▁:	-6.6446
▁4	-6.65013
▁추락	-6.6796
▁있던	-6.68239
씨가	-6.68518
▁수	-6.6902
▁손가락	-6.69254
▁바닥에	-6.69427
▁사고임	-6.70031
▁재해자가	-6.70389
▁골절	-6.7138
면서	-6.71845
▁넘어지면서	-6.73572
00	-6.74206
하게	-6.75716
▁비계	-6.76613
▁작업자가	-6.78927
▁이동중	-6.79207
-	-6.79572
시경	-6.8025
▁(	-6.80374
▁과정에서	-6.80532
▁우측	-6.81213
▁오전	-6.82098
▁위한	-6.82381
▁상부	-6.83187
▁않도록	-6.83893
할	-6.83959
▁11	-6.8443
후	-6.8483
▁장비	-6.84879
▁잃고	-6.86048
용	-6.86263
▁하며	-6.88397
주	-6.90754
▁등을	-6.93149
▁벽체	-6.93628
▁이	-6.95511
▁또는	-6.97146
▁중심을	-6.97512
▁크레인	-6.98375
▁운반	-6.9844
▁바닥	-6.98454
▁작업자의	-6.99169
▁재해	-6.99503
▁사용	-7.00058
▁내	-7.00107
▁좌측	-7.00318
▁30	-7.0069
▁확인	-7.01295
▁5	-7.03895
하고	-7.04763
▁떨어짐	-7.05261
▁경우	-7.0562
▁발이	-7.05654
▁경우에는	-7.05981
▁절단	-7.07335
▁12	-7.07701
▁의한	-7.08172
▁고정	-7.08546
▁부딪힘	-7.10175
분	-7.10334
기	-7.10994
층에서	-7.11094
▁타설	-7.11375
▁부주의	-7.11427
▁하부	-7.11789
▁2019	-7.12249
cm	-7.12742
▁이용하여	-7.12995
3	-7.13533
▁하던	-7.14464
▁지상	-7.14703
▁다음	-7.14906
도록	-7.15562
▁약	-7.15721
▁인양	-7.16138
▁높이	-7.16803
▁왼손	-7.17294
▁자재를	-7.17311
▁8	-7.17396
되어	-7.20059
/	-7.20149
▁설치하여야	-7.21179
히	-7.21734
▁발생한	-7.21824
도	-7.21925
▁손가락이	-7.21983
▁이상	-7.22265
▁부주의로	-7.22693
▁전	-7.22872
M	-7.23853
▁조립	-7.23933
▁김	-7.24287
▁미흡	-7.25065
▁사이에	-7.2568
▁근로자가	-7.27003
작업	-7.2707
하지	-7.2729
▁안전	-7.2767
▁헛디뎌	-7.2793
▁15	-7.28346
▁현장에서	-7.28678
▁넘어져	-7.29189
▁유로폼	-7.29304
▁보	-7.29717
단	-7.29829
▁따라	-7.31244
▁H	-7.31383
▁발판	-7.32017
▁작업발판	-7.32183
▁7	-7.32897
▁재해자의	-7.33017
▁배관	-7.3349
▁전도	-7.34657
▁하고	-7.34718
한다	-7.34893
▁대한	-7.35064
▁소속	-7.35125
▁20	-7.35677
▁끼임	-7.36081
▁협착	-7.36138
▁오후	-7.36316
▁인해	-7.36381
▁상태에서	-7.3642
▁주변	-7.37238
▁상태	-7.37877
▁경	-7.39272
▁부상	-7.39423
▁그	-7.39826
며	-7.40131
▁조치	-7.4027
▁떨어져	-7.41278
▁6	-7.41336
▁미끄러지면서	-7.41475
▁도중	-7.41569
▁공사	-7.416
▁9	-7.42092
:	-7.42204
▁슬라브	-7.44173
▁오른손	-7.44737
▁내부	-7.44816
에는	-7.45677
▁제거	-7.45702
4	-7.47481
▁외부	-7.47719
▁사다리	-7.48031
·	-7.48384
▁입음	-7.48618
▁이동식	-7.4873
▁바닥으로	-7.49095
▁못하고	-7.50225
경	-7.50983
▁무릎	-7.51916
▁시공	-7.52335
▁시스템	-7.52575
▁정리	-7.52623
▁점검	-7.52628
▁함께	-7.53153
면	-7.53263
▁재해임	-7.53398
자	-7.53494
▁동바리	-7.53703
되는	-7.53751
▁사고가	-7.53947
▁그라인더	-7.54115
30	-7.5463
수	-7.54891
▁설치된	-7.567
▁때에는	-7.58419
▁14	-7.58687
▁미끄러짐	-7.59071
▁밟고	-7.59262
▁사항	-7.59337
게	-7.59488
▁확인하여야	-7.61188
▁제	-7.61464
▁인하여	-7.6168
▁순간	-7.61878
▁사용하여	-7.62476
상	-7.62697
▁로프	-7.62719
▁부재	-7.62918
▁불안전한	-7.63313
하기	-7.63339
▁낙하	-7.63633
▁부딪혀	-7.64107
▁위험	-7.64125
작업을	-7.64222
▁말비계	-7.64699
▁상부에서	-7.65284
부	-7.65291
▁08	-7.65326
▁16	-7.65649
▁계단	-7.65844
함	-7.65891
▁위치	-7.66669
시에는	-7.66678
번	-7.66763
▁않고	-7.66893
▁합판	-7.66898
▁차량	-7.675
▁따른	-7.68481
▁구조물	-7.68863
▁13	-7.68974
▁09	-7.70067
▁발생함	-7.70526
▁기초	-7.71341
이던	-7.71485
▁가시설	-7.71584
나	-7.71818
진	-7.71886
10	-7.71915
▁들고	-7.72452
▁한	-7.73
작업중	-7.73131
▁굴삭기	-7.73691
▁위에서	-7.73949
리	-7.74251
구간	-7.74546
▁용접	-7.74638
▁중지	-7.74658
5	-7.7545
장	-7.76117
▁높이에서	-7.76461
▁어깨	-7.7656
▁의해	-7.76751
▁잡고	-7.7712
차	-7.77252
형	-7.7745
▁철근에	-7.77454
던	-7.77583
▁굴착	-7.77683
▁손상	-7.78111
▁완료	-7.7828
조	-7.78523
되지	-7.79115
▁철근을	-7.79281
높이	-7.79349
▁허리	-7.79484
건설	-7.79875
▁발목	-7.80316
▁사고발생	-7.80589
▁해체작업	-7.80959
하면서	-7.8101
야	-7.81062
▁실시	-7.81646
mm	-7.81779
▁내려오던	-7.82363
▁볼트	-7.82378
▁여부	-7.82549
▁사전	-7.83342
▁병원	-7.83417
▁체결	-7.8436
▁같이	-7.8446
▁않아	-7.84906
▁신축공사	-7.85022
▁진행	-7.85101
▁동료	-7.85379
세	-7.85504
▁파이프	-7.85517
▁철골	-7.85846
▁타격	-7.86091
▁즉시	-7.86109
▁것을	-7.86478
▁하는	-7.86589
▁해당	-7.87612
▁함	-7.87642
▁충돌	-7.87734
▁시스템비계	-7.87924
▁현장내	-7.88293
▁진단	-7.88542
호	-7.88789
▁***	-7.88866
▁타워크레인	-7.88999
명	-7.89088
▁행동	-7.90491
▁아래로	-7.90491
▁부위	-7.90615
▁등에	-7.90789
▁119	-7.9105
▁엄지손가락	-7.9127
▁흙막이	-7.91325
▁지반	-7.91762
▁넘어지며	-7.92237
▁기계	-7.92362
▁때	-7.92491
▁신호수	-7.92795
▁-	-7.92923
▁와이어로프	-7.93319
▁보고	-7.9336
해	-7.9339
▁당	-7.93501
하	-7.93598
▁반	-7.94153
▁기둥	-7.94364
▁충격	-7.94402
구	-7.94717
공	-7.94819
▁설치를	-7.94933
에게	-7.95203
▁하던중	-7.955
▁각재	-7.95553
▁전에	-7.96055
▁베임	-7.96224
▁뒤로	-7.96416
▁07	-7.96727
▁B	-7.96917
▁발등	-7.9725
▁적재	-7.97616
▁있도록	-7.97807
▁준수	-7.97864
다	-7.98058
▁결과	-7.98077
하던	-7.98276
**)	-7.98762
▁실시하여야	-7.98865
공사	-7.98985
대	-7.99516
▁토사	-7.99554
선	-7.99633
화	-8.00576
▁일부	-8.00654
▁발	-8.00738
▁않은	-8.00762
있던	-8.00933
성	-8.01083
▁철거	-8.01111
▁작업장	-8.01398
전	-8.01734
▁정	-8.01959
▁다리	-8.02021
▁작업시	-8.02294
▁필요한	-8.02449
만	-8.02625
▁다침	-8.02688
▁안전모	-8.02846
▁추락하여	-8.02886
▁골절됨	-8.0312
명이	-8.03481
▁형틀	-8.03528
▁박	-8.0401
▁인지하지	-8.04074
▁하여	-8.04078
▁균형	-8.04086
▁옹벽	-8.04143
▁사다리를	-8.04478
▁연결	-8.04536
H	-8.0508
관	-8.05091
▁가	-8.05422
▁손	-8.06001
▁계단실	-8.06135
▁A	-8.06291
▁손목	-8.06437
교	-8.06675
▁안전난간	-8.07088
하며	-8.07284
▁미	-8.07643
▁할	-8.0767
▁판넬	-8.07765
▁가격	-8.07938
▁설치하고	-8.08027
▁하기	-8.0835
6	-8.08389
▁위	-8.08841
▁발목을	-8.09026
8	-8.09111
▁사이	-8.09185
▁안전대	-8.09454
▁검지	-8.09705
개	-8.09753
▁골절된	-8.10054
▁손을	-8.10221
▁것	-8.10444
실	-8.10571
▁**	-8.106
어	-8.10603
층으로	-8.12043
이나	-8.12288
▁지게차	-8.12332
드시	-8.12343
▁운전자	-8.12419
▁떨어지면서	-8.12511
▁부상을	-8.1292
▁각	-8.13035
▁접촉	-8.13179
▁가설	-8.13871
▁확인하고	-8.14313
▁하부로	-8.14333
▁맞음	-8.14367
▁끼어	-8.14435
▁수립	-8.1453
▁착용	-8.15237
▁방지하기	-8.15333
▁갱폼	-8.15459
▁신호	-8.16074
▁추락한	-8.16515
▁지붕	-8.16631
▁고려하여	-8.17022
▁기	-8.1706
▁배치	-8.17157
▁임의	-8.17665
사고	-8.1815
▁방지	-8.18327
▁21	-8.18545
▁피재자	-8.18663
▁치료	-8.18936
▁불량	-8.19377
까지	-8.19508
▁하나	-8.19515
▁다른	-8.19811
▁시스템동바리	-8.19935
빔	-8.19954
7	-8.20154
▁머리	-8.20294
▁검토	-8.20343
▁확보	-8.2058
▁청소	-8.20645
▁작업대	-8.20759
▁임	-8.21338
9	-8.21451
부위	-8.21566
▁발목이	-8.21617
▁구조	-8.21619
▁자재가	-8.2164
▁통로	-8.21658
▁천정	-8.21943
간	-8.21957
내	-8.22016
▁같은	-8.22178
▁40	-8.2222
▁띠장	-8.22342
▁50	-8.22342
▁상	-8.22459
▁출입	-8.22503
▁하역	-8.22664
▁상태로	-8.22709
사	-8.22969
▁등으로	-8.22977
▁주의	-8.23124
▁아래	-8.232
▁제작	-8.23258
씨	-8.23281
▁부착	-8.2351
▁추락함	-8.23608
상태	-8.23769
▁재해자는	-8.23861
▁개구부	-8.24208
▁충분한	-8.24264
조로	-8.24304
▁틀비계	-8.24696
▁슬래브	-8.2471
▁상부에	-8.24892
▁수평	-8.25095
▁안	-8.25105
목	-8.25285
▁당일	-8.25421
▁관리감독자	-8.25646
보	-8.26079
원	-8.2628
▁견고	-8.26312
▁위에	-8.26362
▁방법	-8.26521
▁관리	-8.26587
▁결속	-8.26647
▁망치로	-8.26647
▁19	-8.26728
▁계획	-8.26988
▁됨	-8.27789
▁양중	-8.27946
▁유지	-8.28273
▁<	-8.28573
미터	-8.28625
▁구간	-8.28884
▁것으로	-8.29008
▁밟아	-8.29039
▁사고자	-8.29261
▁와이어	-8.30033
▁하중	-8.30178
▁1.5	-8.30216
▁손등	-8.30355
▁튀어	-8.30589
▁이탈	-8.30609
▁내려오다	-8.30989
▁지지	-8.31017
▁사용하여야	-8.31472
▁주차장	-8.31611
▁적재함	-8.31917
▁몸의	-8.32021
▁보강	-8.32524
▁25	-8.32682
약	-8.32908
다가	-8.3332
20	-8.33379
▁덮개	-8.33444
▁설비	-8.33663
▁길이	-8.33689
T	-8.33692
▁회전	-8.33956
▁통증을	-8.3435
▁눈	-8.3449
번지	-8.34512
▁알폼	-8.34672
▁터파기	-8.35386
▁석재	-8.35462
11	-8.35698
제	-8.35731
▁간	-8.35806
▁주	-8.35821
▁펌프카	-8.36107
▁화재	-8.36128
▁통해	-8.36401
▁서포트	-8.36571
▁하부에	-8.3727
▁안전한	-8.37313
▁낙하하여	-8.37474
▁수직	-8.37616
▁관련	-8.37693
설치	-8.37793
▁가슴	-8.3789
▁내려	-8.38002
▁목재	-8.38061
▁설치하는	-8.38097
사이에	-8.38259
▁통증이	-8.38308
▁마치고	-8.38425
식	-8.3853
▁유무	-8.38641
▁건물	-8.38652
▁06	-8.38956
▁중량물	-8.39021
재	-8.39296
▁금지	-8.39407
▁작업방법	-8.39421
▁이후	-8.39573
톤	-8.3975
▁데크플레이트	-8.39916
▁파손	-8.40196
▁강관	-8.40316
▁안전고리	-8.40428
▁18	-8.40626
현장	-8.40646
되면서	-8.40659
▁핸드그라인더	-8.4089
하거나	-8.41324
▁없는	-8.41565
▁운반중	-8.41588
재해자	-8.41721
▁전선	-8.41808
▁빔	-8.41809
▁중에	-8.41868
▁항타기	-8.41938
▁천공	-8.41993
▁외벽	-8.42182
▁받음	-8.42442
▁17	-8.42562
▁하다가	-8.42706
▁취급	-8.4277
운	-8.42879
▁준비	-8.42996
▁이동하던	-8.43227
▁병원으로	-8.43252
▁갑자기	-8.43337
정	-8.4343
▁당함	-8.43451
거나	-8.4348
▁진료	-8.43612
▁있어	-8.43751
▁지지대	-8.43836
▁이상이	-8.4431
▁없	-8.44322
▁통	-8.44751
kg	-8.44829
▁안전벨트	-8.4488
▁무리한	-8.45067
▁블록	-8.45122
▁사망	-8.45127
▁인근	-8.45152
▁자재에	-8.45385
▁전기	-8.45441
▁04	-8.45599
▁부분	-8.45606
▁근로자에게	-8.4569
▁맞아	-8.45863
▁접질림	-8.46372
김	-8.46388
▁약지	-8.46542
▁붕괴	-8.46688
▁손이	-8.468
▁탈락	-8.4682
▁빠지면서	-8.46902
치	-8.47013
▁입은	-8.47014
▁등이	-8.47031
▁우려	-8.47446
▁안전성	-8.47478
▁부족	-8.47553
▁호스	-8.48003
▁타일	-8.48139
▁운전원	-8.4846
▁03	-8.48492
그림	-8.4854
▁갈비뼈	-8.48617
적	-8.48715
▁장소	-8.48779
▁이용	-8.48819
▁추정	-8.48828
▁사다리에서	-8.48847
▁되어	-8.49028
▁작동	-8.49116
▁C	-8.4939
▁정도	-8.4942
▁고리	-8.49613
▁타격하여	-8.49884
▁이송	-8.49949
▁미끄러지며	-8.50074
▁떨어진	-8.50086
되도록	-8.50166
▁타박상	-8.50249
▁설치작업	-8.50301
▁충분	-8.50335
▁인지	-8.50723
▁102	-8.50803
▁헛딛어	-8.51171
▁단열재	-8.51215
져	-8.51667
▁하차	-8.51917
▁바닥에서	-8.51957
라	-8.52146
▁최	-8.52157
등	-8.5225
어야	-8.52597
▁설치하여	-8.52931
▁고소작업대	-8.52934
▁동시	-8.5294
*	-8.52962
됨	-8.53166
▁엄지	-8.53208
▁한쪽	-8.53257
▁본인	-8.53403
▁들어	-8.5359
공구	-8.53829
▁장	-8.54023
▁세대	-8.54332
0	-8.54358
F	-8.54372
장비	-8.54458
▁대하여	-8.54642
▁사용하는	-8.54679
하던중	-8.55028
▁임시	-8.55029
▁24	-8.5535
▁반입	-8.55369
▁교체	-8.55507
▁무리	-8.55527
▁가공	-8.55801
▁전도되어	-8.55816
▁파열	-8.56052
▁기존	-8.5623
▁수직재	-8.5628
임	-8.56293
정도	-8.56297
▁배근	-8.56569
00)	-8.56741
▁05	-8.56779
▁정리정돈	-8.56814
▁내려오다가	-8.56845
C	-8.57092
▁손으로	-8.57098
▁된	-8.57437
음	-8.57483
▁무게	-8.57998
▁안전조치	-8.59007
▁승인	-8.59123
▁교육	-8.59137
될	-8.5925
산	-8.59429
▁01	-8.5977
▁판단	-8.59978
▁종료	-8.60043
▁신	-8.60075
▁못	-8.6009
▁1.	-8.60118
▁굴착기	-8.60206
자재	-8.60378
▁상황	-8.60475
▁얼굴	-8.60523
▁맨홀	-8.60585
아	-8.60724
시설	-8.60977
▁철판	-8.61211
▁02	-8.61264
▁통증	-8.61642
▁유	-8.61666
▁덤프트럭	-8.61788
▁잘못	-8.61929
2.	-8.61942
(2	-8.61955
▁결정	-8.61966
▁파이프를	-8.62354
▁어깨에	-8.62455
▁조작	-8.62626
위에서	-8.62652
▁조정	-8.62791
토	-8.63126
▁공구	-8.63157
▁순서	-8.6336
판	-8.63585
▁옆	-8.63782
▁101	-8.63862
▁팔꿈치	-8.63964
▁주장	-8.64008
▁외	-8.64119
▁단순과실	-8.64147
▁분리	-8.64233
▁내용	-8.64446
▁조사	-8.6461
12	-8.64782
▁재료	-8.65137
천	-8.65418
▁휴식	-8.65511
▁골절이	-8.65596
▁23	-8.65621
▁엘리베이터	-8.65766
▁관한	-8.65942
▁같다	-8.66329
▁넘어진	-8.66361
▁토류판	-8.66384
▁염좌	-8.66475
하였으나	-8.6657
▁트럭	-8.6659
▁앞	-8.66617
▁자재정리	-8.66649
트	-8.66674
▁벽돌	-8.67036
▁사실	-8.67287
▁도로	-8.67383
▁대	-8.67549
▁설계	-8.67625
▁허벅지	-8.67683
▁구간에서	-8.67754
▁X	-8.68111
▁우마	-8.68347
▁리프트	-8.68398
▁힘을	-8.68426
금	-8.68435
▁못을	-8.68456
▁28	-8.68624
▁오	-8.68774
▁장소에	-8.68799
▁있으므로	-8.6888
▁낙상	-8.68944
▁상부로	-8.68987
▁22	-8.69233
▁접근	-8.6931
▁하지	-8.6936
▁새끼손가락	-8.69608
P	-8.69657
▁없음	-8.69734
▁계단에서	-8.69757
▁아니	-8.69841
▁적정	-8.70094
▁올라가	-8.70319
▁상차	-8.70382
해야	-8.70421
▁돌	-8.70492
▁예방	-8.70748
▁00	-8.70982
▁받고	-8.71056
▁미착용	-8.71077
▁적재된	-8.71264
A	-8.71269
▁발생된	-8.71474
▁신고	-8.71523
여	-8.71551
▁발가락	-8.71647
위	-8.71657
▁수술	-8.71685
▁하였으나	-8.71734
▁못하여	-8.71759
▁철근이	-8.71818
▁시행	-8.71832
▁재해가	-8.719
▁추진	-8.71918
▁빠져	-8.72016
▁드릴	-8.72239
▁파일	-8.72343
▁팔	-8.72424
▁지면에	-8.7271
남	-8.72965
▁물	-8.73335
▁다리가	-8.73507
▁지하주차장	-8.73535
▁관	-8.73536
▁내부에서	-8.73546
▁선정	-8.73664
▁비	-8.73731
▁포함	-8.73752
▁낙하물	-8.73757
▁의하여	-8.73769
▁E	-8.73807
지구	-8.74094
▁단순	-8.74297
발생	-8.74515
50	-8.7454
▁변형	-8.74696
▁퇴근	-8.74708
▁정강이	-8.74919
▁넘어지는	-8.74927
▁목격자	-8.74944
▁미설치	-8.75043
▁원인	-8.75071
▁전원	-8.75156
▁수행	-8.75617
▁내려오는	-8.75716
▁폐기물	-8.75731
▁가설계단	-8.75963
기구	-8.76
▁본	-8.76384
▁받아	-8.76403
▁방향	-8.76428
▁지시	-8.76578
▁위로	-8.76612
여부	-8.7671
▁골절상을	-8.76749
서는	-8.7688
▁실수로	-8.77132
▁설치한	-8.77182
▁설치되어	-8.77213
▁데크	-8.77314
▁작업에	-8.7759
▁앞으로	-8.7761
▁입원	-8.77643
▁형틀목공	-8.77662
▁협소	-8.77699
▁급	-8.77759
▁실족	-8.77788
▁사고로	-8.77808
물	-8.77893
▁협착되어	-8.77976
▁거치	-8.78135
▁조	-8.78306
▁폼	-8.78358
▁과실	-8.78385
▁발생하지	-8.784
▁보호구	-8.785
▁기타	-8.78642
▁안전난간대	-8.78642
▁재	-8.78722
▁난간대	-8.78742
▁잘	-8.78786
▁근로복지공단	-8.7883
▁장갑이	-8.78846
▁천장	-8.79041
▁개인	-8.79188
당	-8.7922
▁난간	-8.79284
▁시멘트	-8.79289
▁붐대	-8.7936
▁거푸집이	-8.79548
▁반출	-8.79694
▁검사	-8.79729
▁통제	-8.79931
▁사고입니다	-8.80007
작업자	-8.8003
▁발판에서	-8.80094
40	-8.80351
▁잃어	-8.80535
대로	-8.80551
▁아웃트리거	-8.80607
소	-8.80702
▁바람	-8.80723
▁수평재	-8.80937
▁운전	-8.8107
구간에서	-8.81087
▁유도	-8.81254
▁개인보호구	-8.81305
▁레미콘	-8.81322
▁폭	-8.81595
▁강	-8.81607
▁된다	-8.81878
V	-8.81932
▁103	-8.81941
▁가능한	-8.82054
▁교량	-8.8207
▁하	-8.82198
▁현재	-8.82272
15	-8.8244
력	-8.82475
B	-8.82678
▁옆으로	-8.82701
▁26	-8.82724
배관	-8.82731
▁촬영	-8.82743
▁협력업체	-8.82748
▁후진	-8.83018
▁각파이프	-8.83031
▁허리에	-8.83093
시간	-8.83194
▁계속	-8.83397
▁사이로	-8.83401
결과	-8.83406
▁104	-8.83422
▁옆구리	-8.8355
▁버팀대	-8.8364
▁강도	-8.84012
▁놓쳐	-8.84054
▁고정용	-8.8421
▁따른다	-8.84349
스	-8.84357
거푸집	-8.84411
▁관로	-8.84857
▁27	-8.84872
하다	-8.85083
▁인대	-8.85135
▁케이블	-8.85164
과정에서	-8.85182
▁이동통로	-8.85247
▁측면	-8.85382
▁발생하여	-8.85442
▁망치	-8.8547
▁산재	-8.85491
번째	-8.85601
계획	-8.85609
▁부	-8.85617
▁화상	-8.85718
▁불안정	-8.8579
▁후송	-8.85791
려	-8.86069
▁미장	-8.86136
▁붐	-8.86361
▁상해를	-8.86442
있는	-8.86551
▁GUIDE	-8.86559
▁작성	-8.86632
▁못이	-8.86639
▁하부에서	-8.8664
우	-8.87014
▁이동시	-8.87155
▁시작	-8.87169
되어야	-8.87192
량	-8.8723
방법	-8.87307
▁공간	-8.87415
▁지정	-8.87417
▁부위에	-8.8744
▁하기위해	-8.87475
▁고	-8.8754
▁타	-8.87628
▁이동하여	-8.87658
D	-8.88048
해체	-8.88094
별	-8.88243
▁PC	-8.8827
▁끝부분	-8.88296
▁긴장	-8.883
▁발견	-8.88413
▁직접	-8.88419
▁밖	-8.88543
▁상단	-8.88583
린	-8.88629
▁아닌	-8.8887
▁경계석	-8.88943
바	-8.88968
▁앵커	-8.89022
▁해체된	-8.89037
(1	-8.89073
▁현장에	-8.89075
부터	-8.89105
▁L	-8.89106
▁추락사고	-8.89244
▁보호	-8.89431
▁케이싱	-8.89439
▁부분이	-8.89545
▁나무	-8.89845
병원	-8.89883
▁상승	-8.89954
16	-8.90004
▁다친	-8.90004
▁아파트	-8.90008
▁남	-8.9003
▁골절되는	-8.9014
질	-8.90146
▁모서리에	-8.90182
▁침하	-8.90272
▁처리	-8.90389
S	-8.90475
▁업무	-8.90531
▁버팀보	-8.90565
방향	-8.90576
적으로	-8.90587
비계	-8.90688
해서	-8.90759
▁점검하고	-8.90811
▁장소에서	-8.91016
▁설치중	-8.91389
▁타격함	-8.91408
▁화장실	-8.91476
▁손잡이	-8.91492
외	-8.91697
▁종아리	-8.919
▁탑승	-8.92183
▁건설기계	-8.92255
▁동료작업자	-8.92425
▁소재	-8.92451
▁작업하던	-8.92455
▁실시하고	-8.92535
하였고	-8.92696
▁안전대를	-8.9282
▁서	-8.92878
▁완전	-8.92906
▁검지손가락	-8.92998
석	-8.93024
▁P	-8.93044
]	-8.9306
▁보안경	-8.9314
▁무릎이	-8.93151
▁호소	-8.93178
▁옥상	-8.93203
▁배수	-8.9325
▁핀	-8.93363
▁단부	-8.9347
▁본인이	-8.93548
▁미흡으로	-8.9355
▁전달	-8.93585
▁사용할	-8.93647
▁또한	-8.93732
도중	-8.93757
유	-8.93775
▁짚어	-8.93796
▁무게중심	-8.93825
장치	-8.939
로부터	-8.93917
▁29	-8.94155
▁파이프가	-8.94183
▁램프	-8.94185
터널	-8.94672
▁옆에	-8.94691
▁떨어지는	-8.94701
▁이용한	-8.94772
▁날이	-8.9479
▁동	-8.95078
병원으로	-8.95443
▁뒤	-8.95701
▁다시	-8.95788
▁안전화	-8.95836
▁작업하여야	-8.95944
▁통보	-8.96042
▁위치를	-8.96043
▁이내	-8.96094
▁가지	-8.96155
쪽	-8.96159
▁크레인으로	-8.96179
▁2022	-8.96299
하였음	-8.96614
안	-8.96638
▁절단기	-8.96699
으로부터	-8.96781
회	-8.96917
줄	-8.97008
▁끝	-8.97101
**(	-8.97257
▁열상	-8.97285
▁않는	-8.97303
▁슬링벨트	-8.97305
부분	-8.97327
▁심	-8.97351
▁본인의	-8.9769
▁내에서	-8.97749
방	-8.97765
▁적치	-8.97872
▁톱날에	-8.97875
~	-8.98067
▁간격	-8.98135
▁유리	-8.98219
▁바로	-8.98277
▁내려오던중	-8.98414
하다가	-8.98435
▁취	-8.98571
▁확보하여야	-8.9875
하려고	-8.98849
▁보조	-8.98871
▁터널	-8.98917
▁레일	-8.99038
▁설치할	-8.99133
▁형틀공	-8.99358
▁T	-8.99442
▁보수	-8.99704
▁부딪힌	-8.99718
▁적절한	-8.99776
에도	-8.99779
▁못한	-8.99914
▁투입	-9.0007
씨는	-9.00078
13	-9.00124
림	-9.00133
▁당시	-9.00212
▁피해	-9.00243
▁신청	-9.00283
▁부분을	-9.00354
▁두	-9.0041
▁철근공	-9.00519
▁끼여	-9.00691
▁석고보드	-9.00703
▁작업발판을	-9.00714
높이에서	-9.0076
▁줄걸이	-9.00863
14	-9.01045
▁부딪쳐	-9.0131
▁일어난	-9.01495
▁미준수	-9.01497
놓은	-9.01524
▁적합한	-9.01582
▁운반하던	-9.01622
▁절곡기	-9.01672
07	-9.01765
시켜야	-9.0195
▁재해발생	-9.01999
▁찰과상	-9.02417
▁후크	-9.02437
▁공법	-9.02491
▁철근배근	-9.02534
▁필요	-9.02557
▁위치에	-9.02765
▁인양작업	-9.0291
▁설치하기	-9.03122
▁운전원이	-9.03176
▁계단을	-9.03188
▁공사현장	-9.03392
3.	-9.03428
블럭	-9.03441
▁늑골	-9.03546
▁이동하는	-9.03571
비	-9.03609
▁천막	-9.03643
철근	-9.03938
▁바닥을	-9.04047
▁105	-9.04159
▁앞에서	-9.04196
▁복공판	-9.04313
사이	-9.04467
▁상해	-9.04477
▁손목이	-9.04639
드	-9.04801
▁파악	-9.0504
▁떨어지며	-9.05161
▁오른발	-9.05334
▁물질	-9.05417
▁수시	-9.05448
▁장애물	-9.05462
?	-9.05513
▁보관	-9.05941
▁눈에	-9.05957
▁놓은	-9.05995
▁차	-9.06012
표	-9.0606
▁병원에서	-9.06065
▁주변에	-9.06168
▁날	-9.06177
▁출입구	-9.06399
쪽으로	-9.06462
▁연결부	-9.06512
02	-9.06618
양	-9.06621
▁근무	-9.06871
▁작업구간	-9.06988
▁미확인	-9.07068
▁들어가	-9.07109
▁기계실	-9.0713
▁협착됨	-9.07135
▁영향	-9.07161
▁응급실	-9.07213
▁질병	-9.07226
▁백호	-9.07453
▁해체중	-9.07521
▁KOSHA	-9.07537
▁항	-9.07666
▁제출	-9.07713
▁있다	-9.07788
통	-9.07823
▁중량	-9.07826
18	-9.07837
▁비산	-9.07878
▁주입	-9.07924
판넬	-9.07947
▁받침목	-9.07996
▁잔재물	-9.0801
▁부분에	-9.0807
▁마무리	-9.08073
▁사다리가	-9.08113
▁도착	-9.08142
▁하강	-9.0815
콘크리트	-9.08165
▁순간적	-9.08266
▁지하층	-9.08409
골절	-9.08469
L	-9.08611
▁바지선	-9.08646
포	-9.08789
▁하다	-9.08837
▁양	-9.08868
”	-9.0894
▁카고크레인	-9.08941
▁철저히	-9.08958
▁클램프	-9.09314
04	-9.09382
▁방향으로	-9.09521
근	-9.09538
▁발파	-9.09769
▁해체작업중	-9.09787
▁찔림	-9.09801
중인	-9.09851
▁인접	-9.09867
▁되메우기	-9.09921
문	-9.10024
▁호이스트	-9.10061
▁구멍	-9.10229
▁000	-9.10301
▁피해자	-9.10338
▁목공	-9.10345
▁진입	-9.10373
▁확인하지	-9.10479
▁실시하여	-9.10509
로프	-9.1056
▁착지	-9.10824
▁샤클	-9.10891
▁다짐	-9.10898
▁소운반	-9.1102
▁선	-9.11104
▁삽입	-9.11155
호기	-9.11184
▁2.5	-9.1121
19	-9.11308
▁정리작업	-9.11354
설비	-9.11493
신	-9.1157
▁1.2	-9.11592
▁작업자세	-9.11604
▁위해서	-9.11745
▁지침	-9.12122
09	-9.12258
계	-9.1262
▁D	-9.12632
이상	-9.12874
▁자재운반	-9.12887
▁작업도중	-9.12888
▁신체	-9.12898
▁문	-9.12959
▁작업전	-9.1312
▁없이	-9.13195
▁조립작업	-9.13335
"	-9.13411
▁대책	-9.13439
▁병원에	-9.13645
▁충돌하여	-9.13675
▁모든	-9.13892
▁미체결	-9.13899
▁지주	-9.13953
▁예방하기	-9.13967
▁브라켓	-9.14053
▁방지를	-9.14152
'	-9.14249
▁넘어	-9.14521
▁강풍	-9.14569
▁파이프에	-9.14576
마	-9.14635
▁튕겨	-9.14641
01	-9.14743
▁종류	-9.14822
▁대피	-9.14856
▁브레이크	-9.14967
▁없어	-9.14982
▁타고	-9.15134
▁덕트	-9.15152
▁작업순서	-9.15169
하부	-9.15419
▁곳에	-9.15426
▁우	-9.15517
▁고임목	-9.15581
▁내리는	-9.15586
▁확인한	-9.15588
▁앵글	-9.15856
t	-9.15965
운반	-9.15978
러	-9.16117
▁천공기	-9.16157
▁PIT	-9.16186
▁유도자	-9.16243
▁거푸집에	-9.16271
수지	-9.16596
열	-9.16681
BL	-9.17001
▁강재	-9.1706
▁협력사	-9.17138
하였으며	-9.17194
점	-9.17281
▁모서리	-9.17315
▁발판이	-9.17341
길이	-9.17418
▁시간	-9.17579
▁접지	-9.17661
▁정지	-9.17712
근로자	-9.1784
▁반영	-9.17955
▁작업계획	-9.17977
▁부근	-9.18031
▁운행	-9.18201
▁별도	-9.18268
▁가스	-9.18274
▁인부	-9.18352
08	-9.18409
▁통행	-9.18463
▁받은	-9.18561
▁흙	-9.18997
▁인양물	-9.1913
-1	-9.19287
▁사고자가	-9.19612
▁목재를	-9.19808
없이	-9.19854
종	-9.19884
▁있을	-9.19919
▁집수정	-9.1994
▁다	-9.20016
▁공사중	-9.20056
▁내부로	-9.20092
명과	-9.20147
▁돌출된	-9.20285
▁전방	-9.20294
▁하단	-9.20346
▁맞	-9.20525
▁진동	-9.20603
▁기사	-9.20906
▁자세로	-9.21059
▁흄관	-9.21154
▁적용	-9.21173
▁착용하여야	-9.212
▁먼저	-9.21263
▁부딪침	-9.21264
▁미확보	-9.2127
▁무너짐	-9.21323
▁끝마디	-9.2135
군	-9.21497
▁작업으로	-9.21508
▁계측	-9.21512
25	-9.2171
▁안전장치	-9.21813
▁자	-9.21878
▁작업이	-9.21879
▁충격으로	-9.22241
체	-9.22373
▁흔들리	-9.22379
▁사면	-9.22453
▁과정에	-9.22477
차로	-9.22637
▁건설공사	-9.22679
▁엉덩이	-9.22781
차량	-9.23111
▁안전교육	-9.23256
▁하였고	-9.23268
파이프	-9.23343
▁측정	-9.23476
▁주탑	-9.2348
▁질환	-9.236
▁피부	-9.23735
▁홀	-9.23772
▁포장	-9.23844
▁쉬	-9.23845
▁기준	-9.23919
▁안전작업	-9.25048
창	-9.25095
층바닥	-9.25133
▁깊이	-9.25208
▁발생됨	-9.25249
던중	-9.25542
▁설치작업을	-9.25595
▁보지	-9.25601
항	-9.25659
▁내리던	-9.25683
강	-9.2571
▁쓰러짐	-9.25734
▁흔들림	-9.25734
▁되지	-9.25781
▁요청	-9.25857
▁/	-9.2588
▁스위치	-9.26047
▁인대가	-9.26089
▁위험요인	-9.26271
▁마감	-9.26295
▁경사로	-9.26316
▁공정	-9.26399
상부	-9.26451
▁사	-9.26484
▁타박상을	-9.26532
▁원	-9.26706
▁이에	-9.26715
▁강타	-9.26842
▁찢어짐	-9.26883
▁충격이	-9.26893
▁야적	-9.27054
▁최초	-9.2709
▁받침대	-9.27327
▁안전발판	-9.27458
▁입	-9.276
도로	-9.27755
▁손에	-9.27807
▁변경	-9.27831
벽	-9.27899
▁옮기던	-9.27921
(4	-9.27942
무	-9.28057
▁놓	-9.28139
▁옮기는	-9.28174
▁윈치	-9.28179
▁자상	-9.28268
▁유해	-9.2827
▁경사면	-9.28287
▁절단작업	-9.28358
▁착용하고	-9.28378
▁규격	-9.28446
▁지면	-9.28524
17	-9.2876
유로폼	-9.28916
▁지상으로	-9.29041
▁작업용	-9.29144
▁뛰어	-9.29171
▁지면으로	-9.29198
▁이물질	-9.29236
▁소화기	-9.29278
미	-9.29325
▁미비	-9.29328
▁건축물	-9.29334
류	-9.29346
▁법면	-9.29357
▁특성	-9.295
영	-9.29502
▁미장작업	-9.29548
▁목	-9.29628
24	-9.29749
박	-9.29762
▁부러지	-9.2983
현	-9.29914
▁현장의	-9.29963
▁자세	-9.30065
▁소	-9.30167
▁쪽으로	-9.30215
▁이동하다가	-9.30338
▁나	-9.30341
▁놓치면서	-9.30442
▁안전시설	-9.3049
위해	-9.30563
▁지	-9.30568
▁기대어	-9.30723
▁불	-9.30745
R	-9.30816
▁항타	-9.3084
사항	-9.30895
▁추가	-9.31013
▁수목	-9.31046
▁최대	-9.31147
▁작업계획서	-9.31218
려고	-9.31408
▁왼발	-9.31486
우측	-9.31513
▁요양급여	-9.31616
▁벽	-9.31667
▁[	-9.31736
▁작업종료	-9.31765
▁접수	-9.31816
▁곳	-9.319
자재를	-9.3197
▁근처	-9.32079
▁이음	-9.32102
00(	-9.32366
▁31	-9.32426
▁바퀴	-9.32546
W	-9.32553
▁중간	-9.32631
▁바	-9.32689
▁사업주	-9.32712
▁거더	-9.32757
읍	-9.328
ing	-9.32838
▁환기	-9.32861
▁굴러	-9.32883
반	-9.32958
▁잡고있던	-9.32996
22	-9.33011
▁수정	-9.33099
▁사용하고	-9.33183
위에	-9.33188
▁발생하였음	-9.33298
▁신호를	-9.33514
암	-9.33523
▁미숙	-9.33541
▁중앙	-9.33713
안전	-9.33875
▁천공작업	-9.3389
오	-9.33914
틀	-9.33928
▁동일	-9.33985
▁검토하여	-9.34016
▁의식	-9.34029
▁쓰러져	-9.34058
▁부재를	-9.34077
▁방수	-9.34122
▁차단	-9.34141
▁철탑	-9.34176
▁45	-9.34188
▁MRI	-9.34194
▁운전석	-9.34217
▁있음	-9.34244
▁발생할	-9.3425
▁있는지	-9.34415
▁날에	-9.34432
▁OOO	-9.34509
▁창호	-9.34525
4.	-9.34579
▁"	-9.34663
▁철근가공	-9.34684
▁피	-9.34778
▁고정된	-9.34779
▁왜	-9.34856
▁핸드	-9.34979
▁부딪히	-9.34979
21	-9.34989
▁교각	-9.35088
공법	-9.35129
▁주위	-9.35177
▁끼	-9.35214
하기위해	-9.35273
고정	-9.3528
▁반동	-9.35316
▁헛디딤	-9.35321
▁양생	-9.35346
터	-9.35378
▁작업반경	-9.35393
▁작업장에서	-9.35404
▁철재	-9.3541
▁파단	-9.35512
▁성능	-9.3556
▁이하	-9.35635
▁감	-9.35642
▁후면	-9.35902
26	-9.35941
으며	-9.35967
▁1.8	-9.36056
역	-9.36265
미리	-9.36554
▁비계파이프	-9.36558
ray	-9.36573
▁뒤꿈치	-9.36629
▁팔목	-9.36637
▁화물차	-9.367
▁왼손으로	-9.367
▁“	-9.36713
▁멍에재	-9.36827
▁작업발판에서	-9.36835
(3	-9.36899
시공	-9.36964
▁표시	-9.37201
▁시설	-9.37232
▁단차	-9.37239
조립	-9.37404
바닥	-9.37588
▁벽체거푸집	-9.37645
▁확인하여	-9.37661
29	-9.37732
▁특히	-9.37869
▁신속	-9.37885
이며	-9.37951
▁화약류	-9.3796
▁몸	-9.37984
▁요구	-9.37994
s	-9.3805
▁방법으로	-9.38368
▁상기	-9.38418
▁버켓	-9.38551
▁지상에서	-9.38617
▁놓여	-9.38703
▁작업자에게	-9.38788
▁작업은	-9.3881
▁출근	-9.38854
개소	-9.39007
▁미실시	-9.39178
▁과도	-9.39207
05	-9.39209
▁철근망	-9.3925
벽체	-9.39287
▁골절상	-9.39349
▁버킷	-9.39362
▁주차	-9.3939
▁동작	-9.39421
▁월요일	-9.39475
▁렌탈	-9.39481
그	-9.39519
▁호소하여	-9.39527
▁인력으로	-9.3964
▁단독	-9.39755
▁작업자와	-9.39799
▁작업후	-9.39865
▁도	-9.3991
박스	-9.39921
복	-9.39922
▁배	-9.40007
▁보양	-9.40137
BEAM	-9.40282
팀	-9.40463
▁방호선반	-9.40485
▁최종	-9.40508
▁양수기	-9.40532
▁기록	-9.40591
▁지장물	-9.40611
▁철선	-9.40645
▁주변에서	-9.40655
▁당현장	-9.40678
▁믹서기	-9.40681
건	-9.40731
▁108	-9.40747
▁S	-9.4078
▁되는	-9.40799
▁손바닥	-9.40833
관리	-9.4088
▁딛	-9.40942
▁당해	-9.40968
기계	-9.41
▁장치	-9.41296
▁배수로	-9.41334
마다	-9.41681
▁공구를	-9.4169
▁멍에	-9.41692
▁수직보호망	-9.41819
▁중인	-9.41835
▁그라우팅	-9.41889
▁전도되면서	-9.41995
짐	-9.42314
본	-9.42503
06	-9.4258
▁작업장소	-9.42669
증	-9.42767
확인	-9.42817
▁밑	-9.42833
▁안면	-9.42839
용접	-9.43029
[	-9.43036
▁이외	-9.43122
▁철근조립	-9.43133
▁것이	-9.43176
▁안전수칙	-9.43225
▁간섭	-9.43274
▁지지력	-9.43299
▁우천으로	-9.43348
▁가격함	-9.43351
▁펌프	-9.43449
▁U	-9.43484
▁있어야	-9.43554
▁금	-9.43616
▁고소작업	-9.43669
▁안면부	-9.43735
하였습니다	-9.43882
▁예정	-9.43922
▁안쪽	-9.43978
▁사용하지	-9.44032
작업자가	-9.44147
▁지점	-9.44162
봉	-9.44254
▁균열	-9.44281
▁인양용	-9.44301
▁과정	-9.44395
▁매	-9.44476
▁원칙	-9.44539
▁않음	-9.44555
▁엉덩방아	-9.4457
▁고속절단기	-9.44591
▁누수	-9.44608
▁박스	-9.44782
▁무릎에	-9.44986
▁요양	-9.4509
▁비래	-9.45233
▁'	-9.45391
▁틈	-9.45521
▁화물	-9.45524
▁하역작업	-9.45562
▁손가락에	-9.45661
▁손수레	-9.4593
▁주요	-9.45937
▁해제	-9.45951
▁새끼	-9.4598
▁다음날	-9.46009
▁안전시설물	-9.4602
▁맞지	-9.46105
▁방문	-9.46142
발판	-9.46258
온	-9.46289
▁받	-9.46297
03	-9.46458
▁단	-9.46462
▁하였음	-9.46565
▁굴착면	-9.46571
▁내부에	-9.467
▁연결된	-9.46773
▁큰	-9.46796
사업	-9.46852
▁하면서	-9.4693
▁채	-9.46931
▁잡아	-9.46935
▁대기	-9.47024
▁불량으로	-9.47052
▁초과	-9.47134
연	-9.47179
재해	-9.47259
▁지하매설물	-9.47338
토록	-9.47349
▁최소화	-9.47361
▁응급조치	-9.47379
▁압송관	-9.47402
▁안구	-9.47452
▁슈	-9.47566
▁목요일	-9.47606
▁변위	-9.47635
▁유압	-9.4772
▁받침	-9.47769
장소	-9.47925
▁보행	-9.47932
▁작업대차	-9.47938
철	-9.48083
23	-9.48301
▁옥탑	-9.48419
▁사무실	-9.48444
기위해	-9.48474
▁107	-9.48504
정리	-9.48509
▁근로복지공단에	-9.48538
▁도장	-9.48559
▁못함	-9.48565
▁무	-9.48602
▁연락	-9.4871
▁타설중	-9.48715
▁확실	-9.4877
▁구	-9.48884
▁부딪히면서	-9.48904
▁전도됨	-9.48933
▁토요일	-9.48972
▁산업재해	-9.49043
▁구조물에	-9.49097
▁기구	-9.491
▁운반하는	-9.49116
▁귀가	-9.4916
▁경사	-9.49172
▁금요일	-9.49192
하중	-9.49324
▁해상	-9.49474
▁매설물	-9.49498
각	-9.49509
▁F	-9.49562
▁이동하다	-9.49632
기초	-9.49639
▁정비	-9.49683
▁건	-9.4978
하므로	-9.49806
구역	-9.49936
▁공기	-9.50096
▁만	-9.50144
▁매설	-9.50153
폭	-9.50157
▁올라가던	-9.50174
목격자	-9.50185
▁느껴	-9.50213
▁앉아	-9.50213
▁왼쪽발	-9.5038
▁크기	-9.50416
▁변화	-9.50473
방지	-9.50497
위로	-9.50574
길	-9.50601
▁밀려	-9.50651
▁황	-9.50714
▁어디서	-9.50763
▁조절	-9.50987
27	-9.51
▁설치작업중	-9.51191
I	-9.51292
▁106	-9.51301
지점	-9.51346
▁인발	-9.51377
▁관계	-9.51476
신고	-9.51593
촬영	-9.51677
▁근린생활시설	-9.51698
▁튀면서	-9.51707
▁미고정	-9.51721
▁추락방지	-9.51805
▁이동식틀비계	-9.5184
▁화요일	-9.51876
방문하여	-9.51984
▁윤	-9.52011
▁장갑	-9.52135
▁전동	-9.52216
조치	-9.52236
거	-9.52269
▁이송하여	-9.52313
(6	-9.52589
▁슬라브에서	-9.5266
▁대차	-9.52661
▁전체	-9.52733
▁진행중	-9.52969
▁발판에	-9.53019
▁벽체에	-9.53071
▁씨가	-9.53153
▁산소	-9.53166
▁백	-9.53195
▁해	-9.53199
▁밀리면서	-9.53201
▁전동드릴	-9.53214
▁보통인부	-9.53234
▁보강토	-9.53237
▁걸쳐	-9.53255
▁끼이면서	-9.53279
▁걸어	-9.53292
▁결함	-9.53302
위치	-9.53355
▁넘어져서	-9.53392
▁입구	-9.53414
▁체인	-9.53447
다고	-9.53808
▁세워	-9.53827
▁재단	-9.53873
연결	-9.53929
▁화기	-9.53996
지역	-9.54155
절	-9.54319
▁정상적	-9.54325
니	-9.54369
▁걸	-9.54434
▁이동하기	-9.54441
▁경과	-9.54494
▁상황에서	-9.545
더	-9.54604
곡	-9.54621
폼	-9.54645
▁작업공간	-9.54647
▁대응	-9.54678
▁가지러	-9.54711
▁유도로프	-9.54715
및	-9.54735
소속	-9.54749
▁힘	-9.54819
▁사망함	-9.54833
▁원형톱	-9.54866
▁자중	-9.551
▁발생하는	-9.55113
CM	-9.55166
▁대상	-9.55274
▁PE	-9.5536
▁짚으	-9.55404
▁기설치	-9.55416
▁접합	-9.55476
▁감전	-9.55502
구조물	-9.55763
속	-9.55917
볼트	-9.55961
▁성	-9.56074
뼈	-9.56157
▁정리중	-9.56212
▁마디	-9.56226
▁혼자	-9.5623
▁비닐	-9.56234
▁안전통로	-9.56285
▁메고	-9.56312
저	-9.56317
▁일용직	-9.56323
▁걸리면서	-9.56329
▁때문	-9.56394
▁내원하여	-9.56398
▁트러스	-9.56438
▁규정	-9.56454
-3	-9.56457
▁인화성	-9.56527
업체	-9.56708
▁많	-9.56781
28	-9.5701
▁등과	-9.57067
▁설치한다	-9.57215
송	-9.5722
현장에서	-9.5722
▁힘이	-9.57235
▁공사현장에서	-9.57274
▁상단에	-9.57292
호세대	-9.57304
▁압출	-9.57394
병원에서	-9.57586
실에서	-9.57589
▁방호	-9.57621
센터	-9.57674
h	-9.57704
혀	-9.57742
▁틈새	-9.57761
▁작업중인	-9.57794
▁접지름	-9.578
▁이상유무	-9.5782
▁작업하는	-9.57825
▁하천	-9.57831
▁불티	-9.5786
▁단부에	-9.57862
▁매립	-9.57884
부위에	-9.57901
▁줄	-9.58013
▁놓고	-9.58018
▁끼인	-9.58054
것으로	-9.58119
▁조적	-9.58125
▁양중작업	-9.58151
초	-9.58211
▁60	-9.58255
▁위험성	-9.58484
▁타설작업	-9.58645
▁강선	-9.58659
▁않	-9.58716
▁후방	-9.58777
▁승강	-9.58855
배	-9.58875
▁일반	-9.59181
심	-9.5923
▁송	-9.59302
부분이	-9.59379
→	-9.5938
▁훅	-9.5938
▁의사소통	-9.59381
▁불일치	-9.59441
▁낙하물방지망	-9.59443
▁CT	-9.59454
거더	-9.59465
홀	-9.59513
▁컨테이너	-9.59514
▁현장소장	-9.59555
▁오른손으로	-9.59562
형강	-9.59624
▁소음	-9.59627
▁밴드	-9.5966
▁보강재	-9.59685
▁정확한	-9.59688
▁유로폼에	-9.59729
사용	-9.59785
인이	-9.60145
+	-9.60184
▁미끄러	-9.602
▁철거작업	-9.6038
▁부식	-9.60439
▁수리	-9.60441
▁무엇을	-9.60638
▁어떻게	-9.60638
▁벽에	-9.60677
▁#	-9.60696
▁M	-9.60697
균형을	-9.6073
▁인력	-9.60828
▁낙하로	-9.60931
ᆞ	-9.60992
▁심폐소생술	-9.60993
▁다치는	-9.60996
▁레미탈	-9.61031
▁인장	-9.61033
▁미사용	-9.61049
▁덤프	-9.61058
▁수신호	-9.61073
▁고소	-9.61087
▁지보공	-9.61111
▁걸고	-9.61128
▁블럭	-9.61238
▁권	-9.61388
▁말뚝	-9.61401
▁작업자간	-9.61559
▁밸브	-9.61573
보다	-9.6158
▁차량이	-9.61602
▁해체하여	-9.61729
절단	-9.61768
▁동선	-9.61772
완료	-9.61998
▁횡대	-9.6207
▁물기	-9.6218
▁점	-9.62182
▁설계도서	-9.62203
▁적재되어	-9.6222
부에	-9.62383
▁필요시	-9.62438
▁거리	-9.62467
▁자재와	-9.62484
▁호	-9.62524
기둥	-9.6257
▁넘어가	-9.62589
▁마지막	-9.62632
▁형상	-9.62642
▁장기간	-9.62652
▁각종	-9.62678
▁옷	-9.62745
▁깔림	-9.62747
칠	-9.62768
▁배치하여	-9.62806
▁실	-9.62823
▁기울기	-9.62839
▁두어야	-9.62878
▁절차	-9.62882
▁판정	-9.62883
토건	-9.62884
상부에서	-9.62921
▁협의	-9.63092
▁언제	-9.6316
▁바닥면	-9.6324
부분에	-9.63271
▁롤러	-9.63366
▁반복	-9.63377
▁단순과실로	-9.63439
▁인양하여	-9.63449
▁안전사고	-9.63481
빔을	-9.63496
발	-9.63497
▁발에	-9.63535
▁세	-9.63641
▁협착사고	-9.63705
기를	-9.63823
▁용접작업	-9.63862
▁정상	-9.64006
▁충돌한	-9.64155
▁압력	-9.64232
▁일반적	-9.64288
▁옮겨	-9.64299
▁신호체계	-9.64303
▁설계변경	-9.64305
▁답단	-9.64389
▁각목	-9.64418
▁연결핀	-9.64432
▁발견하지	-9.64449
▁높은	-9.6445
▁고장	-9.64466
▁차량에	-9.6452
▁의견서	-9.64638
▁목수	-9.64722
▁삐끗	-9.64818
아래로	-9.64891
▁반대편	-9.64914
▁비계공	-9.64941
파일	-9.64959
▁이동식비계	-9.65027
▁근육	-9.65168
들	-9.65197
라고	-9.6521
감	-9.65288
▁전방주시	-9.65297
부위가	-9.65353
▁손목을	-9.65524
손	-9.65546
▁정확	-9.65661
▁외부비계	-9.65675
▁미끄러짐으로	-9.65694
자가	-9.65736
▁방망	-9.65967
▁싣고	-9.65994
▁부적절	-9.65994
▁있었으나	-9.65997
▁해체한	-9.66022
▁세그먼트	-9.66085
기준	-9.66102
▁작업반장	-9.66103
▁잭	-9.66238
▁탈락되어	-9.66242
측	-9.66278
▁올려	-9.66343
거리	-9.66361
▁고정핀	-9.66367
▁교대	-9.66386
c	-9.66427
▁소견	-9.66669
▁튕기	-9.66691
라인	-9.66719
▁출입문	-9.66749
▁비치	-9.67027
▁접	-9.67043
▁거푸집과	-9.6711
산업	-9.67137
▁장비가	-9.67235
▁금일	-9.67285
위험	-9.67369
▁몸이	-9.67491
른	-9.67616
▁더	-9.6766
▁가이드	-9.67705
▁뛰어내려	-9.67711
▁누전차단기	-9.67718
▁뚜껑	-9.67718
▁원활	-9.67719
▁다만	-9.67774
▁우수	-9.67807
▁뒷꿈치	-9.6781
▁말려들어가	-9.67934
▁케이지	-9.67974
▁풀려	-9.68085
▁못해	-9.68138
핀	-9.6825
입니다	-9.68336
▁서울	-9.68411
설	-9.68493
▁조명	-9.68503
▁이탈하여	-9.68566
지하	-9.68598
단에서	-9.68706
▁노	-9.68859
▁서로	-9.68966
▁부근에서	-9.69014
해진	-9.69072
처리	-9.69169
▁여	-9.69205
▁출입금지	-9.69256
▁붙어	-9.69259
▁강구	-9.69351
▁불가	-9.69358
▁내려가던	-9.6936
축	-9.69429
▁빗물	-9.69472
▁유해가스	-9.69477
▁각각	-9.69509
▁안전대책	-9.69524
▁인양고리	-9.69526
▁어	-9.69555
▁하도급업체	-9.69582
▁그레이팅	-9.69593
▁90	-9.69601
▁마스트	-9.69622
▁문틀	-9.69736
추정	-9.69771
▁수요일	-9.69779
▁올라	-9.69848
▁내리	-9.69884
▁용기	-9.69953
▁굴착작업	-9.69992
으나	-9.70015
▁앙카	-9.70049
▁미끄럼	-9.70179
▁토사를	-9.70181
▁증가	-9.70233
▁낙상사고	-9.70315
▁정리하던	-9.70331
▁정한	-9.70418
▁몸을	-9.70437
조치를	-9.70443
▁일어나	-9.70485
상황	-9.70559
것을	-9.70573
압	-9.70646
-2	-9.70665
▁산	-9.7088
브	-9.71056
▁타격한	-9.7113
▁방치	-9.71191
내려오면서	-9.71197
▁인상	-9.71199
병	-9.71237
▁찍힘	-9.71259
▁자신	-9.71278
▁상호	-9.7131
▁아침	-9.71357
▁코어	-9.71392
▁주장함	-9.71396
부분을	-9.71406
▁주차장에서	-9.71452
beam	-9.71503
▁금이	-9.71516
년생	-9.71589
되며	-9.71616
▁주행	-9.71666
▁적	-9.71672
▁서서	-9.71746
▁이상인	-9.71976
때	-9.72046
날	-9.72122
▁사람	-9.72469
▁끼이	-9.72487
▁시점	-9.72487
래	-9.72505
▁설치하던	-9.72618
▁대해	-9.72845
G	-9.72926
속도	-9.72938
▁원형	-9.72949
▁내에	-9.72959
주간	-9.72996
▁엔진	-9.73044
파	-9.73059
▁방수작업	-9.73066
▁작업지휘자	-9.73089
▁지렛대	-9.73119
▁인근에서	-9.73133
▁허리통증	-9.73142
▁대구	-9.73174
▁시설물	-9.73186
▁안전로프	-9.73206
시켜	-9.73207
X	-9.73217
▁방지망	-9.73253
▁둥근톱	-9.73294
r	-9.73333
▁35	-9.73361
채	-9.73362
Beam	-9.73387
▁가로보	-9.73409
▁플레이트	-9.73425
▁이상으로	-9.73491
▁양쪽	-9.73514
▁공종	-9.73554
▁쌓기	-9.73649
▁단면	-9.7373
▁집	-9.73783
▁비계에서	-9.74036
▁이동하던중	-9.74312
▁근접	-9.74312
법	-9.74323
▁지속적	-9.74339
립	-9.74714
▁최소	-9.74777
▁세우기	-9.74859
▁접질러	-9.74927
▁리더	-9.74932
▁말려	-9.74935
▁달비계	-9.74935
▁병원진료	-9.74944
▁형틀작업	-9.74961
이동	-9.74976
▁이동식크레인	-9.74978
▁창상	-9.74984
▁직원	-9.75
▁인	-9.75003
▁정확히	-9.75009
▁작업시작	-9.75027
슬라브	-9.75031
▁엄지발가락	-9.75033
▁뒷걸음질	-9.75038
▁대퇴부	-9.75085
▁유공발판	-9.75146
▁이용해	-9.75216
▁외측	-9.75221
▁수직도	-9.75242
▁대해서	-9.75313
▁베이	-9.75321
▁수립하고	-9.75362
▁평가	-9.75442
▁폭발	-9.75575
국	-9.75674
▁외부로	-9.75684
▁비계파이프를	-9.75687
▁하였으며	-9.7572
▁지급	-9.7604
▁철물	-9.76074
5.	-9.76119
▁시야	-9.76145
▁불안전	-9.76251
습니다	-9.76307
격	-9.76431
▁발코니	-9.76472
▁불꽃	-9.7648
▁잔여	-9.76498
6.	-9.76515
▁굴착공사	-9.76534
사다리	-9.76596
▁상처	-9.76639
▁시공중	-9.76673
▁경험	-9.76728
제거	-9.76786
▁불구하고	-9.76815
▁생각	-9.76816
▁숙지	-9.76819
▁부주위	-9.76822
▁추락방지망	-9.76834
▁재해자와	-9.76865
▁전도로	-9.76903
▁설계에	-9.76931
급	-9.76972
▁전면	-9.76983
▁프레임	-9.77003
▁판단하여	-9.77015
▁스라브	-9.77017
▁기능	-9.77028
▁해체하는	-9.77066
집	-9.77075
▁치수	-9.77076
난	-9.77119
▁작업진행	-9.77124
품	-9.77138
무엇을	-9.77232
어떻게	-9.77232
▁강관파이프	-9.7729
청	-9.77318
(5	-9.77374
▁턱	-9.7753
인치	-9.77578
▁포설	-9.77635
e	-9.77739
▁내려놓	-9.77739
방지를	-9.77759
▁착용한	-9.77778
크	-9.77781
▁장소로	-9.77792
▁대비하여	-9.77876
개가	-9.77958
▁일을	-9.7797
▁벽면	-9.77991
▁마대	-9.77994
▁멈추	-9.78069
공장	-9.78204
▁컷팅	-9.78251
▁고려한	-9.7827
▁타공	-9.78391
▁골절사고	-9.78445
▁고정작업	-9.78449
▁부터	-9.78552
▁수중	-9.78603
▁느낌	-9.78738
▁실린더	-9.7874
▁산재처리	-9.78754
▁식사	-9.78754
▁빠지며	-9.78765
▁두번째	-9.78767
▁인양할	-9.78768
▁망치질	-9.78773
장에서	-9.78781
▁부착설비	-9.7879
▁개방	-9.78797
라이	-9.78814
▁철근사이	-9.78815
▁이때	-9.78857
▁의사	-9.78858
입	-9.78885
▁고압	-9.78895
2)	-9.78909
▁검사결과	-9.78913
▁모래	-9.78932
계단	-9.78944
▁안정	-9.78959
▁2021.	-9.78963
▁내린	-9.78966
▁인양중	-9.78975
▁몰탈	-9.78977
▁관리자	-9.79022
▁보고함	-9.79042
▁추진관	-9.79062
▁선회	-9.7909
코	-9.79094
▁시공사	-9.79153
▁배치하고	-9.79177
▁도중에	-9.79235
▁석공사	-9.79327
하려다	-9.79338
▁걸리	-9.79426
▁유입	-9.79474
▁휀스	-9.79676
▁지하수	-9.79812
방향으로	-9.79894
▁곳에서	-9.79972
▁작용	-9.80007
티	-9.80065
광	-9.8008
막	-9.80128
▁지면서	-9.80487
▁절단중	-9.80547
▁제거하기	-9.80568
▁벌목	-9.80627
▁제거하고	-9.80629
님	-9.80694
▁갑작스	-9.80698
▁건드려	-9.80699
▁경기도	-9.80699
▁방음벽	-9.807
▁흔들려	-9.80701
▁암반	-9.80705
NA	-9.80712
▁물건	-9.80723
▁미끄러운	-9.80727
▁안정성	-9.80757
빔에	-9.80789
▁직영	-9.80791
▁분전반	-9.80804
통로	-9.80838
피	-9.80862
▁해머	-9.80862
므로	-9.80881
▁오수관로	-9.80883
▁업무상	-9.8092
▁이동중에	-9.80952
▁1>	-9.80954
▁자동	-9.80981
부재	-9.80995
합판	-9.81227
▁두부	-9.81233
▁STA	-9.81379
▁사용시	-9.81418
▁담	-9.81442
▁○	-9.81603
골	-9.81839
▁옥상에서	-9.81889
▁부설	-9.81952
▁소형	-9.81979
▁상부의	-9.82018
▁각도	-9.82059
▁근로자와	-9.82193
▁복도	-9.82251
ME	-9.82335
▁잡	-9.82375
▁풍속	-9.82412
▁적재함에	-9.82417
간의	-9.82487
힌	-9.8266
▁부득이	-9.82699
▁정격하중	-9.82701
▁배합	-9.82705
▁PS	-9.82714
▁포크레인	-9.82717
▁걸린	-9.82717
▁인식	-9.82733
▁철근자재	-9.82737
▁힘줄	-9.82751
▁경사진	-9.82762
▁슬리브	-9.82838
중에	-9.82847
블록	-9.82929
▁운반작업	-9.82941
▁사고원인	-9.82984
▁연장	-9.8302
▁전문가	-9.83083
▁비트	-9.83105
노	-9.83147
▁운반구	-9.83183
(***)	-9.83201
▁건설	-9.83303
보고	-9.83375
▁반경	-9.83379
▁공장	-9.8346
▁수립하여	-9.83476
이라	-9.83496
▁사망한	-9.83504
▁창문	-9.83512
▁위치에서	-9.83722
▁범위	-9.83795
▁80	-9.83815
▁돌출	-9.83838
▁헛	-9.83865
▁벽체철근	-9.83894
▁양손	-9.84163
▁준비중	-9.8418
▁조립중	-9.84249
▁무리가	-9.84253
▁구성	-9.84542
▁진단서	-9.84545
락	-9.84579
공간	-9.84605
런	-9.84606
▁상단부	-9.84629
▁부석	-9.84658
▁밀	-9.84683
킬	-9.8472
▁쌓아	-9.84734
▁빠짐	-9.8474
▁처짐	-9.8474
▁응급처치	-9.8474
▁분진	-9.84749
▁장착	-9.84757
▁넘어지지	-9.84781
er	-9.84808
▁추정됨	-9.84817
▁부딪히며	-9.84842
▁경미한	-9.84881
▁탈형	-9.84896
▁작동상태	-9.8495
▁강관비계	-9.85016
▁삼	-9.85036
▁정기적	-9.85055
검사	-9.85204
▁골조	-9.8521
걸	-9.85348
▁소지	-9.85354
▁조건	-9.85424
▁알	-9.85447
▁게이트	-9.85448
▁담당자	-9.85457
▁합벽	-9.85591
▁면	-9.85715
▁미처	-9.85719
▁절단작업중	-9.85921
▁설치상태	-9.86086
E	-9.86106
▁가격한	-9.86294
▁사항에	-9.86386
링	-9.86389
▁15:00	-9.86472
▁보일러	-9.86501
▁당한	-9.86549
처	-9.86598
▁고려	-9.8663
▁오른	-9.86651
▁누가	-9.86654
▁작업발판이	-9.86707
▁공급	-9.86788
▁위험성평가	-9.86823
▁커터칼	-9.86824
▁진찰	-9.86824
▁주지시켜야	-9.86834
▁척추	-9.86854
▁캐노피	-9.86872
▁합벽지지대	-9.86876
▁접질려	-9.86881
▁풀리면서	-9.86891
▁노출	-9.86905
▁사다리에	-9.86979
좌측	-9.87026
▁내원	-9.87055
▁받아야	-9.87064
▁용역	-9.87073
▁****	-9.871
▁PVC	-9.87128
▁설치공사	-9.87142
▁근로	-9.87165
▁암	-9.87201
▁점심식사	-9.87263
▁바닥이	-9.87311
▁빼내	-9.87316
▁밴딩기	-9.87342
▁파편이	-9.87366
크레인	-9.87371
추락	-9.87418
▁절단하던	-9.8744
기간	-9.87449
▁해야	-9.87465
▁궤도	-9.87539
▁포함한	-9.87607
▁불승인	-9.87618
▁집중	-9.87845
▁화기작업	-9.87972
하고자	-9.88032
▁구조적	-9.88056
▁바퀴에	-9.88077
▁안전관리자	-9.88126
보니	-9.88131
▁페인트	-9.88179
▁추락하는	-9.88292
▁교통	-9.88319
▁G	-9.88368
중지	-9.88481
개발	-9.88484
▁운반하여	-9.88486
지반	-9.8849
▁손톱	-9.88542
▁뼈가	-9.886
▁응급	-9.8863
루	-9.88649
▁의견	-9.88776
인양	-9.88787
▁타설시	-9.88812
▁중심	-9.88854
▁타박	-9.88882
▁강널말뚝	-9.88951
▁모두	-9.88953
▁이물질이	-9.88957
▁위험요소	-9.88959
▁오피스텔	-9.89001
▁작업하다	-9.89024
▁체인블럭	-9.8905
▁근골격계	-9.8913
▁쓰레기	-9.89131
▁단계별	-9.892
점검	-9.89204
▁요추	-9.89208
▁디뎌	-9.89296
▁지나	-9.89385
▁예	-9.89386
▁다발	-9.89451
버	-9.89498
정거장	-9.89528
▁철근콘크리트	-9.89545
▁내려가다	-9.89549
▁도장작업	-9.89701
▁뛰어내리다	-9.89731
▁용접기	-9.89885
▁x	-9.89888
타	-9.8997
60	-9.90017
▁될	-9.90128
▁관계자	-9.90134
▁망	-9.90163
▁배면	-9.90172
내부	-9.90204
되고	-9.90231
▁되었음	-9.9029
▁미세골절	-9.90305
▁기둥에	-9.90414
▁당사	-9.90458
▁계측기	-9.90512
▁누	-9.9053
▁내측	-9.90695
▁부상자	-9.90721
▁치료중	-9.90855
▁결빙	-9.90883
▁개구부에	-9.90892
▁해체하고	-9.909
▁지점에서	-9.90977
▁연	-9.91017
상의	-9.91104
▁R	-9.91113
▁필로티	-9.91124
▁경로	-9.91152
센티미터	-9.91156
▁이마	-9.91206
▁차량계	-9.91228
▁해치발판	-9.91255
▁측량	-9.91271
▁철수	-9.91271
▁살수	-9.91304
▁현장으로	-9.91332
▁실내	-9.91398
▁잠시	-9.91409
▁총	-9.91414
▁형식	-9.91445
▁철	-9.91457
▁타워	-9.91462
호스	-9.91504
▁지장이	-9.91578
▁클	-9.91595
▁이설	-9.91615
기지	-9.91632
▁발생하였습니다	-9.91643
▁곳으로	-9.91655
위험이	-9.91691
▁외상	-9.91693
▁구급차	-9.91804
▁동안	-9.91846
o	-9.91887
▁감시	-9.9192
▁신축공사현장	-9.9192
▁직후	-9.91923
▁요인	-9.92037
▁내려와	-9.92062
▁레벨	-9.92083
▁영	-9.92098
▁14:00	-9.92129
하면	-9.92257
▁건립공사	-9.92393
▁올리는	-9.92425
▁별	-9.92473
▁1,2	-9.92516
개월	-9.92584
▁거	-9.92645
▁관리감독	-9.92656
▁소요	-9.92692
▁현장내에서	-9.92799
▁안전관리	-9.92832
2020	-9.92995
▁건설현장	-9.93045
▁신호에	-9.93087
▁여러	-9.93129
▁세륜기	-9.93139
▁구조검토	-9.93165
▁벨트	-9.93175
시키고	-9.93245
▁알려	-9.93312
▁밴딩	-9.93314
▁견딜	-9.93347
▁자바라	-9.93347
▁무릅	-9.93348
▁새끼발가락	-9.93349
▁금속	-9.93352
▁보도블럭	-9.93352
▁판단됨	-9.93422
▁파라펫	-9.93433
▁증축공사	-9.93439
▁가능성	-9.93477
▁저수조	-9.93501
▁보완	-9.93505
▁자리	-9.93518
▁주어	-9.93525
▁기둥철근	-9.93551
▁토질	-9.93558
▁작성하고	-9.93601
▁옆에서	-9.93613
아래	-9.93619
▁파렛트	-9.93638
▁시행하여야	-9.93857
▁야간작업	-9.93863
▁열	-9.93865
▁용량	-9.93906
▁가슴부위	-9.93983
▁스카이	-9.93986
▁지게차로	-9.93989
▁비계에	-9.9402
평	-9.94033
▁지속	-9.94076
로서	-9.94078
i	-9.94123
▁조립된	-9.94144
매	-9.94149
▁OO	-9.94165
주변	-9.94214
외부	-9.94263
▁조적작업	-9.94324
▁예상	-9.94382
▁통과	-9.94485
상태에서	-9.94577
▁방	-9.94582
▁설치하거나	-9.94587
▁내려가는	-9.94834
▁비계발판	-9.94838
▁잡은	-9.94975
▁***(	-9.95007
설치를	-9.95008
하였다고	-9.95074
▁일정	-9.95466
시킨	-9.95589
▁곤란	-9.95619
▁유압잭	-9.95621
▁배선	-9.9565
▁골재	-9.95656
생	-9.95684
▁탈락되면서	-9.95719
▁지붕판넬	-9.9572
▁끝이	-9.95752
▁진행하던	-9.95766
▁일용근로자	-9.95863
▁지내력	-9.95883
▁소통	-9.95886
▁표지판	-9.95949
▁야적장에서	-9.95956
▁요	-9.95973
하자	-9.96041
▁주지	-9.96106
▁수직으로	-9.9615
▁스킬	-9.96186
▁맞은	-9.96291
▁반장	-9.96297
는데	-9.96339
▁커버	-9.96343
▁두께	-9.96412
말비계	-9.96471
수평	-9.96562
▁해체하던	-9.96617
▁아	-9.96749
▁코	-9.96795
▁타이	-9.96871
당시	-9.96906
▁이하로	-9.96995
▁뛰어내리	-9.9721
되	-9.97362
구조	-9.97383
▁홍	-9.97515
▁전기톱	-9.97596
▁노후	-9.97613
면에	-9.97659
▁내리다	-9.9777
들이	-9.97807
▁유의	-9.97857
된다	-9.97864
▁건축	-9.97868
▁갖추어	-9.9787
▁지정하여	-9.97938
▁Area	-9.97945
▁근입	-9.97949
▁지반침하	-9.97955
▁문제	-9.97972
▁작업준비	-9.98002
▁착용하였으나	-9.98055
▁상하	-9.98074
되어있던	-9.98081
▁여건	-9.98083
▁작업지시	-9.98165
(10	-9.98195
▁유발	-9.9823
▁팔에	-9.98249
=	-9.98267
▁이용하지	-9.9829
▁파손되어	-9.98317
▁광주	-9.98416
▁물이	-9.98448
카	-9.98488
▁계단참	-9.98618
▁고정하기	-9.98636
▁뼈	-9.98797
헤드	-9.98813
왜	-9.98821
▁짚	-9.98828
▁작업완료	-9.98915
▁순서에	-9.99
▁고정되어	-9.99162
▁마	-9.99247
▁저	-9.99269
▁변형이	-9.99298
지면서	-9.99309
▁거푸집해체	-9.99339
▁생명줄	-9.99422
▁사용중	-9.99438
▁진	-9.99444
두	-9.99459
▁창틀	-9.99505
▁쪽	-9.99535
▁전일	-9.99592
▁배관이	-9.99631
▁본체	-9.99691
▁좌	-9.99696
공사중	-9.99749
병원에	-9.99887
▁점심식사를	-9.99916
▁입니다	-9.99967
▁올라가다	-10.0008
착	-10.0015
겨	-10.0024
▁있었음	-10.0032
▁쏠리	-10.0033
▁슬라이딩	-10.0033
▁생긴	-10.0033
▁있으며	-10.0036
▁북측	-10.0036
▁손상이	-10.0036
▁상판	-10.0037
▁가설구조물	-10.0038
▁안전보건작업	-10.0039
▁넣어	-10.0042
▁구체적	-10.0048
▁스쳐	-10.0049
▁광	-10.005
▁퇴사	-10.005
▁난간대에	-10.0056
▁안된다	-10.0062
▁가연성	-10.0064
▁제한	-10.0071
▁타이어	-10.0071
▁슈트	-10.0074
▁있어서	-10.0081
▁해체시	-10.0081
▁확보하고	-10.0089
p	-10.0091
되었음	-10.0104
▁스	-10.0109
▁기초철근	-10.011
▁고정되지	-10.011
단으로	-10.0118
▁부산	-10.0119
치료	-10.0122
▁옥상층	-10.0132
▁수상	-10.0144
소재	-10.0145
프	-10.0146
▁근로자들	-10.0158
▁부재에	-10.016
▁맞는	-10.0166
▁코킹	-10.0177
▁잡는	-10.0179
▁가량	-10.0185
▁않을	-10.0187
▁미숙으로	-10.019
▁올려놓	-10.0207
▁초기	-10.0213
▁초	-10.0216
▁정형외과	-10.022
▁발판과	-10.0235
▁동료와	-10.0252
▁구역	-10.0254
▁올라가는	-10.0256
▁안전보건	-10.0265
▁작은	-10.0271
▁시험	-10.0272
▁온	-10.0273
▁매몰	-10.0274
OO	-10.0276
▁토압	-10.0277
▁박리제	-10.0277
▁우레탄폼	-10.0277
▁주출입구	-10.0278
▁악천후	-10.0278
▁소방배관	-10.0278
▁자격	-10.0278
▁걸림	-10.0278
▁다쳤다고	-10.0278
▁일원	-10.0282
▁비상	-10.0282
▁주시	-10.0284
종합건설	-10.0284
가닥	-10.029
▁하여금	-10.029
▁피트	-10.0291
▁노면	-10.0293
▁대비	-10.0295
▁계산	-10.0298
▁측구	-10.03
▁트렌치	-10.0301
▁상수도	-10.0302
▁스트러트	-10.0305
▁잡으려다	-10.0311
▁재질	-10.0317
y	-10.0326
▁덮개가	-10.0328
▁100	-10.0338
▁고정상태	-10.0344
덕	-10.035
▁소장	-10.0352
▁작업통로	-10.0361
굴착	-10.0363
▁작용하	-10.0368
▁철근과	-10.037
氏	-10.0372
▁충격에	-10.0375
▁경우에	-10.0378
▁동료근로자	-10.0378
우마	-10.038
승인	-10.0383
일까지	-10.0384
부의	-10.0392
▁도구	-10.0395
▁할석	-10.0398
▁뒤쪽	-10.04
▁사용한	-10.0412
▁공	-10.0429
▁도포	-10.0429
▁고정하고	-10.0429
▁땅	-10.0455
▁70	-10.0461
타설	-10.0466
▁밀어	-10.0466
▁식재	-10.0471
N	-10.0475
▁업체	-10.0496
▁없다	-10.0504
▁상가	-10.0509
달	-10.0509
▁전용	-10.0515
재를	-10.0517
▁긴급	-10.0519
칭	-10.0524
▁붙잡	-10.0526
▁왼팔	-10.0526
탑재형	-10.0527
▁견디	-10.0527
▁잔디	-10.0527
ton	-10.0527
▁보험가입자	-10.0528
▁기울어져	-10.0528
▁움직이	-10.0529
▁세워져	-10.053
▁백호우	-10.053
▁없으며	-10.0531
▁금지시켜야	-10.0533
▁우레탄	-10.0535
호선	-10.0536
▁전날	-10.0537
▁풀고	-10.0541
▁구분	-10.0542
차도	-10.0545
신호	-10.0551
▁제거하던	-10.0557
▁고소작업차	-10.0558
▁추후	-10.056
망	-10.0563
▁온도	-10.0564
▁추락하였음	-10.0564
등을	-10.058
▁인천	-10.0583
▁출근하여	-10.0583
▁3.5	-10.0586
▁있지	-10.0591
▁작업발판에	-10.0595
-4	-10.0596
▁튕기면	-10.0615
▁가해	-10.0622
▁표면	-10.0623
철거	-10.0623
▁지휘하	-10.0623
작업시	-10.0623
▁속	-10.0623
▁연락을	-10.0625
업	-10.0631
뒤	-10.0634
안전모	-10.0634
▁연결하는	-10.0637
▁팔이	-10.0647
름	-10.0657
▁빠루	-10.0661
술	-10.0664
▁설계서	-10.0672
▁점검하여	-10.0673
각재	-10.0674
▁확인할	-10.0683
%	-10.0687
▁방지조치	-10.0713
▁정차	-10.0715
▁전주	-10.072
▁지정병원	-10.072
가해져	-10.0721
▁막장	-10.0729
▁첫	-10.077
▁뒷걸음	-10.0773
▁주위에	-10.0774
▁회전근개	-10.0778
▁알루미늄	-10.0778
▁걸이	-10.0781
RAY	-10.0782
▁핸드카	-10.0782
▁슬립폼	-10.0783
▁흉부	-10.0783
▁지브	-10.0785
▁치아	-10.0785
▁토공	-10.0785
▁번째	-10.0787
▁15:30	-10.0787
▁칼날	-10.0787
▁튕겨져	-10.0788
▁회전체	-10.0789
▁110	-10.0789
▁전도사고	-10.079
▁신호방법	-10.0793
▁깔려	-10.0796
▁장선	-10.0796
▁진술	-10.0796
▁TBM	-10.0797
▁퇴행성	-10.0797
▁있다가	-10.0797
▁시트파일	-10.0797
▁대형	-10.08
▁브레이커	-10.0801
▁홈	-10.0802
▁하도급사	-10.0803
▁목재가	-10.0804
▁보거푸집	-10.0807
▁2>	-10.0813
▁조임	-10.0815
쪽에	-10.0817
▁준수하여	-10.0817
▁패드	-10.0821
▁들	-10.0829
▁대기중	-10.0834
개의	-10.0837
▁묶음	-10.0839
▁생기	-10.0839
▁묶	-10.0843
▁연속	-10.0843
▁너트	-10.0845
▁BT	-10.0845
▁주장하는	-10.0845
▁환경	-10.0851
친	-10.0856
변	-10.0861
합	-10.0862
침	-10.0864
▁되었습니다	-10.0865
▁내려놓는	-10.0865
▁인원	-10.0866
▁없고	-10.087
▁완료하고	-10.087
▁과정중	-10.0873
▁이격	-10.0878
편	-10.0883
▁써포트	-10.0892
▁이음부	-10.0909
하러	-10.092
부상	-10.0925
▁사용을	-10.0927
▁유출	-10.0934
▁로프에	-10.0953
고리	-10.0953
가량	-10.0961
단지	-10.0964
▁건축공사	-10.0972
▁머리에	-10.0979
▁묶어	-10.0981
▁창	-10.0982
▁ᄋᄋᄋ	-10.0994
▁작성하여	-10.1007
▁강관파이프를	-10.1027
▁밟으면	-10.1029
▁접합부	-10.1037
a	-10.1042
▁이루어지	-10.1044
▁편심	-10.1046
▁닿아	-10.1046
밍	-10.1046
▁살짝	-10.1046
▁부담	-10.1047
▁짚음	-10.1048
▁과다	-10.105
반장	-10.1051
▁충전전로	-10.1052
▁우측발목	-10.1053
▁견출	-10.1053
▁지형	-10.1058
▁하수관로	-10.106
▁묻은	-10.106
▁건설용	-10.1061
옆	-10.1063
▁맨홀뚜껑	-10.1064
보수	-10.1067
▁특별	-10.1068
▁승강용	-10.107
▁하였습니다	-10.1072
순서	-10.1078
▁장비기사	-10.1078
▁적합	-10.1079
▁탈락으로	-10.1081
▁저하	-10.1081
▁방호조치	-10.1083
▁먹	-10.1084
▁당기는	-10.1088
▁현황	-10.1089
▁이동할	-10.1091
▁중단	-10.1091
▁출혈	-10.1099
▁들어올리는	-10.11
▁조립도	-10.1109
▁개	-10.1112
▁준	-10.1112
▁체결상태	-10.1118
▁뼈에	-10.1118
▁작업대에서	-10.1121
▁하단부	-10.113
▁치	-10.1144
▁했으나	-10.1151
▁물체	-10.1155
▁55	-10.116
철골	-10.1164
대책	-10.1166
▁인근에	-10.1179
작	-10.1182
▁무너지	-10.1191
▁112	-10.1202
▁리어카	-10.1217
▁밀폐공간	-10.1224
▁한국	-10.1234
했다고	-10.1242
원인	-10.1266
지지	-10.1269
▁연결부위	-10.1271
▁운반시	-10.1272
단계	-10.1276
전도	-10.1284
▁공사용	-10.1285
지점에서	-10.129
▁형태	-10.1292
▁가해지	-10.1293
▁배관공	-10.1301
▁피난	-10.1305
▁스크류	-10.1315
▁가운데	-10.1316
▁부딛혀	-10.1316
▁추락방호망	-10.1316
▁스스로	-10.1316
▁잭서포트	-10.1317
▁승하강	-10.1317
▁연약지반	-10.1317
형측구	-10.1317
▁빔을	-10.1318
▁급격	-10.1319
2021	-10.1325
▁안전점검	-10.1325
▁전도되며	-10.1326
▁왼쪽다리	-10.1329
▁감독	-10.1333
▁골조공사	-10.1333
▁2~3	-10.1334
▁규칙	-10.1335
▁방호장치	-10.1342
▁인대파열	-10.1344
▁조인트	-10.1348
내용	-10.1349
이므로	-10.1349
교육	-10.1352
▁피복	-10.136
▁앞쪽	-10.1363
둔	-10.1363
▁있다고	-10.1366
▁상태임	-10.1378
▁용이	-10.1382
기에	-10.1388
▁절곡	-10.1392
울	-10.1401
▁구간에	-10.141
>	-10.1412
돌	-10.1414
▁수량	-10.1417
▁올라가서	-10.1421
민	-10.1429
▁발판으로	-10.1437
▁정하여	-10.144
KOSHA	-10.1444
청소	-10.1445
▁창고	-10.1446
손상	-10.145
▁용접공	-10.1464
▁지연	-10.1468
▁운전원과	-10.1474
함에	-10.1483
하되	-10.1506
되면	-10.1518
▁수평재에	-10.1523
▁파쇄	-10.1528
▁오거	-10.1532
▁근처에	-10.1537
▁시공자	-10.1539
▁이동하면서	-10.1544
▁배출	-10.1554
이엔씨	-10.1561
▁식별	-10.1566
▁현장사무실	-10.1577
▁점화	-10.1586
엔	-10.1586
▁쐐기	-10.1587
▁우물통	-10.1594
▁낮은	-10.1594
▁인테리어	-10.1594
▁복귀	-10.1594
▁기술지침	-10.1594
▁불필요	-10.1594
▁최하단	-10.1595
▁지하수위	-10.1595
▁수술을	-10.1596
▁어려	-10.1596
▁소정	-10.1599
▁날카로운	-10.1601
▁구조체	-10.1601
▁굴삭기로	-10.1602
▁삐끗함	-10.1602
▁왼쪽발목	-10.1602
▁이행	-10.1603
▁10:30	-10.1605
▁모르타르	-10.1605
▁마모	-10.1607
▁제품	-10.1609
▁네번째	-10.1614
▁작업선	-10.162
인지	-10.162
▁때까지	-10.162
▁사용하	-10.1623
▁쇄골	-10.1624
▁재설치	-10.1626
▁강우	-10.1626
▁밑에	-10.1631
▁재해예방	-10.1631
-6	-10.1635
▁절단하는	-10.1635
▁조도	-10.1635
▁식당	-10.164
이다	-10.1642
앞	-10.165
▁조립식	-10.1652
▁서측	-10.1663
▁작업내용	-10.1664
불량	-10.1665
행	-10.1665
▁양수작업	-10.1666
▁운반하기	-10.167
▁고려하여야	-10.1672
▁방화문	-10.1675
▁팀장	-10.1677
사실	-10.1681
▁플랜트	-10.1683
▁기울	-10.1685
▁표	-10.1691
제작	-10.1698
려다	-10.1701
▁전화	-10.1708
▁작업간	-10.1715
▁현장정리	-10.1718
▁나와	-10.1725
빠루	-10.1729
형틀	-10.1732
▁기준으로	-10.1744
▁혼합	-10.1767
▁올리	-10.1769
▁진입로	-10.178
▁신청인	-10.1789
▁해체후	-10.1789
르	-10.1796
▁좌우	-10.1798
▁복합	-10.1798
▁종아리에	-10.1803
▁화	-10.1808
▁작업반경내	-10.1811
흥	-10.1817
▁작업발판으로	-10.1818
▁하중에	-10.1819
조건	-10.1819
업무	-10.1825
▁상수도관	-10.1829
사고발생	-10.1834
▁트레일러	-10.1848
▁소화	-10.185
▁속도	-10.185
▁작업구역	-10.1862
▁발뒤꿈치	-10.1864
▁기대	-10.1878
팅	-10.1878
작업발판	-10.1878
▁고체연료	-10.1879
▁찧음	-10.188
▁통원치료	-10.188
▁깔린	-10.188
▁줄파기	-10.188
▁추돌	-10.188
▁공도구	-10.188
▁미끄러워	-10.188
▁엄지말뚝	-10.1881
▁흙막이가시설	-10.1881
▁화재예방	-10.1882
▁굴착사면	-10.1882
▁발이걸려	-10.1883
▁기울어지면서	-10.1885
▁분배기	-10.1886
▁산업안전보건법	-10.1887
▁믹서	-10.189
▁화재발생	-10.189
▁아스콘	-10.1891
▁주철관	-10.1891
▁구명줄	-10.1892
▁교사동	-10.1893
▁받지	-10.1894
▁공동구	-10.1897
▁지병	-10.1906
▁탑승하여	-10.1906
▁돌풍으로	-10.1908
▁빼는	-10.1909
▁올라가던중	-10.1911
하였	-10.1912
▁일정한	-10.1913
▁가던	-10.1918
▁내리던중	-10.1918
▁추락재해	-10.192
▁설비배관	-10.1931
▁제거한	-10.1936
▁건설현장에서	-10.1945
▁양중기	-10.1949
▁톱	-10.195
▁고리에	-10.1955
▁볼	-10.1956
▁돌에	-10.1961
▁체결하고	-10.1971
했	-10.1974
▁신호수가	-10.1974
▁해체하기	-10.1976
▁경사지	-10.1978
▁중지하고	-10.1985
▁작동하여	-10.1987
힘	-10.199
▁용접작업을	-10.1994
▁세대내	-10.1995
▁연결작업	-10.1998
덮개	-10.2012
철판	-10.2017
물을	-10.2022
▁중심이	-10.2022
지지대	-10.2025
오른쪽	-10.2025
▁좌측발	-10.2028
단부	-10.2033
▁*	-10.2048
▁말	-10.2052
▁?	-10.2058
▁예상되	-10.2071
▁아래에	-10.2074
▁공사장	-10.2089
▁소방	-10.2104
▁운영	-10.2118
w	-10.2118
▁길	-10.2119
▁설정	-10.2126
▁부착하여야	-10.2139
▁신축현장	-10.2144
령	-10.2145
▁절삭	-10.2159
▁봉합	-10.2163
촌	-10.2172
▁의거	-10.2173
초등학교	-10.2173
▁도급인	-10.2174
▁엑스레이	-10.2174
▁톤마대	-10.2174
▁명확	-10.2174
▁함마드릴	-10.2174
▁휴업	-10.2174
▁오른팔	-10.2174
▁가설벤트	-10.2174
▁놓침	-10.2175
▁신축	-10.2175
▁풀림	-10.2175
▁감전재해	-10.2176
▁적당	-10.2177
▁있으나	-10.2177
▁지질	-10.2178
▁아스팔트	-10.2181
▁넣고	-10.2184
▁쓰러지면서	-10.2185
▁고압선	-10.2185
▁줄눈	-10.2186
35	-10.2186
▁헛딛여	-10.2188
▁파손되면서	-10.2191
철근에	-10.2192
▁들다가	-10.2193
▁회수	-10.2197
▁절단작업을	-10.2201
▁휴대용	-10.2203
▁초과하는	-10.2205
▁끝단	-10.2206
▁닫	-10.2214
▁놓는	-10.2215
형사다리	-10.2227
▁장비에	-10.2229
데크	-10.2231
▁보행중	-10.2232
▁맞추기	-10.2233
직	-10.2233
▁나무가	-10.2235
근로자가	-10.224
▁실금이	-10.2241
▁바닥판	-10.2253
▁안내	-10.2257
▁사고당일	-10.2257
가서	-10.2261
▁맞추어	-10.2268
▁톱날이	-10.2268
▁운반하던중	-10.2269
▁전도방지	-10.2272
▁조립하여야	-10.2284
되었	-10.2284
▁자체	-10.2286
▁휴식시간	-10.2288
과정	-10.2299
기사가	-10.2304
.2.	-10.2315
일간	-10.2319
▁풀	-10.232
▁크	-10.2327
비래	-10.2328
▁막	-10.2332
▁눌러	-10.2349
낙하	-10.2357
간격	-10.2368
▁측면에	-10.2369
▁타설공	-10.237
:10	-10.2375
▁낙석	-10.2386
▁자가	-10.2387
목재	-10.2396
▁재해자에게	-10.2398
공사를	-10.2405
▁버팀	-10.2406
▁까지	-10.2411
▁조종	-10.2416
▁시도	-10.2416
▁지반에	-10.2418
▁109	-10.242
▁]	-10.242
○	-10.2428
▁귀	-10.2435
▁현관	-10.244
▁제작장	-10.2457
액	-10.2466
▁당기던	-10.2467
▁잠수	-10.2473
느	-10.2477
▁곤돌라	-10.2477
▁지층	-10.2478
▁예인선	-10.2479
▁철제	-10.248
▁베인	-10.248
▁미인지	-10.2481
▁안전표지판	-10.2481
▁16:00	-10.2481
▁받치고	-10.2483
▁떨어져서	-10.2483
▁피하려다	-10.2484
▁수평연결재	-10.2484
▁잠금장치	-10.2485
손가락	-10.2485
▁이완	-10.2485
▁상황임	-10.2487
▁피해자가	-10.2487
▁파열됨	-10.2488
▁항발기	-10.2489
▁슬러지	-10.2489
▁제반	-10.249
▁철골부재	-10.2492
▁내리기	-10.2493
▁로우프	-10.2494
▁에어	-10.2494
다리	-10.2495
▁횡단	-10.2496
▁지붕층	-10.2496
▁간섭되	-10.2496
▁작업환경	-10.2499
▁휴식중	-10.2502
▁벤트	-10.2503
70	-10.2504
▁상세	-10.2508
▁미세	-10.251
▁찬넬	-10.2512
▁옮기던중	-10.2513
▁작업원	-10.2516
▁자재인양	-10.2524
▁지반이	-10.2525
▁경계	-10.2525
▁공장동	-10.2528
▁착용하	-10.2532
난간	-10.2533
▁작업도구	-10.254
▁움직여	-10.2543
모	-10.2544
빔이	-10.2544
▁패널	-10.2545
바닥에	-10.2552
▁능력	-10.2555
▁없는지	-10.2566
▁신고하여	-10.2569
▁설치시	-10.2571
동에서	-10.2573
▁구조로	-10.2573
▁협착되는	-10.2574
방식	-10.2576
▁감리자	-10.2577
▁치우	-10.2578
▁크레인이	-10.258
▁직	-10.2582
▁비계설치	-10.2583
▁승	-10.2584
▁파열된	-10.2589
못	-10.2597
▁긴	-10.2601
▁동시작업	-10.2606
와서	-10.2622
O	-10.2626
휀스	-10.2628
시스템	-10.2636
다른	-10.2646
밑으로	-10.2653
강도	-10.2659
▁외부에서	-10.2665
▁많이	-10.2674
▁작업자들	-10.2683
▁비계해체	-10.2692
되었고	-10.2696
▁배관에	-10.2708
▁보강작업	-10.2709
▁추	-10.2714
▁불이	-10.2718
▁박는	-10.2722
으므로	-10.2733
▁경위	-10.2743
▁설치위치	-10.2743
▁톱날	-10.2763
▁사유	-10.2782
염	-10.2783
▁선행	-10.2783
규	-10.2784
색	-10.2788
▁자택	-10.2789
▁PHC	-10.2789
▁부딛힘	-10.2789
▁젖은	-10.2789
▁좁은	-10.2789
▁떨어뜨려	-10.279
▁튀어올라	-10.2791
▁유의사항	-10.2791
▁미끄러저	-10.2791
▁물청소	-10.2791
▁미쳐	-10.2792
▁가설휀스	-10.2793
▁침	-10.2793
▁수로관	-10.2793
▁접히	-10.2797
▁비탈면	-10.2797
▁철골기둥	-10.2797
▁작업계획서에	-10.2798
광역시	-10.2799
▁2020.	-10.2799
▁가스관	-10.2799
▁깔리	-10.2804
▁지나가던	-10.2806
보강	-10.2811
▁있	-10.2813
▁있었고	-10.2814
▁지반상태	-10.2818
▁불어	-10.2819
▁강성	-10.2821
▁노출된	-10.2821
▁연골	-10.2827
▁안전망	-10.283
▁밟으	-10.2831
▁쇠	-10.2832
▁사고경위	-10.2832
인대	-10.2838
으로서	-10.2849
▁아시바	-10.285
▁낙하물에	-10.2855
▁1.7	-10.2858
▁소단	-10.2863
▁용	-10.2863
레	-10.2867
▁록	-10.2872
▁오르던	-10.2874
▁청	-10.2884
▁가설재	-10.2884
▁옮기다	-10.2885
걸이	-10.2886
▁접질리	-10.289
▁확인하기	-10.2901
▁골절을	-10.2904
▁움직이지	-10.2905
▁설계자	-10.2923
▁판	-10.2935
▁메	-10.2941
▁변	-10.2942
▁접질	-10.2946
예	-10.2946
담	-10.2948
▁작업하중	-10.2953
왼쪽	-10.2963
지붕	-10.2963
관련	-10.2963
백호	-10.2965
#2	-10.2967
건물	-10.2968
하강	-10.297
현상	-10.2977
나무	-10.2983
위험요인	-10.2987
▁작업중에	-10.3011
▁끝단부	-10.3014
▁이동간	-10.3017
▁목적	-10.3019
누가	-10.3043
▁가시설공	-10.3047
▁부속	-10.305
▁후진하던	-10.3052
▁제거하여야	-10.3054
▁해체공	-10.3054
▁보수작업	-10.3069
되기	-10.3075
존	-10.3086
▁절연	-10.3093
80	-10.3099
▁호흡	-10.3101
료	-10.3105
▁지역	-10.311
▁가급적	-10.3112
▁가설방음벽	-10.3112
▁덮어	-10.3112
▁미끌려	-10.3112
▁쉬트파일	-10.3112
▁천천히	-10.3112
▁현수교	-10.3112
▁잡지	-10.3112
▁꺽임	-10.3112
▁앵커볼트	-10.3112
▁없었으며	-10.3113
▁안전의식	-10.3113
▁안전밸트	-10.3113
▁세워둔	-10.3113
▁질식	-10.3113
▁개거	-10.3113
▁무너져	-10.3113
▁감겨	-10.3113
kgf	-10.3114
▁몸체	-10.3115
▁강봉	-10.3116
▁정화조	-10.312
▁재해사실	-10.3123
▁태풍	-10.3125
▁안전거리	-10.3125
▁충전	-10.3127
▁선형	-10.3127
▁횡방향	-10.3129
▁재해입니다	-10.3129
▁이격거리	-10.3131
▁순	-10.3135
▁열고	-10.3137
▁설계도면	-10.314
▁CIP	-10.3145
▁출력	-10.3146
▁짐	-10.3146
31	-10.3147
▁운반도중	-10.315
▁부품	-10.3151
▁발판의	-10.3153
▁받는	-10.3154
▁들어가면서	-10.3156
▁낙하하며	-10.3158
▁소홀	-10.3158
▁꺽이	-10.3162
▁진단결과	-10.3163
▁금지하고	-10.3172
▁차수	-10.3173
▁수직사다리	-10.3173
▁가함	-10.3177
방지용	-10.3177
▁콘	-10.3179
▁접속	-10.3179
불	-10.3183
▁언	-10.3197
▁압착	-10.3199
▁발전기	-10.3212
▁운전기사	-10.3215
***	-10.322
검지	-10.3233
▁올리던	-10.3233
시키는	-10.3233
이기	-10.3239
▁단위	-10.3241
추	-10.3243
조사	-10.3249
▁약간의	-10.3258
출	-10.326
승	-10.3264
씩	-10.3267
▁추락하면서	-10.3269
었으나	-10.3269
▁넘	-10.3273
곳	-10.3277
도구	-10.3279
▁비상시	-10.3282
▁빔이	-10.3283
▁보온	-10.3286
▁축	-10.3292
레벨	-10.3294
아파트	-10.3296
▁통행로	-10.33
회전하는	-10.3304
▁카	-10.3304
▁수직철근	-10.3312
▁작업차량	-10.3314
▁설치후	-10.3317
▁밖에	-10.3318
(20	-10.3321
지며	-10.3323
▁동바리에	-10.3332
지지용	-10.3336
▁컷팅기	-10.3336
사고임	-10.3343
으	-10.3345
3)	-10.3346
▁단관파이프	-10.3348
약지	-10.3362
▁돌풍에	-10.3374
관로	-10.3382
도장	-10.3387
▁오작동	-10.3388
▁작업발판과	-10.3389
▁공간에서	-10.3389
▁허	-10.3398
▁인력운반	-10.3432
▁전기실	-10.3433
▁통증으로	-10.3438
▁잔재	-10.344
▁퇴원	-10.3441
▁벽이음	-10.3443
▁권과방지장치	-10.3445
▁말아야	-10.3445
▁매듭	-10.3445
▁무거운	-10.3445
▁잃음	-10.3445
▁뛰어내림	-10.3446
▁이야기	-10.3446
▁볼팅	-10.3446
▁스침	-10.3446
▁받침철물	-10.3446
▁입었음	-10.3446
▁건강상태	-10.3447
데	-10.3448
사고자	-10.345
▁쌓여	-10.3453
:00	-10.3457
▁양호한	-10.3458
▁입게	-10.3458
▁천공장비	-10.3459
▁누적	-10.3461
▁편	-10.3462
▁풀어	-10.347
▁복숭아뼈	-10.347
▁높	-10.3471
000	-10.3472
▁베이스	-10.3473
▁본관동	-10.3475
▁들어감	-10.3476
▁비산방지	-10.3477
방호벽	-10.3488
결	-10.3489
▁분석	-10.3491
▁이유	-10.3491
▁농도	-10.3491
▁턱에	-10.3494
▁대전	-10.3497
▁행위	-10.3498
▁철근공이	-10.35
▁슬링벨트가	-10.3502
▁중지손가락	-10.3507
▁작업장소로	-10.3509
분에	-10.3522
▁캡	-10.3531
▁일시	-10.3534
(1.2	-10.3549
▁강풍에	-10.3561
▁책임자	-10.3561
육	-10.3564
▁밟	-10.3572
구간에	-10.3573
▁운반하다	-10.3583
학	-10.3587
▁의심	-10.359
▁유지하여	-10.36
▁승강로	-10.3603
▁시점부	-10.3605
그라인더	-10.3607
전기	-10.3611
▁성토	-10.3611
용단	-10.362
▁유동	-10.3622
▁강관파이프가	-10.3626
디	-10.3628
▁연결하여	-10.3628
x	-10.3634
옹벽	-10.3635
▁c	-10.3636
▁동절기	-10.364
형틀목공	-10.364
철물	-10.3644
교체	-10.3649
난간대	-10.3653
▁박던	-10.3676
▁반장이	-10.368
▁시공하는	-10.3697
대학교	-10.3698
▁계획서	-10.3702
▁기울어	-10.3703
▁11:00	-10.3703
▁측정하여	-10.3712
▁폐	-10.3722
▁호스가	-10.373
▁눌려	-10.3755
▁방화	-10.3755
▁매뉴얼	-10.376
▁골반	-10.3767
지상	-10.3767
▁담당	-10.3774
천정	-10.3774
▁본관	-10.3778
▁토목	-10.3783
▁가로	-10.3786
움	-10.3787
퍼	-10.3787
▁청소작업	-10.3788
▁쓰러지	-10.3789
▁안전인증	-10.3789
▁아파	-10.3789
▁인코너	-10.379
▁안전방망	-10.379
▁열풍기	-10.379
▁지식산업센터	-10.379
▁의정부	-10.379
▁방진마스크	-10.379
▁뇌출혈	-10.379
▁습기	-10.379
▁부러짐	-10.3791
▁집게	-10.3791
▁측벽	-10.3791
▁웨지핀	-10.3791
의료원	-10.3791
▁형틀목수	-10.3792
▁뒤편	-10.3792
▁지난	-10.3792
▁가설전기	-10.3793
▁폐기	-10.3794
▁동력	-10.3795
▁조금	-10.3795
▁교반기	-10.3796
▁관통	-10.3796
▁권상	-10.3799
▁떨어지지	-10.3801
▁스치	-10.3801
▁사업장	-10.3803
▁원인미상	-10.3804
▁맞게	-10.3807
▁혹	-10.3809
▁유선	-10.381
▁담장	-10.3811
▁야적장	-10.3812
▁벌목작업	-10.3813
▁호소함	-10.3814
▁몰딩	-10.3815
▁수직구	-10.3817
▁화물차에	-10.3817
▁손상됨	-10.3817
▁견인	-10.3847
▁약지손가락	-10.3848
▁거푸집동바리	-10.3848
▁오작동으로	-10.3852
▁단단	-10.3852
▁인양하던	-10.3852
▁용수	-10.3855
▁가능하	-10.3857
▁저장	-10.3858
▁구동	-10.3862
▁작업공구	-10.3867
▁토목공사	-10.3874
▁기준에	-10.3876
▁플	-10.3877
▁정하고	-10.3885
예방	-10.3885
▁구조물과	-10.3886
▁사고당시	-10.3891
▁발견하여	-10.3893
**(**	-10.3895
▁근거	-10.3903
▁모	-10.3906
▁복도에서	-10.3907
▁세대내부	-10.3907
회전	-10.3907
1.5	-10.392
▁조각	-10.3923
)-	-10.3932
▁마감작업	-10.3933
▁도면	-10.3934
▁현상	-10.3938
방수	-10.394
▁인지하여	-10.3941
▁시트	-10.3944
하려	-10.3946
▁바지	-10.3947
끝	-10.3953
되거나	-10.3961
▁비가	-10.3962
▁가동	-10.3963
▁둔	-10.3965
▁접지르	-10.3965
▁적재함을	-10.3965
▁용접부	-10.3966
▁난간에	-10.3967
119	-10.3967
▁사람이	-10.3983
쳐	-10.3984
갈	-10.3985
긴	-10.3988
▁제공	-10.3989
판을	-10.399
주택	-10.3995
정형외과	-10.3996
▁토사에	-10.3997
불승인	-10.3997
충격	-10.3998
▁뒤에	-10.4005
▁벽면에	-10.4008
하려던	-10.4023
년간	-10.404
▁~	-10.4042
▁정리하는	-10.4051
작업대	-10.4061
▁높이에	-10.4062
(25	-10.4063
어서	-10.4063
대교	-10.4069
▁실시한	-10.4072
▁작업장으로	-10.4075
▁조적공	-10.4108
▁타설용	-10.4109
▁목격	-10.4109
▁밟는	-10.411
족	-10.4118
1.2	-10.4122
▁잠	-10.4136
▁인정	-10.4143
▁받쳐	-10.4147
▁윗부분	-10.4147
▁안전보건관리책임자	-10.4147
▁부적합	-10.4148
▁미끌어져	-10.4148
바늘	-10.4148
▁소나무	-10.4148
▁식	-10.4149
▁참조	-10.415
▁추진코	-10.415
▁16:30	-10.4151
▁들어올려	-10.4152
▁모르고	-10.4152
▁타이핀	-10.4153
▁안전조치사항	-10.4153
▁자재야적장	-10.4154
▁외국인	-10.4155
했습니다	-10.4157
▁탈골	-10.416
▁스치면서	-10.416
▁가설비계	-10.4161
▁커플러	-10.4161
▁주의하여	-10.4163
▁기초콘크리트	-10.4165
▁코너	-10.417
▁메인	-10.4171
▁라이닝	-10.4172
▁클립	-10.4173
▁보행자	-10.4174
▁선박	-10.4175
▁우수관로	-10.4176
▁인양로프	-10.4177
▁없다고	-10.4177
▁알고	-10.4177
▁방호시설	-10.4178
▁규모	-10.4178
▁분류	-10.4179
뼈가	-10.4186
당일	-10.4187
▁이동용	-10.419
▁충돌함	-10.4208
▁종료후	-10.4214
▁가진	-10.4216
▁취부	-10.4217
▁단차부	-10.4221
사이로	-10.4227
▁관리자에게	-10.4233
부근	-10.4238
▁사고보고	-10.4245
▁부지	-10.4245
▁평	-10.4247
▁계	-10.4252
▁준수하고	-10.4253
▁옥탑층	-10.4255
▁적재물	-10.4255
▁가능	-10.4258
▁양손으로	-10.4267
(1.5	-10.428
▁정밀	-10.4295
지않고	-10.4296
▁이동하지	-10.4298
▁견출작업을	-10.4301
▁사용하기	-10.4304
▁반복적	-10.4308
▁내려가	-10.4312
자의	-10.4313
▁결속된	-10.4326
▁복부	-10.434
하역	-10.4344
옥	-10.4346
▁체결한	-10.4352
▁현	-10.4359
미흡	-10.436
Y	-10.436
협착	-10.4368
운전원	-10.4369
▁세우	-10.437
현재	-10.4371
준	-10.4372
▁물기가	-10.4374
수술	-10.4375
▁부딪치면	-10.438
창고	-10.4402
▁사용하여서	-10.4408
▁설치하지	-10.4417
▁가까	-10.4418
▁기간	-10.4438
시키	-10.444
▁약간	-10.444
▁정보	-10.4447
▁사용하던	-10.445
▁철근가공장	-10.4457
진단	-10.447
되므로	-10.4475
▁소리	-10.4477
성이	-10.4478
▁방식	-10.4479
▁닿지	-10.448
▁왼손이	-10.4493
지고	-10.4493
▁페이로더	-10.4499
▁헛디디	-10.4505
▁가새	-10.4507
이내	-10.4508
▁근	-10.4509
▁표준	-10.4515
▁뿜칠	-10.4518
▁잃으면서	-10.4518
▁카운터	-10.4518
▁구획	-10.4518
▁부딪친	-10.4518
▁팔뚝	-10.4518
▁우수맨홀	-10.4518
▁가해짐	-10.4519
▁이동경로	-10.452
▁안전보호구	-10.452
▁후진하는	-10.452
▁벗어나	-10.452
▁파이프서포트	-10.452
▁살점	-10.4521
▁환기설비	-10.4521
▁안착	-10.4522
가스	-10.4523
▁08:00	-10.4523
▁산정	-10.4525
▁운반용	-10.4526
▁말한다	-10.4526
▁주의사항	-10.4526
▁휴게실	-10.4527
▁닫히	-10.4527
▁가설도로	-10.4528
▁이송하였으나	-10.453
▁않자	-10.4531
**,	-10.4531
▁V	-10.4532
▁외부벽체	-10.4534
▁비교	-10.4536
▁유실	-10.4537
▁현장대리인	-10.4538
▁관찰	-10.4539
▁3>	-10.4541
▁찢어지는	-10.4542
▁하도급	-10.4543
▁보건	-10.4548
▁플라스틱	-10.455
▁가공작업	-10.455
▁부상발생	-10.4552
▁플랜지	-10.4555
▁작업인부	-10.4556
▁거푸집설치	-10.4558
▁사고사실	-10.4559
▁저항	-10.456
▁현장조건	-10.4565
▁3,4	-10.4567
▁입어	-10.4567
▁토	-10.4569
▁인양장비	-10.4571
▁레버	-10.4571
▁램프구간	-10.4575
▁건조	-10.4576
d	-10.4579
내에서	-10.458
▁가장	-10.4585
▁땅에	-10.4591
▁W	-10.4594
▁검토하고	-10.4601
▁당기	-10.4626
었던	-10.4628
▁지붕에서	-10.4629
▁앞서	-10.4629
▁옥	-10.4632
▁배수관	-10.4645
백	-10.465
교회	-10.4655
▁묻어	-10.4661
측정	-10.4671
,000	-10.4672
▁남은	-10.4673
범위	-10.4676
파이프를	-10.4689
▁철근다발	-10.4702
릴	-10.4705
▁오류	-10.4712
▁계단에	-10.4715
▁동측	-10.4722
▁부착하여	-10.4726
▁말리	-10.473
커	-10.4746
보건	-10.475
했으나	-10.4752
클램프	-10.4752
▁일어서	-10.4753
깊이	-10.4755
통보	-10.4759
▁헤드	-10.476
턱	-10.4776
으면서	-10.478
공이	-10.4782
(7	-10.4784
▁풀리	-10.4788
작동	-10.4794
▁미장공	-10.4795
▁충격하여	-10.4803
▁가압	-10.4807
▁끼임사고	-10.4824
▁실족으로	-10.4836
▁리	-10.484
▁밀착	-10.484
▁개폐	-10.4854
▁신호수와	-10.4871
▁적절	-10.4878
▁횡	-10.4879
▁평탄	-10.4882
교량	-10.4891
▁헬기	-10.4898
케	-10.4901
▁갖춘	-10.4902
▁부직포	-10.4902
▁불완전	-10.4902
▁쏠려	-10.4902
▁닿으	-10.4902
▁따르	-10.4902
▁부상당한	-10.4902
▁어스앙카	-10.4902
▁반력벽	-10.4903
▁수급인	-10.4903
▁누출	-10.4903
▁산재신청	-10.4903
▁조경석	-10.4904
▁헛딛음	-10.4904
▁면정리	-10.4904
▁하지철물	-10.4904
▁건설장비	-10.4907
▁전동공구	-10.4908
▁실제	-10.4908
▁누전	-10.4909
러운	-10.491
▁최근	-10.4911
▁청소중	-10.4911
▁과부하방지장치	-10.4912
▁발주자	-10.4912
▁왼쪽팔	-10.4913
▁AL	-10.4914
▁강제	-10.4915
▁시스템폼	-10.4917
▁감전사고	-10.4917
▁Support	-10.4918
▁한손으로	-10.4918
발을	-10.4921
▁4>	-10.4921
▁실리콘	-10.4923
▁받았으며	-10.4923
▁남측	-10.4924
km	-10.4924
▁전복	-10.4924
않아	-10.4926
▁뒷부분	-10.4926
▁기재	-10.4928
▁제작사	-10.4928
▁울타리	-10.4929
▁받아치기	-10.493
▁러그	-10.4932
이동중	-10.4938
▁파	-10.4938
▁명시	-10.4945
▁준설	-10.4955
▁승강기	-10.4956
▁철근콘크리트공사	-10.496
▁조사중	-10.496
▁산재승인	-10.4961
대가	-10.4964
▁자재운반중	-10.4969
▁(1)	-10.4973
▁개구부로	-10.4974
#1	-10.4977
▁진행하여야	-10.4979
l	-10.4981
▁b	-10.4989
▁표지	-10.4996
▁철거중	-10.5008
▁위험물	-10.5008
어디서	-10.5009
▁인양시	-10.5014
▁켜	-10.5021
▁철거작업중	-10.5026
▁제단	-10.5026
▁예방조치	-10.503
▁수평대	-10.5035
▁건너	-10.5037
▁입구에서	-10.5042
누	-10.5049
수로	-10.5065
▁디	-10.5069
주의	-10.507
▁하역중	-10.5072
90	-10.5077
▁딛는	-10.5078
대를	-10.5079
▁구르	-10.5081
있	-10.5081
▁미치	-10.5087
▁운반기계	-10.509
탄	-10.5098
▁못하	-10.5107
무릎	-10.5116
▁내장	-10.5121
예정	-10.5126
탑	-10.513
상단에서	-10.5142
▁사이에서	-10.5144
최	-10.5147
▁포크	-10.5158
▁지상층	-10.516
▁공구가	-10.5172
재해발생	-10.5181
▁들던	-10.5187
▁하자	-10.5194
▁깨끗	-10.52
45	-10.521
▁석공	-10.5222
▁도로에서	-10.5225
▁창원	-10.5249
▁볼트가	-10.526
▁고정하던	-10.5264
쪽에서	-10.5264
▁조성공사	-10.5267
k	-10.5272
완	-10.5277
▁1.0	-10.528
▁고무	-10.5287
▁슬링	-10.5293
▁태	-10.5294
▁철저	-10.5296
▁나머지	-10.5302
▁다치게	-10.5302
▁주민공동시설	-10.5302
▁찔리	-10.5302
▁찢어진	-10.5302
▁눌림	-10.5302
▁가드레일	-10.5302
▁뒷바퀴	-10.5303
▁산소농도	-10.5303
▁좌굴	-10.5303
▁착오	-10.5303
▁보양천막	-10.5303
▁안정액	-10.5303
▁잔류	-10.5303
▁접근금지	-10.5304
▁대처	-10.5306
▁기울어지며	-10.5306
▁재사용	-10.5306
▁PSC	-10.5307
▁지반보강	-10.5307
▁자재인양구	-10.5307
▁기름	-10.5307
▁기존에	-10.5307
▁굴착토사	-10.5307
▁보조로프	-10.5308
▁전기기계	-10.5309
▁이전	-10.531
▁제출하였으나	-10.531
▁적재하중	-10.5312
▁경찰	-10.5314
▁근로복지공단에서	-10.5315
▁조성	-10.5317
▁산업안전보건기준에	-10.5318
하는데	-10.5318
▁반대쪽	-10.5319
▁조사하여	-10.5319
▁자재하역	-10.5321
▁10:00	-10.5323
순간	-10.5323
▁있었으며	-10.5323
▁주장하며	-10.5323
▁점심시간	-10.5326
▁인대손상	-10.5327
▁바깥쪽	-10.5327
▁정전	-10.5329
▁다음사항	-10.5329
▁최상단	-10.5331
▁결	-10.5333
▁수직부재	-10.5333
▁비산되어	-10.5335
▁탈락하면서	-10.5335
▁14:30	-10.5335
▁사항임	-10.5339
▁본사	-10.534
▁연약	-10.5341
▁나오는	-10.5342
▁준비작업	-10.5345
▁복구	-10.5346
▁미끄러지는	-10.5348
▁결속선	-10.5355
▁칸막이	-10.5356
▁설계도서에	-10.5356
▁거치대	-10.5357
▁파악하여	-10.5362
▁종료하고	-10.5363
시킨다	-10.5363
▁조경	-10.5364
▁만들어	-10.5367
운전자	-10.5367
▁보이	-10.5369
▁용도	-10.5369
▁딛어	-10.5372
▁움직임	-10.5375
▁2.4	-10.5377
▁전력	-10.5378
:50	-10.5379
▁체결을	-10.538
▁직경	-10.5384
자는	-10.5385
▁20**	-10.5388
▁비계보	-10.539
▁계단발판	-10.539
▁카고	-10.5402
▁개구부를	-10.5416
▁상부를	-10.5427
공인	-10.5428
▁201	-10.543
▁내려오	-10.5437
▁합판에	-10.5439
강관	-10.5445
창호	-10.5454
▁후미	-10.5468
기기	-10.5479
▁바닥재	-10.5479
▁검사를	-10.5484
▁차량으로	-10.5489
▁가는	-10.5491
▁엄지와	-10.5492
▁잡기	-10.5494
∼	-10.5497
진행	-10.5499
-5	-10.5499
▁보기	-10.5499
▁상이	-10.5504
K	-10.5507
▁빠지지	-10.5516
▁종합	-10.5521
▁공법에	-10.5528
▁쳐	-10.553
▁깨지	-10.554
▁장비와	-10.5545
파열	-10.5557
풍	-10.5558
벨트	-10.5559
밸브	-10.5561
바퀴	-10.5563
칼	-10.5565
반출	-10.5567
▁수레	-10.5568
굴삭기	-10.5569
불안전한	-10.5569
파손	-10.5571
폭발	-10.5572
개구부	-10.5572
거치	-10.5575
포장	-10.558
▁통신	-10.558
배수	-10.5582
유무	-10.5583
▁경고	-10.5589
▁청소작업을	-10.5591
용역	-10.5603
▁버켓에	-10.5607
▁충돌로	-10.5613
▁이동작업	-10.562
보호	-10.5622
▁돌아가	-10.5631
계단실	-10.5637
▁긴장작업	-10.5644
▁착용상태	-10.5647
▁배관작업	-10.5653
-7	-10.566
-8	-10.5664
▁칠	-10.5674
▁재해로	-10.568
▁신경	-10.5685
▁요양신청	-10.5701
장을	-10.5702
율	-10.5711
스트	-10.5714
▁긴결	-10.5714
▁입술	-10.5714
:40	-10.5718
～	-10.5719
KG	-10.5719
▁놀라	-10.5719
▁도르래	-10.5719
▁오픈	-10.5719
▁뿜어붙	-10.5719
▁쇠지렛대	-10.5719
▁에폭시	-10.5719
▁포스트	-10.5719
▁도괴	-10.5719
▁믹서트럭	-10.5719
▁출역	-10.572
▁달줄	-10.572
▁깔판	-10.572
산업개발	-10.572
▁부상당함	-10.5721
▁없었으나	-10.5722
▁조적벽체	-10.5722
▁17:00	-10.5722
▁리프트카	-10.5722
▁계측관리	-10.5722
▁09:30	-10.5723
▁감소	-10.5724
부록	-10.5726
▁붙이기	-10.5726
▁공구류	-10.5726
▁시방서	-10.5726
▁크게	-10.5726
▁끊어지면서	-10.5727
▁역할	-10.5727
부에서	-10.573
자재가	-10.5731
▁허용	-10.5731
▁발포	-10.5731
▁막장면	-10.5732
지사	-10.5735
▁평택	-10.5736
입구	-10.5738
▁보에	-10.5739
위한	-10.5739
▁있고	-10.5742
▁광대뼈	-10.5743
▁피하지	-10.5744
▁합판거푸집	-10.5746
▁상호간	-10.5747
▁감기	-10.5747
▁수압	-10.5749
용으로	-10.575
요	-10.5754
▁새끼손가락을	-10.5759
신호수	-10.5765
▁발견하고	-10.5767
▁배면에	-10.5767
▁포함한다	-10.5767
▁시공순서는	-10.577
▁피하는	-10.577
57	-10.5771
▁넣는	-10.5772
▁빈	-10.5774
▁이음철근	-10.5783
▁활용	-10.5786
▁심근경색	-10.5788
▁검진	-10.5793
▁끈	-10.5794
▁#1	-10.5796
▁베임사고	-10.5805
▁석재가	-10.5806
▁부딪쳐서	-10.5808
▁키	-10.5809
공정	-10.5812
-9	-10.5815
▁부자재	-10.5815
▁조작미숙	-10.5818
▁보고하지	-10.5819
해체작업	-10.582
▁교	-10.5825
▁이동하여야	-10.5829
▁각관	-10.5834
▁입원치료	-10.5836
▁이동함	-10.5853
▁불가능	-10.5854
▁행	-10.5854
▁아래쪽	-10.5859
▁시기	-10.5859
마디	-10.5862
▁실려	-10.5881
장이	-10.5884
▁하는데	-10.5885
▁왼쪽눈	-10.589
건축	-10.589
▁발생하였고	-10.5893
▁당겨	-10.5893
▁관절	-10.5894
▁차이	-10.5897
▁신설	-10.5904
천공	-10.5916
MM	-10.5927
▁회전하여	-10.593
▁조립하여	-10.5933
▁용접부위	-10.5936
▁양중하여	-10.5939
▁코킹작업	-10.5943
▁111	-10.5945
팔	-10.5949
1.8	-10.595
▁내용이	-10.5958
을때	-10.5958
▁부상이	-10.5966
▁커팅	-10.5966
동바리	-10.5966
물이	-10.598
규격	-10.5981
황	-10.5982
드릴	-10.5996
▁받기	-10.5997
▁골	-10.5998
필	-10.5999
드럼	-10.6002
맨홀	-10.6002
권	-10.6003
STA	-10.6003
게이트	-10.6003
앙카	-10.6003
두께	-10.6003
▁콘크리트타설	-10.6006
와이어	-10.6006
환	-10.6008
매우	-10.6008
요추	-10.601
▁피하다	-10.6017
다는	-10.6034
▁입선	-10.6034
요청	-10.6039
▁비계파이프에	-10.6044
▁버켓이	-10.6048
▁공사구간	-10.6055
라는	-10.6067
▁분	-10.6075
▁전선관	-10.6087
▁유지하	-10.6097
하려는	-10.6107
동구	-10.6113
▁보던	-10.6118
▁관계기관	-10.6124
▁요철	-10.6131
▁h	-10.6134
▁우천	-10.614
워	-10.6145
완료된	-10.6146
▁판개	-10.615
척	-10.6151
▁끼워	-10.6152
▁품질	-10.6153
셔	-10.6153
_	-10.6154
▁plate	-10.6154
▁뿌리	-10.6154
▁슬립업	-10.6154
▁턴버클	-10.6154
▁검측	-10.6154
▁사무동	-10.6154
▁않았으며	-10.6154
▁사실관계	-10.6154
▁주차타워	-10.6155
▁맞지않아	-10.6155
▁체인블록	-10.6155
▁튀어나온	-10.6155
▁첫번째	-10.6155
등학교	-10.6156
▁주방	-10.6156
▁신규	-10.6156
▁안전장화	-10.6157
▁화약	-10.6157
테크	-10.6157
▁종점부	-10.6158
▁절상	-10.6159
▁놓치며	-10.6159
▁연결고리	-10.6159
▁강재거푸집	-10.616
▁가설통로	-10.6161
▁미제거	-10.6161
▁2019.	-10.6164
▁사이를	-10.6164
▁무한궤도	-10.6164
▁콘센트	-10.6164
▁공동주택	-10.6164
▁구명	-10.6165
▁충격하중	-10.6165
▁날개벽	-10.6165
▁장력	-10.6166
▁발파기	-10.6166
▁세부	-10.6167
▁PCT	-10.6168
▁청주	-10.6168
▁후두부	-10.6168
▁왼쪽무릎	-10.617
▁고용노동부	-10.6171
▁슬관절	-10.6171
▁아니라	-10.6174
▁양수	-10.6175
▁제출함	-10.6176
▁비치하고	-10.6177
▁콘크리트못	-10.6178
▁콘판넬	-10.6179
▁로울러	-10.6185
▁살수차	-10.6185
▁실금	-10.6185
▁자갈	-10.6186
▁상실	-10.6188
▁정밀검사	-10.619
▁운반차량	-10.6192
▁설치하되	-10.6197
re	-10.62
▁철판이	-10.6212
▁철도	-10.6213
▁천	-10.6221
▁작업실시	-10.6226
▁초과하여	-10.6226
▁인지하고	-10.6227
▁발생일시	-10.6233
▁점검구	-10.6233
사다리를	-10.6235
▁정돈	-10.6237
▁반생	-10.6246
작업자의	-10.6256
▁수공구	-10.6256
▁막기	-10.626
▁유도원	-10.6266
▁조립도에	-10.6267
et	-10.6268
▁끝부분에	-10.6272
기관	-10.6275
바로	-10.6275
▁사용해서	-10.6276
▁벽체와	-10.6277
▁보호조치	-10.6279
▁***-*	-10.6288
▁양측	-10.6294
호세대에서	-10.6296
▁앞에	-10.6306
압력	-10.6316
▁방지하고	-10.6316
▁배관파이프	-10.633
▁심한	-10.6331
▁되므로	-10.6335
조각이	-10.6335
▁옮기기	-10.634
▁형틀자재	-10.6347
시설물	-10.6349
▁빠지	-10.6352
함으로써	-10.6356
55	-10.6357
▁철골공	-10.6358
▁생명줄에	-10.6362
▁못에	-10.637
내릴	-10.6373
산동	-10.6375
▁따라서	-10.6398
▁줄이	-10.6402
▁나가	-10.6403
실시	-10.6413
▁인도	-10.6417
▁석	-10.642
▁주는	-10.6431
보양	-10.6432
한국	-10.6433
g	-10.6435
작업으로	-10.6441
올	-10.6445
바닥으로	-10.6445
▁넘어가다	-10.6446
메	-10.6449
구멍	-10.645
▁오류로	-10.6458
▁측	-10.6461
▁연락이	-10.6466
▁수평목	-10.6468
직후	-10.6474
:30	-10.6481
투입	-10.6483
°	-10.6486
유도	-10.649
▁작업위치	-10.6494
오후	-10.65
▁발화	-10.6507
▁가공장	-10.6519
▁판넬이	-10.6521
불량으로	-10.6525
인력	-10.6526
으로써	-10.6533
(9	-10.6536
▁헛딛	-10.655
▁주저	-10.6551
▁인양하기	-10.6553
체결	-10.6574
타일	-10.6576
▁핸드레일	-10.6577
▁코핑	-10.6578
▁용이하	-10.6585
▁존재	-10.6586
하였을	-10.6588
▁근육이	-10.659
랑	-10.659
▁동료들	-10.6596
탈	-10.6598
▁테두리	-10.6604
▁연료	-10.6608
▁버력	-10.6608
▁갖는	-10.6608
▁꺾이	-10.6608
▁부등침하	-10.6608
▁분전함	-10.6608
▁아우트리거	-10.6608
▁지압판	-10.6608
▁쪼그려	-10.6608
▁후레싱	-10.6608
」	-10.6608
엔지니어링	-10.6608
▁경광등	-10.6608
▁발끝막이판	-10.6608
▁슬링밸트	-10.6608
▁테이블리프트	-10.6608
▁협력회사	-10.6608
▁십자인대	-10.6609
▁락볼트	-10.6609
▁마련	-10.6609
al	-10.6609
체육관	-10.6609
▁경량	-10.6609
▁끊어져	-10.6609
▁반발력	-10.6609
▁흙막이지보공	-10.6609
▁요골	-10.6609
▁옥외	-10.661
▁인방	-10.661
▁걸이시설	-10.6612
▁게시	-10.6614
▁선별	-10.6615
▁연결통로	-10.6616
▁전환	-10.6616
▁우측어깨	-10.6617
▁슬링바	-10.6618
▁경사면에	-10.6618
▁스킬톱	-10.6619
▁도보	-10.6619
▁알게	-10.662
▁부속자재	-10.662
▁확장	-10.6624
▁잔	-10.6628
쳐서	-10.6628
▁구체	-10.6628
▁열어	-10.663
▁끝나	-10.6633
▁中	-10.6634
▁성모병원	-10.6641
▁천안	-10.6642
▁폐쇄성	-10.6643
▁틈새로	-10.6643
▁부딪치는	-10.6645
▁내벽	-10.6646
▁증기	-10.6649
▁돌출부	-10.6649
▁하거나	-10.665
▁체크	-10.6655
▁환기구	-10.6655
▁가다가	-10.6656
▁아래층	-10.6661
타이	-10.6664
▁지나가다	-10.6666
마감	-10.667
▁작업동료	-10.6672
▁조사하고	-10.6675
▁당기다가	-10.6676
▁예방할	-10.6686
▁사항이	-10.6689
▁낙하한	-10.6691
▁모터	-10.6692
▁시술	-10.6693
▁내림	-10.6697
토사	-10.6697
▁지지하고	-10.6701
▁주로	-10.6709
▁신발	-10.6713
▁회전날	-10.6716
▁그러	-10.6728
하다고	-10.673
▁조치함	-10.6733
▁#2	-10.6736
▁넘어졌다	-10.674
(17	-10.674
▁보고하고	-10.6745
▁건축자재	-10.6749
▁전등	-10.6759
▁입원하여	-10.6762
▁낙하되어	-10.6766
▁장갑을	-10.6773
▁와이어에	-10.6776
▁해체물	-10.6785
▁Y	-10.6799
하나	-10.6806
▁오차	-10.6807
▁용단	-10.6808
▁조립작업중	-10.681
▁정면	-10.6813
▁결합	-10.6819
▁단계	-10.682
▁넣	-10.6827
말	-10.6827
el	-10.6838
▁제거작업	-10.684
이후	-10.6843
▁205	-10.6844
▁고정하여	-10.6852
9.	-10.6863
▁경화	-10.6866
양중	-10.6869
암거	-10.6874
▁확보하여	-10.6877
망치	-10.6884
▁위쪽	-10.6884
접	-10.6891
북	-10.6891
대차	-10.6894
끼	-10.6899
▁맞으	-10.69
▁파열로	-10.69
▁전도방지를	-10.6903
▁낙하방지	-10.6906
▁풀던	-10.6906
레이	-10.6915
역사	-10.692
커버	-10.6924
조작	-10.6925
▁사각파이프	-10.6927
쌓기	-10.6927
램프	-10.6927
플랜트	-10.693
▁발판위	-10.693
<	-10.6935
언제	-10.6936
변경	-10.6937
장갑	-10.694
진료	-10.694
되었습니다	-10.694
▁고시	-10.6944
펌프장	-10.6944
▁간섭이	-10.6953
▁절단하여	-10.6962
▁적재중	-10.6965
▁시스템비계에서	-10.6975
금지	-10.6982
f	-10.6984
▁없어야	-10.6988
되었으며	-10.6991
:20	-10.6993
▁떨어지	-10.6996
▁사업	-10.6997
통증	-10.7006
▁트럭에	-10.7007
이하	-10.702
▁구간의	-10.7023
▁시동	-10.7024
계단을	-10.7032
▁지장	-10.7039
▁갱폼이	-10.7049
▁끌어	-10.705
▁탄성	-10.7053
▁지휘	-10.7057
▁접속부	-10.7058
되었다고	-10.7059
진동	-10.706
▁출발	-10.706
:45	-10.7061
▁뒷	-10.7062
▁배관자재	-10.7063
시키기	-10.7065
~3	-10.7066
▁허리부분	-10.7066
▁움직이는	-10.7068
▁필요하다	-10.7075
▁불편	-10.708
▁훼손	-10.7082
악	-10.7083
▁계약	-10.7084
▁욕실	-10.7084
MSDS	-10.7085
▁그라인드	-10.7085
▁부딪혔다	-10.7085
▁빠른	-10.7085
▁숏크리트	-10.7085
▁앉은	-10.7085
▁잃으며	-10.7085
▁안전작업계획서	-10.7085
빌딩	-10.7085
▁물리치료	-10.7085
▁얼어	-10.7085
▁최상층	-10.7085
▁도시가스	-10.7085
▁가교각	-10.7085
▁착각	-10.7085
▁농	-10.7085
▁점심	-10.7085
▁마친	-10.7085
▁주두부	-10.7086
▁방호울	-10.7086
목적으로	-10.7086
▁면처리	-10.7086
▁실측	-10.7087
▁출입통제	-10.7087
▁보호덮개	-10.7087
▁분산	-10.7088
▁판명	-10.7089
▁고르지	-10.709
바닥에서	-10.7091
▁강관파일	-10.7091
▁보강거더	-10.7092
▁박힌	-10.7093
▁세보	-10.7093
날에	-10.7096
▁전기뇌관	-10.7096
▁강연선	-10.7096
▁날개	-10.7096
▁발꿈치	-10.7096
▁장비운전원	-10.7099
▁절연용	-10.7103
▁부실	-10.7105
▁기둥거푸집	-10.7108
▁절단한	-10.7108
동안	-10.7108
▁때려	-10.7108
▁응력	-10.7111
▁삽	-10.7112
.3.	-10.7116
▁지나가는	-10.7116
▁통화	-10.7118
▁회전하며	-10.7119
▁EL	-10.712
▁여수	-10.7121
▁던지	-10.7123
▁내려가던중	-10.7123
▁왼쪽손	-10.7124
▁봉	-10.7125
▁살수기	-10.7128
▁정비사업	-10.7133
▁매달기	-10.7134
▁폐자재	-10.7134
▁인지함	-10.714
▁Pipe	-10.7141
▁명일	-10.7153
▁일요일	-10.7156
▁향	-10.7157
▁요청하여	-10.7158
▁거동	-10.7158
▁절단됨	-10.7161
절단기	-10.717
▁골절발생	-10.7173
가설	-10.7174
▁주기적	-10.7176
▁편의	-10.7177
ᄋᄋᄋ	-10.7178
상단	-10.718
▁우측발	-10.7188
▁낙하함	-10.7188
하였던	-10.7192
▁점검중	-10.7194
▁이송후	-10.7206
▁사고이며	-10.7209
▁포대	-10.7209
▁거푸집조립	-10.721
▁훈련	-10.7216
-10	-10.7217
65	-10.722
하기위하여	-10.7221
▁옴	-10.7225
▁드는	-10.7225
▁0	-10.7248
▁설치계획	-10.7258
▁정리작업중	-10.7261
2.5	-10.7274
▁미상	-10.7277
▁불시	-10.7278
켜	-10.7285
▁용접작업중	-10.729
덕트	-10.7297
▁감전방지	-10.7301
▁나오던	-10.7302
▁폭은	-10.7303
▁75	-10.7303
▁기술	-10.7308
▁방호벽	-10.7308
▁밑에서	-10.7317
▁보도	-10.7318
▁철판에	-10.7319
타박상	-10.7323
▁조치하고	-10.7327
▁벌	-10.7329
38	-10.733
▁작업하	-10.7331
▁상황에	-10.7332
(40	-10.7348
▁Con	-10.7354
부가	-10.7359
▁가공중	-10.736
▁설치구간	-10.7361
▁찔린	-10.7367
▁견출작업	-10.7367
▁원인이	-10.7375
oo	-10.7376
출입	-10.7377
▁보양작업	-10.7378
부주의	-10.7378
마을	-10.7384
▁난	-10.7397
▁드럼	-10.7399
▁들어가는	-10.7408
▁자재이동	-10.741
주차장	-10.741
동료	-10.7418
끼임	-10.742
갈비뼈	-10.7422
발판에서	-10.7422
확보	-10.7423
소견	-10.7427
스카이	-10.7433
수직	-10.7434
금요일	-10.7435
왼손	-10.7435
협력업체	-10.7436
▁조적공사	-10.7436
변형	-10.7442
▁발생시	-10.7444
▁단부에서	-10.7445
안전화	-10.7449
~1	-10.7449
여야	-10.7451
▁지상에	-10.7453
재해자가	-10.7457
▁진행하여	-10.7468
▁발파작업	-10.7469
조정	-10.7472
▁해서	-10.7473
▁설치하며	-10.7474
▁38	-10.7476
▁경상	-10.7481
요인	-10.7482
▁크레인에	-10.7485
▁대차에	-10.7487
줄걸이	-10.7505
▁되며	-10.7507
▁설치장소	-10.7519
×	-10.7527
▁시공순서	-10.7534
▁라인	-10.7538
가지	-10.7539
위치를	-10.754
재해자는	-10.7547
▁주민	-10.7549
▁실수	-10.7553
인과	-10.7564
▁확보하기	-10.7575
▁빗겨	-10.7579
롤	-10.7581
▁탱크	-10.7584
▁완성	-10.7584
핑	-10.7584
댐	-10.7584
렌	-10.7584
▁밀폐	-10.7584
▁꺾임	-10.7585
▁부딛쳐	-10.7585
▁부적정	-10.7585
방파제	-10.7585
▁웨이트	-10.7585
▁2020.04.	-10.7585
▁먼지	-10.7585
▁악화	-10.7585
▁끊어짐	-10.7585
▁누름	-10.7585
▁풍압	-10.7585
▁어려움	-10.7585
▁난청	-10.7585
▁예측	-10.7585
▁가설울타리	-10.7585
▁깔아	-10.7585
▁측압	-10.7585
하였는데	-10.7585
▁호퍼	-10.7586
▁직각	-10.7586
▁고압호스	-10.7586
▁인출	-10.7586
▁도움	-10.7586
▁집어넣	-10.7586
▁가설사무실	-10.7586
▁피복석	-10.7587
▁막아	-10.7588
▁관계근로자	-10.7588
▁환자	-10.7588
▁부딪치며	-10.7589
▁배열	-10.7589
▁평탄성	-10.7589
▁보험가입자의견서	-10.7589
▁세워놓	-10.759
▁고온	-10.7591
▁사전조사	-10.7591
▁알리지	-10.7592
▁09:00	-10.7592
▁준공	-10.7592
▁예정임	-10.7592
▁방해	-10.7593
▁충남	-10.7593
▁요함	-10.7595
적재	-10.7596
▁11:30	-10.7597
▁무선	-10.7597
▁통지서	-10.7597
▁맞추는	-10.7598
주진단	-10.7599
▁발현	-10.7599
▁올라서서	-10.76
▁우선	-10.7602
▁정문	-10.7602
▁침수	-10.7602
▁벤딩기	-10.7603
▁임의해체	-10.7604
▁요양신청서	-10.7607
▁호수	-10.7612
▁인양하중	-10.7612
▁바닥면에	-10.7612
▁유로품	-10.7612
▁저면	-10.7613
▁금이감	-10.7614
▁전면부	-10.7618
▁돌출되어	-10.7618
▁요동	-10.762
▁처음	-10.762
▁말비계에	-10.7623
▁사각	-10.7623
▁네일	-10.7624
▁측정하고	-10.7625
▁철망	-10.7629
▁GS	-10.7631
▁이루어져야	-10.7633
▁거실	-10.7633
▁왼쪽발등	-10.7633
들은	-10.7633
▁제어	-10.7636
▁파레트	-10.7644
▁값	-10.7644
▁올라오던	-10.7646
▁엄	-10.7646
▁선임	-10.7647
▁적정성	-10.7647
▁자연	-10.7647
지면	-10.7648
▁브레싱	-10.7652
▁짚은	-10.7655
▁코아	-10.7656
▁석고	-10.7656
▁중앙부	-10.7657
▁전치	-10.7658
▁놓치	-10.7659
▁도장공	-10.7659
▁상하부	-10.7663
▁설계도서와	-10.7665
부지	-10.7665
▁호안	-10.7667
▁통원	-10.767
▁치면서	-10.7671
구간의	-10.7672
▁쓰러지는	-10.7674
▁부분에서	-10.7677
▁피스	-10.769
▁진행함	-10.7697
▁우측발이	-10.7697
▁버팀목	-10.7698
▁철거공사	-10.7698
▁합니다	-10.77
▁발생되어	-10.77
미장	-10.7704
▁단차부위	-10.7706
▁관을	-10.771
▁유지하고	-10.7711
려던	-10.7719
▁부착되어	-10.772
▁당사자	-10.772
▁후크에	-10.7723
▁가까이	-10.7724
발파	-10.7725
좌	-10.7727
▁전진	-10.7742
부를	-10.7745
▁되었으며	-10.7747
▁두고	-10.7753
le	-10.7753
▁갈	-10.7756
▁이해	-10.776
▁남아있	-10.7769
▁기계적	-10.777
(8	-10.777
▁절단하기	-10.7778
▁탑	-10.778
▁커	-10.7785
▁들리	-10.7788
▁작	-10.7792
태	-10.7803
작업에	-10.7807
▁작업하던중	-10.7808
정보	-10.7812
▁위치로	-10.7818
▁파괴	-10.7819
어짐	-10.782
▁절	-10.7833
▁횡대에	-10.7837
치는	-10.784
▁되었고	-10.7845
▁최상부	-10.7848
▁작업반	-10.7853
(60	-10.7863
▁검토한	-10.7871
▁국	-10.7878
▁금이가	-10.7884
▁수로	-10.789
▁후속	-10.79
▁확인하던	-10.7902
▁무의식	-10.7907
요양	-10.791
(15	-10.7911
▁증	-10.7916
팀장	-10.792
견	-10.7921
▁당사에	-10.7925
U	-10.793
▁남아	-10.7933
▁300	-10.7937
구급대	-10.7941
네	-10.7946
허	-10.7948
기가	-10.795
늑골	-10.7951
없음	-10.7954
옴	-10.7954
.4.	-10.7954
앵글	-10.7958
타워	-10.7959
▁기술자	-10.7959
렌탈	-10.7961
보안경	-10.7961
흙막이	-10.7962
▁가설계단에서	-10.7962
▁지하층에서	-10.7963
대상	-10.7965
보드	-10.7971
관계자	-10.7972
무게	-10.7974
▁전문	-10.7975
▁발목부위	-10.7976
▁매달려	-10.7979
▁뇌관	-10.7983
실금	-10.7984
▁풀기	-10.7995
▁매달	-10.7998
목공	-10.8003
▁시공된	-10.8008
▁장약	-10.8008
가능	-10.801
리면서	-10.8018
차선	-10.804
▁정착	-10.8048
▁구름	-10.8048
▁유리창	-10.8049
내리	-10.805
▁자의	-10.8053
인근	-10.8056
▁작업대에	-10.8059
관리자	-10.8061
▁상황이	-10.8066
▁수행하	-10.808
▁커터	-10.808
상태로	-10.8083
▁분사	-10.8083
on	-10.8085
▁가하여	-10.8087
인원	-10.8093
▁미끄러지	-10.8094
▁쌓여있	-10.8098
▁포터	-10.8102
▁마찰	-10.8109
▁다짐작업	-10.811
▁건강	-10.8111
▁과부하	-10.8111
▁Crane	-10.8111
▁비틀림	-10.8111
▁빠진	-10.8111
▁스윙	-10.8111
▁스토퍼	-10.8111
▁원도급사	-10.8111
▁돌부리	-10.8111
▁지게발	-10.8111
▁노즐	-10.8111
▁낙뢰	-10.8111
▁어스앵커	-10.8111
▁견관절	-10.8111
▁원인불명	-10.8111
▁화물자동차	-10.8111
▁순차적	-10.8111
▁노동부	-10.8111
포트	-10.8111
▁병행	-10.8111
▁피로티	-10.8111
▁어께	-10.8111
▁봉합수술	-10.8111
▁입었습니다	-10.8111
▁도와주	-10.8112
▁발뒷꿈치	-10.8112
▁휴무	-10.8112
▁찍혀	-10.8112
▁석축	-10.8112
▁일어남	-10.8112
성심병원	-10.8112
▁초래	-10.8112
▁넘어지거나	-10.8112
▁도수로	-10.8112
▁밀크	-10.8112
▁부러져	-10.8112
▁도출	-10.8112
▁유압호스	-10.8113
▁못으로	-10.8113
▁트러스거더	-10.8113
▁푸는	-10.8113
▁203	-10.8114
▁암석	-10.8114
▁관내	-10.8114
▁구비	-10.8116
▁세번째	-10.8116
▁연결철물	-10.8116
▁유압장치	-10.8116
▁발끝	-10.8116
▁진입도로	-10.8116
▁성남	-10.8117
▁폐목재	-10.8117
▁사석	-10.8117
▁13:00	-10.8118
▁양질	-10.8119
▁불량품	-10.8119
▁도배	-10.812
▁의거하여	-10.812
▁무전기	-10.8121
▁경추	-10.8121
▁폭우	-10.8121
▁헛딪어	-10.8122
▁문을	-10.8123
▁곧	-10.8124
▁통영지사에	-10.8124
▁TT	-10.8125
▁화성시	-10.8125
▁승강통로	-10.8126
▁저장소	-10.8126
▁좌상	-10.8126
▁취약	-10.8126
▁등쪽	-10.8127
▁왼쪽손목	-10.8127
▁외부에	-10.8128
▁5>	-10.8129
▁우측손	-10.8129
▁승인됨	-10.8129
▁숙련도	-10.813
▁동등	-10.813
▁충전부	-10.8132
▁승강설비	-10.8136
▁근골격계질환	-10.814
▁자동차	-10.8141
▁말고	-10.8143
▁작업절차	-10.8143
▁하자보수	-10.8144
▁브레이싱	-10.8149
▁가려	-10.8149
수가	-10.8149
▁시공방법	-10.8149
▁회복	-10.8149
▁들어올리던	-10.8152
▁옮기	-10.8155
▁통보하여	-10.8157
▁위험구역	-10.8158
내부에서	-10.8158
▁이송함	-10.8159
▁향후	-10.8169
00(00	-10.8172
▁매트	-10.8175
▁6.	-10.8175
▁공구함	-10.818
▁선정하고	-10.8182
▁최소한	-10.8189
▁결정하고	-10.819
▁않는다	-10.8191
준비	-10.8193
▁첫마디가	-10.8197
▁나사	-10.8198
▁불꽃이	-10.8207
▁하부의	-10.8213
▁전까지	-10.8214
▁주의하고	-10.823
▁업체인	-10.8232
▁타박상이	-10.8236
▁지원	-10.824
▁구조이	-10.8247
▁안산	-10.8247
▁작업현장	-10.8249
▁상주	-10.8252
▁터널내부	-10.8253
▁작업과	-10.8256
▁돌아	-10.826
▁경사각	-10.8267
▁교체작업	-10.8268
▁중이었으며	-10.827
.*	-10.8276
▁합판과	-10.8278
▁분리하여	-10.8279
▁사춤	-10.829
36	-10.8297
▁보강용	-10.8298
▁들려	-10.83
▁무의식적	-10.8301
▁운송	-10.8302
재해가	-10.8304
▁둥근톱으로	-10.8316
▁디딤	-10.832
받은	-10.8327
▁알폼자재	-10.8333
▁작업장소에	-10.8335
▁맨홀에	-10.8336
물질	-10.8338
▁보다	-10.8343
▁정위치	-10.8349
▁장비작업	-10.8351
▁전단	-10.8352
▁피하기	-10.8359
철근을	-10.836
하지않고	-10.8361
▁볼트에	-10.8372
▁일일	-10.8379
▁비계기둥	-10.839
▁단차구간	-10.8391
각도	-10.8393
▁손목부위	-10.8394
▁드	-10.8399
들에게	-10.8407
▁놓아	-10.841
▁설치구간에서	-10.8412
응력	-10.8413
▁수부	-10.8414
었음	-10.8418
등이	-10.843
▁하러	-10.8437
▁굴착구간	-10.8437
대기	-10.8438
조의	-10.844
▁제공하는	-10.8441
▁철사	-10.8448
했고	-10.8448
▁띠장이	-10.8459
되어있는	-10.8465
운전	-10.8467
▁잡아당기	-10.8467
▁작업공간이	-10.8474
보조	-10.8481
▁밟아서	-10.8483
or	-10.8486
▁조립한	-10.8493
▁보고하여	-10.8495
놓았던	-10.85
넘어짐	-10.8501
트럭	-10.8503
폐	-10.8505
엄지	-10.8506
감독	-10.851
골조	-10.8512
언	-10.8512
볼	-10.8513
훈련	-10.8514
리프트	-10.8515
접합	-10.8516
구급차	-10.8516
정강이	-10.8517
지게차	-10.8518
스킬	-10.8519
허리	-10.8521
▁되	-10.8523
기술	-10.8529
산재	-10.8532
59	-10.8535
(06	-10.8535
일부터	-10.8536
->	-10.8539
시멘트	-10.854
유리	-10.8546
단하고	-10.8547
▁명	-10.8549
▁보이지	-10.855
법면	-10.8553
▁손잡이에	-10.8559
하차	-10.8568
~2	-10.8568
▁안되어	-10.8571
대구	-10.8578
▁협의하여	-10.8578
▁원인으로	-10.8589
▁진행하다	-10.8592
▁베	-10.8594
▁밀다	-10.8594
지만	-10.8598
▁울산	-10.8599
▁경남	-10.8611
▁리모델링	-10.8612
▁오수관	-10.8651
쯤	-10.8658
▁연직	-10.8659
▁건립	-10.8661
텍	-10.8661
▁띠장에	-10.8662
▁수직형	-10.8662
▁일으	-10.8663
▁불인정	-10.8663
본인	-10.8664
▁인입	-10.8665
칸	-10.8665
딩	-10.8666
란	-10.8666
▁겐츄리크레인	-10.8666
▁긁힘	-10.8666
▁늦게	-10.8666
▁런칭거더	-10.8666
▁싣는	-10.8666
▁실링바	-10.8666
▁주상복합	-10.8666
▁추락방망	-10.8666
률	-10.8666
튜브	-10.8666
호텔	-10.8666
Bar	-10.8666
▁SCW	-10.8666
▁너무	-10.8666
▁화학물질	-10.8666
▁충북	-10.8667
▁에어컨	-10.8667
▁진흙	-10.8667
▁갈고리	-10.8667
▁의사소견	-10.8667
▁옹이	-10.8667
▁대리석	-10.8667
▁꼬임	-10.8667
▁에어호스	-10.8667
▁올린	-10.8667
▁경보장치	-10.8668
▁심정지	-10.8668
▁쓰러진	-10.8668
▁안내벽	-10.8668
▁폐콘크리트	-10.8668
▁폼타이	-10.8668
▁없었고	-10.8668
▁결여	-10.8669
▁진동다짐기	-10.8669
▁내려올	-10.8669
▁복공	-10.867
▁현장여건	-10.867
▁하카	-10.867
▁볼트체결	-10.8672
▁주지시키고	-10.8672
▁철근절곡기	-10.8674
▁깔고	-10.8674
파크	-10.8674
▁넘어질	-10.8674
▁PL	-10.8675
▁안전장갑	-10.8675
▁지표면	-10.8675
▁우각부	-10.8675
▁정격	-10.8675
▁금이간	-10.8675
▁수평거리	-10.8675
▁안전율	-10.8676
▁엔진톱	-10.8676
▁운용	-10.8677
▁보조기구	-10.8677
▁왼손검지	-10.8678
▁기온	-10.8679
▁항공마대	-10.868
▁특이사항	-10.868
에이치	-10.8683
▁미끄러진	-10.8683
▁시공계획서	-10.8683
▁설정하고	-10.8684
▁인정할	-10.8684
▁호흡용	-10.8685
▁자재적재	-10.8686
▁주변상황	-10.8687
▁가조립	-10.8687
▁우측다리	-10.8688
▁지지점	-10.8688
▁문턱	-10.869
▁잡다가	-10.8694
▁출동	-10.8694
ri	-10.8694
▁202	-10.8695
▁누르	-10.8695
▁함석	-10.8696
▁골절되었음	-10.8696
었는데	-10.8696
▁다수	-10.8697
▁눌리	-10.8698
▁찍	-10.8698
▁철근절단기	-10.8698
▁해지장치	-10.8698
기사	-10.8701
정수장	-10.8702
▁1~2	-10.8703
▁해체순서	-10.8704
▁미만	-10.8708
▁사건	-10.8709
▁낙상함	-10.8709
▁파악하지	-10.871
▁모양	-10.8717
▁전락	-10.8718
공종	-10.872
▁시공시	-10.8724
▁0.5	-10.8725
▁개인의	-10.8725
▁연락하여	-10.8726
▁보양지	-10.8729
▁결빙구간	-10.873
▁13:30	-10.873
▁미장공사	-10.873
▁낀	-10.8733
▁어깨통증	-10.8733
▁감시인	-10.8734
▁내려오기	-10.8738
▁진행하던중	-10.8741
▁덩어리	-10.8742
▁숙소	-10.8742
▁참	-10.8744
▁철선에	-10.8748
▁옆면	-10.8749
세대	-10.875
▁치다가	-10.8751
▁입고	-10.8751
▁선반	-10.8756
록	-10.8768
▁BOX	-10.8769
▁오던	-10.8772
▁아프다	-10.8778
▁야간	-10.878
▁마다	-10.8783
▁쓰	-10.8783
▁강판	-10.8789
▁기상	-10.8799
▁착용하지	-10.8801
▁방지장치	-10.8804
▁떠	-10.8805
2019	-10.8813
▁발코니에서	-10.8819
▁병원이송	-10.8826
▁달라	-10.8829
▁하부작업자	-10.8829
▁제시	-10.883
▁시공사에	-10.883
▁협력업체인	-10.8831
▁무시	-10.8832
▁작업중지	-10.8837
자재에	-10.8838
▁발판사이	-10.8839
▁동결	-10.8847
▁가도	-10.8847
▁연결되어	-10.8858
▁울	-10.886
▁종	-10.8872
4)	-10.8874
▁간단	-10.8884
전선	-10.8901
▁502	-10.892
중량	-10.8927
발판을	-10.8946
▁내려치	-10.8948
▁민	-10.895
▁후진시	-10.8951
있어	-10.8952
▁짚는	-10.8958
▁와이어로프에	-10.8958
선에	-10.8968
▁작업복	-10.8968
면과	-10.8977
▁기초바닥	-10.8981
받	-10.899
청사	-10.8991
▁N	-10.8998
▁강관파이프에	-10.8999
▁필요로	-10.901
~5	-10.9021
▁평면	-10.9023
▁철근운반	-10.9025
순	-10.9029
톱	-10.9039
든	-10.9041
사고가	-10.9043
▁연마	-10.9044
▁가시설공사	-10.9045
▁어깨부위	-10.9049
▁인계	-10.905
▁형성	-10.9052
손목	-10.9053
▁장애물이	-10.9058
▁드럼에	-10.9064
밀	-10.9066
▁지켜보	-10.9069
▁교통사고	-10.9075
충	-10.9083
강재	-10.9086
화장실	-10.9089
▁철골자재	-10.909
능력	-10.9093
말뚝	-10.9101
캡	-10.9102
항타	-10.9102
풀	-10.9103
홍	-10.9103
스위치	-10.9104
출입구	-10.9104
질병	-10.9104
각파이프	-10.9105
강관파이프	-10.9108
▁날아	-10.9108
대원	-10.9109
▁ᄋᄋᄋ씨	-10.9113
이동식	-10.9114
회사	-10.9115
서포트	-10.9116
천막	-10.9118
▁내려놓다	-10.9122
▁박혀있	-10.9129
는순간	-10.9131
철선	-10.9138
▁높이로	-10.9151
▁진술에	-10.9169
▁고정한	-10.9171
▁상체	-10.9177
어져	-10.9179
▁발급	-10.9187
▁근무를	-10.9188
받아	-10.9199
▁유로폼과	-10.9199
▁버킷에	-10.9206
▁굴곡	-10.9207
▁공간에	-10.9208
정지	-10.921
었	-10.9213
▁교차	-10.9218
투	-10.922
검	-10.9225
▁묻	-10.9227
▁마루	-10.9231
▁돌풍	-10.9232
▁동바리가	-10.924
섬유	-10.9243
▁붙이	-10.9245
▁2021.10.	-10.9245
너	-10.9246
전에	-10.9246
▁석면	-10.9247
왔	-10.9248
희	-10.9249
시티	-10.9252
켓	-10.9253
▁남양	-10.9253
빙	-10.9253
탕	-10.9254
글	-10.9254
▁격리	-10.9254
▁크롤러	-10.9254
▁빼	-10.9255
엉	-10.9255
PILE	-10.9255
Span	-10.9255
▁깁스	-10.9255
▁꺾여	-10.9255
▁덮쳐	-10.9255
▁뒤틀림	-10.9255
▁붙임	-10.9255
▁비산먼지	-10.9255
▁산소결핍	-10.9255
▁생계형	-10.9255
▁짧은	-10.9255
▁찧어	-10.9255
▁커튼월	-10.9255
▁빗물받이	-10.9255
▁억제	-10.9255
▁안전계수	-10.9255
▁습식	-10.9255
▁케이슨	-10.9255
▁운행경로	-10.9255
▁압롤박스	-10.9255
▁교환	-10.9255
▁사료됨	-10.9255
▁정상근무	-10.9255
▁받았고	-10.9255
▁걸어가다	-10.9255
▁던져	-10.9255
▁탈거	-10.9255
▁가스용기	-10.9256
▁순간풍속	-10.9256
▁핸드드릴	-10.9256
▁결박	-10.9256
▁함몰	-10.9256
▁불가피	-10.9257
▁입힘	-10.9257
▁완료한	-10.9257
▁없었음	-10.9257
톤트럭	-10.9257
▁평소	-10.9257
▁심해져	-10.9257
▁올바	-10.9257
▁기상상태	-10.9258
▁소화배관	-10.9258
▁밟음	-10.9258
▁타이볼트	-10.9258
▁탈구	-10.9258
▁펴	-10.9259
▁고속	-10.926
▁해치	-10.926
▁굽	-10.9261
▁있음에도	-10.9261
▁걸어가던	-10.9262
▁문제점	-10.9262
▁불편함	-10.9263
▁제원	-10.9264
▁침투	-10.9264
▁미보고	-10.9264
▁앙카볼트	-10.9265
▁베여	-10.9267
▁보존	-10.9268
▁공기압축기	-10.9269
▁EPS	-10.9269
▁받았습니다	-10.9269
▁인하	-10.927
▁우측팔	-10.927
▁기종	-10.9272
▁요양급여신청서	-10.9272
▁대형거푸집	-10.9272
▁갖추	-10.9274
▁용접봉	-10.9274
▁긴결재	-10.9276
▁돌출물	-10.9277
▁있기	-10.9277
하수처리장	-10.9278
▁텐션	-10.9278
▁어린이집	-10.9278
▁사진	-10.9279
▁우리	-10.9281
상부에	-10.9282
▁협착재해	-10.9283
▁양중장비	-10.9283
▁역	-10.9283
▁좌측손	-10.9285
▁통보함	-10.9289
▁개인질병	-10.9289
▁오르는	-10.9294
▁직영반장	-10.9295
▁버림	-10.9296
▁지연보고	-10.9297
▁「	-10.9297
▁마스크	-10.9297
▁방안	-10.9301
▁참고	-10.9302
▁깨	-10.9305
▁추락방지대	-10.9306
▁*****	-10.9306
▁달포대	-10.9307
▁수거	-10.9307
파기	-10.9307
수받이	-10.9308
▁가던중	-10.9308
일명	-10.9308
▁형틀작업자	-10.931
▁원형톱날	-10.9312
▁타격으로	-10.9313
교차로	-10.9315
▁외부계단	-10.9316
▁취하고	-10.9317
있습니다	-10.9319
▁확보되지	-10.9319
▁정리하기	-10.932
▁했	-10.9322
▁전남	-10.9322
▁지름	-10.9324
▁인근병원	-10.9325
▁미숙지	-10.9325
▁보임	-10.9329
▁안전계단	-10.9329
▁들어올리다	-10.9331
▁제방	-10.9332
▁발병	-10.9336
▁부딪히고	-10.9338
▁이력	-10.9347
▁BEAM	-10.9348
▁마감재	-10.9348
▁일어서는	-10.9352
▁건물의	-10.9354
▁부어	-10.9355
▁개소	-10.9358
▁서포트에	-10.9359
▁신축현장에서	-10.9359
▁1.6	-10.936
▁포함하여	-10.9361
염좌	-10.9364
상에서	-10.9365
7.	-10.9369
▁접질리는	-10.9371
▁자르다	-10.9374
▁※	-10.9375
▁경사도	-10.9375
▁우마발판	-10.9376
▁작업전선	-10.938
▁자료	-10.9381
▁결속하고	-10.9382
▁AM	-10.9386
PC	-10.9393
▁200	-10.9397
되었으나	-10.9397
▁심해	-10.9398
▁증상이	-10.94
받침대	-10.94
▁놓쳐서	-10.9408
43	-10.9412
TG	-10.9413
▁조립하기	-10.9423
▁제작장에서	-10.9428
▁->	-10.9429
▁시설물에	-10.9441
▁탈	-10.9441
▁입원중	-10.9445
▁절단면	-10.9447
주위	-10.9448
▁걸어서	-10.9449
▁1.3	-10.946
(1.8	-10.9461
▁작동시켜	-10.9464
▁풍	-10.9467
▁덤프트럭에	-10.9471
▁기사와	-10.9471
▁형틀작업중	-10.9481
▁제거하지	-10.9487
▁거주	-10.9496
용량	-10.9505
▁리어카에	-10.951
▁일시적	-10.9511
▁주택	-10.9511
▁실시하던	-10.9527
▁무너	-10.9536
400	-10.9542
▁먹메김	-10.9543
니다	-10.9555
▁경보	-10.956
▁작업차	-10.9562
▁상부작업자	-10.9565
하여야하나	-10.9577
▁포	-10.958
▁잠수작업	-10.9582
▁넘어가던	-10.9585
BH	-10.9587
▁보철근	-10.9588
▁공법으로	-10.9588
▁보통	-10.9588
▁나오	-10.959
▁지탱	-10.9592
▁틀	-10.9596
▁하되	-10.9597
빌	-10.9603
었고	-10.9609
▁포장공사	-10.9615
▁요추부	-10.9616
PE	-10.9618
지침	-10.962
▁보와	-10.9626
▁단독작업	-10.9627
▁연결한	-10.9633
62	-10.9634
(50	-10.9635
처리시설	-10.9636
화재	-10.9639
▁굴착부	-10.965
반장이	-10.9651
▁있으	-10.9654
습	-10.9654
▁후속작업	-10.9659
ᄋᄋ	-10.966
▁현장관리자	-10.9661
▁근무중	-10.9667
▁않아서	-10.9669
▁기기	-10.9674
되었는지	-10.9688
▁통합	-10.9694
▁아래의	-10.9701
▁부딪	-10.9704
받침	-10.9707
▁체결하여	-10.9707
휴	-10.9708
취	-10.9711
▁지면을	-10.9712
▁일부분	-10.9718
받음	-10.9719
새	-10.972
▁작동이	-10.9724
정형외과의원	-10.9724
▁감아	-10.9725
떠	-10.9725
홈	-10.9728
터파기	-10.9729
PIT	-10.9729
너트	-10.973
▁오수	-10.973
특성	-10.9731
부족	-10.9732
코어	-10.9734
통제	-10.9735
현장내	-10.9736
▁301	-10.9738
▁법	-10.9744
재단	-10.9754
오른손	-10.9755
▁의식이	-10.9757
▁후진중	-10.9761
월요일	-10.9765
▁올라서	-10.977
▁옹벽거푸집	-10.9773
였으며	-10.9774
모서리에	-10.9775
공원	-10.9776
▁첫마디	-10.9778
조적	-10.978
▁잡으려	-10.9784
▁사망자	-10.979
▁해체공사	-10.9792
▁깊	-10.9806
▁작업함	-10.9812
작업은	-10.9817
어깨	-10.9822
사면	-10.9823
▁스파크	-10.9823
▁복	-10.9823
▁새	-10.9825
부근에서	-10.9828
▁철근작업자	-10.983
▁현장에서는	-10.9841
▁돌아서	-10.9845
▁타카	-10.9849
▁상수관	-10.985
▁떨어질	-10.9855
비계에서	-10.9857
▁발행	-10.9859
▁요양급여신청	-10.9862
▁터널내	-10.9866
꺼	-10.9871
엠	-10.9872
▁압송	-10.9873
해당	-10.9874
▁기둥과	-10.9878
▁얼음	-10.9879
테이프	-10.9879
▁행복주택	-10.988
▁톤백	-10.988
▁그라인딩	-10.988
▁석탄취급설비	-10.988
▁죄측	-10.988
▁트롤리	-10.988
▁특징	-10.988
▁노무자	-10.988
▁갑판	-10.988
▁빨리	-10.988
▁렌치	-10.988
▁사각지대	-10.988
▁안전보건규칙	-10.988
▁불안전행동	-10.988
▁익일	-10.988
▁노끈	-10.988
▁괜찮다고	-10.988
▁개인지병	-10.988
▁실족방지망	-10.988
▁미숙련	-10.988
▁근생	-10.9881
▁근육파열	-10.9881
▁세척	-10.9881
▁트레이	-10.9881
▁생김	-10.9881
▁부검	-10.9881
마디가	-10.9882
▁굴진	-10.9882
▁공벽	-10.9882
▁충진	-10.9882
▁원지반	-10.9883
▁창문틀	-10.9883
▁도입	-10.9883
▁광양	-10.9883
▁연계	-10.9883
▁강관동바리	-10.9883
▁방통	-10.9883
▁알림	-10.9884
▁이빨	-10.9884
▁하루	-10.9884
▁타입	-10.9884
▁진단받음	-10.9885
속에	-10.9885
▁폭설	-10.9885
▁보안면	-10.9885
▁아치	-10.9886
▁의하면	-10.9886
▁08:30	-10.9887
▁태만	-10.9887
▁인양능력	-10.9887
▁않았고	-10.9887
▁탈락되며	-10.9887
IC	-10.9888
▁계측결과	-10.9888
▁서류	-10.9889
▁좌측어깨	-10.9889
▁국도	-10.9889
LC	-10.9889
▁허리부상	-10.989
▁고통	-10.9891
▁찢어지고	-10.9891
▁광차	-10.9891
▁사전점검	-10.9892
▁긴장력	-10.9892
▁3~4	-10.9893
▁6>	-10.9894
▁못하였고	-10.9895
▁당초	-10.9895
▁안전장구	-10.9895
▁안전덮개	-10.9895
▁적정여부	-10.9895
▁역순	-10.9896
▁발바닥	-10.9897
▁종골	-10.9899
▁주변지반	-10.9899
▁PT	-10.9899
▁경골	-10.99
번길	-10.9901
▁DH	-10.9901
▁폭약	-10.9902
▁내려오지	-10.9902
▁받았으나	-10.9904
▁기중기	-10.9905
▁시공계획	-10.9908
▁본선	-10.991
▁실시하였고	-10.9912
▁기계기구	-10.9914
▁밸트	-10.9915
▁주입재	-10.9916
▁하지만	-10.9917
▁작업배치	-10.9918
▁진동기	-10.9919
▁물품	-10.9921
▁평탄한	-10.9922
▁전기선	-10.9923
▁개인부주의	-10.9923
▁요청함	-10.9926
▁여유	-10.9928
▁채용	-10.9929
주는	-10.993
▁산소절단	-10.993
▁기지	-10.9933
▁심장	-10.9935
▁배면부	-10.9938
▁투입되어	-10.9938
▁샌드위치	-10.9944
자로	-10.9945
▁예인	-10.9948
사거리	-10.9951
▁가시설물	-10.9959
▁비로	-10.9964
▁장애	-10.9967
▁침하방지	-10.9969
끼리	-10.997
#	-10.9976
▁퇴	-10.9978
▁각막	-10.998
▁작업계획에	-10.9981
▁연결재	-10.9981
▁간격이	-10.9985
▁의자	-10.9987
▁일어나는	-10.9994
▁끝에	-11.0002
▁적은	-11.0002
▁막장에서	-11.0007
▁상시	-11.0007
날이	-11.0009
▁투입하여	-11.0009
오던	-11.0012
it	-11.0017
▁이탈로	-11.0017
▁굴착장비	-11.0019
▁작업신호	-11.0022
▁수원	-11.0027
▁다쳐	-11.0031
▁북	-11.0045
무를	-11.0046
션	-11.0049
▁연결하고	-11.005
위치에	-11.0055
▁후면에	-11.0059
▁낙하사고	-11.0061
▁흙바닥	-11.007
▁올리다	-11.0072
▁작업근로자	-11.0074
▁고인	-11.0074
(2.5	-11.0076
측에서	-11.0078
▁목재절단	-11.0087
▁양중물	-11.009
▁조작하여	-11.0108
려는	-11.0108
3.5	-11.0113
▁낙상하여	-11.0113
중임	-11.0115
▁철근작업	-11.0126
▁허가	-11.0128
개인	-11.013
▁군	-11.0145
▁분출	-11.0152
내려	-11.0155
▁움직이다	-11.0158
▁들어오	-11.0169
▁회사	-11.0171
▁쏟아	-11.0175
건설산업	-11.0179
▁당사에서	-11.018
▁안된	-11.0187
▁본동	-11.0197
▁수레에	-11.0205
으려다	-11.0209
▁항시	-11.0212
되자	-11.0216
1.4	-11.023
▁진행하는	-11.0232
▁관리자가	-11.0237
북도	-11.0238
하부에	-11.0247
▁가료	-11.0251
엄지손가락이	-11.0253
▁설치하던중	-11.0259
자에게	-11.0266
중학교	-11.0268
▁작업구간으로	-11.0277
▁관절염	-11.0282
▁사고조사	-11.0284
1.1	-11.0306
써	-11.0318
▁간과	-11.0323
▁낙	-11.0329
▁중장비	-11.0334
▁현대	-11.0334
천교	-11.0352
향	-11.0353
▁그라인더날	-11.0354
바에	-11.0365
▁감리	-11.0367
▁동료인	-11.037
▁걸기	-11.0371
▁체결된	-11.0378
응	-11.0383
33	-11.0385
설치공사	-11.0386
공급	-11.0387
▁방향에	-11.0388
케이블	-11.0391
합니다	-11.0392
설계	-11.0394
패널	-11.0394
총	-11.0394
발가락	-11.0395
클	-11.0395
▁113	-11.0395
폐기물	-11.0396
윤	-11.0396
앵커	-11.0396
신청	-11.0397
충돌	-11.0397
팔꿈치	-11.0397
개방성	-11.0398
이었음	-11.0399
이동통로	-11.0401
근무	-11.0405
▁경비	-11.0407
안전대	-11.0415
▁퍼티	-11.0416
▁전선이	-11.0416
경사	-11.0426
▁Beam	-11.0431
▁끼우	-11.0434
▁말려들어	-11.0435
작업방법	-11.045
▁책임	-11.0455
형태	-11.0469
▁부주의하게	-11.0476
▁부대	-11.0479
’	-11.0484
▁이루어	-11.0487
장소에서	-11.0489
지않은	-11.049
외벽	-11.0491
인한	-11.0492
▁부근에	-11.0494
▁착수	-11.0496
포대	-11.0496
입원	-11.0501
례	-11.0502
▁체계	-11.0504
▁우수관	-11.0506
▁상차작업	-11.0508
중심을	-11.0515
▁나뭇가지	-11.0516
부재를	-11.0518
▁전파	-11.0519
▁원위지골	-11.052
▁교사	-11.0521
n	-11.0523
▁숙련	-11.0525
▁있던중	-11.0528
▁제조	-11.0534
▁확인하는	-11.0534
▁코뼈	-11.0539
조경	-11.054
띠	-11.054
▁일체	-11.0544
▁흡연	-11.0545
룸	-11.0545
보험급여	-11.0545
▁빨려	-11.0546
렉	-11.0546
▁슬라임	-11.0546
▁그물코	-11.0546
▁멈춤	-11.0546
▁물질안전보건자료	-11.0546
▁생물반응조	-11.0546
▁찢어져	-11.0546
▁트랙	-11.0546
▁프리스트레스	-11.0546
낸	-11.0546
Lug	-11.0546
▁RCS	-11.0546
▁선도관	-11.0546
▁주형보	-11.0546
▁완벽	-11.0546
▁태우이엔지	-11.0546
▁일직선	-11.0546
▁센서	-11.0546
▁미니굴삭기	-11.0547
발전소	-11.0547
럭스	-11.0547
▁갑작스럽	-11.0547
▁압입	-11.0547
▁어려워	-11.0547
▁면장갑	-11.0547
▁풍하중	-11.0547
=1.5	-11.0547
TON	-11.0547
▁맞은편	-11.0548
▁허용하중	-11.0548
▁미끄러움	-11.0548
▁목장갑	-11.0548
▁침설	-11.0548
▁안전기울기	-11.0548
▁파일항타	-11.0548
▁과거	-11.0548
▁기울어짐	-11.0548
▁정렬	-11.0549
▁오른속	-11.0549
▁대좌	-11.0549
▁활차	-11.0549
▁매입	-11.0549
▁공기압	-11.0549
▁공조기	-11.055
▁꽂	-11.055
▁오른손가락	-11.0551
▁끝난	-11.0551
▁연소	-11.0551
▁공동	-11.0551
▁밀리며	-11.0552
▁부축	-11.0552
▁떼	-11.0552
▁방수턱	-11.0553
▁유격	-11.0553
▁생산	-11.0554
▁없으나	-11.0555
▁앵커체	-11.0555
▁버티지	-11.0556
▁비상구	-11.0556
▁올라간	-11.0557
▁숙이	-11.0558
▁가로수	-11.0558
▁파손되며	-11.0559
▁강당	-11.0561
▁운반대차	-11.0561
▁미조치	-11.0561
▁좌측팔	-11.0561
호라인	-11.0562
▁부여	-11.0562
▁CCTV	-11.0563
▁CPB	-11.0563
▁바이브레이터	-11.0563
▁파형강관	-11.0563
▁꼬리뼈	-11.0563
▁지식	-11.0563
b	-11.0563
▁부속품	-11.0564
▁우측무릎	-11.0566
▁파편	-11.0567
▁주유	-11.0568
오는	-11.0568
▁내민	-11.0569
▁승강사다리	-11.057
▁지반조건	-11.057
▁보온재	-11.0572
프라	-11.0572
▁스티로폼	-11.0573
▁족관절	-11.0573
▁줌	-11.0573
▁터빈동	-11.0573
▁강타함	-11.0575
▁수평부재	-11.0577
▁보호공	-11.0578
▁설계도	-11.0579
▁엄지손가락에	-11.0579
▁골절부상	-11.0579
▁진주	-11.058
▁사용법	-11.0581
▁매단	-11.0582
단차	-11.0583
차례	-11.0583
▁포항	-11.0585
▁문짝	-11.0586
▁흔들리며	-11.0586
▁올리고	-11.0588
대병원	-11.0593
▁경사발판	-11.0596
▁짚고	-11.0597
▁공종별	-11.0597
▁미끄러지지	-11.0598
▁끊어지	-11.0603
▁걸이로	-11.0603
▁밀고	-11.0604
▁작업시간	-11.0607
▁화단	-11.061
▁J	-11.0611
▁작업책임자	-11.0612
▁용인	-11.0614
▁생활	-11.0614
▁TS	-11.0617
▁하단에	-11.0618
▁용접사	-11.0621
▁내방	-11.0622
지점에	-11.0623
▁수벽	-11.0623
▁칼	-11.0628
▁벗겨지	-11.0632
▁내력	-11.0634
▁절단하다	-11.0636
▁건설자재	-11.064
▁판단하고	-11.0651
못하고	-11.0652
▁설치기준	-11.0657
▁적재하던	-11.066
▁0.8	-11.0661
▁확인됨	-11.0662
▁제거하던중	-11.0664
▁작업범위	-11.0668
▁방수공사	-11.0673
▁활동	-11.0679
▁추락위험이	-11.068
100	-11.0681
▁감독자	-11.0681
▁걸려있는	-11.0684
▁좌수	-11.0688
▁머리부분	-11.0692
▁2020.07.	-11.0695
▁지중	-11.0696
▁조공	-11.0699
관리자에게	-11.0708
▁종류에	-11.0709
▁작업구간에	-11.072
▁필	-11.0722
▁인양구	-11.0726
:05	-11.0728
▁보온작업	-11.0729
▁확인하며	-11.0732
▁계획에	-11.0736
이앤씨	-11.0737
▁상단부에	-11.074
▁겨드랑이	-11.0741
▁주저앉	-11.0746
▁실시함	-11.0753
▁되어있는	-11.0755
(12	-11.0755
▁골절진단	-11.0758
작업이	-11.0761
▁합	-11.0761
높이에	-11.0769
▁가능하다	-11.0772
레스	-11.0774
발이	-11.0781
▁하물	-11.0785
▁밀어내	-11.079
▁설치방법	-11.0791
▁1.4	-11.0798
▁이중	-11.0799
▁출	-11.0801
▁강한	-11.0802
▁부러	-11.0817
▁무단	-11.0817
▁제거시	-11.0819
▁비치하여	-11.0822
넘어지면서	-11.0826
▁당현장에서	-11.0829
▁결속작업	-11.0834
▁마감공사	-11.0835
위치로	-11.0846
분야	-11.0854
▁정리하고	-11.0855
이탈	-11.0859
▁매일	-11.0861
▁운반하고	-11.0863
▁경부	-11.0863
▁가장자리	-11.0871
▁종사	-11.088
지원	-11.0884
자형	-11.0887
▁지지하여	-11.0888
▁앞부분	-11.0888
▁작업안전	-11.0889
▁사용에	-11.0889
▁둥근	-11.089
▁부재로	-11.0897
▁실시하는	-11.0904
하였음에도	-11.0904
▁부족한	-11.0908
오전	-11.091
:15	-11.0919
잡	-11.0924
▁열려	-11.0927
63	-11.0927
▁발받침	-11.0928
▁종합적	-11.0928
▁이수	-11.093
▁미터	-11.093
핀을	-11.0933
▁장비신호수	-11.0942
▁법령에	-11.0946
▁철골공사	-11.0951
▁굴착기의	-11.0955
▁좋	-11.0957
구간으로	-11.096
단순	-11.096
키	-11.0966
▁氏	-11.098
시공사	-11.0987
책임자	-11.0992
▁확인되어	-11.1006
▁낙하에	-11.101
▁확인함	-11.1018
어진	-11.1018
원형톱	-11.1033
54	-11.1045
200	-11.1049
단면	-11.1051
받고	-11.1051
▁호스에	-11.1055
▁휘	-11.1058
▁철물에	-11.1059
▁롤러에	-11.1076
:35	-11.1081
▁보강조치	-11.1087
슬	-11.1095
굴	-11.1095
▁설	-11.1099
슬래브	-11.1101
삼	-11.1101
측으로	-11.1101
올라	-11.1104
검토	-11.1104
베	-11.1106
콘	-11.1106
더미	-11.1107
잔	-11.1108
넘	-11.1108
둥근톱	-11.1109
흙	-11.111
묶음	-11.111
출혈	-11.111
피재자	-11.1111
갱폼	-11.1111
밖	-11.1112
베임	-11.1113
시스템비계	-11.1114
사람	-11.1115
상에	-11.1122
도달	-11.1124
표지	-11.1127
기존	-11.1128
도착	-11.1133
▁압	-11.1139
▁배관과	-11.1141
▁수목이	-11.1154
ᄋᄋ씨	-11.1157
수량	-11.1159
카고	-11.1163
▁당기다	-11.1166
▁입구에	-11.1167
▁치다	-11.1169
수정	-11.1183
▁e	-11.1184
여서	-11.1189
▁세대에서	-11.1189
▁힘에	-11.1191
:3	-11.1195
▁떨어	-11.1196
시장	-11.1197
▁육안	-11.1199
용수	-11.1206
소장	-11.1208
200)	-11.1209
차단	-11.1211
륜	-11.1214
았고	-11.1218
혈관	-11.1219
▁오일	-11.122
건설기계	-11.1223
목수	-11.1224
▁파악하고	-11.1237
숙	-11.1239
▁지지대에	-11.1241
작업자와	-11.1244
▁담아	-11.1248
▁위치하여	-11.1251
머	-11.1251
▁하려다	-11.1254
부착	-11.1254
께	-11.1254
▁불발	-11.1256
▁벗어	-11.1256
보험	-11.1257
▁회전톱	-11.1257
딪	-11.1258
▁겹쳐	-11.1258
화로	-11.1259
▁홀더	-11.126
룡	-11.126
▁어지러움	-11.126
▁납품	-11.126
덩	-11.1261
Out	-11.1261
▁멈춰	-11.1261
▁불균형	-11.1261
▁안전보건총괄책임자	-11.1261
▁콧등	-11.1261
Ray	-11.1261
▁Tank	-11.1261
▁구덩이	-11.1261
▁귀마개	-11.1261
▁그라우트	-11.1261
▁넓이	-11.1261
▁녹이	-11.1261
▁덮침	-11.1261
▁방향전환	-11.1261
▁비디아이	-11.1261
▁산업재해조사표	-11.1261
▁압쇄기	-11.1261
▁워킹타워	-11.1261
▁전기배선	-11.1261
▁중환자실	-11.1261
▁찧으	-11.1261
▁턴테이블	-11.1261
▁팔레트	-11.1261
▁펼치	-11.1261
▁호박돌	-11.1261
냄	-11.1261
힐	-11.1261
▁불분명	-11.1261
▁전산볼트	-11.1261
▁액체	-11.1261
▁불명확	-11.1261
▁처방	-11.1261
▁뒤틀리	-11.1261
▁모멘트	-11.1261
▁오랜기간	-11.1261
▁아침조회	-11.1261
▁생겨	-11.1261
Kg	-11.1261
▁건설용리프트	-11.1261
▁탈착	-11.1261
▁화학설비	-11.1261
▁pc	-11.1261
▁유압펌프	-11.1261
▁달대비계	-11.1261
▁면밀	-11.1261
Jack	-11.1261
▁시야확보	-11.1261
▁발휘	-11.1262
▁강릉	-11.1262
▁피복손상	-11.1262
▁소요강도	-11.1262
▁소켓	-11.1262
▁라이닝폼	-11.1262
=1.8	-11.1262
▁보호캡	-11.1262
▁드럼통	-11.1262
▁폐수처리	-11.1262
▁부위에서	-11.1262
▁인력굴착	-11.1263
▁철구조물	-11.1263
▁찍음	-11.1263
▁작아	-11.1263
▁토사붕괴	-11.1263
▁착공	-11.1264
▁축력	-11.1264
▁호송	-11.1264
▁양호	-11.1264
▁강우량	-11.1264
▁높아	-11.1265
▁골정상	-11.1265
▁열린	-11.1265
도가	-11.1265
▁피하고자	-11.1266
▁깨진	-11.1266
▁냉각수	-11.1266
번코어	-11.1266
▁물호스	-11.1266
▁풍부	-11.1267
▁토사반출	-11.1267
▁실린	-11.1267
▁이동하려	-11.1267
▁자재반입	-11.1267
▁지그	-11.1267
▁성질	-11.1268
▁ALC	-11.1268
pe	-11.1268
▁차체	-11.1269
▁공구사용	-11.1269
방지장치	-11.127
▁수지	-11.127
▁레미콘차량	-11.1271
▁이상없음	-11.1271
▁부디쳐	-11.1271
▁꼬여	-11.1272
▁외상성	-11.1272
▁대표	-11.1274
▁점화원	-11.1275
▁자재인	-11.1276
▁추진력	-11.1277
▁왼쪽어깨	-11.1278
▁Ramp	-11.1278
막이	-11.1279
▁찍어	-11.128
▁방심	-11.128
▁사보강재	-11.1282
▁진료결과	-11.1283
▁작동여부	-11.1283
▁귀가함	-11.1286
▁위험기계	-11.1288
▁양단	-11.1288
▁디스크	-11.129
▁차징카	-11.129
▁뒷면	-11.129
▁찾아와	-11.1292
▁끼이며	-11.1292
▁때림	-11.1292
▁지급하고	-11.1296
받았다고	-11.1296
▁반복작업	-11.1297
작업장	-11.1298
▁확	-11.1298
▁감안	-11.1301
▁대화	-11.1302
▁둔부	-11.1303
▁현장조사	-11.1304
▁구조물이	-11.1305
▁정도로	-11.1305
▁재차	-11.1307
▁운전미숙으로	-11.1309
▁권유	-11.131
▁자르는	-11.1312
▁설정하여	-11.1315
▁검진결과	-11.1315
▁골조업체	-11.1317
▁기계식	-11.1319
▁떨어뜨리	-11.132
▁고덕	-11.1329
▁PP	-11.1331
▁보관하고	-11.1332
v	-11.1332
▁이미	-11.1332
▁꺼내던	-11.1333
자료	-11.1335
▁잔여물	-11.1336
▁급성	-11.1337
▁고정장치	-11.1338
▁단계에서	-11.1342
▁받던	-11.1344
▁지정하고	-11.1346
▁항목	-11.1346
▁사용방법	-11.135
▁공중	-11.1351
▁관리적	-11.1351
항에	-11.1352
▁사장	-11.1354
하수도관	-11.1355
▁와중	-11.1356
▁안에	-11.1357
▁발생되었음	-11.1362
구배	-11.1363
▁면적	-11.1366
▁성명	-11.1367
인천	-11.1368
▁발생하였다고	-11.1368
▁차단기	-11.1369
▁전류	-11.1372
▁오른손에	-11.1373
▁선단	-11.1375
▁굴착기로	-11.1375
▁나서	-11.1387
▁간이	-11.1387
▁사용전	-11.1388
▁경사지에서	-11.139
▁KS	-11.1396
▁문화	-11.1397
인지못하고	-11.1399
▁취한	-11.1404
▁마을	-11.1407
▁소방서	-11.1407
▁슬	-11.1411
▁정강이뼈	-11.1416
▁진입하여	-11.1416
▁제출하여	-11.1421
▁허리부위	-11.1426
2.6	-11.1429
(***	-11.143
▁하역작업중	-11.1431
들을	-11.1432
분간	-11.1439
▁일과	-11.1446
▁중임	-11.1448
▁든	-11.1454
▁통지	-11.1457
▁지면과	-11.1459
운반중	-11.1462
표시를	-11.1466
▁소리가	-11.1466
▁돌출부에	-11.1467
▁작업장에	-11.147
▁묶여있	-11.1471
▁기초공사	-11.1477
▁사고내용	-11.1482
▁올라와	-11.1483
▁오후에	-11.1489
▁작업하고	-11.1493
.2021	-11.1494
▁작업반경내에	-11.1496
▁체결작업	-11.1496
▁동료작업자와	-11.1502
:25	-11.1504
▁차선	-11.1504
▁경북	-11.1505
▁수평이	-11.1514
▁전기공	-11.1515
▁34	-11.1516
▁적재되어있	-11.1522
▁접근하여	-11.1522
▁자르던	-11.1522
▁소견으로	-11.1523
▁대기하던	-11.1527
▁'20	-11.1528
장소에	-11.1531
▁기울어지	-11.1534
공구현장	-11.1536
▁이동한	-11.1538
▁도로에	-11.1543
관을	-11.1545
▁피로	-11.1548
▁철골작업	-11.1555
85	-11.1561
였으나	-11.1566
)2.	-11.1567
로인한	-11.1569
▁튀	-11.157
▁아무	-11.1572
▁날리	-11.1573
▁창틀에	-11.1579
▁설치해야	-11.158
변위	-11.1591
에스	-11.1594
▁부족하여	-11.1597
▁포크를	-11.1597
설치작업중	-11.162
관절	-11.1623
▁달	-11.1633
▁인지한	-11.164
▁놓지	-11.1642
장소로	-11.1644
▁2020.08.	-11.1648
▁제작하여	-11.1652
시트	-11.1666
▁부합	-11.1682
※	-11.1682
▁철골설치	-11.1683
환경	-11.169
작업도중	-11.1692
▁한장	-11.1694
▁써포트에	-11.1702
▁조립하고	-11.1705
▁도시	-11.1708
▁업	-11.1708
▁덕	-11.1717
▁적재하여	-11.1723
스타	-11.1724
중심	-11.1736
▁뒷채움	-11.1739
▁정형외과에	-11.1751
▁운전중	-11.1759
▁하차중	-11.1777
▁내려서	-11.1784
▁운행중	-11.1787
▁비계자재	-11.1792
▁포설작업	-11.1794
(22	-11.1804
측면	-11.1805
▁양중하던	-11.1806
▁HO	-11.1809
▁묶여	-11.1812
▁링	-11.1819
▁정착부	-11.1824
▁정상작업	-11.1825
피해	-11.1828
▁해체작업시	-11.1832
현황	-11.1832
▁오른손등	-11.1835
▁띠장과	-11.1839
고개	-11.1844
인해	-11.1844
58	-11.1851
(100	-11.1863
▁헛디	-11.1866
롤러	-11.1867
극	-11.187
Pile	-11.187
결속	-11.1874
▁목을	-11.1875
플레이트	-11.1877
귀	-11.1878
아시바	-11.1878
필요	-11.188
▁트	-11.188
고소작업대	-11.1881
반생	-11.1882
목요일	-11.1882
경찰서	-11.1882
중량물	-11.1882
사고당일	-11.1885
안전벨트	-11.1885
사무실	-11.1887
입음	-11.1888
▁치는	-11.1889
인화성	-11.1889
형틀공	-11.189
▁바람으로	-11.1891
피해자	-11.1895
부상자	-11.1896
▁표면에	-11.1898
혈	-11.1906
▁제거중	-11.1907
▁날씨	-11.1909
▁개인적	-11.1911
후면	-11.1913
위치에서	-11.1918
▁수도	-11.192
표면	-11.1924
외상	-11.1929
▁하단부에	-11.1937
▁포크에	-11.1942
등으로	-11.1944
계단에서	-11.1947
300)	-11.1952
단위	-11.1959
▁2020.12.	-11.1966
전원	-11.1968
들고	-11.1969
동작	-11.1972
▁파편에	-11.1974
▁추락위험	-11.1988
▁흘러	-11.1989
작업장에서	-11.1991
:1	-11.1994
▁형강	-11.1998
▁터빈	-11.1999
근로복지공단	-11.1999
중공업	-11.2
▁현장내부	-11.2
▁제작중	-11.2002
▁병원방문	-11.2004
▁휴	-11.2004
▁케이	-11.2009
▁분배	-11.2014
▁잡아주	-11.2014
▁항타작업	-11.202
째	-11.2021
▁같	-11.2021
▁중간에	-11.2023
▁뒤집	-11.2024
헤	-11.2025
▁폐쇄	-11.2026
앤	-11.2026
윈	-11.2028
밴	-11.2028
▁핸들	-11.2029
▁스터드	-11.2029
▁올릴	-11.2029
▁튕김	-11.2029
ge	-11.2029
징	-11.203
객	-11.203
펀	-11.203
왕	-11.203
▁PBD	-11.203
▁공기호흡기	-11.203
▁글라인더	-11.203
▁끊어치기	-11.203
▁노무사	-11.203
▁뚫는	-11.203
▁리어커	-11.203
▁먹매김	-11.203
▁발걸림	-11.203
▁붙여	-11.203
▁스프링	-11.203
▁용수개거	-11.203
▁웅덩이	-11.203
▁죔줄	-11.203
▁지하연속벽	-11.203
▁짊어지	-11.203
▁체크리스트	-11.203
▁타정총	-11.203
▁화재감시인	-11.203
쿨러	-11.203
▁도시형생활주택	-11.203
▁발주청	-11.203
▁숙박시설	-11.203
▁PRD	-11.203
▁균등	-11.203
▁너비	-11.203
▁미끌리	-11.203
▁가지치기	-11.203
▁끝내고	-11.203
▁걸레받이	-11.203
▁검수	-11.203
▁오르내리	-11.203
▁곡선	-11.203
▁그리고	-11.203
▁방염포	-11.203
▁단열	-11.203
▁기상조건	-11.203
▁균일	-11.203
▁크램프	-11.203
▁수장공사	-11.2031
▁떨어뜨림	-11.2031
▁전동톱	-11.2031
성능	-11.2031
▁의뢰	-11.2031
▁새벽	-11.2031
▁쉬스관	-11.2031
▁품질관리	-11.2031
▁방호덮개	-11.2032
▁꽂아	-11.2032
▁보호커버	-11.2032
▁암롤박스	-11.2032
▁잔토	-11.2032
▁TTP	-11.2032
▁구두	-11.2033
▁매달아	-11.2033
▁인접건물	-11.2033
▁상향	-11.2033
▁조적벽	-11.2033
▁과열	-11.2033
▁기초철근배근	-11.2034
▁단축	-11.2034
▁부분파열	-11.2034
▁좌안	-11.2034
▁이행여부	-11.2034
▁직선	-11.2035
▁동행	-11.2035
단띠장	-11.2036
▁로드	-11.2037
▁침목	-11.2037
▁로비	-11.2037
▁홈메우기	-11.2037
▁일으키	-11.2037
▁인장력	-11.2037
▁개착	-11.2038
▁설계기준	-11.2038
▁기인물	-11.2038
▁목포	-11.2038
▁강관틀비계	-11.2038
▁조명시설	-11.2038
▁채우	-11.2038
▁전력선	-11.2039
▁쇠파이프	-11.2039
▁지반조사	-11.2039
▁강박스	-11.2039
▁추락방지시설	-11.204
▁기존구조물	-11.204
▁주변주차장	-11.204
▁배관설치	-11.2041
분쯤	-11.2042
▁상황으로	-11.2043
▁다발성	-11.2043
2-2	-11.2043
조건에	-11.2044
▁고양	-11.2044
▁대신	-11.2044
▁단관	-11.2045
▁벤딩	-11.2045
▁근무하였으나	-11.2045
▁제조사	-11.2045
▁명기	-11.2045
▁열차	-11.2046
▁유지관리	-11.2046
▁미니	-11.2046
▁밀차	-11.2047
▁EV	-11.2048
▁방호구	-11.2048
▁빼지	-11.2049
▁장선재	-11.2049
▁송기마스크	-11.2049
▁7>	-11.205
▁토공사	-11.205
▁동반한	-11.205
▁주변정리	-11.2051
▁잡으려고	-11.2053
▁설계조건	-11.2053
▁전기배관	-11.2054
EA	-11.2055
▁부산물	-11.2055
▁산소절단기	-11.2055
▁시운전	-11.2056
추락방지용	-11.2056
적벽돌	-11.2056
▁헛디디면서	-11.2057
▁말단	-11.2057
▁가용접	-11.2058
요원	-11.2058
▁물탱크실	-11.2059
▁함체	-11.2059
▁강원	-11.2059
▁‘	-11.206
▁필요하다고	-11.206
▁왼손중지	-11.2061
▁기숙사	-11.2061
▁노후화	-11.2062
▁조성사업	-11.2063
▁안전기준	-11.2063
▁골절상해	-11.2063
▁착용여부	-11.2064
▁비상용	-11.2065
달라	-11.2066
▁파고	-11.2066
▁함유	-11.2067
▁지붕판	-11.2068
▁안전지침	-11.207
▁바닥슬라브	-11.2071
▁잠수부	-11.2072
▁슬개골	-11.2074
▁신청함	-11.2074
▁지조립	-11.2074
다발	-11.2074
▁사망사고	-11.2075
▁되어야	-11.2076
▁올려주	-11.2076
▁안전사항	-11.2078
▁정전기	-11.2078
지주	-11.2081
▁구간내	-11.2083
▁전도방지조치	-11.2083
▁알폼핀	-11.2084
▁상병	-11.2084
▁압박골절	-11.2084
▁시작전	-11.2086
▁안전커버	-11.2086
▁진단됨	-11.2086
▁일용	-11.2088
▁관로공	-11.2089
▁신고함	-11.2089
▁조합	-11.2091
계통	-11.2092
▁뇌	-11.2092
▁안성	-11.2096
▁패	-11.2096
▁설치해	-11.2097
▁Plate	-11.2099
▁NO	-11.21
▁내려야	-11.2101
▁전석	-11.2103
▁’2	-11.2103
0.9	-11.2104
▁올라서다	-11.2106
▁밟은	-11.2107
▁없는가	-11.2109
▁낙하되면서	-11.2112
▁안쪽에	-11.2113
▁동료근로자와	-11.2113
▁상처부위	-11.2115
▁견	-11.2115
▁자루	-11.2116
공영	-11.2118
▁해지	-11.2118
▁작업지침	-11.2119
▁2019.10.	-11.2128
▁골절재해	-11.2128
▁비산물	-11.213
▁입지	-11.213
▁등록	-11.2132
▁방치하여	-11.2134
▁득	-11.2136
▁밀리	-11.214
▁요소	-11.2142
▁도어	-11.2144
▁당진	-11.2153
▁네	-11.2153
▁******	-11.216
▁작업공정	-11.2161
▁형틀공이	-11.2161
▁3.2	-11.2167
▁이외에	-11.2167
▁올	-11.2169
과정에	-11.2172
▁중이었음	-11.2173
▁고정식	-11.2175
▁이천	-11.2176
▁사고발생함	-11.2176
▁작업구	-11.2181
▁현장사무실로	-11.2186
▁밀폐공간에서	-11.219
▁한손에	-11.2191
▁손톱부분	-11.2194
면으로	-11.2194
▁혈관	-11.2199
▁계단이	-11.22
인부	-11.2201
▁사고신고	-11.2204
▁인지하게	-11.2211
▁조건이	-11.2212
▁빠져나오	-11.2213
▁박혀	-11.2215
▁무릎부위	-11.2216
▁안전핀	-11.2216
▁신중	-11.2217
▁장화	-11.222
▁한쪽발	-11.2229
▁목자재	-11.223
(0.6	-11.2237
(13	-11.2245
▁집에서	-11.2255
용기	-11.226
6)	-11.227
도시	-11.2274
▁후진하여	-11.2279
▁옥상층에서	-11.2284
플	-11.2285
▁발생하였으며	-11.2285
▁균열이	-11.2286
▁집수정에	-11.2288
▁내려오는중	-11.2288
나온	-11.229
▁탑승한	-11.2297
마대	-11.2299
9-1	-11.23
▁부딪치	-11.2304
▁작업장내	-11.2304
▁제거작업중	-11.2307
▁관로공사	-11.2309
▁세로	-11.2312
▁투입되	-11.2317
▁중식	-11.2321
복합	-11.2323
▁배수지	-11.2325
▁회전부	-11.2326
▁탑승자	-11.2327
gg	-11.2329
▁느슨	-11.233
이었으며	-11.2334
▁체중	-11.2335
상을	-11.2337
▁빼다	-11.2341
▁한번	-11.2347
▁늘어	-11.2361
▁가설전선	-11.2365
▁되었	-11.2366
번호	-11.2368
하단	-11.2368
▁수조	-11.2387
▁시공사에서	-11.239
신축공사	-11.2396
▁운전실	-11.2402
미숙으로	-11.2405
49	-11.2406
▁회전을	-11.2408
▁다친사고	-11.2411
▁보조공	-11.2414
▁제주	-11.2418
▁페인트가	-11.2422
열에서	-11.2426
장씩	-11.2428
▁각부	-11.2431
▁파일이	-11.2439
▁빼내려	-11.244
도면	-11.2443
▁손가락과	-11.2444
▁발목골절	-11.2444
으면	-11.2448
▁중요	-11.245
▁수술이	-11.2455
▁이동시키는	-11.2461
▁다리부분	-11.2469
▁작업현장에서	-11.2475
작업구간에서	-11.2479
▁확인중	-11.2489
▁타현장	-11.249
▁현장근로자	-11.2492
성토	-11.2496
이상으로	-11.2496
담당자	-11.2496
▁이탈방지	-11.2496
0.6	-11.2502
저장	-11.2503
확인사항	-11.252
▁거푸집자재	-11.252
손가락이	-11.2529
▁지붕작업	-11.253
▁미는	-11.2538
과정중	-11.2541
▁직접적	-11.2541
.○	-11.2545
▁느슨해	-11.2546
▁작업장소에서	-11.2547
인은	-11.2549
▁시스템동바리에	-11.2559
▁타일자재	-11.2561
▁홀에	-11.2569
▁슬링벨트에	-11.257
▁수정을	-11.2574
독	-11.2577
=1	-11.258
▁물체를	-11.2581
▁받으	-11.2581
원이	-11.2582
▁나왔	-11.2608
설치된	-11.2609
▁대비한	-11.2612
5.5	-11.2613
ᄋ	-11.264
37	-11.2642
공단	-11.2643
화물	-11.2646
야하나	-11.265
▁내외	-11.2651
▁계단참에	-11.2655
▁재개	-11.266
▁보조작업자	-11.2663
펌프	-11.2665
농	-11.2671
눈	-11.2674
나오면서	-11.2674
▁분리하기	-11.268
▁하차시	-11.2684
레일	-11.2689
밴드	-11.2699
▁살수작업	-11.27
협	-11.2702
듯	-11.2702
▁32	-11.2702
비트	-11.2703
기업	-11.2706
고르기	-11.2708
BOX	-11.2709
끈	-11.271
슈	-11.271
걸려	-11.2711
KS	-11.2711
모터	-11.2712
띠장	-11.2713
사망자	-11.2714
최초	-11.2715
검진	-11.2715
새끼손가락	-11.2716
머리	-11.2716
근처	-11.2716
사고내용	-11.2717
▁적재한	-11.2719
최대	-11.272
침하	-11.2724
상승	-11.2724
직경	-11.2724
▁p	-11.2726
▁하역하던	-11.2727
정비	-11.2729
트리	-11.2734
렸	-11.2738
▁120	-11.274
▁설치공	-11.2741
▁닫는	-11.2742
배수지	-11.2744
선회	-11.2746
▁안동	-11.275
식재	-11.2753
장애	-11.2755
▁작업별	-11.2761
손톱	-11.2761
해체작업중	-11.2769
▁체결되어	-11.277
▁겹침	-11.2772
▁늦어	-11.2778
소지	-11.278
▁근로자로	-11.2781
▁외벽에	-11.2781
▁시간에	-11.2787
▁개선	-11.28
▁작성한	-11.2805
4-2	-11.2806
▁114	-11.2809
▁낙하된	-11.2809
▁엉켜	-11.2812
원건설	-11.2813
▁전지	-11.2813
▁판넬자재	-11.2819
▁밀림	-11.2821
상판	-11.2822
▁깔려있	-11.2825
▁기본	-11.2828
▁추진구	-11.2831
~4	-11.2834
았	-11.2839
▁견출공	-11.284
▁연결을	-11.2842
찰	-11.2842
람	-11.2844
차장	-11.2845
▁느끼	-11.2846
▁수행하여	-11.2847
특	-11.2851
▁현장사무실에	-11.2852
페	-11.2852
정리중	-11.2855
련	-11.2857
▁퇴근하기	-11.2859
eck	-11.2862
샤	-11.2862
램	-11.2863
삭	-11.2863
`	-11.2863
▁열수송관	-11.2863
▁프로그램	-11.2863
Duct	-11.2863
▁랜탈	-11.2863
▁몇일	-11.2863
▁몰탈혼합기	-11.2863
▁발주처	-11.2863
▁배풍기	-11.2863
▁붕락	-11.2863
▁비스듬	-11.2863
▁올라갔다가	-11.2863
▁인과관계	-11.2863
▁일기예보	-11.2863
▁장비반입구	-11.2863
▁즉각	-11.2863
▁찢김	-11.2863
▁케노피	-11.2863
▁트레미관	-11.2863
▁피난안전구역	-11.2863
▁한국산업표준	-11.2863
쁜	-11.2863
Air	-11.2863
▁긁히	-11.2863
▁익산	-11.2863
▁일방적	-11.2863
▁테라스	-11.2863
▁면갈이	-11.2863
▁안전조회	-11.2863
이중벽관	-11.2863
엠이씨	-11.2863
▁게이지	-11.2863
▁System	-11.2863
▁비전기발파	-11.2863
▁굴취	-11.2863
▁띠철근	-11.2863
▁끄고	-11.2863
▁허용오차	-11.2863
▁압축강도	-11.2863
▁풍향	-11.2863
▁전석쌓기	-11.2863
▁간이흙막이	-11.2863
위지골	-11.2863
▁왼손가락	-11.2863
▁Rack	-11.2864
▁마스터	-11.2864
▁선홈통	-11.2864
▁겹질림	-11.2864
▁직영인부	-11.2864
▁뒤채움	-11.2864
▁않았으나	-11.2864
만큼	-11.2864
▁꺽여	-11.2864
▁청결	-11.2864
▁다쳤음	-11.2864
하우스	-11.2864
▁화물칸	-11.2864
▁행거	-11.2865
▁아직	-11.2865
▁않았음	-11.2865
▁채워	-11.2865
▁버림콘크리트	-11.2865
▁벽타일	-11.2865
▁고관절	-11.2865
▁아님	-11.2865
▁계류	-11.2866
▁중간난간대	-11.2866
▁주저앉음	-11.2866
▁전단력	-11.2866
▁올라타	-11.2866
▁편심하중	-11.2866
▁확정	-11.2866
개발사업	-11.2866
▁벽돌쌓기	-11.2866
▁지중보	-11.2866
▁눈이	-11.2867
▁앞바퀴	-11.2867
▁전기발파	-11.2867
▁원청사	-11.2867
▁귀가조치	-11.2868
▁출구	-11.2868
▁감지	-11.2868
▁넘어지게	-11.2868
▁누유	-11.2869
▁인증	-11.2869
▁소각	-11.2869
▁실신	-11.287
▁산소통	-11.287
▁마음	-11.2871
▁작업동선	-11.2871
▁Girder	-11.2871
▁엘레베이터	-11.2871
▁왼쪽가슴	-11.2871
▁작업개시	-11.2871
▁하중조건	-11.2871
▁동력선	-11.2872
이하로	-11.2873
▁위험물질	-11.2874
▁디딤판	-11.2875
▁찍히	-11.2875
더라	-11.2875
▁집어	-11.2875
▁배수설비	-11.2875
▁안되며	-11.2876
▁2.0	-11.2876
▁전담	-11.2877
▁유류	-11.2877
▁항타장비	-11.2878
▁조립하던	-11.2878
▁펴기	-11.2879
▁PD	-11.2879
으려고	-11.2879
▁진단받	-11.288
▁내려와야	-11.288
▁의무	-11.288
부두	-11.2881
▁정밀도	-11.2881
▁구내	-11.2881
▁미정리	-11.2883
▁후송하였으나	-11.2884
▁무관	-11.2884
▁흔들어	-11.2884
▁기시공	-11.2884
▁이송하였음	-11.2885
▁사망하였음	-11.2886
수리	-11.2886
▁철골구조물	-11.2887
▁위험상황	-11.2887
▁1/2	-11.2888
▁주말	-11.2888
▁교차부	-11.2889
▁온수	-11.2889
▁오른쪽팔	-11.2891
▁불명	-11.2891
▁만나	-11.2893
▁검지사이	-11.2894
▁상당	-11.2896
▁행정	-11.2896
▁착용방법	-11.2897
▁파지	-11.2897
1-1	-11.2897
▁터지	-11.2897
▁담당의사	-11.2898
▁접이식	-11.2898
▁10:40	-11.2899
▁조명등	-11.2901
▁일체형	-11.2903
▁내부벽체	-11.2904
▁세우고	-11.2904
▁낙동	-11.2904
▁전선설치	-11.2908
▁조치사항	-11.2909
▁작업단계별	-11.2909
▁서구	-11.291
▁강당동	-11.2911
▁밀바	-11.2911
▁베어	-11.2911
단에	-11.2912
▁일단	-11.2913
▁내려온	-11.2913
▁산업	-11.2914
ct	-11.2914
▁기초거푸집	-11.2917
▁손상여부	-11.2917
▁시흥	-11.2918
▁접촉되면서	-11.2918
▁종점	-11.2918
▁실시하였으나	-11.2921
▁양중하기	-11.2921
▁간섭되어	-11.2922
▁고정시키	-11.2924
▁관계기관과	-11.2924
----------------	-11.2925
분경어디서	-11.2925
▁퇴근함	-11.2925
▁가져	-11.2927
▁박다가	-11.2928
▁요통	-11.2929
▁사고후	-11.2931
일경	-11.2931
(2021	-11.2931
▁김포	-11.2931
▁설비작업	-11.2932
▁성산	-11.2932
▁받침판	-11.2933
▁보양재	-11.2934
▁늑골골절	-11.2936
▁자기	-11.2936
▁지지물	-11.2937
▁상수관로	-11.2937
▁옮기려	-11.2938
▁제품으로	-11.2938
▁배전반	-11.2939
▁넘어서	-11.2939
5)	-11.294
▁설치간격	-11.2942
▁조종원	-11.2942
▁감시자	-11.2943
▁마산	-11.2943
▁지간	-11.2944
▁가정	-11.2945
▁깔기	-11.2946
▁2.7	-11.2951
▁클러치	-11.2952
보건설	-11.2953
▁필요함	-11.2954
대와	-11.2954
▁채움	-11.2954
▁전기공사	-11.2955
▁보여	-11.2955
▁외관	-11.2955
공기	-11.2956
▁결선	-11.2961
등에	-11.2968
FC	-11.2969
▁문주	-11.2969
▁석재판	-11.2971
4.5	-11.2977
▁작업팀장	-11.2978
▁신고하고	-11.2982
▁굴착공	-11.2983
▁중독	-11.2984
▁가구	-11.2985
▁지탱하	-11.2985
▁보정	-11.2986
▁해야하나	-11.2996
▁반대	-11.2999
▁전압	-11.3003
▁고정부	-11.3004
▁고용	-11.3006
▁분리하는	-11.3007
0.15	-11.3012
▁시공법	-11.3015
▁두어	-11.3024
▁넘어지	-11.3027
▁가설자재	-11.3027
▁고르기	-11.303
시킴	-11.303
▁합판절단	-11.3033
하였나	-11.3034
RP	-11.3038
▁돌려	-11.3051
▁건설업	-11.3059
▁박히	-11.3063
▁해체방법	-11.3063
하기전	-11.3072
▁투입된	-11.3073
▁운반물	-11.3078
▁튕겨나	-11.3078
▁일반인	-11.3078
시작	-11.3083
▁깨끗이	-11.3084
▁내화	-11.3092
▁적치되어	-11.3093
▁제거하려	-11.3103
해둔	-11.3104
▁휘어지	-11.3108
▁작업조건	-11.3115
▁끌려	-11.3126
▁거치된	-11.3127
▁주행로	-11.3129
▁공사현장내	-11.3135
▁연결용	-11.3136
하니	-11.314
않으며	-11.3141
▁옥상바닥	-11.3143
경과	-11.3149
이동시	-11.3151
▁선단부에	-11.3152
▁넘어지려	-11.3153
▁내관	-11.3153
리며	-11.3163
▁멈추기	-11.3168
▁하수도	-11.3174
▁치우던	-11.3178
▁K	-11.3186
설치작업	-11.3193
▁나오다	-11.3193
가시설	-11.3195
▁150	-11.3196
▁터널공	-11.3197
▁자르	-11.3209
신축공사현장에서	-11.3211
▁건너다	-11.3217
▁틈사이	-11.322
150	-11.3223
▁식재작업	-11.3232
▁조이	-11.324
:55	-11.3247
▁설치하였으나	-11.3251
▁시공작업	-11.3252
▁전면에	-11.3266
▁공정에서	-11.3271
▁결속하여	-11.3277
놓아야	-11.3277
201	-11.3281
드는	-11.3293
▁사인	-11.3299
▁빼던	-11.3302
시키던	-11.3309
경사면	-11.332
▁입었다	-11.3329
▁있었	-11.3331
▁준비하던	-11.3332
작업용	-11.3333
▁휴대	-11.3334
EN	-11.3334
▁207	-11.3334
남자	-11.3338
시행	-11.3339
▁철근다발을	-11.3341
▁할석작업	-11.3342
신도	-11.3353
▁괜찮	-11.3356
▁붕괴위험	-11.3361
▁절단하고	-11.3365
▁늘	-11.337
연결부	-11.3374
▁501	-11.3374
따라	-11.3376
▁선로	-11.3378
남구	-11.3393
▁들어가서	-11.3409
▁램프에서	-11.341
▁타일공사	-11.3415
중국	-11.3421
▁요양승인	-11.3427
▁실려있	-11.3429
▁착	-11.3436
사고로	-11.3441
▁상태에	-11.3441
▁마대에	-11.3444
유지	-11.346
▁선정하여	-11.3466
▁o	-11.3473
▁타설하여	-11.348
▁불을	-11.3485
▁않기	-11.3489
▁지점에	-11.3492
1200	-11.3495
공간에서	-11.3499
체인	-11.35
진입	-11.3502
▁철골빔	-11.3511
▁병	-11.3512
▁거치작업	-11.3513
▁질	-11.3514
▁수평방향	-11.352
▁되고	-11.3526
▁안과	-11.3534
잡고	-11.3535
책	-11.3537
▁44	-11.3551
미숙	-11.3557
▁연속적	-11.3558
▁근로복지공단으로	-11.3564
참	-11.3583
조각	-11.3585
소홀	-11.359
알폼	-11.3592
고정용	-11.3593
트러스	-11.3593
▁회사에	-11.3597
직영	-11.3599
~6	-11.36
야적장	-11.3602
▁움직임에	-11.3606
블	-11.361
내국인	-11.3611
퇴	-11.3612
도서관	-11.3613
논	-11.3614
웅	-11.3615
같	-11.3615
벌	-11.3616
붕괴	-11.3619
디뎌	-11.3619
심근경색	-11.362
빈	-11.362
▁철근절단	-11.3621
몸	-11.3622
브라켓	-11.3622
▁곳이	-11.3622
호이스트	-11.3623
슈트	-11.3623
연락	-11.3623
연골	-11.3624
#3	-11.3625
틀비계	-11.3625
▁구축	-11.3626
피복	-11.3626
근육	-11.3626
타이어	-11.3627
수요일	-11.3627
▁신호자	-11.3627
버팀대	-11.363
종류	-11.363
철재	-11.3637
없어	-11.3638
조절	-11.364
다짐	-11.3641
▁아산	-11.3643
변화	-11.3643
활동	-11.3644
소음	-11.3645
▁골절되어	-11.3647
▁코너부	-11.3648
식당	-11.3652
BT	-11.3653
ve	-11.3653
구역에서	-11.3657
철근공	-11.366
방호	-11.3662
▁가대	-11.3662
토목	-11.3663
열상	-11.3665
광주	-11.367
▁찢어지	-11.3694
▁영향이	-11.3703
▁배수펌프	-11.3707
-11	-11.3708
▁운전미숙	-11.3714
▁작업선에	-11.3718
▁스프레이	-11.3719
▁후미에	-11.372
▁ᆞ	-11.3722
▁실외기	-11.3725
▁찾아	-11.3734
택	-11.374
▁지보	-11.3742
▁운	-11.3755
=0.	-11.3756
▁싣던	-11.3758
▁교반	-11.376
요일	-11.3764
정리정돈	-11.3764
▁SK	-11.3766
▁세종	-11.3767
▁삐긋	-11.3767
론	-11.3768
펜	-11.377
갱	-11.377
럽	-11.3771
뎌	-11.3772
▁생명	-11.3772
싱	-11.3772
▁근로복지	-11.3772
▁흡입	-11.3772
pile	-11.3772
▁갓길	-11.3772
▁불충분	-11.3772
▁뽑아	-11.3772
▁좁아	-11.3772
▁토류벽	-11.3772
▁현기증	-11.3772
▁휘니샤	-11.3772
&	-11.3772
Anchor	-11.3772
Heav	-11.3772
▁고성하이화력	-11.3772
▁굳어	-11.3772
▁급작스런	-11.3772
▁꼬리표	-11.3772
▁낮아	-11.3772
▁뚫고	-11.3772
▁맞춰	-11.3772
▁바브켓	-11.3772
▁배터리	-11.3772
▁빠르	-11.3772
▁씌워	-11.3772
▁어긋나	-11.3772
▁유니트	-11.3772
▁저녁	-11.3772
▁직사광선	-11.3772
▁징크	-11.3772
▁짧아	-11.3772
▁침매함	-11.3772
▁탑다운	-11.3772
▁팽팽	-11.3772
▁휴게시간	-11.3772
▁흉추	-11.3772
▁딸려	-11.3772
Φ	-11.3772
▁안정가료	-11.3772
▁다목적강당	-11.3772
▁2019.11.1	-11.3772
▁미이행	-11.3772
▁산업재해보상보험	-11.3772
▁휀룸	-11.3772
▁접착	-11.3772
▁터져	-11.3772
▁내구성	-11.3773
▁계단식옹벽	-11.3773
▁0.3	-11.3773
▁다쳤습니다	-11.3773
▁정기점검	-11.3773
▁바라보	-11.3773
▁불규칙	-11.3773
▁판독	-11.3773
▁미끄	-11.3773
▁벗겨짐	-11.3773
▁제이드	-11.3773
▁충청	-11.3773
▁피뢰	-11.3773
▁수로암거	-11.3773
▁수직구명줄	-11.3773
▁연락체계	-11.3773
▁시행규칙	-11.3773
▁뒷편	-11.3773
▁지지로우프	-11.3773
▁올라오는	-11.3773
▁치환	-11.3773
▁벌어짐	-11.3773
▁평촌	-11.3773
▁인화성물질	-11.3774
Sheet	-11.3774
▁화염	-11.3774
▁제동장치	-11.3774
▁관부설	-11.3774
▁조적쌓기	-11.3774
▁지수판	-11.3774
▁강관추진	-11.3774
▁언급	-11.3774
▁분진망	-11.3774
▁현저	-11.3774
▁하향	-11.3775
▁면보수	-11.3775
▁참석	-11.3775
▁교량받침	-11.3775
▁막혀	-11.3775
▁단독주택	-11.3775
▁급정지	-11.3775
▁구조형식	-11.3775
▁에어건	-11.3775
▁비상조치	-11.3775
▁가벼	-11.3775
▁음성	-11.3775
▁레버블럭	-11.3775
▁주관절	-11.3775
▁구조도면	-11.3776
▁방폭	-11.3776
▁수평변위	-11.3776
▁송파	-11.3776
▁소화설비	-11.3776
▁토석	-11.3776
▁비포장	-11.3776
▁탑정	-11.3776
앞에서	-11.3777
▁자재반입구	-11.3777
▁발견되면	-11.3777
▁개량	-11.3778
▁덤프차량	-11.3778
▁소화전	-11.3778
▁압력계	-11.3779
▁제외하고	-11.3779
▁있거나	-11.3779
▁기준틀	-11.378
▁미작동	-11.378
본인주장	-11.378
▁절리	-11.3781
▁불러	-11.3781
▁개구부덮개	-11.3781
▁뒤집히	-11.3781
▁쐐기목	-11.3781
▁경향	-11.3782
▁5~6	-11.3782
▁근무하였으며	-11.3783
▁지지지반	-11.3784
▁많아	-11.3784
선한	-11.3784
▁소량	-11.3784
▁고소작업시	-11.3784
▁병용	-11.3784
▁다량	-11.3786
▁배토	-11.3786
상해	-11.3786
▁가스배관	-11.3786
도달기지	-11.3786
▁심도	-11.3787
▁다소	-11.3787
▁완충재	-11.3787
▁이송하였습니다	-11.3787
▁2.8	-11.3789
▁주거	-11.3789
▁철골보	-11.379
▁침하량	-11.379
▁반발	-11.3792
▁4~5	-11.3794
▁좌측무릎	-11.3795
▁하청업체	-11.3795
▁못질	-11.3795
▁왼손약지	-11.3795
▁Lifting	-11.3796
▁재하	-11.3796
▁작업여건	-11.3796
▁고려대	-11.3797
▁발견됨	-11.3797
▁지주목	-11.3798
▁당하였습니다	-11.3798
▁중심선	-11.3799
▁심사	-11.3801
▁공사기간	-11.3801
ch	-11.3802
▁신천	-11.3802
▁판재	-11.3802
▁취급소	-11.3802
▁자재하차	-11.3802
▁가격당	-11.3803
▁공상	-11.3803
▁뛰	-11.3803
▁준설선	-11.3804
▁조종사	-11.3804
▁분쇄골절	-11.3806
▁소화기구	-11.3807
▁분할	-11.3808
▁인함	-11.3809
▁루프	-11.381
nch	-11.3811
▁흘러내려	-11.3813
▁착지하면서	-11.3813
▁미결속	-11.3814
▁당하였음	-11.3814
▁벌리	-11.3816
▁장비점검	-11.3821
▁경미하다	-11.3823
▁손목골절	-11.3823
▁상치	-11.3825
▁코로나	-11.3825
▁드레인	-11.3825
▁배근작업	-11.3828
▁거터	-11.3829
▁막고	-11.3829
▁굴착토	-11.3832
▁후송함	-11.3833
▁반대방향	-11.3834
▁고속도로	-11.3836
경위	-11.3836
▁특수	-11.3839
▁설치되어있는	-11.3839
▁맨	-11.384
▁pit	-11.384
▁(1	-11.3841
▁김해	-11.3843
▁하역을	-11.3844
▁비골	-11.3845
▁철근인양	-11.3847
▁사고일시	-11.3849
▁육안으로	-11.3851
▁이내에	-11.3852
▁구조검토서	-11.3853
▁약포	-11.3854
▁보유	-11.3854
▁하였지만	-11.3855
▁덧	-11.3856
▁받치	-11.3856
대비	-11.3858
▁손실	-11.386
▁오르다가	-11.386
▁현장점검	-11.386
씨에게	-11.386
▁3.6	-11.3861
▁내려와서	-11.3863
▁층고	-11.3863
▁노출되어	-11.3864
▁방지대책	-11.3865
▁보강형	-11.3865
▁연결볼트	-11.3866
남도	-11.3866
(300	-11.3866
▁***(**	-11.3868
되는데	-11.387
▁링크	-11.3871
소매	-11.3876
▁하려	-11.3878
▁트레일러에	-11.3879
▁보수공사	-11.388
▁농로	-11.388
스판	-11.3882
▁물량	-11.3882
골절상을	-11.3882
감지기	-11.3883
▁기계톱	-11.3884
냉장	-11.3885
▁보아	-11.3886
▁물통	-11.3887
▁위치와	-11.3889
경력	-11.3889
▁가해자	-11.389
1.7	-11.3893
owe	-11.3894
▁안전장비	-11.3895
▁비계발판에	-11.3897
되나	-11.3898
▁연결하기	-11.3899
▁했으며	-11.39
코드	-11.39
▁줄자	-11.39
▁미끌어지면	-11.3901
▁노상	-11.3903
▁적치장소	-11.3906
▁잡으	-11.3906
▁오른손목	-11.3912
▁왼손에	-11.3914
▁둥근톱에	-11.3917
▁진입하는	-11.3922
개층	-11.3923
된다고	-11.3929
▁완료되지	-11.3931
▁부재와	-11.3932
▁아산병원	-11.3935
▁해체되어	-11.3936
▁오르	-11.3937
▁운반장비	-11.3937
▁사유로	-11.3938
앤씨	-11.3939
▁용역공	-11.3941
▁함마	-11.3941
▁접촉방지	-11.3942
▁정리하던중	-11.3943
▁수평이동	-11.3944
▁아니하	-11.3944
▁작동중	-11.3946
▁하니	-11.3949
▁4.5	-11.3952
7-3	-11.3954
▁삽입하여	-11.3956
▁제외한	-11.3957
▁응	-11.3961
▁1.9	-11.3969
▁운전수	-11.397
▁운전하는	-11.3973
▁1-2	-11.3977
▁신청서	-11.3979
CO	-11.3979
▁안전교육장	-11.3986
▁제거하여	-11.3986
▁진입하던	-11.3989
▁돌풍이	-11.399
▁시스템비계에	-11.3995
▁찾	-11.3997
▁이루어지는	-11.3997
금강	-11.4
▁지나가	-11.4
▁흙막이공사	-11.4003
.※	-11.4008
▁계획된	-11.4019
▁성형	-11.4019
▁공장에서	-11.4021
▁설치하	-11.4028
▁빼내던	-11.4032
▁첨부	-11.4034
▁내부계단	-11.4035
▁정비공사	-11.4048
▁기관	-11.4052
동과	-11.4053
▁걸치	-11.4057
▁준비작업중	-11.4065
▁공정에	-11.4066
제일병원	-11.407
▁걸리는	-11.408
▁되었다고	-11.4082
▁공회전	-11.4083
▁넘어짐으로	-11.4085
▁공극이	-11.4096
5-1	-11.4107
▁인적	-11.4109
▁작업위치에	-11.411
▁302	-11.4113
▁지적	-11.4114
림건설	-11.4129
하부로	-11.4133
▁승인한	-11.4133
▁한마디	-11.4134
로써	-11.4139
▁작업상황	-11.4151
Cm	-11.4157
진건설	-11.4179
에의해	-11.4187
▁끝단에	-11.4196
▁작업하지	-11.42
처리장	-11.4203
▁형틀목공이	-11.4206
▁가공기	-11.4206
▁시공하고	-11.4207
▁열리	-11.4208
상부로	-11.4209
▁39	-11.4216
▁아이	-11.4217
의료	-11.4227
운동	-11.4242
할려고	-11.4245
▁무릎뼈	-11.425
▁얼굴부위	-11.4262
▁풀리지	-11.4271
▁매설물이	-11.4277
1.0	-11.4287
오던중	-11.4299
▁전동기	-11.4301
▁쏟아지	-11.4307
▁주행중	-11.4314
▁방수공	-11.4319
▁진행방향	-11.432
▁신고가	-11.4321
0)	-11.4321
테	-11.4326
▁경사구간	-11.4326
▁상승작업	-11.4339
▁재발	-11.4344
공업	-11.4347
호안	-11.4352
강판	-11.4353
▁미끄럼방지	-11.4358
았다고	-11.4364
▁음	-11.4366
2.4	-11.4369
▁304	-11.437
▁벨트에	-11.4375
▁401	-11.438
▁근육통	-11.4382
▁반대편에	-11.4396
▁파일공사	-11.4398
▁면에	-11.4402
▁180	-11.4404
▁착용하여	-11.441
▁전북	-11.4412
▁치우다	-11.4419
(16	-11.443
줄이	-11.4432
48	-11.4434
중이었으며	-11.4438
능	-11.444
려다가	-11.4445
▁침하로	-11.4446
평동	-11.4449
▁터파기구간	-11.446
▁상단으로	-11.4466
▁돌리	-11.4467
그린	-11.4469
1.3	-11.4472
▁인공호흡	-11.4478
▁요추의	-11.4485
▁계단부	-11.4487
▁연결부분	-11.4488
▁계측값	-11.4489
▁근로자간	-11.4492
실수로	-11.4503
층계단	-11.451
자세	-11.4522
(03	-11.4524
▁원청	-11.4525
▁보고서	-11.4541
수급	-11.4541
▁증상	-11.4545
경사로	-11.4546
lo	-11.4549
▁평탄하	-11.455
(400	-11.4552
활	-11.4564
서울	-11.4565
▁36	-11.4572
322	-11.4578
▁젖어있	-11.4579
▁보지못하	-11.4583
▁벨트를	-11.4584
보고서	-11.4585
▁서있	-11.4591
-12	-11.46
엄	-11.4604
널	-11.4605
허벅지	-11.4608
패드	-11.4608
직원	-11.4608
타공	-11.4611
버튼	-11.4613
J	-11.4617
밴딩기	-11.4617
자와	-11.4618
쇠	-11.4619
잭	-11.462
소방	-11.462
뒷	-11.462
먹	-11.4621
레버	-11.4621
PVC	-11.4621
닫	-11.4622
운행	-11.4622
견출	-11.4622
단열재	-11.4622
노출	-11.4623
협력사	-11.4623
탈락	-11.4624
토요일	-11.4624
협소	-11.4624
뼈에	-11.4624
체계	-11.4625
안전난간	-11.4627
있음	-11.4627
반경	-11.4627
해야하나	-11.4628
규정	-11.4629
▁손가락으로	-11.463
전달	-11.4633
수평재	-11.4634
수행	-11.4642
안전발판	-11.4646
옥상	-11.4646
▁다목적	-11.4647
▁작업장비	-11.4648
▁공공	-11.4653
문화	-11.4654
재질	-11.4655
굴착기	-11.4658
판정	-11.4659
철수	-11.4661
▁하차작업	-11.4666
했음	-11.4667
=3.	-11.4669
위하여	-11.4672
▁이루	-11.4673
▁부분으로	-11.4686
일요일	-11.4688
▁축조	-11.469
---------------	-11.4698
석재	-11.4702
▁절단톱	-11.4703
▁설명	-11.4704
선반	-11.4704
▁조립용	-11.4707
형식	-11.4712
▁떨어뜨	-11.4712
애	-11.4714
▁기다리	-11.472
▁감안하여	-11.4726
▁조정작업	-11.4727
답	-11.4729
갑	-11.4731
▁활선	-11.4735
▁활용하여	-11.4737
▁이슬	-11.4737
▁팀원	-11.4741
▁살	-11.4744
평리	-11.4746
▁실리	-11.4747
▁고정형	-11.4748
▁헛딪	-11.4752
후방	-11.4755
▁완충	-11.4756
▁시공이	-11.4758
▁보조작업	-11.4758
▁버티	-11.4758
▁수분	-11.476
▁동반	-11.476
▁압박	-11.476
죽	-11.4763
▁방진	-11.4763
▁라쳇	-11.4765
▁둘째	-11.4767
▁고령	-11.4768
▁토출	-11.4768
랜	-11.4769
렬	-11.4769
▁첫째	-11.4769
▁폐목	-11.4769
쏘	-11.4769
주머니	-11.477
▁빗자루	-11.4771
릉	-11.4771
▁십자	-11.4772
▁회전반경	-11.4772
욕	-11.4772
릭	-11.4772
▁일어	-11.4772
▁얘기	-11.4772
-48-2012	-11.4772
▁GIRDER	-11.4772
▁pvc	-11.4772
▁가림막	-11.4772
▁갔다	-11.4772
▁강아치지보공	-11.4772
▁건강장해	-11.4772
▁걷다	-11.4772
▁구명조끼	-11.4772
▁눕혀	-11.4772
▁다락방	-11.4772
▁떨어트려	-11.4772
▁밑둥잡이	-11.4772
▁산업안전보건관리비	-11.4772
▁스트럽	-11.4772
▁슬래그	-11.4772
▁아웃리거	-11.4772
▁앉았다	-11.4772
▁얻어	-11.4772
▁엠베드	-11.4772
▁옮겨붙	-11.4772
▁용마루	-11.4772
▁원상복구	-11.4772
▁일괄	-11.4772
▁제연덕트	-11.4772
▁지붕보호벽	-11.4772
▁집중호우	-11.4772
▁컨트롤	-11.4772
▁판매시설	-11.4772
▁합성버팀보	-11.4772
▁핸드글라인더	-11.4772
▁횡돌기	-11.4772
넷	-11.4772
셀	-11.4772
웃	-11.4772
Slime	-11.4772
▁대아이앤씨	-11.4772
▁멈춘	-11.4772
▁변압기	-11.4772
▁침사지	-11.4772
▁통증호소	-11.4772
▁투척	-11.4772
▁RCD	-11.4772
▁물양장	-11.4772
▁용출수	-11.4772
▁중현테크	-11.4772
빛	-11.4772
▁익사	-11.4772
▁장해물	-11.4772
▁가설기자재	-11.4772
▁특정	-11.4772
▁헤드가드	-11.4772
▁소나기	-11.4772
▁찰나	-11.4772
추간판탈출증	-11.4772
▁빨려들어가	-11.4772
▁부대토목	-11.4772
▁선단슈	-11.4772
▁햄머드릴	-11.4772
▁프리	-11.4772
▁에어리스	-11.4773
▁마대자루	-11.4773
▁하반신	-11.4773
▁순찰	-11.4773
물류센터	-11.4773
▁법규	-11.4773
▁받았음	-11.4773
둘러	-11.4773
▁con	-11.4773
▁공상처리	-11.4773
▁선큰	-11.4773
▁안전작업절차	-11.4773
▁족장	-11.4773
▁승탑	-11.4773
▁인적사항	-11.4773
▁리퍼	-11.4773
▁높으므로	-11.4773
▁평행	-11.4773
▁스트레스	-11.4773
▁사진촬영	-11.4774
▁구조계산	-11.4774
▁관로부설	-11.4774
▁Deck	-11.4774
▁접질름	-11.4774
▁일주일	-11.4774
▁차륜	-11.4774
▁한의원	-11.4774
▁급상승	-11.4774
▁조속	-11.4774
▁산출	-11.4774
▁1/3	-11.4774
▁Pit	-11.4775
▁임시야적장	-11.4775
▁압송배관	-11.4775
▁303	-11.4775
▁달아	-11.4775
▁무모	-11.4775
▁자연석	-11.4775
▁방청	-11.4775
▁난방	-11.4775
▁노출기준	-11.4776
▁원료	-11.4776
▁안전표지	-11.4776
▁차량적재함	-11.4776
▁합벽폼	-11.4776
▁첫째마디	-11.4776
▁협조	-11.4776
▁공터	-11.4777
▁고체연료통	-11.4777
▁토대로	-11.4777
▁블록쌓기	-11.4777
▁제작회사	-11.4777
▁공통	-11.4778
▁전동기계	-11.4778
▁오염	-11.4778
▁페인트통	-11.4778
▁있었던	-11.4778
▁압출공법	-11.4778
교대	-11.4779
▁도로변	-11.478
▁자동바	-11.478
▁강설	-11.478
▁인접구조물	-11.478
▁07:30	-11.4781
▁진위	-11.4781
▁알리	-11.4781
▁주변환경	-11.4781
▁가설작업대	-11.4781
▁미끄러질	-11.4782
대학병원	-11.4782
▁잠수사	-11.4782
텍스	-11.4782
▁우회	-11.4782
▁미추	-11.4783
▁고령자	-11.4783
▁외주부	-11.4783
▁지체	-11.4783
▁복사뼈	-11.4784
일반산업단지	-11.4784
▁상황입니다	-11.4784
▁거제	-11.4784
▁건설공구	-11.4784
▁열다가	-11.4784
▁빈번	-11.4784
▁자문	-11.4784
▁대응하였으나	-11.4785
▁돕기	-11.4786
▁승차	-11.4786
▁입력	-11.4786
▁마루판	-11.4787
▁맹	-11.4789
▁오창	-11.4789
▁임시고정	-11.4789
▁연선	-11.479
▁대체	-11.479
▁건식	-11.479
▁좌측발목	-11.479
▁기법	-11.479
▁부표	-11.479
▁연구	-11.479
▁빈도	-11.4791
▁영구	-11.4792
▁추진기지	-11.4792
▁진술함	-11.4792
▁화물차량	-11.4792
▁측판	-11.4792
▁급유	-11.4793
▁대블럭	-11.4793
▁느끼고	-11.4794
▁실어	-11.4794
▁부디치	-11.4794
▁주틀	-11.4795
▁강부재	-11.4795
▁물려	-11.4796
▁배수시설	-11.4797
▁하남	-11.4797
▁Line	-11.4798
▁도르레	-11.4798
▁상세불명	-11.4798
▁플랫폼	-11.4798
▁하역운반기계	-11.4798
▁기반	-11.4799
▁움직이며	-11.4799
▁손가락끼임	-11.4799
▁잘라	-11.4803
▁정기검사	-11.4805
▁매달고	-11.4807
▁내밀어	-11.4808
▁송기	-11.481
▁수평력	-11.4811
▁전기시설	-11.4812
▁가격하였음	-11.4812
하수관	-11.4813
▁스리브	-11.4814
▁팬	-11.4814
▁현수막	-11.4814
▁커터기	-11.4815
▁소선	-11.4816
▁원주시	-11.4816
▁지휘자	-11.4818
▁계기	-11.4818
▁수령	-11.4819
▁건물내	-11.4819
▁적재방법	-11.4821
▁잡석	-11.4821
▁하강장	-11.4821
▁유사	-11.4822
▁목수반장	-11.4822
▁당기던중	-11.4822
▁방지시설	-11.4824
▁비산방지조치	-11.4824
▁진행하였고	-11.4825
▁실외기실	-11.4825
▁56	-11.4825
▁전원선	-11.4826
단부에	-11.4828
▁스텐	-11.4829
▁승용차	-11.483
▁지수	-11.483
▁접촉됨	-11.4831
▁CSI	-11.4831
▁EGI	-11.4831
▁PIPE	-11.4831
▁동해	-11.4833
▁있는데	-11.4833
▁구급대원	-11.4837
▁톱다이	-11.4839
▁수청	-11.4845
체제	-11.4845
▁촉	-11.4846
▁콘테이너	-11.4848
▁피니셔	-11.4848
▁대리	-11.4848
▁잭베이스	-11.4848
▁No	-11.4852
▁기초판	-11.4853
▁작업하기	-11.4859
▁고정점	-11.486
▁수송	-11.486
▁땅바닥	-11.4861
▁넘어오다	-11.4861
▁보호장구	-11.4863
▁속대	-11.4864
▁새로	-11.4864
▁투바이	-11.4865
▁적재상태	-11.4865
▁HD	-11.4867
▁작용하중	-11.4868
과학	-11.4868
▁올려주던	-11.487
▁강관이	-11.4874
▁하수관	-11.4875
▁원위치	-11.4877
▁주철근	-11.4877
▁대상물	-11.4878
▁부상사고	-11.4878
▁정비하여	-11.4879
▁부설작업	-11.488
바가지	-11.488
▁계단식	-11.4881
▁양중용	-11.4881
▁Cable	-11.4883
▁운전자에게	-11.4884
철근배근	-11.4885
▁4,5	-11.4888
▁매설작업	-11.4889
설명서	-11.489
▁지하철	-11.4891
문틀	-11.4892
▁철물이	-11.4892
▁들어올리	-11.4893
▁구름방지	-11.4897
▁중점	-11.4897
▁고혈압	-11.4898
▁김천	-11.4899
▁팀	-11.49
▁목부위	-11.4902
정동	-11.4903
▁철근팀	-11.4905
현관문	-11.4909
▁잘못되어	-11.491
▁외함	-11.4911
▁두개	-11.4915
▁회전중	-11.4917
▁잔해	-11.4918
▁잡자재	-11.4918
과장	-11.4926
▁UT	-11.4927
▁이송되어	-11.4927
▁넣던	-11.4927
▁주장하고	-11.4928
▁작동되어	-11.4929
▁사용해야	-11.493
▁독	-11.4931
▁진행하면서	-11.4934
▁체	-11.4941
▁퇴근후	-11.4945
▁수정작업을	-11.4947
▁웅	-11.4949
▁손톱부위	-11.4949
▁지하에서	-11.495
▁신고후	-11.4952
▁회의	-11.4952
▁철근조립작업	-11.4953
▁오는	-11.4956
▁보내	-11.4959
ER	-11.4963
착용	-11.4968
▁결과에	-11.4968
▁젖어	-11.4969
만들기	-11.497
▁사용하다가	-11.4971
▁충	-11.4971
▁위험한	-11.4972
▁교각에	-11.4972
▁좌우로	-11.4975
▁상자	-11.4975
▁종이	-11.4976
▁보호대	-11.4977
2-	-11.4979
분리	-11.4981
했어야	-11.4982
트레	-11.4986
▁이용하	-11.499
▁바닥면과	-11.4991
▁장철근	-11.4996
▁무릎통증	-11.4998
▁막는	-11.4999
▁현장작업	-11.501
▁칼에	-11.5017
▁진행하다가	-11.5018
▁이동하는중	-11.5025
▁원청에	-11.5027
CC	-11.5028
▁날아가	-11.5038
RC	-11.5038
▁해체구간에서	-11.5038
▁데크자재	-11.5039
▁시공하기	-11.5042
▁확인해	-11.5044
▁휴일	-11.505
▁벽과	-11.5051
▁연결관	-11.5052
▁충돌되어	-11.5063
▁503	-11.5064
점이	-11.5065
▁후방에	-11.5067
사관	-11.5067
▁타격되어	-11.5068
(2020	-11.507
들어	-11.5075
▁부착작업	-11.5081
▁전문의	-11.5088
▁류	-11.5093
▁주기	-11.5096
▁403	-11.5097
▁준비하는	-11.51
sta	-11.5101
광장	-11.5101
▁타설공사	-11.5109
▁해체하다	-11.512
▁f	-11.5121
▁펌프실	-11.5123
▁48	-11.5132
▁낙석이	-11.5133
▁무안	-11.5133
걸음	-11.5137
▁위험표시	-11.5137
2-1	-11.5148
깨기	-11.5151
47	-11.5154
▁박기	-11.5159
▁보드	-11.5163
▁라	-11.5172
▁'21.	-11.5179
▁기울여	-11.518
▁주장하여	-11.5185
▁체결하던	-11.5187
오다가	-11.52
▁사무실에	-11.5217
철근이	-11.523
주입	-11.523
▁후문	-11.5231
▁비계계단	-11.5232
대한	-11.5235
▁ᄃ	-11.5244
▁제동	-11.5252
▁절단사고	-11.5252
▁고정작업중	-11.5253
▁높이조절	-11.526
▁상기현장	-11.5261
▁교통신호	-11.5261
▁운반작업을	-11.5266
▁중간층	-11.5273
▁고임목에	-11.5274
▁알폼해체	-11.5275
▁중앙계단	-11.5276
ot	-11.5277
▁신축공사장	-11.5278
▁회	-11.5278
▁몸쪽	-11.5282
전선관	-11.5285
▁자재사이에	-11.5289
시점	-11.529
기전	-11.5291
▁점토	-11.5299
▁49	-11.5304
▁통풍이	-11.5308
1.9	-11.5311
▁통신선	-11.5313
▁중심에	-11.5318
▁당하는	-11.5319
▁제일	-11.5328
사유	-11.5337
▁난간이	-11.5339
밀리	-11.5345
▁신호불량	-11.5354
상수도	-11.5355
▁고정시키기	-11.5356
▁세우던	-11.5358
▁있었다	-11.5359
지않아	-11.5368
▁지붕위	-11.5371
밀어서	-11.5376
▁건설사고	-11.5379
▁하차하던	-11.5386
▁야간에	-11.5396
▁컷팅작업	-11.5397
▁입회	-11.5399
0.2	-11.5404
업체인	-11.5408
▁a	-11.5409
▁2019.12.2	-11.541
▁합벽구간	-11.5415
▁운반기계에	-11.542
▁친	-11.542
▁차량유도	-11.5432
▁공단	-11.5454
성군	-11.5454
ag	-11.5463
▁이와	-11.5465
두고	-11.5466
-2011(	-11.5472
체중이	-11.5472
▁운송하는	-11.5481
▁궤도에	-11.5493
▁이로인	-11.5494
▁바지에	-11.5497
▁위쪽에	-11.5514
싸인	-11.5517
▁인양함	-11.5528
▁임대	-11.5529
▁117	-11.5534
▁전달하던	-11.555
없	-11.5554
통증이	-11.5554
관계	-11.5556
함마	-11.5564
~8	-11.5567
지골	-11.5575
▁자체적	-11.5576
ip	-11.5581
턱에	-11.5582
밑	-11.5587
▁철근반장	-11.5589
▁지방	-11.5593
졌	-11.5593
오른	-11.5594
하던도중	-11.5595
▁과적	-11.5608
▁여는	-11.5627
치고	-11.5631
20.7.	-11.5632
▁확보하	-11.5637
일날	-11.564
▁길어	-11.5641
▁해당작업	-11.5642
▁정리하다	-11.5653
▁도색작업	-11.5657
▁중량이	-11.5658
하우	-11.567
배치	-11.5675
벽돌	-11.5681
금일	-11.5682
효	-11.569
범	-11.5695
절차	-11.5695
확	-11.5696
연장	-11.5698
▁취급시	-11.5708
신축	-11.5708
적요인	-11.5715
▁씌우	-11.5722
케이지	-11.5724
▁beam	-11.5725
테스트	-11.5726
▁안전하	-11.5726
접속	-11.5727
요소	-11.5729
득	-11.5729
브레싱	-11.5729
승강로	-11.5729
전문	-11.5729
덩어리	-11.573
몰탈	-11.5731
파악	-11.5731
알	-11.5731
칸막이	-11.5732
잠	-11.5732
페인트	-11.5732
숙소	-11.5732
파렛트	-11.5732
코킹	-11.5732
접촉	-11.5733
엘리베이터	-11.5734
종아리	-11.5734
관리감독자	-11.5734
보호구	-11.5734
측량	-11.5734
균열	-11.5734
돌출	-11.5734
기계장치	-11.5735
타격	-11.5737
화요일	-11.5737
안전고리	-11.5738
양생	-11.5738
화물차	-11.574
포설	-11.574
코아	-11.5742
중이며	-11.5743
기능	-11.5743
요구	-11.5744
철근콘크리트	-11.5744
보행	-11.5744
취부	-11.5746
소방서	-11.575
사고당시	-11.575
부설	-11.5762
행위	-11.5765
▁선임하여	-11.5767
▁도면에	-11.5776
무리	-11.5779
▁고정시킨	-11.578
lock	-11.578
눌	-11.5782
▁오르다	-11.5784
▁회전하던	-11.5795
▁왼손등	-11.5799
소리	-11.5805
▁목재가공	-11.5808
층세대	-11.5813
멘트	-11.5819
▁선택	-11.5823
▁탐	-11.5823
망치로	-11.5825
▁타설구간	-11.5828
▁들어올	-11.5828
▁활	-11.5831
가연성	-11.5831
▁지열	-11.5832
▁냉	-11.5833
▁33	-11.5836
영상	-11.5842
작업반장	-11.5843
분석	-11.5853
▁복원	-11.5853
▁자리에	-11.5857
▁사면에	-11.5859
까	-11.5861
▁물탱크	-11.5869
▁멍애	-11.587
천공기	-11.587
▁지표	-11.5871
(1.0	-11.5873
▁센터	-11.5874
▁우각	-11.5875
첨	-11.5875
▁사양	-11.5876
센	-11.5879
▁미끄러지면	-11.5879
▁충돌사고	-11.588
사무소	-11.588
엘	-11.5881
균	-11.5881
옹	-11.5881
뜨	-11.5881
쳤	-11.5881
럼	-11.5882
춘	-11.5882
얼	-11.5883
저류조	-11.5883
먼	-11.5883
±	-11.5883
▁리바운드	-11.5883
▁불확실	-11.5883
▁스트랜드	-11.5883
▁찌름	-11.5883
▁캔틸레버	-11.5883
▁크랙	-11.5883
bar	-11.5883
russ	-11.5883
▁2019.07.0	-11.5883
▁Drum	-11.5883
▁건네주	-11.5883
▁고압살수기	-11.5883
▁그물망	-11.5883
▁근고블록	-11.5883
▁긁혀	-11.5883
▁끌고	-11.5883
▁끌어당기	-11.5883
▁도급업체	-11.5883
▁반깁스	-11.5883
▁밧줄	-11.5883
▁샤워	-11.5883
▁쇠지랫대	-11.5883
▁슬레이트	-11.5883
▁쌓던	-11.5883
▁쓸리	-11.5883
▁어지럼증	-11.5883
▁위험물저장소	-11.5883
▁유압실린더	-11.5883
▁재봉사	-11.5883
▁전선거치대	-11.5883
▁차량통행	-11.5883
▁최대적재하중	-11.5883
▁콤프레셔	-11.5883
▁텔레스코	-11.5883
▁튕긴	-11.5883
▁프레타이	-11.5883
▁플륨관	-11.5883
▁합성섬유	-11.5883
▁헛딧어	-11.5883
〉	-11.5883
內	-11.5883
녹생토	-11.5883
땀	-11.5883
몹	-11.5883
▁고사목	-11.5883
▁내진보강	-11.5883
▁물러나	-11.5883
▁유한기술	-11.5883
▁조수석	-11.5883
▁지양하고	-11.5883
▁희망	-11.5883
▁병원내원	-11.5883
▁시건장치	-11.5883
▁최대접지하중	-11.5883
▁섬유로프	-11.5883
▁펜스	-11.5883
▁분야별	-11.5883
베이어	-11.5883
▁절취면	-11.5883
▁믹스트럭	-11.5883
▁인공섬	-11.5883
▁눈꺼풀	-11.5883
▁자재적치	-11.5883
▁전신주	-11.5883
▁쥐고	-11.5883
▁트랩	-11.5883
▁예초기	-11.5883
▁가설수도	-11.5883
-2-2012)	-11.5884
▁공사감독자	-11.5884
▁다녀	-11.5884
▁톤백마대	-11.5884
▁안전인증고시	-11.5884
▁특별안전교육	-11.5884
▁피스브라켓	-11.5884
유치원	-11.5884
▁비상사태	-11.5884
▁가공전로	-11.5884
▁보조기층	-11.5884
▁족부	-11.5884
▁허용응력	-11.5884
장화	-11.5884
▁차폐	-11.5884
▁환봉	-11.5884
▁소규모	-11.5884
▁계측항목	-11.5884
결정통지	-11.5884
▁독립	-11.5884
▁베어링	-11.5884
▁오늘	-11.5884
▁예비	-11.5884
▁MDF	-11.5884
▁관급자재	-11.5884
▁보조붐대	-11.5884
▁시험발파	-11.5884
▁CPR	-11.5885
▁산소용기	-11.5885
▁힌지	-11.5885
▁보도블록	-11.5885
▁탄력	-11.5885
▁용접불티	-11.5885
▁부탁	-11.5885
▁표준신호	-11.5885
▁조형물	-11.5885
이엔지	-11.5885
▁삼척	-11.5885
▁닫힘	-11.5885
▁막힘	-11.5885
▁강설량	-11.5885
ax	-11.5885
▁처지	-11.5885
▁발파책임자	-11.5885
방지장갑	-11.5885
rd	-11.5885
▁가연물	-11.5885
▁물론	-11.5885
▁과굴착	-11.5886
하였는지	-11.5886
▁샌드위치판넬	-11.5886
▁너울성	-11.5886
▁나옴	-11.5886
▁대각선	-11.5886
▁벌어져	-11.5886
▁면담	-11.5886
▁달려	-11.5886
▁표준안전	-11.5886
▁호출	-11.5886
엘보	-11.5886
▁같아	-11.5886
▁사면보호	-11.5886
겠다	-11.5886
▁접착제	-11.5886
▁세울	-11.5886
▁통신설비	-11.5887
▁참여	-11.5887
▁교통처리	-11.5887
▁포천	-11.5887
▁절토부	-11.5887
▁독성	-11.5887
▁인지부족	-11.5887
건업	-11.5887
▁깨져	-11.5887
▁산재요청	-11.5887
▁오조작	-11.5888
▁소변	-11.5888
▁집중하중	-11.5888
▁잠금	-11.5888
▁주케이블	-11.5888
▁분포	-11.5888
▁흙막이벽	-11.5888
▁아닌곳	-11.5888
▁병사	-11.5889
▁기둥밴드	-11.5889
▁단락	-11.5889
▁통신시설	-11.5889
▁올라온	-11.5889
▁풀린	-11.5889
▁먹줄	-11.5889
▁출입금지구역	-11.5889
▁넘어뜨리	-11.589
▁반단면	-11.589
▁굴삭기에	-11.589
▁데크철판	-11.589
▁방음판	-11.589
▁공유	-11.5891
▁역화	-11.5891
▁세륜장	-11.5891
▁대수롭	-11.5891
▁신규채용	-11.5891
▁연석	-11.5891
▁넘어감	-11.5891
▁핸드카트	-11.5892
군데	-11.5892
▁방호설비	-11.5892
▁고르	-11.5892
▁행어	-11.5892
▁관리기준	-11.5892
▁접안	-11.5893
다음	-11.5893
▁가져오	-11.5893
▁당황	-11.5894
▁조경공사	-11.5894
▁스프링클러	-11.5894
▁우수배관	-11.5894
▁일용노무자	-11.5894
▁어스	-11.5894
▁스카이장비	-11.5894
▁멍애재	-11.5894
▁조명기구	-11.5894
▁기준점	-11.5895
▁안전대걸이	-11.5895
네오	-11.5895
▁16:20	-11.5896
▁조심	-11.5896
▁강관틀	-11.5896
▁처지면서	-11.5896
▁선체	-11.5896
▁앞니	-11.5897
▁철재거푸집	-11.5898
▁상부트러스	-11.5898
▁사토장	-11.5898
▁내밀	-11.5898
▁넘어졌고	-11.5898
▁도달	-11.5899
▁배출구	-11.5899
질러	-11.5899
▁SP	-11.5899
▁감리단	-11.5899
들어가	-11.59
▁걸쳐져	-11.59
▁위생	-11.59
▁BN	-11.5901
▁한곳	-11.5901
부대	-11.5901
▁타공정	-11.5901
번손가락	-11.5902
▁유압식	-11.5903
▁용구	-11.5903
▁수직하중	-11.5903
66	-11.5904
▁DA	-11.5904
▁상해발생	-11.5905
▁만약	-11.5905
▁않은채	-11.5906
▁현장직원	-11.5906
▁숙련공	-11.5906
▁무릎인대	-11.5906
▁복장	-11.5907
▁접히며	-11.5907
▁운동장	-11.5908
▁양산	-11.5908
▁CD	-11.5909
아파트건설공사	-11.5909
▁통로박스	-11.5909
▁백호장비	-11.5909
▁부딪치고	-11.591
▁보걸이	-11.591
▁개수	-11.591
▁9>	-11.5911
▁새들	-11.5911
▁장비조작	-11.5911
▁11:20	-11.5911
▁전기판넬	-11.5911
▁고정미흡	-11.5911
▁Gate	-11.5912
▁사타구니	-11.5912
▁인명피해	-11.5912
▁수영장	-11.5912
▁전조등	-11.5912
▁가설공법	-11.5912
▁조사결과	-11.5913
▁비상정지장치	-11.5913
▁외력	-11.5913
▁금전	-11.5914
▁안전보건교육	-11.5914
▁지시하였으나	-11.5914
▁냉동	-11.5916
▁정읍	-11.5917
~7	-11.5917
):	-11.5918
▁천정판넬	-11.5919
▁오산	-11.5919
▁작업구간내	-11.592
▁직전	-11.592
▁안방	-11.5921
▁강관배관	-11.5921
▁협	-11.5922
▁상부난간대	-11.5922
▁천장재	-11.5923
▁석자재	-11.5923
▁접지선	-11.5923
▁회전력	-11.5923
했으며	-11.5923
Pump	-11.5925
▁접합면	-11.5927
▁떨어지고	-11.5927
▁내려가면서	-11.5927
▁11:10	-11.5927
▁상태입니다	-11.5928
▁운전사	-11.5928
▁휠	-11.5929
▁맞추던	-11.5929
스터	-11.593
▁닥트	-11.5931
▁데이터	-11.5931
족지	-11.5931
Ton	-11.5931
▁렌탈장비	-11.5932
▁체결이	-11.5933
▁남양주	-11.5933
▁가지선	-11.5933
▁시공관리	-11.5934
▁걸이용	-11.5935
개씩	-11.5935
▁공사구역	-11.5935
▁나뭇가지에	-11.5936
▁올라오다	-11.5936
▁주입구	-11.5937
▁작업조건에	-11.5937
▁가열	-11.5938
▁도장공사	-11.5938
▁성토부	-11.5939
▁점검사항	-11.5939
▁이동대차	-11.5941
▁부위별	-11.5943
▁행인	-11.5944
▁교실	-11.5944
동측	-11.5946
▁원주	-11.5947
▁화분	-11.5948
▁부석정리	-11.5948
▁햄머	-11.5949
▁산승각	-11.5949
▁BP	-11.595
▁공조실	-11.595
▁기술적	-11.5951
.1+	-11.5952
▁주변도로	-11.5953
▁기다리는	-11.5954
중이었고	-11.5956
▁일용직근로자	-11.5956
필러	-11.5957
▁탈락하며	-11.5958
▁별표	-11.5959
▁장전	-11.5959
▁가배관	-11.596
▁부재별	-11.5961
▁수직망	-11.5961
▁용역근로자	-11.5962
▁근거하여	-11.5962
▁추간판	-11.5967
▁둥근톱날	-11.5967
▁개설공사	-11.5968
▁솔져	-11.5969
▁성주	-11.597
▁진술서	-11.597
▁당김	-11.597
▁상부구조물	-11.5971
▁작업해야	-11.5971
0.8	-11.5974
▁회전시키	-11.5974
▁달기	-11.5975
▁슬라브거푸집	-11.598
▁치어	-11.5981
▁감독관	-11.5983
▁뒷쪽	-11.5983
하차도	-11.5983
갈바	-11.5986
자리	-11.5986
▁정지하고	-11.5986
▁장진	-11.5987
토막	-11.5987
▁뿐	-11.5987
▁외곽	-11.5988
▁현장외부	-11.5988
▁요령	-11.5989
▁수칙	-11.5993
▁2,3	-11.5994
▁소단부	-11.5997
▁수행하기	-11.5997
▁튀어나	-11.5997
▁추락하였습니다	-11.5998
▁소할	-11.5999
▁테	-11.6
▁제관	-11.6001
▁발견되어	-11.6002
▁하겠다	-11.6004
▁지키지	-11.6005
▁여러개	-11.6005
▁거푸집제작	-11.6006
정돈하여	-11.6006
▁지하구조물	-11.6007
▁꺼내다	-11.6007
▁적재해	-11.6013
▁외장	-11.6015
▁현장상황	-11.6015
▁공사에	-11.6016
▁이러	-11.6016
▁소견서	-11.6016
▁난로	-11.6018
▁학교	-11.6023
▁적재장소	-11.6023
▁면허	-11.6024
▁(2)	-11.6024
▁천공위치	-11.6025
▁개요	-11.6026
▁당기기	-11.6027
▁시저	-11.6028
▁천막이	-11.6032
▁대기중인	-11.6034
▁제거하다가	-11.6035
번에	-11.6038
▁약품	-11.6038
▁설정하여야	-11.604
▁석재시공	-11.604
▁발진	-11.6041
▁테스트	-11.6044
▁작업인원	-11.6046
▁0.2	-11.6049
▁불상	-11.6049
▁코너부위	-11.6051
▁타공작업	-11.6056
면적	-11.6062
▁슬라브에	-11.6065
▁강남	-11.6066
설치중	-11.607
▁아니하고	-11.6071
▁설비공	-11.6072
경계	-11.6073
▁작동시키	-11.6074
▁밀착되	-11.6075
▁동파이프	-11.6075
상으로	-11.6077
▁가슴쪽	-11.6079
▁연결되는	-11.6079
▁논	-11.608
1.0)	-11.6082
볼트가	-11.6083
▁시공성	-11.6088
▁코어기	-11.6089
▁인중	-11.609
▁외측으로	-11.6093
▁해당일	-11.6096
▁부딪쳤	-11.6099
▁가스절단	-11.6103
▁목재에	-11.6106
▁데크에	-11.6106
▁문서	-11.6114
▁양중작업중	-11.6117
▁차고	-11.6117
▁0.9	-11.6118
▁극	-11.6121
▁오르려	-11.6121
end	-11.6121
▁시도하다	-11.6121
▁레	-11.6123
▁피하던	-11.6124
▁개시	-11.6124
la	-11.6125
▁굴	-11.6128
▁더미	-11.6145
▁부착하고	-11.6162
▁장약작업	-11.6166
▁절단기가	-11.618
▁걸어주	-11.6187
▁와이어로	-11.6194
지방도	-11.6198
▁대구시	-11.6204
*)	-11.6204
본부	-11.621
▁입선작업	-11.6213
▁조기	-11.6214
ap	-11.6223
▁빼려	-11.6223
▁하지않고	-11.6227
것	-11.6231
▁근무한	-11.6233
▁고정볼트	-11.6233
▁형태로	-11.6252
▁비상계단	-11.6253
▁외부비계에서	-11.6258
▁응력이	-11.6262
▁시방	-11.6264
▁고정조치	-11.6266
▁방지하	-11.6268
▁최고	-11.6271
▁크레인기사	-11.6274
▁작업대로	-11.6282
▁다른작업자	-11.6286
▁가기	-11.6288
성병원	-11.6292
내부로	-11.6293
▁급경사	-11.6293
리스	-11.6298
미장작업	-11.6301
▁벌어지	-11.6302
▁65	-11.6303
/24	-11.631
▁충분한지	-11.6311
▁타설전	-11.6312
쇄	-11.6314
0.7	-11.6314
=6	-11.6316
지못하고	-11.6318
▁위험장소에	-11.6319
▁제거할	-11.6321
▁차장	-11.6321
▁풀다	-11.6322
▁압력으로	-11.6324
ed	-11.6332
UT	-11.6333
▁보조원	-11.6334
▁배근중	-11.6343
▁바지선에	-11.6345
르며	-11.6346
▁사각파이프를	-11.6346
하부에서	-11.6354
▁좋지	-11.6355
▁연마작업	-11.6358
▁기인	-11.6364
▁하중으로	-11.6367
▁파손되	-11.637
▁구로	-11.6373
두어야	-11.6375
▁토사면	-11.6385
결정	-11.6388
▁전공	-11.6399
▁동절기에	-11.6402
▁일자	-11.6411
보링	-11.6418
▁짚었	-11.6419
▁부합하	-11.6423
두부	-11.643
▁2020.10.1	-11.6432
▁400	-11.6443
작업구간	-11.6451
▁물과	-11.6456
주소	-11.6459
▁수직철근에	-11.646
사다리에서	-11.6462
▁블럭이	-11.6464
표지판	-11.6465
▁미세골절이	-11.6467
▁하강시	-11.6468
▁파열되	-11.647
▁피트층	-11.6474
▁매다	-11.6477
▁한후	-11.6479
▁47	-11.648
발생장소	-11.6482
자인	-11.6494
▁내부작업	-11.6498
산소	-11.6499
▁그러지	-11.6505
연성	-11.6515
▁종사하	-11.6525
▁손목뼈	-11.6558
▁'19	-11.656
▁1.1	-11.6562
단발판	-11.6568
일반	-11.6568
확인후	-11.658
▁해상작업	-11.6583
▁걸지	-11.6595
▁오른쪽발	-11.6598
▁형틀거푸집	-11.6598
5-2	-11.6601
▁의심되	-11.6601
=2.	-11.6607
의견서	-11.6612
▁파워	-11.6612
▁계단실로	-11.6613
▁강선에	-11.6614
/26	-11.6615
ro	-11.6615
쉬트	-11.6624
▁알지	-11.6629
배근	-11.6647
▁전정	-11.6654
치면서	-11.6667
▁배관용	-11.6673
▁거주지	-11.6682
il	-11.6686
가설공사	-11.6688
수준	-11.6691
진단서	-11.6691
▁밟다	-11.6692
▁-1	-11.6698
▁버	-11.6706
▁후면부에	-11.6709
▁해체하면서	-11.6712
▁넘다	-11.6717
▁휴식시간을	-11.6737
▁주다	-11.6742
해져	-11.6743
ic	-11.6753
▁단지	-11.6757
▁철거하여	-11.676
▁거의	-11.6763
ler	-11.6765
매설	-11.6785
반입	-11.6791
이션	-11.6792
.3)	-11.6817
▁눕히	-11.6826
▁꼬	-11.6832
▁외부판넬	-11.6833
▁115	-11.6839
▁의해서	-11.6842
벽면	-11.6843
수면	-11.6849
▁사다리차	-11.6849
발목	-11.6866
톱날	-11.6867
보호장비	-11.687
오르면서	-11.6874
▁탈락방지	-11.6875
▁코를	-11.6878
중앙	-11.688
담당	-11.6882
▁아프	-11.6882
▁물리	-11.6895
to	-11.6896
▁점검차	-11.6897
▁추가적	-11.6898
▁하면	-11.6898
추락높이	-11.6905
▁래	-11.6906
▁아래쪽에	-11.6908
반적	-11.691
▁단가	-11.6912
56	-11.6913
개요	-11.6913
았음	-11.6918
사리	-11.6925
간선	-11.6929
▁형틀공사	-11.6932
▁52	-11.6934
접지	-11.6941
렸다	-11.6941
앉으면서	-11.6947
▁머리위	-11.6952
▁제외	-11.6955
스트러트	-11.6964
쉬	-11.697
▁시방에	-11.697
절곡기	-11.6972
꼬	-11.6974
테이블	-11.6974
횡	-11.6976
고혈압	-11.6976
값	-11.6978
질환	-11.6979
낀	-11.698
파레트	-11.698
Pipe	-11.698
미세골절	-11.6981
틈	-11.6981
찬넬	-11.6982
밀폐공간	-11.6982
조인트	-11.6982
지내력	-11.6982
첨부	-11.6982
스라브	-11.6983
유공발판	-11.6983
멍에재	-11.6983
케이싱	-11.6983
일용직	-11.6984
석고보드	-11.6984
부딪힘	-11.6984
버팀보	-11.6986
고임목	-11.6986
추진관	-11.6986
확장	-11.6986
철근콘크리트공사	-11.6986
▁호전	-11.6986
윈치	-11.6987
면허	-11.699
저항	-11.6991
▁야적되어	-11.6991
결선	-11.6991
매트	-11.6991
▁작업량	-11.6992
유압	-11.6992
본체	-11.6992
외측	-11.6993
활용	-11.6994
통신	-11.6994
추진	-11.6996
파편이	-11.6999
제품	-11.7
▁흔들	-11.7002
전압	-11.7003
▁비상시에	-11.7006
수직재	-11.7006
당사	-11.7008
각관	-11.7011
저하	-11.7015
▁무전	-11.7016
통원	-11.7019
오차	-11.7022
준수	-11.7024
교통	-11.7025
▁지켜	-11.7033
농도	-11.7038
탁	-11.7044
▁재료로	-11.7045
상태임	-11.7046
끼어	-11.7051
할때	-11.7055
▁증축	-11.7055
없는	-11.7055
▁조정하기	-11.7056
▁사전작업	-11.7057
후크	-11.706
▁깔	-11.7061
진입로	-11.7063
▁바탕	-11.7065
▁하는중	-11.7067
치수	-11.707
▁떨	-11.707
당함	-11.7071
▁두손	-11.7074
▁고압전선	-11.7078
겸	-11.7084
▁도배작업	-11.7092
▁아크	-11.7095
피부	-11.7095
▁생	-11.7096
기사와	-11.7102
▁합격	-11.7104
▁쇠지레	-11.7104
▁2021.12.	-11.7107
고압	-11.7109
▁넘어졌	-11.7114
▁해빙	-11.7114
ack	-11.7116
▁살피	-11.7119
▁제약	-11.7119
▁튀어오르	-11.712
텐	-11.7123
지름	-11.7123
▁난연	-11.7123
구조대	-11.7124
푸	-11.7127
▁부서지	-11.7129
즈	-11.7129
억	-11.713
▁습윤	-11.713
벨	-11.7131
밸	-11.7131
▁트랜	-11.7131
ool	-11.7132
▁빙판	-11.7132
폰	-11.7132
Z	-11.7132
▁스트레	-11.7132
릅	-11.7133
▁버럭	-11.7133
컨	-11.7133
꿈	-11.7133
▁타격하던	-11.7133
Buck	-11.7133
Q	-11.7133
듬	-11.7133
Lux	-11.7133
slab	-11.7133
▁나타내	-11.7133
▁뜯어	-11.7133
▁암버럭	-11.7133
▁휘니셔	-11.7133
곱	-11.7133
껴	-11.7133
딘	-11.7133
캐	-11.7133
케이피	-11.7133
행정복지센터	-11.7133
Stopper	-11.7133
Zone	-11.7133
▁Grating	-11.7133
▁가스누출	-11.7133
▁겨울철	-11.7133
▁굵은	-11.7133
▁덮게	-11.7133
▁덮고	-11.7133
▁메인지브	-11.7133
▁모노레일	-11.7133
▁미끄려져	-11.7133
▁미끌림	-11.7133
▁발빠짐	-11.7133
▁발파모선	-11.7133
▁방독마스크	-11.7133
▁부딛히	-11.7133
▁붓기	-11.7133
▁블루폼	-11.7133
▁뿌려	-11.7133
▁수평조절목	-11.7133
▁시나리오	-11.7133
▁시뮬레이션	-11.7133
▁쌍줄비계	-11.7133
▁안전불감증	-11.7133
▁연료탱크	-11.7133
▁익숙	-11.7133
▁장례식장	-11.7133
▁젠다이	-11.7133
▁크람쉘	-11.7133
▁테이핑	-11.7133
▁토사유실	-11.7133
▁트래블러	-11.7133
▁프라이머	-11.7133
▁헤머	-11.7133
간접원인	-11.7133
낼	-11.7133
복선전철	-11.7133
손까락	-11.7133
숲	-11.7133
연구원	-11.7133
Lock	-11.7133
▁느낀	-11.7133
▁도화선	-11.7133
▁솟음	-11.7133
▁이의제기	-11.7133
▁크래인	-11.7133
곤	-11.7133
▁구조해석	-11.7133
▁비상조명	-11.7133
▁회전근계	-11.7133
▁웨빙띠	-11.7133
광평건설	-11.7133
▁아차사고	-11.7133
▁Joint	-11.7133
▁겹이음	-11.7133
▁발파시방	-11.7133
▁염려	-11.7133
불순물	-11.7133
▁공조덕트	-11.7134
▁순천향	-11.7134
▁대처방안	-11.7134
▁건설안전보건	-11.7134
▁겹치	-11.7134
▁냉각탑	-11.7134
▁어렵	-11.7134
▁존치기간	-11.7134
▁시추조사	-11.7134
▁평균	-11.7134
▁창원기전	-11.7134
▁휘청	-11.7134
▁생겼다고	-11.7134
▁작업유형	-11.7134
▁안전작업허가서	-11.7134
벨브	-11.7134
=1.0	-11.7134
▁효율적	-11.7134
▁모습	-11.7134
▁스크린	-11.7134
▁바꾸	-11.7134
▁가스농도	-11.7134
▁긴밀	-11.7134
▁묻힘	-11.7134
▁모르터	-11.7134
▁빠져나가	-11.7134
▁턱끈	-11.7134
▁미세조정	-11.7134
▁급수배관	-11.7134
▁놓아둔	-11.7134
▁오인하여	-11.7134
▁버림타설	-11.7134
▁잔존	-11.7134
▁신호불일치	-11.7134
단계별	-11.7134
▁교통통제	-11.7134
oe	-11.7135
▁진통제	-11.7135
▁찍힌	-11.7135
▁자키	-11.7135
▁외장판넬	-11.7135
▁메디	-11.7135
▁특이	-11.7135
전완부	-11.7135
▁병영	-11.7135
▁물고임	-11.7135
▁각도절단기	-11.7135
▁국립	-11.7135
▁밑받침	-11.7135
▁말려들어감	-11.7135
▁해머드릴	-11.7135
▁타카건	-11.7135
▁진동롤러	-11.7135
▁깨짐	-11.7135
▁낙반	-11.7135
▁화물트럭	-11.7135
읍니다	-11.7135
▁중간말뚝	-11.7136
이행되는지	-11.7136
▁Base	-11.7136
▁논산	-11.7136
▁토질조건	-11.7136
▁상층부	-11.7136
▁휠라	-11.7136
▁다세대	-11.7136
▁배척	-11.7136
▁우물통기초	-11.7136
▁걸침	-11.7136
성명	-11.7136
▁연마석	-11.7136
▁누락	-11.7137
▁제한속도	-11.7137
▁금액	-11.7137
▁미배치	-11.7137
프라임	-11.7137
▁안구손상	-11.7137
▁결근	-11.7137
▁속초	-11.7137
▁동출입구	-11.7137
II	-11.7137
▁핀구멍	-11.7137
▁폭풍	-11.7138
▁기관실	-11.7138
▁가공전선	-11.7138
▁부속설비	-11.7138
▁작동스위치	-11.7138
▁달대	-11.7138
▁왼손검지손가락	-11.7138
▁해상크레인	-11.7138
▁권상장치	-11.7139
▁버리	-11.7139
▁지반다짐	-11.7139
▁내려놓아야	-11.7139
▁산소병	-11.7139
▁항행	-11.7139
▁자유장	-11.7139
▁번선	-11.7139
▁눈주위	-11.7139
▁영무	-11.7139
▁밀던	-11.714
▁국제	-11.714
▁차단막	-11.714
▁내장목공	-11.714
▁고결	-11.714
▁헛딛으	-11.714
▁순천	-11.7141
▁모아	-11.7141
▁북구	-11.7141
▁덕진	-11.7142
▁절개	-11.7142
▁관계자외	-11.7142
▁다칠	-11.7142
▁개방되어	-11.7143
▁한사람	-11.7143
▁일산	-11.7143
▁암질	-11.7143
▁라쳇바	-11.7143
▁대칭	-11.7143
런스	-11.7143
▁향해	-11.7144
▁합선	-11.7144
▁말단부	-11.7144
▁경사계	-11.7144
▁붙어있는	-11.7145
책상	-11.7145
▁안전담당자	-11.7145
nter	-11.7145
▁제출하였습니다	-11.7145
▁표식	-11.7145
▁뻘	-11.7145
▁흠	-11.7145
▁예상됨	-11.7146
▁경비원	-11.7146
▁하부트러스	-11.7146
▁알아	-11.7146
▁예상치	-11.7146
▁보강대책	-11.7146
▁시스템서포트	-11.7146
▁부서지면서	-11.7146
▁호우	-11.7146
▁아니되며	-11.7146
:1.2	-11.7146
▁고위험	-11.7147
▁가체결	-11.7147
▁금속재	-11.7148
▁구부려	-11.7148
택지	-11.7149
▁헬기장	-11.7149
▁16:40	-11.7149
▁고철	-11.715
▁13:40	-11.715
▁알렸	-11.715
세종병원	-11.7151
▁14:50	-11.7151
▁가족	-11.7151
▁우안	-11.7151
▁바닥슬래브	-11.7151
▁치료중임	-11.7152
▁대각재	-11.7152
▁편리	-11.7152
▁건임	-11.7152
▁일부승인	-11.7152
▁있지만	-11.7152
▁조류	-11.7153
▁천단부	-11.7153
▁소화조	-11.7154
▁내습	-11.7154
▁앵커볼트에	-11.7154
▁수직승강로	-11.7154
▁선해체	-11.7154
▁환기시설	-11.7154
▁별관	-11.7155
▁가공기계	-11.7155
▁선택하여	-11.7156
▁병원치료	-11.7157
▁유자격자	-11.7157
▁14:10	-11.7157
▁본드	-11.7157
천군	-11.7158
▁복용	-11.7158
▁초진	-11.716
▁기준치	-11.716
▁에스	-11.716
▁국내	-11.7161
▁이송하였으며	-11.7161
▁못하였음	-11.7164
▁조정장치	-11.7164
▁거부	-11.7164
▁구조틀	-11.7164
▁안전걸이	-11.7165
▁피하려고	-11.7165
▁안전휀스	-11.7165
▁안벽	-11.7165
▁업무시설	-11.7166
▁입사	-11.7166
▁점보드릴	-11.7166
▁쿵	-11.7166
▁급여	-11.7166
▁우측손목	-11.7167
▁아킬레스건	-11.7167
▁진출입로	-11.7167
▁치며	-11.7167
▁방재	-11.7167
▁위반	-11.7169
▁접지상태	-11.7169
▁데크판	-11.7169
▁장비운전자	-11.717
▁자재창고에서	-11.7172
▁이동시켜	-11.7172
▁8>	-11.7173
▁쓰고	-11.7175
▁요한다	-11.7176
▁좌측다리	-11.7176
▁제설작업	-11.7176
▁좌대	-11.7177
▁철골조립	-11.7177
▁보강방법	-11.7177
▁스페이서	-11.7178
▁요도	-11.7179
▁발열	-11.7179
▁장애인	-11.7179
▁자만	-11.7179
▁선택하여야	-11.7181
▁쌍	-11.7182
▁안전블록	-11.7182
▁작업시작전	-11.7182
▁덕트공	-11.7182
▁뒷걸음치다	-11.7182
▁현장인근	-11.7184
▁관리동	-11.7186
▁경감	-11.7186
었습니다	-11.7186
▁협력	-11.7186
▁진행하였으며	-11.7186
▁흘	-11.7186
▁현재까지	-11.7187
▁Hole	-11.7187
▁마킹	-11.7188
▁실시하였으며	-11.7188
▁편중	-11.719
▁동원	-11.719
▁인상작업	-11.7193
▁가공철근	-11.7193
▁되어있지	-11.7194
중국인	-11.7195
테라	-11.7196
▁부착시설	-11.7196
▁전후에	-11.7197
물관	-11.7197
▁강화	-11.7198
▁재하자	-11.7198
▁평탄화	-11.7199
▁휘어	-11.72
▁한계	-11.7202
▁민원	-11.7203
유공관	-11.7203
▁부하	-11.7203
▁가설발판	-11.7203
▁간식	-11.7204
▁굴착기계	-11.7204
영업	-11.7206
▁병명	-11.7206
▁시추	-11.7207
웨이	-11.721
▁공사차량	-11.7211
▁Sta	-11.7212
▁회로	-11.7215
▁상부슬라브	-11.7215
▁조형	-11.7219
▁주사	-11.7219
한테	-11.722
▁미사	-11.7221
▁굴삭기와	-11.7221
▁진행하였으나	-11.7221
▁바닥철근에	-11.7225
3,4	-11.7228
▁진행될	-11.7228
회전근	-11.7229
▁후송조치	-11.723
▁처치	-11.7231
▁진행됨	-11.7233
▁반입구	-11.7234
▁신장	-11.7234
▁차단하고	-11.7236
▁보호망	-11.7237
▁잡기위	-11.7241
▁반사	-11.7242
▁삼성	-11.7242
▁주의하며	-11.7244
▁척추뼈	-11.7245
▁반도	-11.7247
▁하려는	-11.7247
▁적치하지	-11.7248
▁공용	-11.7248
▁통보하지	-11.725
▁중족골	-11.7252
▁현장관리	-11.7252
▁확장공사	-11.7252
67	-11.7253
▁깔목	-11.7255
▁들어와	-11.7256
▁추정함	-11.726
▁이틀	-11.726
▁정수	-11.7261
도어	-11.7262
▁수행한다	-11.7266
▁수도관	-11.7267
▁작업준비중	-11.7267
온도	-11.7268
▁시브	-11.727
▁모르	-11.7272
전기원형톱	-11.7274
▁효과적	-11.7274
▁작업장치	-11.7275
암면	-11.7276
▁작동되는	-11.7276
▁범	-11.7276
▁장비기사와	-11.7278
삼거리	-11.7279
▁교체작업중	-11.7279
▁생활관	-11.728
▁양주	-11.7281
▁이상여부	-11.7283
▁본체와	-11.7283
▁용접상태	-11.7283
예상	-11.7285
▁이음위치	-11.729
▁추진기	-11.7292
시술	-11.7297
관리동	-11.7299
▁안전부주의	-11.7302
▁고임	-11.7306
자상	-11.7308
▁우기	-11.7311
▁일상	-11.7312
▁적재하기	-11.7318
▁일치하지	-11.7322
▁외부인	-11.7323
▁전라	-11.7323
▁적용하여	-11.7327
▁세심	-11.7327
▁나가는	-11.7328
▁상대	-11.733
▁연세	-11.7332
▁제조자	-11.7336
▁주소	-11.7338
▁버튼	-11.7339
▁하강중	-11.7339
▁보일러동	-11.734
▁잡아당기던	-11.7344
▁쉬고	-11.7348
▁용수로	-11.7349
▁조여	-11.7352
저수지	-11.7352
기계실	-11.7353
▁상대적	-11.7353
▁풀리는	-11.7354
▁외주	-11.7355
26-1	-11.736
▁전기실에서	-11.736
▁도서관	-11.7361
재해예방	-11.7361
▁대주	-11.7363
▁상승중	-11.7367
▁정지작업	-11.737
▁부지내	-11.7371
키지	-11.7374
▁동남	-11.7378
핀제거	-11.7381
판넬설치	-11.7386
▁이용하고	-11.7391
부품	-11.7391
도달구	-11.7392
▁부분적	-11.7393
근무기간	-11.7393
▁상승하는	-11.7395
▁상수도관로	-11.7396
▁Pile	-11.7405
불가	-11.7405
었으며	-11.741
▁s	-11.7415
▁마시	-11.7419
▁관사	-11.7422
▁반복작업에	-11.7424
▁한전	-11.7432
▁해체도중	-11.7433
▁#3	-11.7433
▁돌리다	-11.7434
▁드릴날	-11.7435
▁진료후	-11.7438
발등	-11.744
▁뒤쪽에	-11.7442
▁합의	-11.7449
▁제거되지	-11.745
위험성	-11.7456
▁바닥상태	-11.7456
▁3.8	-11.7457
양수장	-11.7457
▁개의	-11.7461
▁벌어	-11.7462
▁철판자재	-11.7462
▁놓기	-11.7463
▁사망하게	-11.7463
▁일어서다	-11.7464
▁경찰서	-11.7467
▁등박스	-11.7475
안동	-11.7482
▁공원	-11.7484
▁데	-11.749
/13	-11.7499
▁압출시	-11.75
▁의식은	-11.7502
학교	-11.7509
0-2011(	-11.7511
려진	-11.752
▁연결작업중	-11.7529
▁초기에	-11.7534
▁종합병원	-11.7537
▁구급대	-11.7539
3.9	-11.754
▁오후작업	-11.7543
▁되면	-11.7546
소통	-11.7547
▁눈부위	-11.7549
▁관측	-11.7549
▁결속상태	-11.7552
기록	-11.7553
▁추락사	-11.7555
▁부상재해	-11.7566
▁2019.09.	-11.7572
▁근접작업	-11.7584
▁암거	-11.7586
▁보조자	-11.7586
▁업무와	-11.7588
▁꼬이	-11.7588
▁호소한	-11.7593
▁퇴근중	-11.7594
▁정리공	-11.7597
▁날씨에	-11.7606
▁전도위험	-11.7615
▁싸	-11.7621
▁끝부위	-11.7625
잡고있는	-11.7625
▁좌회전	-11.7628
▁용접면	-11.7629
뒷채움재	-11.7638
▁여성	-11.7639
18%	-11.7645
▁타설하기	-11.7646
▁절대	-11.7656
▁정착장	-11.7656
▁탄	-11.7665
▁도포작업	-11.7676
▁급한	-11.7676
▁2.3	-11.7677
▁케이싱과	-11.768
▁피하려	-11.7682
▁안쪽에서	-11.7696
▁보강하여	-11.7699
▁반입하여	-11.7701
▁놓던	-11.7704
▁붕괴되	-11.7708
▁타설면	-11.7713
▁자세에서	-11.7733
▁충돌방지	-11.7736
▁소견이	-11.774
▁일치	-11.7745
▁통보받	-11.7747
조사중	-11.7749
▁학	-11.7753
▁굴착기와	-11.7753
▁방수로	-11.7754
▁전체적	-11.7756
대학교병원	-11.7763
주정도	-11.7771
▁이동시키기	-11.7776
OOO	-11.7777
조립중	-11.7785
▁좌측면	-11.7788
▁2020.02.	-11.7789
▁준수하	-11.7792
▁시행하고	-11.7799
▁유로폼자재	-11.7821
▁이동구간	-11.7831
전소	-11.7832
▁유의하여	-11.7833
▁CU	-11.7833
▁도로구간	-11.7837
▁분리작업	-11.7845
았는데	-11.7855
▁때리	-11.7856
▁들어올리려	-11.7858
6-1	-11.7866
▁수술예정	-11.7866
쇄골	-11.7869
▁가장자리에	-11.7875
▁사토	-11.7877
~1.5	-11.7881
▁당겨지면	-11.7883
▁연결구간	-11.7885
▁스테	-11.7887
▁인양하고	-11.7897
▁잡았	-11.7898
▁부착하	-11.79
▁701	-11.7905
▁고정불량	-11.7907
부주의로	-11.7909
적재함	-11.791
▁37	-11.7911
▁유입되	-11.7912
▁전방으로	-11.7927
▁'21	-11.7942
▁형틀해체	-11.7962
▁중골	-11.7972
▁거푸집해체작업	-11.7978
▁적어	-11.8005
제작장에서	-11.801
▁2.9	-11.802
강동	-11.8036
▁확보한	-11.8041
사고발생장소	-11.8064
~20	-11.807
(80	-11.8081
▁입었	-11.8095
▁내려주	-11.8095
44	-11.8097
진단결과	-11.8103
▁청소기	-11.8103
엄지손가락	-11.8106
▁목공사	-11.8112
▁구부리	-11.8139
▁공단에	-11.8144
▁넣기	-11.815
0.5	-11.8159
▁정거장	-11.8159
▁작업발판위에	-11.8163
골절상	-11.8175
▁배관연결	-11.8176
▁하였다	-11.8177
근로복지공단에	-11.8187
▁이들	-11.8192
z	-11.8193
증후군	-11.821
하수도	-11.8219
▁청소하던	-11.8231
▁배관내	-11.8235
▁벽사이	-11.8242
▁떨어졌	-11.8246
▁한손	-11.8247
모서리	-11.8258
낙	-11.8261
장비와	-11.8275
68	-11.8278
▁영하	-11.8288
파편	-11.8306
▁설치높이	-11.8307
▁연결하던	-11.8315
▁밟았	-11.8319
5%	-11.832
전문병원	-11.832
한국병원	-11.833
절단작업중	-11.8331
1.6	-11.8339
았으나	-11.8343
▁우측면	-11.8348
호장비	-11.8356
▁4.2	-11.8357
▁가격해	-11.8359
.0+	-11.8369
▁막으려	-11.8373
밴딩	-11.8374
방지조치	-11.8378
▁예정인	-11.838
출력	-11.8383
신축공사현장	-11.8389
휀	-11.8399
냉	-11.84
▁취하여	-11.84
kN	-11.8401
경찰	-11.8402
생활	-11.8405
넣	-11.8405
믹서	-11.8406
클러치	-11.8406
생활관	-11.8406
Cable	-11.8407
당사자	-11.8407
▁끊어	-11.8407
퇴근	-11.8407
채움	-11.8407
샌드위치	-11.8408
찍	-11.8408
파괴	-11.8408
▁데크슬라브	-11.8409
주기	-11.8409
프레임	-11.841
플랜지	-11.841
링크	-11.841
취급	-11.8411
토류판	-11.8411
트렌치	-11.8411
부지내	-11.8411
“	-11.8412
MRI	-11.8412
CIP	-11.8412
이동식틀비계	-11.8412
일용근로자	-11.8412
집수정	-11.8412
레미콘	-11.8412
아웃트리거	-11.8412
핸드그라인더	-11.8412
덤프	-11.8412
미끄러져	-11.8413
데크플레이트	-11.8413
모래	-11.8413
흄관	-11.8413
마무리	-11.8413
척추	-11.8414
고소작업차	-11.8414
발견	-11.8414
태만	-11.8414
사고경위	-11.8415
운전석	-11.8415
거푸집동바리	-11.8415
안전망	-11.8416
강관비계	-11.8416
▁비산된	-11.8416
북면	-11.8417
횡대	-11.8418
당겨	-11.8419
공사현장에서	-11.8423
▁상부철근	-11.8423
유발	-11.8424
개착	-11.8427
접수	-11.8427
안전장치	-11.843
물통	-11.843
강우	-11.843
복사	-11.8433
수레	-11.8434
▁지중에	-11.8434
▁2020.01.	-11.8435
훈	-11.8436
긴장	-11.844
운영	-11.844
효과	-11.8441
복구	-11.8442
▁배근되어	-11.8443
비산	-11.8444
자루	-11.8446
오류로	-11.8449
***)	-11.8453
미만	-11.8453
강선	-11.8459
구체	-11.846
추후	-11.8462
▁바깥	-11.8469
인대파열	-11.8478
▁듣지	-11.8481
상병명	-11.8484
▁참고하여	-11.8488
▁ᄋ	-11.849
철도	-11.8494
▁21.03.	-11.8495
oil	-11.8498
끝부분	-11.85
착지	-11.8504
ump	-11.8507
▁분쇄	-11.8508
건설공사	-11.8511
4,5	-11.8512
▁6.1	-11.8513
2019.08.	-11.8514
3.0	-11.8515
우수	-11.8521
ry	-11.8523
엔씨	-11.8523
▁남겨	-11.8526
하는도중	-11.8527
기술사	-11.8528
조임	-11.8529
둥	-11.853
▁경량철골	-11.8531
어트	-11.8533
배기	-11.8539
사고이후	-11.8541
사고입니다	-11.8549
▁뜨거운	-11.8549
▁시트판	-11.8552
체크	-11.8554
▁보험가입	-11.8554
몰	-11.8556
▁절토	-11.8557
벼	-11.8557
킹	-11.8557
▁넘어지면	-11.8557
따	-11.8558
13:30	-11.8558
able	-11.8558
끄	-11.8558
뢰	-11.8559
▁압축	-11.8559
▁웨지	-11.8559
▁리브	-11.8559
▁갈비	-11.8559
춤	-11.856
섬	-11.8561
익	-11.8561
뉴얼	-11.8561
▁하이드로	-11.8561
▁뛰어내렸	-11.8561
겹	-11.8561
▁덩굴	-11.8561
틸	-11.8561
략	-11.8561
▁마그네틱	-11.8562
▁흡수	-11.8562
흉	-11.8562
▁비상정지	-11.8562
찬	-11.8562
LINE	-11.8562
▁AREA	-11.8562
▁사디리	-11.8562
욱	-11.8562
Bracket	-11.8562
Wheel	-11.8562
imb	-11.8562
lux	-11.8562
▁ACS	-11.8562
▁갔음	-11.8562
▁강아치교	-11.8562
▁개보수사업	-11.8562
▁걷어내	-11.8562
▁게비온	-11.8562
▁계약금액	-11.8562
▁곤도라	-11.8562
▁공용욕실	-11.8562
▁관계전문가	-11.8562
▁기저질환	-11.8562
▁낮추	-11.8562
▁내연기관	-11.8562
▁노루발	-11.8562
▁높낮이	-11.8562
▁느꼈다	-11.8562
▁떼어내	-11.8562
▁벗기	-11.8562
▁벤토나이트	-11.8562
▁부딛침	-11.8562
▁부딪혔으	-11.8562
▁부딪혔음	-11.8562
▁비상대피	-11.8562
▁뻗다	-11.8562
▁뻗어	-11.8562
▁살포기	-11.8562
▁상태였음	-11.8562
▁서포터	-11.8562
▁세일이엔에스	-11.8562
▁세트앙카	-11.8562
▁소일네일링	-11.8562
▁수리시설개보수사업	-11.8562
▁쉽고	-11.8562
▁실란트	-11.8562
▁안전순찰	-11.8562
▁압밀침하	-11.8562
▁어두운	-11.8562
▁용접불꽃	-11.8562
▁유관기관	-11.8562
▁전선펴기	-11.8562
▁접질렀다	-11.8562
▁지반지지력	-11.8562
▁짧게	-11.8562
▁청탑지	-11.8562
▁콘트리트	-11.8562
▁털어내	-11.8562
▁파주운정	-11.8562
▁포디움	-11.8562
▁폴리에틸렌	-11.8562
▁풋스위치	-11.8562
▁합성목재	-11.8562
▁호흡곤란	-11.8562
▁화재종합방재실	-11.8562
▁흐름도	-11.8562
건설기술진흥법	-11.8562
노루발못뽑이	-11.8562
놀이터	-11.8562
릿	-11.8562
부자연스	-11.8562
샤프트	-11.8562
위험방지계획서	-11.8562
컬	-11.8562
콤프레샤	-11.8562
턴	-11.8562
ear	-11.8562
▁급결재	-11.8562
▁기왕증	-11.8562
▁뇌진탕	-11.8562
▁리미트	-11.8562
▁상재하중	-11.8562
▁섬유벨트	-11.8562
▁인발시험	-11.8562
▁주택재개발	-11.8562
▁커플링	-11.8562
관입시험	-11.8562
콤	-11.8562
톨	-11.8562
▁나일론	-11.8562
▁아침이슬	-11.8562
▁케이블트레이	-11.8562
▁폴딩도어	-11.8562
스포츠	-11.8562
츠	-11.8562
편한세상	-11.8562
▁사고사례	-11.8562
▁유리운반대	-11.8562
▁잉여	-11.8562
네모도	-11.8562
됩니다	-11.8562
▁2019.12.1	-11.8562
▁가설전등	-11.8562
▁유증기	-11.8562
▁앉아있다	-11.8562
▁염증	-11.8562
▁인서트	-11.8562
딪혀	-11.8562
▁20~30	-11.8562
▁후유증	-11.8562
▁갱내	-11.8562
▁해체정리공	-11.8562
▁배기휀	-11.8562
▁일치하는지	-11.8562
▁텐던	-11.8562
▁장도리	-11.8562
▁물호수	-11.8562
▁아픔	-11.8562
▁쳐다보	-11.8562
▁침전조	-11.8562
▁투하	-11.8562
▁염산	-11.8562
▁오르막	-11.8562
▁공공하수처리시설	-11.8562
▁데릭	-11.8562
▁터짐	-11.8562
▁진동로라	-11.8562
▁압축공기	-11.8562
마이삭	-11.8562
소하천	-11.8562
▁보받이	-11.8562
▁절토사면	-11.8562
▁페이스트	-11.8562
▁완화	-11.8562
▁제반여건	-11.8562
▁파주시	-11.8562
▁완공	-11.8562
▁육교	-11.8562
▁끄지	-11.8562
▁버클	-11.8562
▁송수관	-11.8562
농협	-11.8562
도폭선	-11.8562
도화상	-11.8562
▁배기가스	-11.8562
▁징후	-11.8562
▁장비운용	-11.8562
▁소흘	-11.8562
▁한국전력	-11.8562
▁ooo	-11.8562
▁사모래통	-11.8562
▁있었지만	-11.8562
쉴드	-11.8562
스치로폼	-11.8562
▁뒤집어지면서	-11.8562
▁탈출증	-11.8563
▁배관조공	-11.8563
공작물	-11.8563
▁실패	-11.8563
▁안좋	-11.8563
▁돕던	-11.8563
▁안전하카	-11.8563
▁튕김현상	-11.8563
▁정상퇴근	-11.8563
▁발진기지	-11.8563
▁연면적	-11.8563
ast	-11.8563
▁노즈	-11.8563
▁Column	-11.8563
▁따로	-11.8563
▁갈탄	-11.8563
▁비상탈출구	-11.8563
▁역회전	-11.8563
▁며칠	-11.8563
▁세부공정	-11.8563
▁카리프트	-11.8563
▁짐칸	-11.8563
▁굴절	-11.8563
▁인장잭	-11.8563
▁자가운전	-11.8563
ib	-11.8563
▁성애	-11.8563
▁잔가지	-11.8563
▁가이드레일	-11.8563
▁화재감시자	-11.8563
▁준공청소	-11.8563
▁청사동	-11.8563
▁둘이	-11.8563
▁가연성물질	-11.8563
▁요추염좌	-11.8563
▁아스콘포장	-11.8563
▁앵글브레싱	-11.8563
▁민락	-11.8563
▁상대방	-11.8563
▁테마	-11.8564
▁커피	-11.8564
▁광역상수	-11.8564
▁튀어오름	-11.8564
▁같으며	-11.8564
▁변색	-11.8564
▁소독	-11.8564
Hook	-11.8564
▁평편	-11.8564
▁활석	-11.8564
▁세밀	-11.8564
SCP	-11.8564
▁회신	-11.8564
▁방수시트	-11.8564
▁채취	-11.8564
▁방음	-11.8564
▁각입재	-11.8564
▁투광등	-11.8564
▁도급사	-11.8564
▁필터	-11.8564
▁전용철물	-11.8564
▁언덕	-11.8564
했음에도	-11.8564
▁절대치	-11.8564
▁탈영	-11.8564
▁덕양	-11.8565
▁뒷정리	-11.8565
oa	-11.8565
▁재료분리	-11.8565
▁풀링	-11.8565
▁못주머니	-11.8565
▁휘어져	-11.8565
▁손괴	-11.8565
▁급선회	-11.8565
▁취하기	-11.8565
▁잘못디뎌	-11.8565
▁유도표지	-11.8565
▁수로박스	-11.8565
▁응급치료	-11.8565
▁재검토	-11.8565
▁전원차단	-11.8566
▁록볼트	-11.8566
ement	-11.8566
▁준비운동	-11.8566
▁짚었음	-11.8566
▁편하중	-11.8566
▁운반경로	-11.8566
▁경사지붕	-11.8566
▁동향	-11.8566
▁양팔	-11.8566
~2.5	-11.8566
▁공병	-11.8566
▁마찰력	-11.8566
▁공간확보	-11.8567
▁과속	-11.8567
▁도료	-11.8567
▁진압	-11.8567
▁신축이음	-11.8567
▁이음철판	-11.8567
빌라	-11.8567
▁PKG	-11.8567
▁양끝	-11.8567
▁안전보건관리	-11.8567
▁산소호스	-11.8567
▁갈라	-11.8567
▁전기용량	-11.8568
▁후관동	-11.8568
▁정지시키는	-11.8568
대합실	-11.8568
단붐	-11.8568
전화	-11.8568
▁판명됨	-11.8569
▁해채	-11.8569
▁양중능력	-11.8569
▁동탄	-11.8569
▁미차단	-11.8569
▁보조업무	-11.8569
▁비전기	-11.8569
▁화기사용	-11.8569
▁정지시키고	-11.857
▁폭염	-11.857
▁민간	-11.857
▁17:30	-11.857
▁본건물	-11.857
▁그리스	-11.857
▁소화전함	-11.857
▁노반	-11.857
하도업체	-11.857
▁로더	-11.857
▁사용목적	-11.857
▁마비	-11.857
▁분당	-11.857
▁철물류	-11.8571
▁반응	-11.8571
▁강행	-11.8571
▁늘어나	-11.8571
쳤으나	-11.8571
▁테두리보	-11.8571
▁개별	-11.8571
대학	-11.8572
▁달리	-11.8572
▁몰탈통	-11.8572
▁도심	-11.8572
▁흙손	-11.8572
▁바르고	-11.8572
▁파이프받침	-11.8572
▁타이바	-11.8572
▁구조요청	-11.8572
레라	-11.8572
▁자른	-11.8572
▁손끼임	-11.8572
▁천단	-11.8572
▁피재근로자	-11.8572
▁열배관	-11.8573
희건설	-11.8573
▁오거장비	-11.8573
▁07:20	-11.8574
자체	-11.8574
▁상현재	-11.8574
▁영남	-11.8574
▁재검사	-11.8574
▁정황	-11.8575
▁환경적	-11.8575
▁다짐봉	-11.8575
▁맹판	-11.8575
▁절연상태	-11.8575
▁신규채용자	-11.8576
▁컴	-11.8576
▁뛰어내린	-11.8576
요추간판	-11.8576
▁몸통	-11.8576
▁목재가공용	-11.8577
▁잡음	-11.8577
▁위치조정	-11.8577
▁지표수	-11.8578
▁지보재	-11.8578
▁08:20	-11.8578
▁상태였으며	-11.8578
▁미끄럼판	-11.8578
▁신우	-11.8579
▁좌측눈	-11.858
▁음주	-11.858
▁다양	-11.858
▁차량운전자	-11.8581
▁재확인	-11.8581
되지않은	-11.8581
▁해남	-11.8581
▁집게손가락	-11.8582
▁분해	-11.8582
형옹벽	-11.8582
▁위험범위	-11.8582
▁알폼슬라브	-11.8583
▁두통	-11.8583
코너스트러트	-11.8584
▁관로매설공사	-11.8584
▁회전축	-11.8584
▁종류별	-11.8584
▁퇴원함	-11.8585
▁화공	-11.8585
▁할석공	-11.8585
▁사전교육	-11.8586
오르내릴	-11.8586
▁조작반	-11.8586
▁성토면	-11.8588
▁전동식	-11.8588
▁16:10	-11.8588
▁사천	-11.8588
▁진화	-11.8588
▁안전밸브	-11.8589
▁기압	-11.8589
▁감김	-11.859
▁강진	-11.8591
전체	-11.8591
▁지금	-11.8591
▁처리방법	-11.8591
▁처리계획	-11.8591
▁통영	-11.8592
▁수평하중	-11.8592
▁기능공	-11.8593
▁퇴근하였음	-11.8593
▁사고당사자	-11.8595
▁바닥타일	-11.8595
▁트러스교	-11.8595
▁30°	-11.8596
▁몸상태	-11.8596
▁적하	-11.8596
▁대피장소	-11.8596
▁수밀	-11.8597
▁잡아주고	-11.8597
▁부천시	-11.8597
▁전기설비	-11.8597
소음성	-11.8598
▁넘어지고	-11.8598
▁농어촌	-11.86
▁감속기	-11.86
▁뒤집힘	-11.8601
연휴	-11.8601
▁무대	-11.8601
▁고정철물	-11.8602
all	-11.8602
▁위험구간	-11.8602
▁나간	-11.8602
▁사실여부	-11.8602
▁넘기	-11.8603
▁담아서	-11.8603
▁처리됨	-11.8603
▁퇴근하였으나	-11.8603
▁골절되었습니다	-11.8604
▁판개작업	-11.8604
▁약액	-11.8604
▁어깨쪽	-11.8604
▁철근밴딩기	-11.8605
▁북쪽	-11.8605
▁점차	-11.8605
▁상황이며	-11.8605
▁통증발생	-11.8606
▁시설공사	-11.8607
▁하부지지대	-11.8608
▁인공	-11.8608
▁안양	-11.8608
▁올라가기	-11.8608
▁강관내부	-11.8609
▁오른발목	-11.8609
▁사전확인	-11.861
▁걸고리	-11.861
아크용접	-11.861
▁덕트설치	-11.861
▁목재거푸집	-11.8612
▁치료비	-11.8612
NK	-11.8613
▁토사운반	-11.8615
▁그러나	-11.8616
순환	-11.8616
▁사이드	-11.8617
입상배관	-11.8617
▁정신	-11.8617
▁경비실	-11.8618
▁가슴통증	-11.8618
▁쓰러졌	-11.8618
▁우마위에서	-11.8619
▁인장재	-11.8619
▁계획서에	-11.862
○○	-11.862
오거	-11.862
▁말려들어가며	-11.862
▁자재양중	-11.8621
▁우측손가락	-11.8621
8-2011(	-11.8621
▁불리	-11.8622
▁조종수	-11.8622
업중	-11.8622
▁요구함	-11.8622
▁반력	-11.8623
연합	-11.8623
▁최적	-11.8624
▁지역주택조합	-11.8625
▁화강석	-11.8625
▁휘발유	-11.8625
▁생태	-11.8625
5-6	-11.8625
▁11>	-11.8626
사태	-11.8627
▁고압전선로	-11.8627
▁탄약고	-11.8627
▁옆에있던	-11.8629
▁발행한	-11.8629
▁고려하고	-11.863
질병성	-11.863
▁탑승구	-11.8633
▁가동하여	-11.8633
▁사상	-11.8635
디딜	-11.8636
도로건설공사	-11.8636
▁타격하였음	-11.8636
▁방수재	-11.8637
▁지진	-11.8638
▁교량공사	-11.8638
▁향하여	-11.8638
▁볼트조립	-11.8638
그네식	-11.8639
▁마개	-11.864
▁제관공	-11.8642
▁가드	-11.8643
▁하수급인	-11.8644
비계공	-11.8644
▁밀림방지	-11.8646
▁골반뼈	-11.8646
▁요철부위	-11.8646
▁목재가공장	-11.8647
▁볼트해체	-11.8647
▁겹질리	-11.8648
▁철근간격	-11.8648
▁파악하기	-11.8648
정건설	-11.8649
▁표준시방서	-11.865
▁Form	-11.865
▁곽	-11.865
▁이런	-11.8651
▁비계기둥과	-11.8651
▁취함	-11.8651
▁엉켜있	-11.8653
▁기존도로	-11.8653
▁유성	-11.8653
전용	-11.8658
르는	-11.8658
▁요동치	-11.8658
▁흘러내리	-11.8659
▁투기장	-11.8659
▁측량기	-11.8663
▁대명	-11.8664
▁체결하였으나	-11.8665
▁묶고	-11.8668
▁부착상태	-11.8668
▁핸드레일과	-11.8668
▁(3)	-11.8668
SC	-11.8669
배수관	-11.8669
하겠다	-11.867
▁끌어올리	-11.8672
▁보하부	-11.8672
▁위험방지	-11.8672
▁입원함	-11.8672
▁보안	-11.8674
▁사용하다	-11.8675
▁하겠습니다	-11.8675
▁충돌됨	-11.8675
▁중수골	-11.8675
▁가설보	-11.8676
산건설	-11.8677
▁안전설비	-11.8678
▁시공되어	-11.8679
▁침실	-11.868
박기	-11.868
보도	-11.8681
▁수원시	-11.8682
▁잡던	-11.8683
▁장점	-11.8683
▁시공이음	-11.8686
응력이	-11.8686
)****	-11.8686
Pm	-11.8687
▁2018	-11.8687
▁골반부위	-11.8688
▁정기	-11.869
▁수심	-11.8692
▁매뉴얼에	-11.8698
▁화학	-11.8699
접힘	-11.87
▁엇	-11.87
▁현장주변	-11.87
▁통신케이블	-11.8701
▁직영근로자	-11.8702
▁버스	-11.8702
▁효	-11.8703
▁통과하여	-11.8703
▁주입기	-11.8704
재해발생원인	-11.8705
▁수직높이	-11.8707
형관	-11.871
옆에서	-11.8711
▁작업공종	-11.8711
▁경계선	-11.8712
▁늦어졌	-11.8713
▁복사	-11.8716
▁않았	-11.8716
▁하역하기	-11.8717
▁나르던	-11.8717
상차	-11.8718
▁한정	-11.872
▁통제하여	-11.8721
▁Ch	-11.8722
▁휀	-11.8724
제원표	-11.8725
양생용	-11.8725
작업종료	-11.8725
▁중함마	-11.8729
▁반영하여	-11.8729
▁널	-11.8731
▁절단석	-11.8732
▁타설량	-11.8735
▁타설방법	-11.8735
배수암거	-11.8737
석고	-11.8739
사고인지	-11.8739
▁부장	-11.8739
동앞	-11.874
공항	-11.8741
▁물속	-11.8741
▁이음부위	-11.8743
▁구성된	-11.8744
▁고도	-11.8745
▁토층	-11.8745
▁테이블	-11.8748
▁풀었	-11.8749
▁연결판	-11.8752
▁실시하며	-11.8754
▁용단작업	-11.8755
방지책	-11.8755
▁배기	-11.8757
▁필요할	-11.8759
▁않으면	-11.8766
바르게	-11.8768
두었던	-11.8769
▁0.7	-11.8771
▁판단되어	-11.8772
씌우기	-11.8777
21.02.	-11.8778
▁가교	-11.878
▁할때	-11.878
마당	-11.878
▁유지하기	-11.8781
조종기	-11.8782
▁장비별	-11.8788
▁대전시	-11.8789
▁타일공	-11.8789
▁취급작업	-11.8791
(150	-11.8792
▁운동	-11.8793
▁틀에	-11.8793
▁끼우던	-11.8794
▁902	-11.8795
▁낙하물방지	-11.8797
▁506	-11.8799
▁적합하	-11.88
▁타설장비	-11.8803
▁변경하여	-11.8804
▁개인용	-11.8805
▁교육하고	-11.8808
▁사용해	-11.8809
▁청소작업중	-11.8809
▁장기	-11.8811
▁충격함	-11.8816
▁노력하	-11.8817
▁법면부	-11.8817
▁위쪽으로	-11.882
▁신호중	-11.8821
▁내국인	-11.8827
▁놓으면	-11.8831
▁ro	-11.8838
▁안전상태	-11.8842
▁취하는	-11.8842
▁운행하여	-11.8844
▁이동시키	-11.8845
▁다르	-11.8845
▁소재지	-11.8848
▁기계장치	-11.885
▁작업이동중	-11.885
▁듯	-11.8853
졌다	-11.8853
성건설	-11.8855
▁추진공사	-11.8855
보온공	-11.8855
▁수평도	-11.8855
▁체결작업중	-11.8857
-15	-11.8858
이지만	-11.8858
▁안전바	-11.886
▁완료함	-11.8862
▁601	-11.8863
현장사무실	-11.8864
▁번호	-11.8867
▁잡아당기다	-11.8868
▁도색	-11.887
▁강관내	-11.8871
전력	-11.8872
▁수위	-11.8874
▁질의	-11.8874
▁관내부	-11.8875
고임	-11.8877
▁취하다	-11.8881
▁국가	-11.8885
▁데크설치	-11.8888
▁체계적	-11.8889
▁고정목	-11.8896
2.9	-11.8897
리거	-11.8897
▁상판에서	-11.8902
▁풀어지	-11.8908
/22	-11.8914
▁2022.01.	-11.8914
ose	-11.892
▁신호하	-11.8921
공사현장	-11.8924
▁부지에서	-11.8927
▁해체계획	-11.8935
5°	-11.8937
만원	-11.8941
▁공내	-11.8941
어지는	-11.8943
마자	-11.8946
▁않다	-11.8947
▁정비작업	-11.8952
▁되었는지	-11.8953
4.7	-11.8957
알폼설치	-11.8962
▁2020.07.2	-11.8962
▁밀폐공간에	-11.8962
▁강재와	-11.8966
복공판	-11.8966
▁안개	-11.8966
발생일시	-11.8967
▁이송중	-11.8976
철거작업중	-11.8978
870	-11.8979
교육실시	-11.8981
해양	-11.8982
물류	-11.8983
▁재해방지	-11.8984
▁신설공사	-11.8991
▁부대시설	-11.8992
▁11/2	-11.9005
6.5	-11.901
▁발등뼈	-11.901
▁배면에서	-11.9013
▁수직상태	-11.9018
▁소요되	-11.9023
▁설치하는중	-11.9038
▁틀어지	-11.9038
▁파도	-11.904
편의성	-11.9042
▁해체자재	-11.9043
주장	-11.9044
▁작업의자	-11.9047
RE	-11.9048
강하	-11.905
▁이용해서	-11.9052
▁단관파이프가	-11.9062
▁어깨부분	-11.9067
▁분기	-11.9068
/6	-11.9078
층벽체	-11.9079
▁상기인	-11.9079
▁환	-11.9083
습관	-11.9088
▁꺼내	-11.9091
▁시작한	-11.9092
▁상부공	-11.9097
:00~	-11.91
78	-11.9109
▁상부자재	-11.9122
▁화물적재	-11.9124
수도관	-11.9137
▁고여	-11.9139
▁아트	-11.914
▁발생장소	-11.9141
▁부식방지	-11.9152
▁근무하다	-11.9152
▁모서리부분	-11.9153
정비사업	-11.9164
▁배관공사	-11.9171
마감재	-11.9179
▁암파쇄	-11.9187
▁토사물	-11.919
▁복층	-11.9198
▁커팅작업	-11.9213
▁시공부위	-11.9217
▁발파현장	-11.9217
▁바로잡	-11.9218
▁디디	-11.9222
▁홍성	-11.9227
▁측에서	-11.9231
▁보상	-11.9234
도져	-11.9236
토질	-11.9238
▁잠수기	-11.9251
▁입회하	-11.9251
대호	-11.9263
▁보지못	-11.9266
▁과장	-11.9285
광역	-11.931
생수	-11.9328
▁근무하던	-11.9329
▁복합적	-11.933
▁넘어지던	-11.9338
빔자재	-11.9343
잡아	-11.9361
솔리	-11.9363
▁비계기둥에	-11.9368
▁이동식사다리	-11.938
▁지연됨	-11.9395
▁고정하려	-11.9402
준하여	-11.941
▁산성	-11.9411
▁수직방향	-11.9413
노선	-11.9418
디디면서	-11.9435
사고발생경위	-11.9442
▁힘들	-11.9443
소식	-11.9453
▁측에	-11.9456
▁조작자	-11.9463
▁311	-11.9465
4.3	-11.9467
▁지휘에	-11.9472
▁수정작업	-11.9485
물량	-11.9506
▁돌리는	-11.9507
아무도	-11.951
▁디딤발	-11.9515
콘크리트공사	-11.9515
*15	-11.9517
가슴	-11.952
▁방식이	-11.9525
▁산재자	-11.9549
▁하강시키	-11.9553
600)	-11.9568
▁낙하위험	-11.9582
▁다쳤	-11.9594
나우	-11.9597
각반	-11.9605
▁가복공	-11.9612
대청	-11.962
▁증설	-11.9625
믹서기	-11.9627
▁작업대기중	-11.9631
▁하부근로자	-11.9636
▁공극	-11.964
▁경간	-11.9668
3-3	-11.9678
받침보	-11.968
▁형틀설치	-11.9688
▁대림	-11.9689
▁쓰러	-11.9689
▁선단부	-11.9695
전도방지용	-11.9702
▁절곡작업	-11.9703
▁사항들	-11.9708
▁빼기	-11.9714
▁2021.07.	-11.9722
▁흐트러	-11.9727
안군	-11.9737
대안	-11.9741
산단	-11.9759
시공중	-11.9761
▁펼쳐	-11.977
관측	-11.9771
▁천막설치	-11.9788
ll	-11.98
절단작업	-11.9826
▁철근가공작업	-11.9833
▁14:2	-11.9842
▁취하던	-11.9853
쓰	-11.9857
화성	-11.9861
▁신호대	-11.9866
하는순간	-11.9869
▁적치장	-11.987
▁인지하였음	-11.9879
방지망	-11.9886
킴	-11.9888
▁크레인작업	-11.9894
어지면서	-11.9907
겠	-11.9917
97	-11.9927
▁벗겨	-11.9939
▁철근가공기	-11.9943
700	-11.995
▁첨부하여	-11.9956
▁금속공	-11.9967
개선사업	-11.9968
▁시공단계	-11.9978
보호대	-11.9982
▁0.1	-11.9982
▁일부구간	-11.9982
▁미끌어	-11.9984
잔해물	-11.9996
서울병원	-12.0005
측구	-12.0008
▁경미	-12.0009
폴	-12.0014
돌아	-12.0031
노조	-12.0039
▁꺽	-12.0053
르던	-12.0055
▁노출되	-12.0056
수칙	-12.0057
150)	-12.0058
붐	-12.0061
괴	-12.0062
옆구리	-12.0063
버팀	-12.0064
드라이버	-12.0066
Shoe	-12.0066
엇	-12.0068
통신케이블	-12.0068
살	-12.0069
종합병원	-12.0069
외곽	-12.0069
▁닫던	-12.0069
중족골	-12.0069
깔목	-12.007
뿐	-12.0071
덧	-12.0071
선상에	-12.0071
요령	-12.0071
패	-12.0071
투바이	-12.0072
종골	-12.0072
배전반	-12.0073
바람	-12.0073
Plate	-12.0073
하였지만	-12.0074
세우기	-12.0074
보호장구	-12.0074
뇌	-12.0074
생명줄	-12.0075
큰	-12.0075
매달기	-12.0075
깔기	-12.0075
벤트	-12.0076
새끼	-12.0076
베이스	-12.0076
달포대	-12.0076
NO	-12.0076
플라스틱	-12.0077
반복적	-12.0077
휴대용	-12.0077
복도에서	-12.0077
근골격계	-12.0078
코너	-12.0078
쓰레기	-12.0078
규모	-12.0078
발코니	-12.0078
대퇴부	-12.0078
비닐	-12.0078
컨테이너	-12.0078
지장물	-12.0079
응급실	-12.0079
경계석	-12.0079
미끄러지면서	-12.0079
방호장치	-12.008
펌프카	-12.008
특별	-12.008
미착용	-12.0081
시스템동바리	-12.0081
버스	-12.0081
밟고	-12.0081
붐대	-12.0081
철망	-12.0081
모양	-12.0082
출입문	-12.0082
마스트	-12.0083
철탑	-12.0083
접근	-12.0083
휴식	-12.0084
골반	-12.0085
건축물	-12.0085
해머	-12.0087
화학	-12.0088
사망	-12.009
환기	-12.009
Ch	-12.0091
심한	-12.0092
안전난간대	-12.0092
철골빔	-12.0092
약품	-12.0095
요추부	-12.0096
향후	-12.0106
▁구부러	-12.0112
상단부	-12.0116
항목	-12.0116
우천	-12.0119
작용	-12.012
웨	-12.0124
안정	-12.0126
방치	-12.0126
전류	-12.0127
방수공사	-12.0129
으려	-12.0131
TS	-12.0132
▁코팅	-12.0133
내림	-12.0135
▁골조작업	-12.014
수목	-12.0142
목적	-12.0146
주행	-12.0147
▁구급	-12.0148
준비작업	-12.015
▁들다	-12.0154
크기	-12.016
Wi	-12.016
현장소장	-12.0169
▁외관상	-12.0173
▁#4	-12.0175
she	-12.0177
소형	-12.0189
방지대책	-12.0193
넬	-12.0195
▁유자격	-12.0197
차원	-12.0199
센티	-12.0204
▁레미콘타설	-12.0205
고덕	-12.0205
사장	-12.0205
TO	-12.0209
▁하수급	-12.0209
안쪽	-12.021
분류	-12.0212
개선	-12.0213
밥	-12.0213
and	-12.0216
▁냉각	-12.0216
빨	-12.0217
롭게	-12.0218
▁후미부	-12.0219
▁뒷걸음치	-12.022
▁복숭아	-12.0221
▁헌치	-12.0224
위원회	-12.0224
▁너울	-12.0225
▁트랜치	-12.0226
둘	-12.0226
▁팽창	-12.0226
▁사보강	-12.0226
랩	-12.0227
▁평탄작업	-12.0227
▁초기대응	-12.0228
꾸	-12.0228
▁Lift	-12.0228
▁아킬레스	-12.0228
Sho	-12.0228
▁산업안전보건	-12.0228
▁스틸	-12.0228
▁검정	-12.0228
▁골정	-12.0229
▁무수축	-12.0229
헌	-12.0229
▁오엔건설	-12.0229
쉘	-12.0229
Slee	-12.0229
ator	-12.0229
ever	-12.0229
▁바이브레	-12.0229
▁취사식당	-12.0229
▁허용적재하중	-12.0229
▁휴먼에러	-12.0229
겐	-12.0229
심폐소생	-12.0229
접질렸음	-12.0229
졸음쉼터	-12.0229
코리아	-12.0229
Casing	-12.0229
Setting	-12.0229
ation	-12.0229
lashing	-12.0229
par	-12.0229
span	-12.0229
uide	-12.0229
urn	-12.0229
▁LNG	-12.0229
▁WWT	-12.0229
▁jack	-12.0229
▁support	-12.0229
▁견갑골	-12.0229
▁굄목	-12.0229
▁규준틀	-12.0229
▁그라이더	-12.0229
▁금풍건설	-12.0229
▁까치발	-12.0229
▁깡통	-12.0229
▁날인거부	-12.0229
▁넘여져	-12.0229
▁뇌경색	-12.0229
▁다섯번째	-12.0229
▁닦던	-12.0229
▁대퇴골	-12.0229
▁덮기	-12.0229
▁도시환경정비사업	-12.0229
▁돌맹이	-12.0229
▁드라이독	-12.0229
▁랩핑	-12.0229
▁롯드	-12.0229
▁머캐덤	-12.0229
▁메탈라스	-12.0229
▁발디딤	-12.0229
▁방아쇠	-12.0229
▁벨트슬링	-12.0229
▁부딛친	-12.0229
▁부딧힘	-12.0229
▁블레이드	-12.0229
▁빗맞아	-12.0229
▁뽑던	-12.0229
▁세파볼트	-12.0229
▁솟아	-12.0229
▁송풍기	-12.0229
▁쇠사슬	-12.0229
▁쇳조각	-12.0229
▁스트롱백	-12.0229
▁스판크리트	-12.0229
▁스펀지	-12.0229
▁아세틸렌	-12.0229
▁앉음	-12.0229
▁압력조정기	-12.0229
▁압축강도시험	-12.0229
▁업지손가락	-12.0229
▁엔진양수기	-12.0229
▁연삭날	-12.0229
▁오수중계펌프장	-12.0229
▁왼족	-12.0229
▁용접방화포	-12.0229
▁움직일	-12.0229
▁유러폼	-12.0229
▁이상토압	-12.0229
▁임팩트	-12.0229
▁전동핸드카	-12.0229
▁치장벽돌	-12.0229
▁쿠션재	-12.0229
▁큐베컨	-12.0229
▁큐브앤	-12.0229
▁파트너	-12.0229
▁풍화암	-12.0229
▁하이랜더	-12.0229
▁핸드그라인드	-12.0229
▁화스너	-12.0229
▁화이트금속	-12.0229
▁후방카메라	-12.0229
▁흐르	-12.0229
건설사업관리자	-12.0229
근골계질환	-12.0229
다가구주택	-12.0229
드라이비트	-12.0229
맥	-12.0229
캔	-12.0229
크롤라드릴	-12.0229
피로누적	-12.0229
Bracing	-12.0229
Sea	-12.0229
▁40~50	-12.0229
▁RAMP	-12.0229
▁겹친	-12.0229
▁골재분리기	-12.0229
▁교차가새	-12.0229
▁꼽아	-12.0229
▁되메움	-12.0229
▁못뽑이	-12.0229
▁분리수거	-12.0229
▁언더피닝	-12.0229
▁영통자이	-12.0229
▁원위부	-12.0229
▁초음파	-12.0229
▁해운대	-12.0229
서까래	-12.0229
알류미늄	-12.0229
첩	-12.0229
▁21.05.	-12.0229
▁내렸고	-12.0229
▁부딛치	-12.0229
▁제수변	-12.0229
▁주차트레이	-12.0229
▁테트라	-12.0229
▁혈압	-12.0229
냉난방	-12.0229
파상풍	-12.0229
형개거	-12.0229
▁갱문	-12.0229
▁혈종	-12.0229
▁드롭	-12.0229
▁척골	-12.0229
▁춘천	-12.0229
라운드	-12.0229
호매실	-12.0229
휴게소	-12.0229
Box	-12.0229
▁경제적	-12.0229
▁물러서	-12.0229
화성비봉	-12.0229
ater	-12.0229
▁펀치	-12.0229
▁석션작업	-12.0229
▁시다볼트	-12.0229
▁헤라	-12.0229
▁10~15	-12.0229
▁균형상실	-12.0229
▁수전설비	-12.0229
▁인접대지	-12.0229
▁생략	-12.0229
▁ᄀ자	-12.0229
▁잔손보기	-12.0229
▁전형적	-12.0229
▁조립강주	-12.0229
원도급	-12.0229
Sliding	-12.0229
ction	-12.0229
▁거푸	-12.0229
상업시설	-12.0229
택지개발사업	-12.0229
▁바이스	-12.0229
▁북서측	-12.0229
▁평택성모병원	-12.0229
▁성소병원에	-12.0229
'19.9.	-12.0229
▁주주재	-12.0229
대신기공	-12.0229
▁규명	-12.0229
▁일용인부	-12.0229
▁횡배수관	-12.0229
침전지	-12.0229
ace	-12.0229
▁빈틈	-12.0229
안전작업허가	-12.0229
▁직업병	-12.0229
농촌중심지활성화	-12.0229
▁초벌	-12.0229
▁여과지	-12.0229
▁냉동창고	-12.0229
체육센터	-12.0229
▁스마트	-12.0229
▁경과관찰	-12.0229
▁접질렸다	-12.0229
rail	-12.0229
됐으나	-12.0229
▁코팅합판	-12.0229
(30*4	-12.0229
▁곡관	-12.0229
▁차선변경	-12.0229
▁조경식재	-12.0229
▁휘말	-12.0229
▁서리로	-12.0229
▁넘어졌습니다	-12.0229
▁뛰어내렸으나	-12.0229
▁팅기	-12.0229
▁폐콘	-12.0229
▁온도변화	-12.023
▁테이블폼	-12.023
▁겹질러	-12.023
▁휘청거리	-12.023
▁오르막길	-12.023
▁카고트럭	-12.023
▁턱밑	-12.023
▁유량계	-12.023
▁흔들거리	-12.023
▁공용홀	-12.023
▁두개골	-12.023
▁등받이	-12.023
▁무근콘크리트	-12.023
▁날짜	-12.023
▁후사경	-12.023
▁방책	-12.023
▁모래주머니	-12.023
▁건강진단	-12.023
▁처분	-12.023
▁흘러내림	-12.023
▁맞춤	-12.023
▁전단강도	-12.023
▁복공철판	-12.023
▁석탄	-12.023
▁핸드폰	-12.023
▁수평구명줄	-12.023
▁강재토류판	-12.023
▁주치의	-12.023
▁원동기	-12.023
▁후진경보기	-12.023
▁기댄	-12.023
▁비파괴	-12.023
▁저항측정	-12.023
▁충전드릴	-12.023
▁맞았음	-12.023
▁걸침길이	-12.023
▁비틀어	-12.023
ion	-12.023
▁크롤러크레인	-12.023
▁오거드릴	-12.023
▁업무상질병	-12.023
▁달기로프	-12.023
▁압축력	-12.023
▁도로경계석	-12.0231
▁도갱	-12.0231
▁체류	-12.0231
▁명칭	-12.0231
▁패널옹벽	-12.0231
▁교행	-12.0231
▁영동병원	-12.0231
▁진접	-12.0231
▁어지러움증	-12.0231
▁구룡	-12.0231
▁있었는데	-12.0231
▁벗겨져	-12.0231
▁있으니	-12.0231
▁응급기관	-12.0231
추간판장애	-12.0231
숙박	-12.0231
eader	-12.0231
▁키락	-12.0231
▁자주식	-12.0231
▁핸들러	-12.0231
▁달기기구	-12.0231
▁오랜	-12.0231
▁알수없	-12.0231
▁흙더미	-12.0231
▁거쳐	-12.0231
▁이음새	-12.0231
▁양극	-12.0231
▁데임	-12.0231
▁고저차	-12.0232
▁전동기계기구	-12.0232
▁토압지지대	-12.0232
▁기계설비공사	-12.0232
효율	-12.0232
▁60°	-12.0232
▁고려대학교	-12.0232
▁지연되었음	-12.0232
▁가설안전난간대	-12.0232
▁역류	-12.0232
▁유해물질	-12.0232
▁연령	-12.0232
▁대차바퀴	-12.0232
▁구동축	-12.0232
▁절반	-12.0232
센치	-12.0232
▁인양능력표	-12.0232
▁그늘	-12.0232
▁파절	-12.0232
▁쪽망	-12.0232
▁희석	-12.0232
▁CRC	-12.0232
짜리	-12.0232
▁안전감시단	-12.0232
▁수도배관	-12.0233
▁영덕	-12.0233
▁인장강도	-12.0233
▁셋째	-12.0233
▁추정되나	-12.0233
▁철골세우기	-12.0233
▁만족	-12.0233
▁기억	-12.0233
▁스파	-12.0233
▁뒤집어	-12.0233
▁산재요양	-12.0233
바이오	-12.0233
▁회전반경내	-12.0234
▁헌치부	-12.0234
▁천막보양	-12.0234
▁전원스위치	-12.0234
▁미파악	-12.0234
▁소유	-12.0234
▁슬링로프	-12.0234
에너지	-12.0234
▁정착력	-12.0234
▁부석제거	-12.0234
▁큰돌	-12.0234
▁치료중입니다	-12.0234
▁방수액	-12.0234
▁저속	-12.0235
▁도모	-12.0235
▁트랜치관	-12.0235
▁페인트칠	-12.0235
▁철심	-12.0235
▁프로	-12.0235
▁방화포	-12.0235
▁주행속도	-12.0235
▁이동동선	-12.0235
▁직종	-12.0235
▁저온	-12.0235
▁통보받음	-12.0235
▁통보받아	-12.0235
▁미시행	-12.0235
▁물기제거	-12.0235
▁절토면	-12.0236
▁운항	-12.0236
▁재건축	-12.0236
출퇴근	-12.0236
▁표준방법	-12.0236
▁관계법	-12.0236
▁주장하나	-12.0236
점지지	-12.0236
▁상하수도관	-12.0236
▁대각	-12.0237
▁미부착	-12.0237
▁말림	-12.0237
▁노폭	-12.0237
▁재해발생사실	-12.0237
▁접질러짐	-12.0237
▁가죽	-12.0237
▁일광	-12.0237
지병	-12.0238
▁받침기둥	-12.0238
▁소부재	-12.0238
▁가져야	-12.0238
다마가	-12.0238
▁일체화	-12.0238
카드	-12.0238
▁해저	-12.0239
▁피난계획	-12.0239
▁안전지대	-12.0239
▁바른	-12.0239
▁외장재	-12.0239
▁좌측가슴	-12.0239
▁주행체	-12.0239
▁대나무	-12.0239
▁Cl	-12.0239
▁소유주	-12.0239
▁저항치	-12.024
▁연골판	-12.024
.0+5	-12.024
▁흘러나	-12.024
▁단속	-12.024
▁있었음에도	-12.024
▁터널외부	-12.024
▁입게됨	-12.024
▁7~8	-12.024
▁압착됨	-12.024
▁출혈발생	-12.024
▁아래팔	-12.0241
▁CDM	-12.0241
▁소방시설	-12.0241
▁조여야	-12.0241
▁잠재	-12.0241
▁측점	-12.0241
▁지축	-12.0241
▁막음	-12.0241
▁삽교	-12.0241
▁모재	-12.0241
▁정착구	-12.0242
▁외벽도장	-12.0242
▁거스	-12.0242
▁구미	-12.0242
우므로	-12.0242
▁입증	-12.0242
▁북진	-12.0242
▁하부케이지	-12.0242
▁약화	-12.0242
▁홀더선	-12.0243
▁층별	-12.0243
하수처리시설	-12.0244
▁타공종	-12.0244
▁외부시스템비계	-12.0244
▁환기창	-12.0244
▁사망원인	-12.0244
▁발바퀴	-12.0244
▁차도가	-12.0245
▁태화	-12.0245
▁다른곳	-12.0245
왔으며	-12.0245
▁조급	-12.0245
▁용산	-12.0245
▁Pulley	-12.0245
▁07:50	-12.0245
▁지층상태	-12.0246
▁자유	-12.0246
▁양생포	-12.0246
▁신발장	-12.0246
▁간편	-12.0247
▁해석	-12.0247
라이트	-12.0247
▁오래	-12.0247
▁외피	-12.0247
▁충주	-12.0247
▁13:20	-12.0248
▁모선	-12.0248
▁발진대	-12.0248
▁외래	-12.0248
▁예초작업	-12.0248
▁회전톱날	-12.0248
▁손상유무	-12.0248
▁Tray	-12.0248
▁화목	-12.0249
▁목표	-12.0249
▁원통	-12.0249
▁살피지	-12.0249
▁09:40	-12.025
▁디딤대	-12.025
▁불발공	-12.025
▁튀어오르면서	-12.025
▁송천	-12.025
▁설계단계에	-12.0251
▁08:40	-12.0251
▁쓰러져있는	-12.0251
▁수리시설	-12.0251
▁추정되며	-12.0251
▁보충	-12.0251
▁올려져	-12.0252
▁14:20	-12.0252
▁가구자재	-12.0252
▁항문	-12.0252
▁이동식대차	-12.0252
▁귀가하였으나	-12.0252
▁감당	-12.0253
▁미달	-12.0253
▁가옥	-12.0253
▁안전운전	-12.0253
▁온실	-12.0253
▁우측눈	-12.0254
▁계측계획	-12.0254
수탑	-12.0255
(75	-12.0255
▁제어하지	-12.0255
▁이송조치	-12.0256
▁공구박스	-12.0256
▁왼쪽허벅지	-12.0256
▁경고등	-12.0256
▁걸어주고	-12.0256
▁각입	-12.0256
▁15:20	-12.0257
▁실시하되	-12.0257
▁이상소견	-12.0257
▁기계굴착	-12.0257
▁대피소	-12.0257
▁연결호스	-12.0257
▁공사진행	-12.0257
▁고체	-12.0258
부지에서	-12.0258
▁13:10	-12.0259
▁기입	-12.0259
▁영화	-12.0259
▁발목부상	-12.0259
▁밟자	-12.0259
▁지상주차장	-12.026
▁고열	-12.026
확포장	-12.026
▁철골구조	-12.026
▁옹벽블록	-12.026
▁폭발이나	-12.026
▁15:40	-12.0261
▁커터날	-12.0261
2.7	-12.0262
▁15:50	-12.0262
▁진공	-12.0262
▁전단철근	-12.0262
▁좌측늑골	-12.0262
▁멍에제	-12.0263
▁튀지	-12.0264
▁감식	-12.0264
발성	-12.0265
▁폭발성	-12.0265
▁추락했	-12.0265
▁시공조건	-12.0266
▁공구통	-12.0266
▁고인물	-12.0266
▁인지하였으며	-12.0267
▁자재창고	-12.0267
▁다져	-12.0267
▁폭력	-12.0268
▁신축이음부	-12.0268
▁추진방향	-12.0269
▁행하고	-12.0269
▁사재	-12.0269
▁효과	-12.0269
▁업무상재해	-12.0269
▁외쪽	-12.027
행동	-12.027
원형	-12.0272
▁선적	-12.0272
▁제거하다	-12.0273
8-1	-12.0273
▁안전작업방법	-12.0273
▁사보	-12.0274
▁상하차	-12.0274
▁낙하해	-12.0274
▁피재	-12.0274
▁Slab	-12.0274
▁LPG	-12.0274
▁라바콘	-12.0274
▁주식회사	-12.0274
▁차집관로	-12.0274
▁환풍기	-12.0274
▁후방십자인대	-12.0274
▁부스러기	-12.0274
▁휴대폰	-12.0274
급계획	-12.0274
▁건강검진	-12.0275
▁보형틀	-12.0275
▁계단통로	-12.0276
▁보제작	-12.0276
▁베인사고	-12.0276
▁지보설치	-12.0276
▁결점	-12.0276
▁무성	-12.0276
▁출고	-12.0277
▁끼우고	-12.0277
▁20%	-12.0277
▁지지로프	-12.0278
▁발판고리	-12.0279
▁재해당일	-12.028
▁걸려넘어짐	-12.0281
▁기초파일	-12.0281
▁고정못	-12.0281
▁조립순서	-12.0282
▁펴고	-12.0282
천리	-12.0282
▁긴급조치	-12.0282
▁현황도	-12.0283
▁뒤돌아서	-12.0283
Flo	-12.0283
▁엉덩이뼈	-12.0284
▁단위작업	-12.0284
▁CV	-12.0284
▁준수사항	-12.0285
▁바다	-12.0285
▁외벽거푸집	-12.0286
▁기록하여	-12.0286
▁축선	-12.0287
▁사선	-12.0288
▁여자	-12.029
▁판넬공	-12.029
▁위험지역	-12.029
▁가기위해	-12.0292
▁메달	-12.0293
(600*1200)	-12.0293
▁남원	-12.0293
파단	-12.0294
▁주배관	-12.0295
▁도착전	-12.0296
▁10:20	-12.0297
▁고정부위	-12.0298
▁집중되어	-12.0298
▁방호관	-12.0299
▁돌발적	-12.03
▁발파공	-12.03
▁위치이동	-12.03
▁꺼내는	-12.0301
▁디디는	-12.0301
연골파열	-12.0302
▁양구	-12.0302
농업	-12.0303
▁궁	-12.0304
▁서원토건	-12.0304
▁꽃	-12.0304
▁빼려다	-12.0304
▁평지	-12.0305
미터이상	-12.0306
▁지질조사	-12.0306
▁항공	-12.0306
▁미해체	-12.0307
▁사망진단서	-12.0307
▁시트지	-12.0308
▁파손됨	-12.0309
▁가설물	-12.031
▁송전선로	-12.0311
▁안전기둥	-12.0312
불이행	-12.0312
▁지급하여	-12.0312
개당	-12.0313
▁정량	-12.0313
▁철근하역	-12.0313
▁강교	-12.0314
▁이름	-12.0314
시경어디서	-12.0314
▁신원	-12.0315
▁바탕으로	-12.0315
▁좋은	-12.0315
▁적재량	-12.0316
▁이상이거나	-12.0317
▁해결	-12.0319
▁지켜보자	-12.0319
▁전도재해	-12.0319
▁무시한	-12.0319
▁(4)	-12.032
▁출발하여	-12.032
▁운반통로	-12.0322
▁압착사고	-12.0322
▁천장공사	-12.0322
▁안됨	-12.0322
▁높고	-12.0326
▁혼합기	-12.0327
▁인장기	-12.0328
▁작업개요	-12.033
▁예정입니다	-12.033
▁자차	-12.033
▁조립봉	-12.0332
▁재해발생함	-12.0332
Head	-12.0333
▁사용기준	-12.0334
▁GATE	-12.0334
▁굴착방법	-12.0335
▁박아	-12.0336
▁보관소	-12.0336
결손	-12.0338
▁가공하기	-12.0338
▁이격하여	-12.034
▁수평제	-12.034
▁유지하거나	-12.0341
▁성분	-12.0342
▁직접원인	-12.0344
▁승강발판	-12.0345
▁찾는	-12.0345
▁무의식중	-12.0345
▁발견함	-12.0347
▁10>	-12.0349
▁내려가서	-12.0349
▁계단거푸집	-12.0352
예초	-12.0352
▁접근하다	-12.0353
▁상해사고	-12.0353
환경개선	-12.0353
▁금하고	-12.0358
▁수집	-12.0359
▁혼합물	-12.0359
▁통선	-12.036
▁피하고	-12.0361
▁1206	-12.0362
▁장비사용	-12.0362
▁뚝	-12.0362
▁다짐장비	-12.0362
철근대차	-12.0363
(0.5	-12.0363
▁사용기계	-12.0364
▁〈	-12.0364
(1.6	-12.0364
▁송장	-12.0365
것이	-12.0367
▁수술함	-12.0369
▁수축	-12.0369
▁아니함	-12.0371
▁시키려	-12.0371
▁2021.06.	-12.0372
▁추진하기	-12.0373
ET	-12.0373
▁부선	-12.0376
▁다짐도	-12.0376
▁화성	-12.0377
(500	-12.0377
▁비계구조물	-12.0377
▁안전블럭	-12.0379
▁신나	-12.0379
▁미간	-12.0381
▁시공완료	-12.0381
▁설비공사	-12.0382
-03	-12.0383
▁이격된	-12.0383
▁기울어지는	-12.0385
▁ON	-12.0386
울산방향	-12.0386
▁과중	-12.039
▁괴	-12.039
▁스파크로	-12.0391
회원	-12.0392
▁왔으며	-12.0394
▁Shoe	-12.0394
▁드라이버	-12.0394
▁지휘하고	-12.0394
일오전	-12.0395
▁콘크리트블록	-12.0395
▁한림대	-12.0395
▁발판해체	-12.0397
▁하부판넬	-12.0398
-05	-12.0402
▁808	-12.0404
▁끼어있던	-12.0405
하든	-12.0406
▁시스템자재	-12.0408
mp	-12.0408
▁태만으로	-12.0409
▁과대	-12.0409
▁실시하다가	-12.041
▁살이	-12.0414
▁입원조치	-12.0414
조립작업	-12.0418
▁한쪽면	-12.0421
▁자주	-12.0423
▁견출작업자	-12.0424
▁kN	-12.0424
▁무지	-12.0426
▁피하여	-12.0428
▁증후군	-12.0428
3.6	-12.0429
▁3.0	-12.0429
▁아주대	-12.043
▁운행할	-12.043
▁조경수	-12.043
▁목뼈	-12.0432
▁강구한	-12.0433
▁첫단	-12.0433
▁붙어서	-12.0434
▁가공대	-12.0435
양동이	-12.0436
mX	-12.0437
▁북면	-12.0441
거친	-12.0444
▁부상정도	-12.0444
MA	-12.0445
▁붕괴사고	-12.0447
▁계속적	-12.0448
폴리	-12.0448
▁리모델링공사	-12.045
-09	-12.0452
▁직원인	-12.0453
▁미만인	-12.0454
▁밀어주	-12.0456
충돌증후군	-12.0456
▁경적	-12.0464
▁사용계획	-12.0465
▁코부위	-12.0476
6~7	-12.0477
▁인력운반작업	-12.048
손잡이	-12.048
▁착용중이	-12.0483
▁박리	-12.0483
▁수문	-12.0484
▁돌아오	-12.0485
▁이음부분	-12.0487
▁결로	-12.0489
▁안경	-12.0493
▁측부	-12.0493
▁보관함	-12.0496
▁내리치	-12.0501
▁반경내에	-12.0506
▁쓰려	-12.0507
*12	-12.051
▁각선	-12.0518
▁시점부에서	-12.0518
지반위에	-12.052
▁취급부주의	-12.0521
▁양지	-12.0521
▁굴착장소	-12.0527
▁블	-12.0527
▁잡아주다	-12.0531
▁입원후	-12.0531
▁배관고정	-12.0534
▁추락하였고	-12.0536
통신관	-12.0557
ON	-12.0563
마트	-12.0564
가해차량	-12.057
▁대용	-12.0572
▁시계	-12.0576
증명	-12.0585
남기업	-12.0585
▁울리	-12.0592
▁사용중인	-12.0595
▁돌아왔	-12.06
▁안전줄	-12.0603
▁형틀근로자	-12.0605
▁중간부위	-12.0609
▁틀어	-12.0612
▁옹벽공사	-12.0612
▁정밀진단	-12.0613
▁유도등	-12.0616
났	-12.0619
5-5	-12.0629
▁팔등	-12.0629
▁밑부분	-12.0629
스톤	-12.063
650	-12.0631
▁지주대	-12.0632
들어감	-12.0634
▁붕괴재해	-12.0637
▁양중함	-12.0638
▁간판	-12.0642
▁인양줄	-12.0647
▁붕괴방지	-12.0648
▁일한	-12.0653
개만	-12.0658
▁당사현장	-12.066
▁해체작업자	-12.0663
9.11.	-12.0674
▁대지	-12.0678
었다고	-12.0681
▁상가동	-12.0684
▁보양작업중	-12.0687
▁엉덩이부분	-12.0697
있어서	-12.0701
단위별	-12.0703
▁타일작업자	-12.0706
▁용이하다	-12.0711
▁세브란스	-12.0724
▁맨홀내부	-12.0728
▁계측값이	-12.0739
삼보	-12.0741
안전교육	-12.0743
건축직영	-12.0743
▁제재	-12.0753
▁띠장설치	-12.0757
운영계획	-12.0767
▁하역장소	-12.0772
대성	-12.0774
▁68	-12.0778
개선공사	-12.0796
가해물	-12.081
AP	-12.0813
/17	-12.0813
▁소방설비	-12.0814
관급	-12.0823
▁전기담당	-12.0836
폐수	-12.0839
▁옆쪽에	-12.0839
실적	-12.0859
▁형성된	-12.0866
▁2021.11.2	-12.087
요한	-12.0881
▁전기작업	-12.0881
▁시공업체	-12.0882
신항	-12.0892
▁조정하던	-12.0893
창틀	-12.0904
▁보건관리자	-12.091
▁지나다	-12.0918
놓여있는	-12.0924
▁인양체	-12.0929
▁잘리	-12.0948
5,6	-12.0962
▁위치함	-12.0974
▁하역장	-12.0976
▁잡아서	-12.0982
인데	-12.1009
유도원	-12.1017
▁발생하였	-12.1025
▁가료중	-12.1028
▁찔린사고	-12.1038
▁법령	-12.1043
신호수와	-12.1049
골절됨	-12.1057
▁어깨부	-12.106
이설작업	-12.1086
스테이	-12.109
▁재해근로자	-12.1122
▁그로인	-12.113
▁신호수간	-12.1136
▁지상부	-12.1139
▁처리하	-12.1142
▁않았다	-12.1144
지점까지	-12.1157
러그	-12.1168
▁다니	-12.1189
▁나가던	-12.1189
성개발	-12.119
▁어깨뼈	-12.1191
▁2020.05.1	-12.1192
▁고소작업자	-12.1195
▁건물외부	-12.1224
∼1	-12.1232
리트	-12.1237
▁세워두	-12.1268
▁이격되어	-12.1271
▁육상	-12.1274
▁솔	-12.1294
▁기어	-12.1297
번빔	-12.1315
▁5.1	-12.1316
IP	-12.1324
▁감던	-12.1326
▁왼쪽손가락	-12.1332
▁고정시켜	-12.1341
경보기	-12.1349
▁안정적	-12.1376
이음부	-12.1378
▁상가주택	-12.1417
용단작업	-12.142
▁종아리부분	-12.1427
▁절단날	-12.1431
번계단	-12.1439
▁부산대학교	-12.1453
▁수중작업	-12.1453
해체팀	-12.1479
(600*	-12.1482
측부	-12.1491
▁주우	-12.1493
▁고여있	-12.1506
▁형틀조립	-12.1508
*80	-12.1517
▁급수	-12.1518
j	-12.1524
▁사춤작업	-12.1527
▁7,8	-12.154
▁비계해체작업	-12.154
▁배관철거	-12.1554
철근절단	-12.1566
받던중	-12.1566
No	-12.1582
성토작업	-12.1585
▁승강장	-12.159
▁옥상난간	-12.1606
▁정지시켜	-12.1624
▁전기자재	-12.1625
▁가슴부분	-12.1648
▁전달받	-12.1658
▁그것	-12.1664
▁밀려나	-12.1678
평평	-12.1693
방호시설	-12.1696
▁적재되	-12.1698
▁미그러	-12.1703
▁2019.10.1	-12.1714
PP	-12.1728
▁허리쪽	-12.176
▁기타공사	-12.1767
못함	-12.1771
▁가동중	-12.1777
메기	-12.1782
▁송정	-12.1802
▁갱폼발판	-12.1817
정비공사	-12.1826
▁잡아야	-12.1828
▁후진하다	-12.184
관리적	-12.1846
형틀작업	-12.1848
유도등	-12.1887
▁오배수	-12.1891
▁작업지휘	-12.1892
#5	-12.1895
재해조사	-12.19
▁보재	-12.1901
▁비로인	-12.1901
검사결과	-12.1917
▁재단작업	-12.1924
▁2021.08.	-12.1929
▁반경내	-12.1931
자재정리	-12.1939
성모병원	-12.194
▁도로교통	-12.1945
▁2,3,4	-12.1951
▁2021.08.1	-12.1969
배관공	-12.2001
보수공사	-12.2002
닥	-12.201
설치구간에서	-12.2012
▁전달하기	-12.2019
바지선	-12.2024
안전관리	-12.2028
6-2	-12.2035
오류	-12.2039
▁인장작업	-12.2042
유해	-12.2046
중앙병원	-12.2051
추간판	-12.2053
뚝	-12.2065
〈	-12.2066
하겠습니다	-12.2068
중수골	-12.2068
▁외줄	-12.2071
보호망	-12.2071
ᄃ	-12.2071
콘테이너	-12.2072
피니셔	-12.2072
맨	-12.2072
잭베이스	-12.2072
달기	-12.2072
솔져	-12.2072
조종원	-12.2073
고소작업	-12.2073
촉	-12.2074
울타리	-12.2074
pit	-12.2074
산리	-12.2074
하도급	-12.2074
빼	-12.2074
규칙	-12.2075
마스크	-12.2075
지연보고	-12.2075
「	-12.2075
브레이싱	-12.2075
묶	-12.2076
커팅	-12.2076
요통	-12.2076
로울러	-12.2076
받아치기	-12.2077
건립공사	-12.2077
외국인	-12.2077
특수	-12.2077
몰딩	-12.2077
복숭아뼈	-12.2077
삽	-12.2077
브레이커	-12.2077
통행로	-12.2077
라이닝	-12.2077
폐쇄성	-12.2077
돌풍	-12.2077
맨홀뚜껑	-12.2077
첫	-12.2078
스크류	-12.2078
슬리브	-12.2078
검진결과	-12.2078
늑골골절	-12.2078
옷	-12.2078
버킷	-12.2078
화약류	-12.2078
깔림	-12.2079
대상물	-12.2079
클립	-12.2079
그레이팅	-12.2079
미끄러짐	-12.2079
떨어짐	-12.2079
절곡	-12.208
하도급사	-12.208
타워크레인	-12.2082
등록	-12.2082
영향	-12.2082
이동식비계	-12.2084
네번째	-12.2084
감독관	-12.2084
퇴사	-12.2084
정밀	-12.2085
14:30	-12.2085
버림	-12.2089
환기구	-12.2089
유입	-12.2091
15:00	-12.2092
처치	-12.2093
때문	-12.2093
사각	-12.2093
▁제시한	-12.2094
경계선	-12.2094
지보공	-12.2096
종점	-12.2096
▁흘러내	-12.2097
처음	-12.2097
회복	-12.2097
기초철근	-12.2098
11:00	-12.2098
피트	-12.2099
불어	-12.2099
탈형	-12.2099
와이어로프	-12.21
▁겹질	-12.2102
력식	-12.2102
▁부천	-12.2102
조합	-12.2106
설정	-12.2107
결함	-12.2111
방안	-12.2111
자갈	-12.2112
사랑	-12.2115
내측	-12.2115
▁나르	-12.2118
계산	-12.2119
사건	-12.2122
천안	-12.2125
▁야기	-12.2127
제거작업중	-12.2129
연결작업중	-12.2139
제방	-12.2139
용접공	-12.214
지연사유	-12.2146
개설공사	-12.2146
복지관	-12.2153
측부인대	-12.2153
▁한림	-12.2159
▁아랫	-12.216
▁작업편의	-12.2162
▁뒤돌아	-12.2164
▁물적	-12.2165
▁돌발	-12.2166
)*****	-12.2169
▁진출입	-12.2176
시키려	-12.2176
▁넘어진것	-12.2191
예정인	-12.2193
▁식생	-12.2196
▁8/2	-12.2197
ent	-12.2201
▁2020.9.	-12.2202
21.06.2	-12.2202
붕	-12.2209
▁스페이	-12.2209
신경	-12.2211
덜	-12.2212
ail	-12.2213
▁악천	-12.2218
▁진동다짐	-12.2221
보조공	-12.2221
▁세끼	-12.2221
짜	-12.2223
셋	-12.2223
▁복구작업	-12.2224
겼	-12.2224
ase	-12.2225
▁죽전	-12.2226
벤	-12.2226
회수	-12.2226
웠	-12.2226
▁격자	-12.2227
▁공조	-12.2227
▁근린생활	-12.2227
▁콘크리	-12.2227
▁2020.10.2	-12.2227
▁제설	-12.2228
쟈키	-12.2228
▁싱크	-12.2228
▁생겼	-12.2228
됐	-12.2228
덤	-12.2228
▁존치	-12.2228
잉	-12.2228
▁컷터	-12.2228
렛	-12.2228
슨	-12.2228
▁캐트워크	-12.2229
▁발헛디딤	-12.2229
프리미엄	-12.2229
5-2012	-12.2229
Grouting	-12.2229
SPAN	-12.2229
▁Purge	-12.2229
▁SHOP	-12.2229
▁강관조립말비계	-12.2229
▁덮친	-12.2229
▁비정상적	-12.2229
▁쓸림	-12.2229
▁아산충무병원	-12.2229
▁안전관리부서장	-12.2229
▁혼선	-12.2229
글로벌	-12.2229
꼽	-12.2229
퉁	-12.2229
-43-2012	-12.2229
BAR	-12.2229
Frame	-12.2229
Front	-12.2229
ING	-12.2229
OFF	-12.2229
Open	-12.2229
Slip	-12.2229
amber	-12.2229
ant	-12.2229
line	-12.2229
▁1041,1042	-12.2229
▁Channel	-12.2229
▁Fan	-12.2229
▁LIFT	-12.2229
▁OPEN	-12.2229
▁TANK	-12.2229
▁hole	-12.2229
▁가설분전함	-12.2229
▁갈아입	-12.2229
▁강형부재	-12.2229
▁건널다리	-12.2229
▁건조수축	-12.2229
▁걷던	-12.2229
▁격자지보	-12.2229
▁고드름	-12.2229
▁급결제	-12.2229
▁기상악화	-12.2229
▁까뮤이	-12.2229
▁내리막길	-12.2229
▁넓어	-12.2229
▁녹방지	-12.2229
▁녹아	-12.2229
▁놓쳤고	-12.2229
▁돌망태	-12.2229
▁뒤틀려	-12.2229
▁띄워	-12.2229
▁레바블럭	-12.2229
▁몰랐	-12.2229
▁못견디	-12.2229
▁뭉치	-12.2229
▁밧데리	-12.2229
▁베란다	-12.2229
▁부적격	-12.2229
▁불티비산방지포	-12.2229
▁비탈길	-12.2229
▁빗나가	-12.2229
▁삐임	-12.2229
▁산청군	-12.2229
▁산출내역서	-12.2229
▁상반신	-12.2229
▁서두르다	-12.2229
▁석재붙임	-12.2229
▁선택작업장치	-12.2229
▁성도이엔지	-12.2229
▁소요환기량	-12.2229
▁수압시험	-12.2229
▁스톤매트리스	-12.2229
▁스티프너	-12.2229
▁실링벨트	-12.2229
▁안정해석	-12.2229
▁암질판별	-12.2229
▁어두워	-12.2229
▁열교환기	-12.2229
▁옮긴	-12.2229
▁원심력	-12.2229
▁유압유닛	-12.2229
▁임계하중	-12.2229
▁장마철	-12.2229
▁전문기술자	-12.2229
▁절취사면	-12.2229
▁젖혀지	-12.2229
▁주제어동	-12.2229
▁지도감독	-12.2229
▁질병판정위원회	-12.2229
▁찌그러	-12.2229
▁찌르	-12.2229
▁찌임	-12.2229
▁책임기술자	-12.2229
▁최대반력	-12.2229
▁캐리지	-12.2229
▁코너비드	-12.2229
▁콘크리트믹서트럭	-12.2229
▁콤팩터	-12.2229
▁클럽하우스	-12.2229
▁토운선	-12.2229
▁파이프서포터	-12.2229
▁평활도	-12.2229
▁프리캐스트	-12.2229
▁플랫타이	-12.2229
▁합리적	-12.2229
▁합성보	-12.2229
▁해상운송	-12.2229
▁핸디	-12.2229
▁햇빛	-12.2229
▁행그래브	-12.2229
▁현장타설말뚝	-12.2229
▁흔적	-12.2229
▁흡습	-12.2229
▁흡음판	-12.2229
경질우레탄	-12.2229
공기정화시설	-12.2229
꼭	-12.2229
늬	-12.2229
발뒷굼치	-12.2229
시켰으나	-12.2229
아웃코너	-12.2229
재하시험	-12.2229
파출소	-12.2229
퍼센트	-12.2229
NATM	-12.2229
Sling	-12.2229
▁Rock	-12.2229
▁보육시설	-12.2229
▁부적당	-12.2229
▁뻐근	-12.2229
▁서비스	-12.2229
▁선풍기	-12.2229
▁쇼크	-12.2229
▁여수토방수로	-12.2229
▁용접재료	-12.2229
▁트랜스포터	-12.2229
▁펌푸카	-12.2229
▁포인트	-12.2229
▁헐거워	-12.2229
▁확립하여야	-12.2229
ompressor	-12.2229
▁동우건설	-12.2229
▁보조역할	-12.2229
▁본인진술	-12.2229
▁신세계	-12.2229
▁아연도	-12.2229
▁약물치료	-12.2229
▁이상징후	-12.2229
▁작업허가서	-12.2229
▁침사조	-12.2229
햇	-12.2229
SGR	-12.2229
▁던졌는데	-12.2229
▁승강안전기	-12.2229
▁지반개량	-12.2229
▁컨베이어	-12.2229
▁평형추	-12.2229
▁흙덩이	-12.2229
▁`21	-12.2229
20.03.02	-12.2229
▁2021.09.0	-12.2229
▁팅겨	-12.2229
▁파견나	-12.2229
감각신경	-12.2229
처리분구	-12.2229
Coupler	-12.2229
▁공시체	-12.2229
▁병원후송	-12.2229
▁산마루측구	-12.2229
코브라	-12.2229
▁위치선정	-12.2229
메모도	-12.2229
▁그리드	-12.2229
열사병	-12.2229
▁부유물	-12.2229
▁2019.11.2	-12.2229
▁경제성	-12.2229
▁현장정문	-12.2229
▁2019.11.0	-12.2229
▁꺼져	-12.2229
▁무더위	-12.2229
▁우측안구	-12.2229
▁기저부	-12.2229
▁부서져	-12.2229
▁상관관계	-12.2229
▁유가족	-12.2229
▁레이스	-12.2229
▁객실	-12.2229
선수촌	-12.2229
▁형특	-12.2229
▁검단	-12.2229
▁임목폐기물	-12.2229
하행선	-12.2229
양원초	-12.2229
▁애자	-12.2229
▁데크로드	-12.2229
▁산재요양신청	-12.2229
▁인화물질	-12.2229
▁루바	-12.2229
▁짓눌	-12.2229
모닝	-12.2229
▁Pad	-12.2229
▁근원적	-12.2229
▁공사부장	-12.2229
▁연고지	-12.2229
▁컷터칼	-12.2229
▁무인타워크레인	-12.2229
▁이메일	-12.2229
산책로	-12.2229
▁맞물리	-12.2229
▁건드리	-12.2229
▁급성심근경색	-12.2229
▁끼워넣	-12.2229
▁습도	-12.2229
▁이상없다	-12.2229
▁황화수소	-12.2229
▁탈출	-12.2229
▁2019.8.	-12.2229
▁누워있	-12.2229
▁비상연락망	-12.2229
정류장	-12.2229
▁일단정지	-12.2229
▁어려우므로	-12.2229
▁덧댐	-12.2229
▁비상연락	-12.2229
▁애기	-12.2229
▁감싸	-12.2229
▁이의신청	-12.2229
▁과전류	-12.2229
신전건	-12.2229
▁재해복구사업	-12.2229
▁구부	-12.2229
▁인허가기관	-12.2229
▁화재위험작업	-12.2229
sec	-12.2229
카터기	-12.2229
▁간이화장실	-12.2229
▁개략	-12.2229
▁비산불티	-12.2229
▁횡갱	-12.2229
▁전후진	-12.2229
▁방호울타리	-12.2229
▁여자화장실	-12.2229
▁철근밴딩	-12.223
▁오수맨홀	-12.223
내륙	-12.223
센타	-12.223
▁인성개발	-12.223
▁넘어졌으나	-12.223
▁능력단위	-12.223
▁미끌어짐	-12.223
▁보양비닐	-12.223
▁비트함마	-12.223
▁후속공정	-12.223
▁암판정	-12.223
▁묻혀있	-12.223
동승자	-12.223
▁mri	-12.223
▁인력사무소	-12.223
▁떨어졌으며	-12.223
▁회피	-12.223
댐퍼	-12.223
▁붙잡으려다	-12.223
▁필름	-12.223
▁면허증	-12.223
▁강재집수정	-12.223
▁철콘	-12.223
▁집근처	-12.223
▁권상드럼	-12.223
▁슬라이	-12.223
▁국부적	-12.223
▁택시	-12.223
*0.4	-12.223
ess	-12.223
▁야외	-12.223
▁분말	-12.223
▁잔토처리	-12.223
▁했는데	-12.223
과상승방지	-12.223
▁잡았으나	-12.2231
▁쳐지며	-12.2231
▁문틈	-12.2231
▁총중량	-12.2231
▁여굴	-12.2231
▁측량보조	-12.2231
▁스터드볼트	-12.2231
▁정밀조사	-12.2231
▁해머캡	-12.2231
반코팅장갑	-12.2231
▁모으	-12.2231
▁보여짐	-12.2231
▁산재접수	-12.2231
▁신경손상	-12.2231
▁치워	-12.2231
지원센터	-12.2231
▁음봉	-12.2231
▁괴산	-12.2231
▁정격속도	-12.2231
▁신장량	-12.2231
▁허리디스크	-12.2231
고속국도	-12.2231
▁방염	-12.2231
▁입찰	-12.2231
▁결착	-12.2231
▁CON	-12.2231
▁얹어	-12.2231
▁돌아감	-12.2232
▁폐합	-12.2232
▁쏟아짐	-12.2232
▁동해안	-12.2232
▁빈공간	-12.2232
▁승차석	-12.2232
▁pt	-12.2232
▁면끼	-12.2232
▁팽창제	-12.2232
▁경북대학교	-12.2232
▁산악	-12.2232
▁미주시	-12.2232
▁올바르게	-12.2232
▁건립사업	-12.2232
▁응급수술	-12.2232
▁원형맨홀	-12.2232
▁넘겨	-12.2232
▁선행굴착	-12.2232
▁통상적	-12.2232
▁탈의실	-12.2232
▁남동측	-12.2232
▁삼각형	-12.2232
▁방출	-12.2232
▁바켓	-12.2232
▁교대보호	-12.2232
▁건강관리	-12.2232
=1.2	-12.2232
▁감전재해예방	-12.2232
▁페이	-12.2232
~105	-12.2233
▁여유길이	-12.2233
▁목록	-12.2233
▁바람직하	-12.2233
▁경보설비	-12.2233
▁오론	-12.2233
물받이	-12.2233
▁열전도	-12.2233
▁요망	-12.2233
의료시설	-12.2233
▁드릴비트	-12.2233
▁부합여부	-12.2233
▁평상시	-12.2233
▁열려있는	-12.2233
▁멍애제	-12.2233
▁본선터널	-12.2234
▁은평	-12.2234
▁80%	-12.2234
▁실리콘건	-12.2234
▁중간마디	-12.2234
▁인지시점	-12.2234
▁못머리	-12.2234
▁퇴원조치	-12.2234
▁심폐	-12.2234
▁사료	-12.2234
지연보고사유	-12.2234
▁제관사	-12.2234
▁잔열	-12.2234
▁채결	-12.2234
▁잠그	-12.2234
깃발	-12.2234
▁매달림	-12.2234
▁사이즈	-12.2234
▁소통부재	-12.2234
▁테두리로프	-12.2234
▁천창	-12.2235
▁감긴	-12.2235
▁고향	-12.2235
▁부출입구	-12.2235
▁개축	-12.2235
▁창호교체	-12.2235
▁이음철물	-12.2235
▁천공직경	-12.2235
▁접근통제	-12.2235
▁마른	-12.2235
▁불안전한행동	-12.2235
▁신호전달	-12.2235
▁보호장갑	-12.2236
▁도통시험기	-12.2236
▁안전보건조치	-12.2236
▁자족	-12.2236
▁타격당함	-12.2236
▁거칠	-12.2236
▁소모	-12.2236
▁피부염	-12.2236
▁과하중	-12.2236
▁조적벽돌	-12.2236
▁운전조작	-12.2236
▁단순타박상	-12.2237
▁좌측엄지발가락	-12.2237
▁받쳐놓은	-12.2237
▁단변	-12.2237
▁사건임	-12.2237
▁잡초	-12.2237
▁토출구	-12.2237
▁태우	-12.2237
▁돌쌓기	-12.2237
▁외부마감재	-12.2237
IE	-12.2237
▁스팀	-12.2237
▁연락처	-12.2237
▁유해ᆞ위험	-12.2237
▁파스	-12.2238
▁두부정리	-12.2238
롤라	-12.2238
▁지하수위계	-12.2238
하였슴	-12.2238
▁보수보강	-12.2238
▁지하저수조	-12.2238
▁믹서통	-12.2238
▁수술진행	-12.2238
▁부속장치	-12.2238
▁바탕면	-12.2239
▁접혀	-12.2239
▁들러	-12.2239
▁경고표시	-12.2239
▁구입	-12.2239
=25	-12.2239
▁주의부족	-12.2239
▁가능여부	-12.2239
▁고려사항	-12.2239
▁조종석	-12.2239
▁내려옴	-12.2239
▁제자리	-12.2239
▁고리체결	-12.2239
▁판석	-12.2239
▁체조	-12.224
▁위험반경	-12.224
군부대	-12.224
▁경고음	-12.224
▁건설안전	-12.224
고가교	-12.224
▁수평면과	-12.224
▁급하강	-12.224
▁취업	-12.2241
▁도난	-12.2241
▁삐긋함	-12.2241
▁벽채	-12.2241
▁진열	-12.2241
▁재해예방계획	-12.2241
▁파라	-12.2241
▁면벽	-12.2241
▁포개	-12.2241
▁하부오거	-12.2242
▁마감처리	-12.2242
▁탈골됨	-12.2242
▁입원중임	-12.2242
▁서행	-12.2242
▁고흥	-12.2243
▁걸터	-12.2243
▁노출시켜야	-12.2243
▁나감	-12.2243
산업단지	-12.2243
▁베이스판	-12.2243
▁돌출부위에	-12.2243
▁배치플랜트	-12.2243
▁협의체	-12.2243
▁굴착단면	-12.2243
▁토치	-12.2243
▁닫아	-12.2244
▁일반차량	-12.2244
▁조명설비	-12.2244
▁최대하중	-12.2244
▁안전관리계획	-12.2244
Rail	-12.2244
▁한쪽다리	-12.2244
▁왼쪽팔목	-12.2245
,500	-12.2245
▁반대측	-12.2245
▁발목염좌	-12.2245
▁알린	-12.2245
▁지발	-12.2245
▁18:00	-12.2245
▁덜어	-12.2245
Sand	-12.2245
▁잔교	-12.2245
▁무릎관절	-12.2246
▁전체길이	-12.2246
▁요구사항	-12.2246
▁지지철물	-12.2246
▁지정통로	-12.2246
▁창호틀	-12.2246
▁DCM	-12.2246
▁봉화	-12.2246
▁의령	-12.2247
▁차량통제	-12.2247
▁무근	-12.2247
▁관리기준치	-12.2247
▁스라브거푸집	-12.2247
▁살수차량	-12.2247
▁저판	-12.2247
▁내려놓으	-12.2247
▁분진발생	-12.2247
:58	-12.2247
커뮤니티	-12.2248
▁장단지	-12.2248
▁튀며	-12.2248
▁매몰됨	-12.2248
▁풀려있는	-12.2248
▁왼쪽옆구리	-12.2248
▁지급계획	-12.2249
▁07:40	-12.2249
했다가	-12.2249
SKY	-12.2249
▁지지철판	-12.2249
▁입상	-12.2249
▁배수구조물	-12.225
▁실시하다	-12.225
▁예산	-12.225
▁볼트구멍	-12.225
▁심각	-12.225
▁밴딩기계	-12.225
▁벗겨지며	-12.2251
▁발파암	-12.2251
▁우미	-12.2251
▁8012	-12.2251
▁구축하고	-12.2251
▁미세골절됨	-12.2251
▁되게	-12.2251
▁단블럭	-12.2252
▁천호	-12.2252
▁다쳤다	-12.2252
▁연락방법	-12.2252
▁구석	-12.2253
▁위치변경	-12.2253
▁유공	-12.2253
▁조금구	-12.2253
탑건설	-12.2254
▁축대	-12.2254
▁07:00	-12.2254
▁지하매설	-12.2254
▁지지구조	-12.2255
▁보조공법	-12.2255
▁나비	-12.2255
▁굴착깊이	-12.2255
▁**.**	-12.2256
20.11.	-12.2256
▁사용안전	-12.2256
▁떨어졌고	-12.2256
타운	-12.2256
▁13:50	-12.2256
▁환기량	-12.2256
▁배선상태	-12.2257
주방상판	-12.2257
▁보강링	-12.2257
mmx	-12.2258
▁고무판	-12.2258
▁14:40	-12.2258
▁터널길이	-12.2258
9.10.1	-12.2258
▁굽히	-12.2258
▁시험실	-12.2259
▁확대	-12.2259
▁재시공	-12.2259
▁차량운전원	-12.2259
▁화기감시자	-12.2259
▁장비수리	-12.2259
▁종단	-12.226
▁연직도	-12.226
▁피난구	-12.226
▁코킹공	-12.226
PR	-12.226
▁치료기간	-12.2261
▁발꿈치뼈	-12.2262
▁대피방법	-12.2262
▁원당	-12.2262
▁고박	-12.2262
▁싣던중	-12.2263
▁하체	-12.2263
▁계상	-12.2263
▁세정	-12.2263
▁피로도	-12.2263
▁해빙기	-12.2263
▁로라	-12.2263
▁세운	-12.2263
▁제작공장	-12.2264
▁골반부	-12.2264
▁중심점	-12.2264
▁사용지침	-12.2264
▁층간	-12.2264
▁우물	-12.2265
▁서종	-12.2265
22-3	-12.2265
▁쐐기형	-12.2265
드려	-12.2265
▁계수	-12.2265
▁용성	-12.2265
▁11:15	-12.2266
▁관리감	-12.2266
▁지붕슬라브	-12.2266
▁전선정리	-12.2266
▁사양서	-12.2267
▁시행하였으며	-12.2267
▁신고하였으며	-12.2267
▁놓음	-12.2268
▁공해	-12.2268
▁목공작업자	-12.2268
▁부드	-12.2268
▁훼손되어	-12.2269
▁보호장치	-12.2269
▁진료받은	-12.227
▁포장장비	-12.2271
▁후송하였고	-12.2271
▁알려주어	-12.2271
▁인양하중표에서	-12.2272
▁이동하라	-12.2272
▁법선	-12.2273
▁배제	-12.2273
▁못하였으며	-12.2273
▁도배작업중	-12.2273
▁삼호	-12.2273
▁소화수	-12.2273
▁2021.12.2	-12.2273
▁가로철근	-12.2274
▁그곳	-12.2274
▁게시하고	-12.2274
▁조회	-12.2275
▁입원하였고	-12.2275
▁목격하지	-12.2276
▁보강공법	-12.2276
▁최하부	-12.2276
제어기	-12.2276
▁수상함	-12.2276
▁사정	-12.2277
▁좌측손목	-12.2277
▁밀던중	-12.2278
▁부력	-12.2278
▁강관비계파이프	-12.2278
톤차량	-12.2278
▁설지	-12.2279
▁구동부	-12.2279
▁손위치	-12.228
▁퇴근시간	-12.2281
▁선행작업	-12.2282
▁조정석	-12.2282
▁투입장비	-12.2282
▁우측갈비뼈	-12.2282
▁소홀히	-12.2284
▁기복	-12.2284
▁굴착단부	-12.2284
▁이상현상	-12.2284
▁사용예정	-12.2284
▁축도	-12.2284
▁순서별	-12.2284
▁유량	-12.2285
▁증축동	-12.2285
▁매설공사	-12.2286
▁하부작업대	-12.2286
▁수직로프	-12.2286
▁인화	-12.2287
▁준비해	-12.2288
▁벗겨지고	-12.2288
석공사	-12.2288
▁인상작업중	-12.2289
End	-12.2289
▁이송하였고	-12.229
▁하중계	-12.229
▁현장인부	-12.2291
▁12:00	-12.2291
▁조경용	-12.2292
▁독자	-12.2292
▁이해도	-12.2293
안전지도	-12.2293
▁주로프	-12.2293
▁동천	-12.2295
▁서산	-12.2296
▁배수재	-12.2296
▁빼고	-12.2296
▁하부철판	-12.2297
▁정박	-12.2297
▁3~5	-12.2298
▁그루	-12.2299
운동기구	-12.2299
▁수정구	-12.2299
▁전망	-12.2299
▁경찰조사	-12.2299
▁와이어줄	-12.23
OOM	-12.2301
▁가볼트	-12.2301
▁전도되고	-12.2302
▁정체	-12.2302
▁기준선	-12.2303
명령	-12.2303
▁수술적	-12.2305
▁팀원들	-12.2306
▁철근적재	-12.2306
▁보조빔	-12.2306
▁보온작업중	-12.2307
▁결정됨	-12.2309
▁날개부분	-12.231
▁가새재	-12.2311
▁안전검사	-12.2311
▁강재공	-12.2312
▁벽체형틀	-12.2312
▁볼트류	-12.2312
▁일차	-12.2312
▁굴착공법	-12.2312
▁타사	-12.2312
▁손가락끝	-12.2313
▁괜찮은	-12.2313
공포	-12.2314
▁진도	-12.2315
▁기계설비	-12.2315
▁일상적	-12.2315
▁옹벽블럭	-12.2315
▁부목	-12.2316
버린	-12.2317
▁인접해	-12.2319
▁제한하고	-12.2319
▁하부지반	-12.2322
▁배관라인	-12.2323
▁버팀재	-12.2324
▁광대	-12.2325
▁원형파이프	-12.2328
방주시	-12.233
▁설치되었는지	-12.2332
▁맞추	-12.2332
설공사현장	-12.2332
▁꺼내기	-12.2332
▁터널공사	-12.2333
▁정수지	-12.2334
▁배수공	-12.2334
▁견출작업중	-12.2334
▁외국인근로자	-12.2334
▁오른쪽다리	-12.2335
▁잔여분	-12.2335
반월상	-12.2336
SU	-12.2336
▁존재하	-12.2336
▁탑승해	-12.2336
▁덤프기사	-12.2337
▁조립ᆞ	-12.2337
▁진행하였음	-12.2341
▁승강계단	-12.2343
▁주변확인	-12.2343
▁단선	-12.2343
▁밀대	-12.2344
▁하화	-12.2345
SE	-12.2345
▁아니라고	-12.2346
▁타박상이라	-12.2346
▁충격력	-12.2346
▁하역장비	-12.2347
▁인양준비	-12.2348
았지만	-12.2351
▁나무가지	-12.2354
▁유출부	-12.2354
스프레이건	-12.2354
▁해체도구	-12.2355
건조물	-12.2356
▁준비상태	-12.2359
▁가이드빔	-12.2359
▁출근하지	-12.236
▁불대	-12.2361
▁후륜	-12.2361
▁기본적	-12.2361
=7	-12.2362
*1.0	-12.2363
▁측면부	-12.2364
선박	-12.2364
▁띠장재	-12.2366
▁골절되고	-12.2366
▁***(00	-12.2367
▁서로간	-12.2367
▁흙막이판	-12.2374
▁조절하고	-12.2374
▁왼손바닥	-12.2374
▁위치별	-12.2376
▁정비하고	-12.2376
▁안전하중	-12.2376
송기관	-12.2376
▁김영	-12.2378
:08	-12.2379
▁소속근로자	-12.2379
▁이동시키다	-12.2379
▁공지	-12.2383
하지않은	-12.2383
▁서면	-12.2384
▁슬라브철근	-12.2386
▁임목	-12.239
▁발생경위	-12.239
▁표시하고	-12.2396
ce	-12.2396
▁역방향	-12.24
▁서부	-12.24
▁작업계획도	-12.2402
구조기술사	-12.2404
▁가능하고	-12.2404
▁전기톱날	-12.2406
▁진입부	-12.2411
저감	-12.2414
▁화물용	-12.2414
착장	-12.2417
▁도장면	-12.242
▁대수	-12.2422
▁커팅기	-12.2423
▁치우쳐	-12.2424
Block	-12.2426
▁상관	-12.2428
치장	-12.2428
▁개개	-12.2432
▁철재물	-12.2433
▁화상사고	-12.2433
▁단부측	-12.2437
00×1	-12.244
▁유리설치	-12.2443
방석	-12.2445
▁주지시키	-12.2445
▁토사유출	-12.245
▁눌려있	-12.2456
▁철수중	-12.2457
백암	-12.2466
▁왼발등	-12.2471
▁선장	-12.2471
▁관자재	-12.2477
대대	-12.2481
▁다친것	-12.2482
▁찔림사고	-12.2482
▁연기	-12.2507
▁돌아와	-12.251
개폐문	-12.251
안전모착용	-12.251
▁금속자재	-12.2527
▁보관장소	-12.2528
~12	-12.2529
▁정상상태	-12.2534
▁하지작업	-12.2535
se	-12.2538
▁교체공사	-12.2542
▁보도구간	-12.2542
▁자가용	-12.2545
3,4,5	-12.2545
▁하상	-12.2546
▁간격재	-12.2562
진영	-12.257
▁목부분	-12.2571
▁적기	-12.2571
▁사용미숙	-12.2578
▁매달리	-12.2581
▁연결철근	-12.2587
조직	-12.259
7.5	-12.2595
째마디	-12.2602
비골	-12.2605
▁당겨서	-12.2605
▁불안전상태	-12.2606
축산	-12.2609
▁단부구간	-12.2612
▁제작대	-12.2613
011)	-12.2613
감각	-12.2617
3-4	-12.2622
▁건조기	-12.2625
▁우마사다리	-12.2633
▁아래부분	-12.2637
▁한개	-12.2649
▁고리부분	-12.265
중이었으나	-12.2652
좌측검지	-12.2652
오름	-12.2653
원리	-12.2659
▁철근조립장	-12.2675
짝	-12.2687
▁미끄러졌	-12.27
▁정상출근하	-12.2701
새재	-12.2702
▁움직이던	-12.2707
▁대장	-12.2711
자재인양	-12.2718
▁이동시키던	-12.2725
▁자세불량	-12.2737
공종별	-12.2738
▁오른발등	-12.275
▁퍼티작업	-12.2754
▁사면부	-12.2756
▁벽쪽	-12.276
사무	-12.2761
▁눕히던	-12.2761
▁파쇄작업	-12.2763
▁올리기	-12.2766
방면	-12.2767
옥정	-12.2792
=2.8	-12.2795
에스앤	-12.2798
대문	-12.2798
▁경고표지	-12.281
▁감아올	-12.2812
▁일어나다	-12.2819
▁핸드믹서	-12.282
▁뒤따	-12.2831
▁밀어올리	-12.2833
▁블록제작장	-12.2836
▁건물내부	-12.2841
▁태안	-12.2848
▁쓰다	-12.2852
비해	-12.2862
▁걸렸	-12.2864
▁받으려	-12.288
▁철거물	-12.2893
물체	-12.2901
티앤	-12.293
▁지탱하다	-12.2946
▁없었다	-12.2988
▁상단부분	-12.3004
13:35	-12.3005
증세	-12.3026
+0	-12.3042
수평비계	-12.3051
▁준설토	-12.3056
연결부품	-12.3058
▁맞추려	-12.3069
2,3	-12.3075
요양병원	-12.3082
2:30	-12.3096
▁기자재	-12.31
-2015(	-12.31
▁변경해	-12.312
피아	-12.3122
▁유압기	-12.3129
▁정차중	-12.3134
SF	-12.3151
▁굴착저면	-12.3153
고속도로	-12.3165
8,9	-12.3169
발화성	-12.317
안전관리자	-12.318
▁지하수조	-12.3185
보강작업	-12.3191
▁치던	-12.3194
▁합판조각	-12.3196
▁수평빔	-12.3209
▁포장작업	-12.3221
백병원	-12.3227
미래	-12.3228
1800)	-12.3242
9-5	-12.3245
플러	-12.3247
▁지게차운전	-12.3251
▁근무자	-12.3257
▁도로상	-12.3257
▁파워볼	-12.326
착용하	-12.3267
▁진료받	-12.3267
거푸집해체	-12.3277
톱다이	-12.3279
▁후면부	-12.3292
per	-12.33
▁좌측손가락	-12.331
큰보	-12.331
7-8	-12.3319
80*	-12.3354
▁높다	-12.3356
려는중	-12.3368
▁치기	-12.3374
.12.24.	-12.3389
▁전정작업	-12.3396
▁통풍	-12.3425
▁측정기	-12.3454
▁넘어오	-12.346
았으며	-12.3478
▁타작업자	-12.3481
▁피트내	-12.3486
▁6/1	-12.3498
▁갱폼사이	-12.3516
거푸집자재를	-12.3521
▁13:4	-12.3534
▁절단하려	-12.3579
▁안전사다리	-12.3617
▁2020.09.1	-12.3631
▁23.5	-12.369
▁데크공	-12.3714
▁양방향	-12.3714
오수관	-12.3721
종료	-12.3729
차이로	-12.3729
▁ᄃ형	-12.3737
▁묻어있	-12.3749
설비배관	-12.3776
있었고	-12.3786
넣은	-12.3807
내리던	-12.3807
▁산업안전	-12.3816
됨으로써	-12.3831
▁데크상부	-12.3861
▁현장방문	-12.3862
▁종합사무	-12.3873
▁치료받	-12.3874
항타공	-12.3897
▁찾으	-12.3914
IR	-12.3922
6-6	-12.3926
▁못했	-12.3937
▁부안	-12.3943
▁분리하다	-12.3973
▁미착용상태	-12.3981
문짝	-12.4018
▁접합작업	-12.4051
605	-12.4061
EL	-12.4064
가시설공	-12.4071
▁증가시키	-12.4075
▁배수작업	-12.4126
▁움직여서	-12.4137
미비	-12.4153
▁주저앉으	-12.4156
▁놓으려	-12.4161
▁pl	-12.4169
ty	-12.4172
니스	-12.4173
전기실	-12.4176
▁내장공	-12.419
▁부디	-12.4214
별표	-12.4224
받아야	-12.4237
종방향	-12.4238
오른쪽어깨	-12.4249
회전하던	-12.4279
▁지붕마감	-12.4297
▁체결했	-12.4307
~17	-12.4312
▁이음작업	-12.4315
▁상승각	-12.4383
환씨	-12.4402
우려	-12.4411
범위내에	-12.4411
격벽	-12.4416
▁바르	-12.4423
연물	-12.4429
남성	-12.4436
▁토사유출로	-12.4452
▁못박	-12.4456
급자재	-12.4458
▁이루어져	-12.4475
재발방지	-12.4479
휘	-12.451
여건	-12.4525
▁유해위험	-12.4527
▁주계단	-12.453
장치로서	-12.4537
▁2021.06.0	-12.4542
압착기	-12.4555
솔	-12.4559
뜨려	-12.4561
늘	-12.4562
ead	-12.4563
곽	-12.4565
꺽	-12.4566
GATE	-12.4566
직접원인	-12.4567
표준시방서	-12.4568
Form	-12.4568
투기장	-12.4568
엄지발가락	-12.4569
산승각	-12.4571
햄머	-12.4571
틈새	-12.4571
밸트	-12.4572
EGI	-12.4572
PIPE	-12.4572
CSI	-12.4572
드레인	-12.4572
승용차	-12.4572
코로나	-12.4573
벤딩	-12.4573
수직망	-12.4574
압박골절	-12.4574
슬개골	-12.4574
가능하므로	-12.4574
▁13:3	-12.4575
훼손	-12.4575
로우프	-12.4575
스텐	-12.4575
해지장치	-12.4576
근골격계질환	-12.4576
펴	-12.4576
유로품	-12.4576
개인질병	-12.4576
금이감	-12.4576
中	-12.4576
뒷꿈치	-12.4576
광대뼈	-12.4576
점심시간	-12.4577
실리콘	-12.4577
승강기	-12.4577
현장대리인	-12.4577
혹	-12.4577
이격거리	-12.4577
작업반경내	-12.4578
풍속	-12.4578
리어카	-12.4578
퇴행성	-12.4578
TBM	-12.4578
브레이크	-12.4578
살수차	-12.4578
해치발판	-12.4578
뒷걸음질	-12.4578
세그먼트	-12.4578
경미한	-12.4578
그라우팅	-12.4578
무너짐	-12.4579
슬링벨트	-12.4579
떨어진	-12.4579
퍼티	-12.4579
안전커버	-12.4579
개인보호구	-12.458
떨어져	-12.458
밟아	-12.458
휴식시간	-12.458
시트파일	-12.4581
인대손상	-12.4581
직접	-12.4581
콘판넬	-12.4581
옥탑	-12.4582
방화문	-12.4582
배출	-12.4583
입술	-12.4583
매립	-12.4586
관찰	-12.4588
▁3.4	-12.4588
마모	-12.4588
삼성	-12.4589
최소	-12.459
작업지시	-12.459
거터	-12.4591
Sta	-12.4592
가설재	-12.4592
산업재해	-12.4593
▁만들	-12.4593
충전	-12.4595
~2.0	-12.4596
우측발목	-12.4596
사각파이프	-12.4597
물품	-12.4598
앙	-12.46
아침	-12.46
공동구	-12.4602
설계자	-12.4602
슴	-12.4603
보완	-12.4604
단독	-12.4604
포항	-12.4606
▁엄지손	-12.461
▁천정마감	-12.4611
금속	-12.4612
보조작업	-12.4615
강당	-12.4617
▁상부측	-12.4619
내려오다	-12.4619
준비작업중	-12.4622
▁그네	-12.4625
전락	-12.4626
기울기	-12.4626
구급대원	-12.4627
급성	-12.4629
업무상	-12.4632
▁열던	-12.4633
조립식	-12.4633
본사	-12.4636
0.4	-12.4659
▁건입	-12.4662
받았으며	-12.4675
▁송전선	-12.4676
▁Pa	-12.4676
발목골절	-12.4676
▁잡다	-12.468
▁인양하중표	-12.4681
▁2022.1.	-12.4685
분전반	-12.4686
1.17.(	-12.4689
▁화기감시	-12.469
답단	-12.4694
▁세륜	-12.4702
▁사람들	-12.4704
신발	-12.4708
칙	-12.4708
▁좌측엄지	-12.4715
▁왼손엄지	-12.4717
▁나누	-12.4717
.5+	-12.4719
▁안내표지	-12.4719
chin	-12.4719
▁도통시험	-12.472
▁갑자	-12.4722
델	-12.4722
졌고	-12.4724
▁음료	-12.4724
얹	-12.4725
흄	-12.4725
닐	-12.4726
(300*300*	-12.4726
ook	-12.4727
▁호이스	-12.4727
럭	-12.4728
▁옮길	-12.4728
닌	-12.4728
앵	-12.4728
*1800	-12.4728
▁불연재	-12.4728
봐	-12.4728
짓	-12.4728
쥐	-12.4728
ᄀ	-12.4728
쟈	-12.4728
햄	-12.4728
챙	-12.4728
▁스팬	-12.4728
▁발을헛디뎌	-12.4729
▁산마루	-12.4729
마이크로파일	-12.4729
ang	-12.4729
▁입찰참가	-12.4729
▁합병증	-12.4729
뻐	-12.4729
Level	-12.4729
▁Pier	-12.4729
▁STR	-12.4729
▁기둥철골재	-12.4729
▁맨홀인상틀	-12.4729
▁몸싸움	-12.4729
▁부체도로	-12.4729
▁산재불인정	-12.4729
▁쏠림	-12.4729
▁함바식당	-12.4729
삼흥전력	-12.4729
수동홀딩기	-12.4729
쪼	-12.4729
(******-1******)	-12.4729
-39-2011	-12.4729
010-****-****)	-12.4729
Roller	-12.4729
Shield	-12.4729
Space	-12.4729
crete	-12.4729
▁1267-34	-12.4729
▁2020.05.07	-12.4729
▁594-41	-12.4729
▁Code	-12.4729
▁FAB	-12.4729
▁Girth	-12.4729
▁HRSG	-12.4729
▁Leg	-12.4729
▁MPa	-12.4729
▁Roof	-12.4729
▁SLAB	-12.4729
▁bolt	-12.4729
▁box	-12.4729
▁swc	-12.4729
▁가물막이	-12.4729
▁간이소화장치	-12.4729
▁강관압입	-12.4729
▁건드림	-12.4729
▁격납	-12.4729
▁계측빈도	-12.4729
▁공사시방서	-12.4729
▁그라스울	-12.4729
▁극상근	-12.4729
▁기계식주차설비	-12.4729
▁기성제품	-12.4729
▁깔판ᆞ깔목	-12.4729
▁나타낸	-12.4729
▁낙하격발	-12.4729
▁났습니다	-12.4729
▁내딛으	-12.4729
▁내부마찰각	-12.4729
▁널부러	-12.4729
▁녹지구간	-12.4729
▁눈썹부위	-12.4729
▁느꼈으나	-12.4729
▁늦었습니다	-12.4729
▁담벼락	-12.4729
▁뒷굼치	-12.4729
▁들어올릴때	-12.4729
▁띄우기	-12.4729
▁라메르호	-12.4729
▁라지에이터	-12.4729
▁런칭작업	-12.4729
▁레오개발	-12.4729
▁롯드렌치	-12.4729
▁리핑암	-12.4729
▁마닐라	-12.4729
▁마운드	-12.4729
▁마을안길	-12.4729
▁맨바스켓	-12.4729
▁무석면시멘트판	-12.4729
▁문양거푸집	-12.4729
▁바이브로	-12.4729
▁받았다는	-12.4729
▁베였음	-12.4729
▁부딪혔습니다	-12.4729
▁브레이스	-12.4729
▁비복근	-12.4729
▁비숙련	-12.4729
▁빠레트	-12.4729
▁빠졌	-12.4729
▁서귀포	-12.4729
▁설계변경금액확정	-12.4729
▁섭취	-12.4729
▁숫돌	-12.4729
▁시스템서포터	-12.4729
▁쓰레기봉투	-12.4729
▁씨스템	-12.4729
▁압력게이지	-12.4729
▁어긋남	-12.4729
▁엇갈리	-12.4729
▁연결소켓	-12.4729
▁연삭숫돌	-12.4729
▁열린상처	-12.4729
▁오피스	-12.4729
▁왼팔꿈치	-12.4729
▁용접ᆞ용단	-12.4729
▁원터치	-12.4729
▁월드플랜	-12.4729
▁유기용제	-12.4729
▁유독가스	-12.4729
▁유제살포	-12.4729
▁윤활유	-12.4729
▁응축수	-12.4729
▁이소시아네이트	-12.4729
▁자동전격방지기	-12.4729
▁저녁식사	-12.4729
▁전방십자인대	-12.4729
▁점멸등	-12.4729
▁증개축	-12.4729
▁찧었습니다	-12.4729
▁차광안경	-12.4729
▁차량탑승	-12.4729
▁채광창	-12.4729
▁처마부분	-12.4729
▁철거잔재	-12.4729
▁철써포트	-12.4729
▁출렁거리	-12.4729
▁취수펌프장	-12.4729
▁침매공법	-12.4729
▁카라비너	-12.4729
▁캐비닛	-12.4729
▁컬럼	-12.4729
▁컴프레	-12.4729
▁콤푸레샤	-12.4729
▁콧잔등	-12.4729
▁타공흡음판	-12.4729
▁탄산가스	-12.4729
▁터치업	-12.4729
▁펌핑	-12.4729
▁펼침	-12.4729
▁합성수지	-12.4729
▁헐거움	-12.4729
▁헤더박스	-12.4729
▁혼잡	-12.4729
▁혼합골재	-12.4729
▁화물운송용	-12.4729
▁화살촉	-12.4729
▁회음부	-12.4729
▁휨모멘트	-12.4729
▁휴게시설	-12.4729
국토교통부	-12.4729
글라스	-12.4729
롱	-12.4729
멸	-12.4729
무늬코트	-12.4729
바운딩	-12.4729
배후주거	-12.4729
살얼음	-12.4729
압축시험	-12.4729
영상의학과	-12.4729
유량조정조	-12.4729
이앤에스	-12.4729
저류시설	-12.4729
졸	-12.4729
졸음운전	-12.4729
컨벤션	-12.4729
큐	-12.4729
포틀랜드	-12.4729
흡착기에	-12.4729
20.03.31	-12.4729
Rod	-12.4729
▁'***'	-12.4729
▁20**.**.**	-12.4729
▁2020.03.2	-12.4729
▁2020.06.02	-12.4729
▁sheet	-12.4729
▁갱생	-12.4729
▁공기단축	-12.4729
▁광주전남	-12.4729
▁괜찮다며	-12.4729
▁도로컷팅	-12.4729
▁로터리	-12.4729
▁물류창고	-12.4729
▁미루어	-12.4729
▁방풍실	-12.4729
▁배력철근	-12.4729
▁붙임재료	-12.4729
▁빠질	-12.4729
▁새만금	-12.4729
▁수성페인트	-12.4729
▁신반포센트럴자이	-12.4729
▁신청상병	-12.4729
▁아침식사	-12.4729
▁아케이드	-12.4729
▁어깨탈구	-12.4729
▁올레건설	-12.4729
▁원창건설	-12.4729
▁유압집게	-12.4729
▁자립도	-12.4729
▁장대석	-12.4729
▁측경간	-12.4729
▁커브길	-12.4729
▁크리프	-12.4729
▁트러스제작물	-12.4729
▁하퇴부	-12.4729
▁합성사각	-12.4729
▁헛손질	-12.4729
▁혼입	-12.4729
▁환승통로	-12.4729
럴	-12.4729
알코올	-12.4729
엑셀파이프	-12.4729
Car	-12.4729
▁급정거	-12.4729
▁길내기	-12.4729
▁데리고	-12.4729
▁라이싱	-12.4729
▁스링바	-12.4729
▁신경뿌리	-12.4729
▁안전조끼	-12.4729
▁연수생	-12.4729
▁자전거	-12.4729
▁적극적	-12.4729
▁중앙분리대	-12.4729
▁코킹제거기	-12.4729
▁토크렌치	-12.4729
▁페달	-12.4729
기성소화조	-12.4729
협동조합	-12.4729
활성탄	-12.4729
ppm	-12.4729
▁경막하	-12.4729
▁과학수사대	-12.4729
▁뛰어넘다	-12.4729
▁부양장치	-12.4729
▁유형별	-12.4729
▁저류지	-12.4729
▁화약주임	-12.4729
hinge	-12.4729
▁PRS	-12.4729
▁삼자현	-12.4729
▁새손병원	-12.4729
▁원인불상	-12.4729
▁자외선	-12.4729
▁죽곡	-12.4729
Chain	-12.4729
▁2021.03.0	-12.4729
▁양양방향	-12.4729
▁토목건축공사	-12.4729
▁토질정수	-12.4729
▁해상바지	-12.4729
상완골	-12.4729
'20.06.	-12.4729
Cra	-12.4729
▁왕복	-12.4729
▁전기트레이	-12.4729
▁죽통	-12.4729
▁헤체	-12.4729
▁빌미	-12.4729
사각수로관	-12.4729
-81-2011	-12.4729
▁상하동시작업	-12.4729
▁헤비	-12.4729
까봐	-12.4729
▁2021.05.0	-12.4729
▁구조전문가	-12.4729
▁레이저	-12.4729
▁상과염	-12.4729
▁가설배수로	-12.4729
▁셔터	-12.4729
▁국과수	-12.4729
▁랜치	-12.4729
▁숙여	-12.4729
▁건전지	-12.4729
▁걸골이	-12.4729
▁대수선공사	-12.4729
▁인양작업계획서	-12.4729
▁직업	-12.4729
생년월일	-12.4729
온풍기	-12.4729
▁좌측안구	-12.4729
▁삼각트러스	-12.4729
▁오수압송관	-12.4729
▁작업구획	-12.4729
▁굴뚝	-12.4729
▁이상증상	-12.4729
▁힘을주어	-12.4729
영등포	-12.4729
▁가판대	-12.4729
▁드릴기리	-12.4729
▁사춤모르타르	-12.4729
▁추운날씨	-12.4729
▁2～3	-12.4729
▁탕정	-12.4729
▁퍼린	-12.4729
Segment	-12.4729
▁가배수로	-12.4729
▁'20.11.1	-12.4729
▁강화도어	-12.4729
▁꺽쇠	-12.4729
틸레버	-12.4729
▁본선환기구	-12.4729
▁부어오름	-12.4729
▁하이드로잭	-12.4729
▁OA	-12.4729
▁사무용	-12.4729
▁앵커리지	-12.4729
▁줄어들	-12.4729
▁간접적	-12.4729
금구류	-12.4729
▁경음기	-12.4729
▁첨단	-12.4729
▁행거도어	-12.4729
▁2020.06.1	-12.4729
▁전달해주	-12.4729
그라인터	-12.4729
▁내화벽돌	-12.4729
렛타이	-12.4729
▁규제	-12.4729
▁잡석다짐	-12.4729
▁1∼2	-12.4729
▁비틀리면	-12.4729
▁행잉	-12.4729
▁완만	-12.4729
▁왼쪽팔뚝	-12.4729
▁구획설정	-12.4729
▁달성군	-12.4729
▁함마비트	-12.4729
▁검정기관	-12.4729
▁미인식	-12.4729
▁IS	-12.4729
▁강화유리	-12.4729
CAR	-12.4729
▁스팬달	-12.4729
▁타이로드	-12.4729
무더기	-12.4729
▁수증기	-12.4729
▁도시개발사업	-12.4729
▁자동화타	-12.4729
▁NRC	-12.4729
기성품	-12.4729
:53	-12.4729
▁허용농도	-12.4729
00(61	-12.4729
▁쇄기	-12.4729
▁떨어트리	-12.4729
▁옥천군	-12.4729
▁옮길때	-12.4729
▁저층부	-12.4729
톤로라	-12.4729
▁생활용수	-12.4729
원인파악중	-12.4729
▁메인후크	-12.4729
▁돌아와보니	-12.4729
▁코너버팀보	-12.4729
ild	-12.4729
▁깊숙	-12.4729
▁범퍼	-12.4729
▁횡단보도	-12.4729
충무로	-12.4729
▁미끄러지듯	-12.4729
▁제초작업	-12.4729
▁산재요양승인	-12.4729
▁참고자료	-12.4729
▁타카총	-12.4729
▁기상자료	-12.4729
▁맞댄	-12.4729
▁쐐기파괴	-12.4729
(*******	-12.4729
올랐	-12.4729
▁오수처리시설	-12.4729
▁평활하	-12.4729
▁봉합시술	-12.4729
▁돌발상황	-12.473
▁락카통	-12.473
▁공공주택	-12.473
▁그늘막	-12.473
▁미끄러웠	-12.473
▁압접	-12.473
대우건설	-12.473
▁해석법	-12.473
▁사면기울기	-12.473
▁마주보	-12.473
▁학생	-12.473
▁방음막	-12.473
▁덩굴제거	-12.473
▁대림산업	-12.473
▁돌관작업	-12.473
착륙	-12.473
▁작동하는지	-12.473
▁실밥	-12.473
▁핸드브레이커	-12.473
▁핸드쟈키	-12.473
▁홈가공	-12.473
▁자택근처	-12.473
▁숙인	-12.473
▁경사매달기	-12.473
▁화정동	-12.473
▁피난연락	-12.473
▁전동믹서기	-12.473
8~9	-12.473
▁파취	-12.473
▁장비후진	-12.473
▁버럭처리	-12.473
▁바탕처리	-12.473
프론	-12.473
81*	-12.473
▁베이스패널	-12.473
▁열쇠	-12.473
eep	-12.473
▁초기대응반	-12.473
▁비틀거	-12.473
레이커	-12.473
age	-12.473
▁갈라짐	-12.473
▁다용도	-12.473
▁우수저류조	-12.473
▁선회반경	-12.473
▁의사전달	-12.473
▁고무장갑	-12.473
▁바탕정리	-12.473
▁생곡	-12.473
플러스	-12.473
▁늘어났	-12.4731
▁도킹	-12.4731
▁밟았으나	-12.4731
▁타선박	-12.4731
▁세륜시설	-12.4731
▁해수면	-12.4731
▁명백	-12.4731
▁허용범위	-12.4731
명세서	-12.4731
-59-2012	-12.4731
▁걸쇠	-12.4731
▁수위계	-12.4731
▁비웠	-12.4731
레타이	-12.4731
▁닿지않아	-12.4731
▁방음포	-12.4731
▁까는	-12.4731
▁측정값	-12.4731
▁방습	-12.4731
▁틀어짐	-12.4731
▁샤시	-12.4731
▁추워	-12.4731
(19.11.	-12.4731
▁미끄럼막이	-12.4731
▁지연되었습니다	-12.4731
▁수직공동구	-12.4731
▁와셔	-12.4731
선경건설	-12.4731
▁체온	-12.4731
▁인식부족	-12.4731
▁치켜	-12.4731
▁열어둔	-12.4731
▁피난유도	-12.4731
▁월슈	-12.4731
▁건설폐기물	-12.4731
▁리프	-12.4731
▁스크	-12.4731
▁휘어짐	-12.4731
▁초고층공사	-12.4731
▁압력용기	-12.4732
▁널려	-12.4732
▁납품업체	-12.4732
(2.0	-12.4732
▁부속철물	-12.4732
▁밸브룸	-12.4732
▁마대포대	-12.4732
▁탱크내부	-12.4732
▁견봉	-12.4732
▁폐액	-12.4732
▁완성검사	-12.4732
▁합송	-12.4732
▁직결	-12.4732
▁타이체결	-12.4732
찰영	-12.4732
평마을	-12.4732
▁시인성	-12.4732
▁육안확인	-12.4732
▁요양보험급여	-12.4732
▁최외곽	-12.4732
▁‘21	-12.4732
▁리모	-12.4732
▁탄소	-12.4732
▁빙판길에	-12.4732
▁현관입구에	-12.4732
▁포장밴드	-12.4732
▁가온누리	-12.4732
▁직업성	-12.4732
보고지연	-12.4732
▁구례	-12.4732
▁안전회의	-12.4732
Jacking	-12.4732
▁줄톱	-12.4732
▁여좌	-12.4733
▁뒷발	-12.4733
▁가연성가스	-12.4733
▁입었으며	-12.4733
▁수직생명줄	-12.4733
▁절감	-12.4733
*0.5	-12.4733
▁새그	-12.4733
▁시멘트몰탈	-12.4733
▁버력처리	-12.4733
▁특수부분	-12.4733
검증	-12.4733
▁부지조성공사	-12.4733
▁앵글다발	-12.4733
▁합류	-12.4733
▁Cool	-12.4733
ke	-12.4733
▁기장병원	-12.4733
▁눈동자	-12.4733
▁레버블록	-12.4733
▁아무이상	-12.4733
▁압축재	-12.4733
▁직영창고	-12.4733
▁중량물취급	-12.4733
▁내민길이	-12.4733
▁올라서던중	-12.4733
▁차폐시설	-12.4734
=2.0	-12.4734
~106	-12.4734
▁몸무게	-12.4734
▁제방도로	-12.4734
▁예측관리	-12.4734
▁당겼	-12.4734
▁토크	-12.4734
▁Hatch	-12.4734
▁단관비계	-12.4734
▁70%	-12.4734
▁조퇴	-12.4734
▁제어반	-12.4734
▁작업보조자	-12.4734
▁Dri	-12.4734
▁주차램프	-12.4734
▁함유량	-12.4734
▁시험굴착	-12.4734
sho	-12.4734
▁주의태만	-12.4734
관련서류	-12.4734
▁덤프운전원	-12.4734
▁마침	-12.4734
▁모른	-12.4734
▁포터차량	-12.4734
▁농업용	-12.4734
▁단말	-12.4735
슬리퍼	-12.4735
▁음료수	-12.4735
공공하수처리	-12.4735
모델	-12.4735
▁확산되	-12.4735
▁습윤상태	-12.4735
▁재결속	-12.4735
하수처리구역	-12.4735
▁일환	-12.4735
▁도랑	-12.4735
▁인코너폼	-12.4735
(4~5	-12.4735
▁상기일시	-12.4735
▁계속근무	-12.4736
▁삼각	-12.4736
▁문을열	-12.4736
▁재키	-12.4736
펜치	-12.4736
▁쌓아두	-12.4736
▁응력계	-12.4736
▁관로터파기	-12.4736
▁스카이크레인	-12.4736
▁석면해체	-12.4736
▁체인걸이	-12.4736
▁편철	-12.4736
▁하중조합에	-12.4736
▁권유하였으나	-12.4736
▁근육손상	-12.4736
▁덕천	-12.4736
▁비례	-12.4736
▁발판틈새	-12.4736
▁구분되며	-12.4736
▁거품	-12.4736
▁옆사람	-12.4736
▁신고합니다	-12.4736
▁연료통	-12.4736
▁실행	-12.4737
▁거골	-12.4737
▁현틀	-12.4737
▁모암	-12.4737
했는지	-12.4737
▁제어장치	-12.4737
▁받아주던	-12.4737
▁겹쳐져	-12.4737
▁나갈	-12.4737
▁밴딩처리	-12.4737
▁제조자명	-12.4738
▁구성품	-12.4738
▁삽질	-12.4738
▁사일로	-12.4738
▁발밑	-12.4738
▁핀체결	-12.4738
▁미이용	-12.4738
▁Ma	-12.4738
▁소유자	-12.4738
▁화재피해	-12.4738
▁5.0	-12.4738
▁조작스위치	-12.4738
▁경보음	-12.4738
▁지붕트러스	-12.4738
▁신너	-12.4738
▁지켜야	-12.4739
▁마곡	-12.4739
▁전기케이블	-12.4739
rc	-12.4739
▁외상센터	-12.4739
▁아이볼트	-12.4739
▁날끝	-12.4739
▁소방도로	-12.4739
▁개봉	-12.4739
▁중도리	-12.4739
▁계양	-12.4739
▁베이스판넬	-12.474
▁작천	-12.474
▁걸처	-12.474
=0.8	-12.474
▁담배	-12.474
err	-12.474
▁당했음	-12.474
▁교통정리	-12.474
▁보조철물	-12.474
▁보조난간대	-12.474
▁택지현장	-12.474
▁눈꺼	-12.474
▁안내표지판	-12.474
▁청양	-12.474
▁동료직원	-12.4741
▁중대재해	-12.4741
▁횡력	-12.4741
▁하완	-12.4741
원중학교	-12.4741
▁슬리	-12.4741
▁맨홀펌프장	-12.4741
▁않으나	-12.4741
▁위헤	-12.4741
▁광영	-12.4741
▁말통	-12.4741
▁요동치며	-12.4741
▁상당구	-12.4742
▁도로포장	-12.4742
AY	-12.4742
▁가로비계	-12.4742
▁근력	-12.4742
▁둘째마디	-12.4742
▁이송되었으며	-12.4742
▁거류	-12.4742
▁지붕경사	-12.4742
▁구난	-12.4742
▁육가	-12.4742
▁홍천	-12.4742
▁재가동	-12.4742
심장질환	-12.4742
▁수직앵글	-12.4743
▁시공오차	-12.4743
▁4.0	-12.4743
▁변형되거나	-12.4743
▁보행거리	-12.4743
▁연창	-12.4743
▁원형기계	-12.4743
▁끼워져	-12.4743
▁위례	-12.4743
▁용수발생	-12.4743
▁대상구조물	-12.4744
▁후크고리	-12.4744
▁용수량	-12.4744
Main	-12.4744
▁임시배수	-12.4744
▁재도장	-12.4744
▁호이스트카	-12.4744
▁천공구멍	-12.4744
▁이물질제거	-12.4744
▁우마작업대	-12.4744
▁무심	-12.4744
▁감압	-12.4744
▁전기드릴	-12.4744
▁좌표	-12.4744
▁강구공법	-12.4744
▁하역준비	-12.4745
▁호각	-12.4745
▁TRAY	-12.4745
불인정의견서	-12.4745
▁충수	-12.4745
▁공문	-12.4745
▁복개	-12.4745
▁산재사실	-12.4745
▁선회체	-12.4745
▁터널굴착	-12.4745
▁켜져	-12.4745
▁달기구	-12.4745
▁석재타일	-12.4745
▁돌담	-12.4745
▁환자상태	-12.4745
▁출하	-12.4745
▁진단받았다고	-12.4745
▁고강도	-12.4746
▁다발골절	-12.4746
▁뛰어가다	-12.4746
▁토사사면	-12.4746
▁산소용접	-12.4746
▁광안	-12.4746
▁구거	-12.4746
레디	-12.4746
▁사전검토	-12.4746
커텐	-12.4746
[...]
