<unk>	0
<s>	0
</s>	0
▁	-3.88981
을	-3.97083
.	-4.0359
를	-4.1077
에	-4.14693
의	-4.25144
,	-4.3564
)	-4.42852
▁중	-4.5166
이	-4.57595
(	-4.61706
가	-4.65481
▁한다	-4.89883
▁작업	-5.00578
일	-5.13336
는	-5.16495
으로	-5.17669
로	-5.18525
▁및	-5.20942
월	-5.32603
에서	-5.32934
시	-5.34105
년	-5.52173
층	-5.54905
▁후	-5.57449
▁위해	-5.6071
하여야	-5.67932
▁1	-5.68765
동	-5.75941
과	-5.76359
▁발생	-5.78248
은	-5.78362
▁2	-5.8089
▁등	-5.81404
▁사고	-5.83633
한	-5.89355
▁거푸집	-5.91819
▁설치	-5.94937
와	-5.96633
하여	-5.97272
분경	-5.99769
인	-6.09528
▁작업을	-6.09724
▁작업중	-6.12202
m	-6.14191
▁이동	-6.14274
된	-6.17725
▁재해자	-6.18219
▁근로자	-6.22319
**	-6.22957
1	-6.25588
▁현장	-6.2746
고	-6.29285
서	-6.31494
▁작업자	-6.35456
▁해체	-6.36113
지	-6.36114
▁있는	-6.3761
▁3	-6.38896
▁자재	-6.40285
▁넘어짐	-6.42287
▁콘크리트	-6.42519
▁10	-6.43664
▁철근	-6.44249
▁시	-6.44475
하는	-6.48911
중	-6.49421
▁지하	-6.49946
▁하여야	-6.52276
▁인한	-6.5469
▁걸려	-6.55074
▁2020	-6.56511
2	-6.5749
▁왼쪽	-6.57795
기	-6.60903
▁미끄러져	-6.61666
▁수	-6.63666
▁4	-6.65347
▁2021	-6.66281
▁오른쪽	-6.66659
▁위하여	-6.67076
▁발을	-6.68519
00	-6.6886
▁:	-6.69443
▁추락	-6.69741
주	-6.7037
▁손가락	-6.71251
▁있던	-6.71687
씨가	-6.72473
후	-6.73715
▁골절	-6.73906
▁바닥에	-6.74142
용	-6.74544
▁사고임	-6.74643
▁재해자가	-6.74906
-	-6.74951
면서	-6.77048
작업	-6.7763
▁넘어지면서	-6.7815
▁비계	-6.79289
하게	-6.79444
▁상부	-6.81009
▁우측	-6.82807
▁작업자가	-6.83495
▁이동중	-6.8377
시경	-6.84291
하고	-6.84349
▁11	-6.84557
할	-6.84681
▁과정에서	-6.85173
▁장비	-6.86666
▁오전	-6.86695
▁위한	-6.86975
▁(	-6.87594
▁않도록	-6.88457
▁잃고	-6.90618
▁사용	-6.93018
▁하며	-6.93211
▁이	-6.93955
▁고정	-6.96436
▁벽체	-6.97014
▁등을	-6.97538
▁내	-6.97608
도	-6.98279
▁운반	-6.98848
▁바닥	-6.98964
▁좌측	-6.99022
▁확인	-6.99577
▁30	-6.99898
▁크레인	-6.99956
▁재해	-7.014
▁또는	-7.01716
▁중심을	-7.02128
되어	-7.02554
▁5	-7.0348
▁작업자의	-7.03668
분	-7.04487
▁절단	-7.05219
수	-7.05506
▁하부	-7.06553
3	-7.066
▁타설	-7.06659
▁안전	-7.08138
▁떨어짐	-7.09822
▁경우	-7.10171
▁발이	-7.10275
▁12	-7.10482
▁경우에는	-7.10553
자	-7.12687
▁의한	-7.12773
/	-7.13445
▁보	-7.14411
▁부딪힘	-7.1475
층에서	-7.15409
▁인양	-7.15814
▁부주의	-7.16046
▁2019	-7.17041
▁약	-7.1708
cm	-7.17312
▁지상	-7.17357
▁왼손	-7.17477
▁이용하여	-7.17586
단	-7.18088
▁전	-7.18816
▁높이	-7.19442
▁다음	-7.19454
▁하던	-7.19763
리	-7.20032
도록	-7.20366
▁조립	-7.20581
▁8	-7.21238
히	-7.21264
▁자재를	-7.21939
M	-7.22791
▁이상	-7.23551
면	-7.23772
하지	-7.23791
상	-7.238
부	-7.23974
4	-7.24354
▁김	-7.24473
▁설치하여야	-7.25731
▁발생한	-7.26453
▁손가락이	-7.26732
▁부주의로	-7.2729
▁배관	-7.28186
장	-7.2901
▁15	-7.29343
▁미흡	-7.29677
▁발판	-7.29709
▁유로폼	-7.29919
▁사이에	-7.30568
▁현장에서	-7.3093
▁근로자가	-7.31581
▁H	-7.32377
▁헛디뎌	-7.32499
▁넘어져	-7.33754
▁20	-7.33754
함	-7.34115
:	-7.34152
▁시공	-7.34846
▁7	-7.3509
▁작업발판	-7.35453
▁따라	-7.35825
▁전도	-7.36161
한다	-7.36759
▁그	-7.3705
▁오후	-7.3731
▁재해자의	-7.37422
▁제거	-7.37503
공	-7.37947
▁경	-7.38131
대	-7.38156
▁상태	-7.38331
▁소속	-7.38923
▁공사	-7.39144
▁주변	-7.39266
▁대한	-7.39665
▁부상	-7.39878
에는	-7.40079
작업을	-7.40207
▁협착	-7.40401
경	-7.40539
▁끼임	-7.4072
▁하고	-7.40777
▁인해	-7.40929
하	-7.40978
며	-7.41067
▁상태에서	-7.4107
▁6	-7.41225
▁외부	-7.4306
하기	-7.43804
▁9	-7.44168
▁슬라브	-7.44717
▁오른손	-7.4476
선	-7.44905
▁떨어져	-7.45838
▁미끄러지면서	-7.46051
▁도중	-7.46216
▁내부	-7.47217
전	-7.47919
되는	-7.48228
관	-7.49011
공사	-7.49059
▁조치	-7.49109
▁제	-7.49265
진	-7.49633
▁이동식	-7.50227
▁사다리	-7.51113
해	-7.52659
구	-7.5287
·	-7.52953
작업중	-7.52983
▁입음	-7.53206
▁위험	-7.5354
▁정리	-7.53645
▁바닥으로	-7.53722
▁점검	-7.53751
▁동바리	-7.54731
▁못하고	-7.54849
조	-7.54926
▁무릎	-7.5528
▁시스템	-7.55418
성	-7.55455
형	-7.55646
게	-7.56598
화	-7.568
30	-7.57276
▁14	-7.57342
5	-7.57593
차	-7.57666
▁함께	-7.57722
▁재해임	-7.57975
▁사고가	-7.58407
▁위치	-7.58584
▁그라인더	-7.58681
건설	-7.59086
▁계단	-7.59241
나	-7.59537
▁낙하	-7.59549
▁부재	-7.5962
▁설치된	-7.61284
사	-7.61341
구간	-7.62308
▁사항	-7.6257
▁때에는	-7.62992
▁미끄러짐	-7.6366
▁밟고	-7.63819
던	-7.64429
명	-7.64805
▁말비계	-7.64873
▁16	-7.65018
번	-7.6503
▁13	-7.65224
▁한	-7.6552
▁확인하여야	-7.65777
▁로프	-7.65917
▁순간	-7.66209
▁인하여	-7.66282
▁08	-7.66356
어	-7.67071
▁사용하여	-7.67092
▁굴착	-7.67462
다	-7.67642
▁차량	-7.67668
▁불안전한	-7.67917
10	-7.67978
시에는	-7.6847
▁부딪혀	-7.68677
▁상부에서	-7.70019
▁구조물	-7.7028
▁합판	-7.70434
6	-7.70734
▁않고	-7.71438
▁09	-7.71553
▁기초	-7.72148
▁따른	-7.73039
▁어깨	-7.73542
높이	-7.73931
▁굴삭기	-7.74086
되지	-7.74096
하던	-7.74357
▁완료	-7.74743
▁용접	-7.7485
▁체결	-7.7491
▁발생함	-7.75228
세	-7.75609
▁가시설	-7.76043
이던	-7.76184
▁볼트	-7.76243
▁들고	-7.76566
야	-7.7677
▁진행	-7.7682
호	-7.77897
▁실시	-7.77976
▁타격	-7.78171
▁위에서	-7.78907
보	-7.79047
▁의해	-7.79352
▁미	-7.79403
▁연결	-7.79707
▁중지	-7.79731
하면서	-7.79842
▁사전	-7.80229
▁적재	-7.80471
▁허리	-7.81195
▁손상	-7.81203
▁높이에서	-7.81211
▁잡고	-7.813
▁철골	-7.82043
▁해체작업	-7.8214
▁발목	-7.82335
▁충돌	-7.8244
▁철근에	-7.8286
8	-7.83113
개	-7.83281
▁철근을	-7.83947
치	-7.84518
mm	-7.85028
▁사고발생	-7.8511
▁병원	-7.86094
재	-7.86112
▁신축공사	-7.86785
▁내려오던	-7.8691
교	-7.87
▁해당	-7.87166
상태	-7.87394
▁파이프	-7.87418
▁여부	-7.87502
7	-7.87853
실	-7.88123
▁동료	-7.88361
▁가	-7.88514
▁흙막이	-7.88824
▁같이	-7.88997
▁시스템비계	-7.89467
목	-7.89477
▁않아	-7.89612
▁엄지손가락	-7.89701
▁하는	-7.89862
▁당	-7.89954
▁정	-7.90067
▁즉시	-7.90679
사고	-7.90787
▁것을	-7.9109
원	-7.9142
▁부위	-7.9217
내	-7.92292
▁함	-7.92556
▁와이어로프	-7.92689
▁진단	-7.92753
▁반	-7.92859
▁현장내	-7.92927
▁토사	-7.93036
▁발	-7.93049
▁기계	-7.93332
▁타워크레인	-7.93549
만	-7.93739
정	-7.9377
▁***	-7.93922
식	-7.94445
▁07	-7.94647
▁보고	-7.94726
▁때	-7.94958
▁행동	-7.95056
▁충격	-7.95183
▁아래로	-7.95233
▁지반	-7.95672
▁119	-7.957
▁형틀	-7.95727
▁신호수	-7.95852
▁B	-7.96161
▁박	-7.96233
▁등에	-7.9636
적	-7.96579
▁넘어지며	-7.9681
간	-7.97384
▁준수	-7.98184
▁기둥	-7.98379
▁설치를	-7.9934
▁-	-7.99357
에게	-7.99358
▁발등	-7.99686
있던	-7.9972
스	-7.99735
▁결과	-7.99953
▁철거	-8.00137
▁하던중	-8.00145
▁각재	-8.00244
하며	-8.00402
▁일부	-8.00741
▁베임	-8.00894
▁뒤로	-8.01009
▁전에	-8.01274
▁작업장	-8.01419
▁손	-8.01459
제	-8.02066
▁안	-8.0209
▁균형	-8.02095
▁있도록	-8.02379
▁가설	-8.02549
**)	-8.02566
음	-8.02734
▁실시하여야	-8.0344
▁옹벽	-8.03614
9	-8.04361
▁띠장	-8.04372
▁기	-8.04796
▁수평	-8.05118
▁위	-8.05195
▁않은	-8.05264
부위	-8.0584
▁다리	-8.06781
H	-8.06792
▁안전모	-8.06897
▁상	-8.06982
▁필요한	-8.0703
▁작업시	-8.07211
▁다침	-8.07259
▁추락하여	-8.07597
▁하역	-8.07639
▁골절됨	-8.07704
▁주	-8.0791
▁계단실	-8.08024
*	-8.08307
다가	-8.08561
명이	-8.08624
▁인지하지	-8.08653
▁사이	-8.08919
▁사다리를	-8.09019
▁A	-8.09405
▁판넬	-8.09603
▁가격	-8.10284
20	-8.1059
▁지붕	-8.10596
▁신호	-8.10987
됨	-8.11188
▁손목	-8.11423
▁안전난간	-8.11696
▁안전대	-8.1207
▁부착	-8.12491
천	-8.12641
▁제작	-8.12655
빔	-8.12693
▁설치하고	-8.12752
장비	-8.12788
▁각	-8.12843
▁할	-8.12867
이나	-8.13131
우	-8.13323
▁하기	-8.13339
▁발목을	-8.13551
▁운전자	-8.13667
▁갱폼	-8.13848
▁접촉	-8.14138
▁검지	-8.14345
▁골절된	-8.14657
▁손을	-8.14892
▁것	-8.14923
▁하여	-8.1519
▁지게차	-8.15223
임	-8.15682
층으로	-8.15713
물	-8.15951
설치	-8.15993
판	-8.16008
까지	-8.16132
▁구조	-8.16142
▁치료	-8.16292
▁착용	-8.16386
▁회전	-8.16625
산	-8.16667
▁아래	-8.16696
▁끼어	-8.16788
▁작업대	-8.16936
▁떨어지면서	-8.17084
드시	-8.17103
▁**	-8.17352
▁부상을	-8.17488
▁청소	-8.17639
▁임	-8.17928
▁수직	-8.18132
▁확보	-8.18722
▁확인하고	-8.18838
▁맞음	-8.18947
▁50	-8.18948
▁수립	-8.19159
▁하부로	-8.1916
▁배치	-8.19259
소	-8.19409
▁시스템동바리	-8.19732
▁방지하기	-8.19942
아	-8.20413
▁방지	-8.20525
약	-8.20826
트	-8.20857
▁추락한	-8.20928
▁결속	-8.21061
▁양중	-8.21115
T	-8.21143
▁천정	-8.21467
▁주의	-8.21474
▁머리	-8.21505
▁고려하여	-8.21613
▁40	-8.21801
▁계획	-8.22112
라	-8.22118
▁다른	-8.22202
등	-8.22296
▁임의	-8.22318
씨	-8.2236
▁21	-8.22367
▁피재자	-8.23254
▁대	-8.23618
▁관리	-8.23687
▁불량	-8.24095
▁하나	-8.24195
▁눈	-8.24329
미터	-8.24823
통	-8.24928
11	-8.24981
▁검토	-8.25044
▁출입	-8.25267
▁지지	-8.25324
▁충분한	-8.25326
져	-8.25359
시설	-8.25551
자재	-8.25616
▁보강	-8.25631
력	-8.25986
▁자재가	-8.26298
▁발목이	-8.26312
▁통로	-8.26622
▁같은	-8.26731
▁19	-8.26834
▁건물	-8.27074
▁하중	-8.27242
▁등으로	-8.2737
운	-8.27418
▁상태로	-8.27526
▁와이어	-8.27849
▁유지	-8.281
▁추락함	-8.28272
▁재해자는	-8.28285
▁이탈	-8.28515
▁개구부	-8.28622
조로	-8.28899
▁틀비계	-8.29297
▁슬래브	-8.29379
▁전기	-8.29423
현장	-8.29517
▁당일	-8.29951
▁관리감독자	-8.30234
▁강관	-8.30249
▁작동	-8.30308
▁상부에	-8.30457
안	-8.30501
▁견고	-8.3089
▁설비	-8.31046
▁망치로	-8.31184
▁위에	-8.31707
▁방법	-8.31977
▁C	-8.32626
▁됨	-8.3293
▁사고자	-8.33051
▁<	-8.33192
▁밟아	-8.33586
▁서포트	-8.33592
석	-8.33603
▁간	-8.33718
▁것으로	-8.33757
▁1.5	-8.34039
▁구간	-8.34081
▁목재	-8.34625
▁내려	-8.34713
▁외	-8.34738
▁튀어	-8.34856
별	-8.34857
▁손등	-8.34982
드	-8.34995
▁이송	-8.35201
▁고	-8.35259
▁취급	-8.35285
▁장	-8.35286
▁외벽	-8.35472
▁내려오다	-8.35603
량	-8.35822
▁석재	-8.36052
▁알폼	-8.36053
톤	-8.36077
▁사용하여야	-8.36155
▁전선	-8.36201
사이에	-8.36207
▁화재	-8.36237
▁주차장	-8.36298
▁적재함	-8.36467
▁가슴	-8.36686
▁몸의	-8.36697
▁오	-8.36923
▁25	-8.37073
▁가공	-8.37723
0	-8.37869
▁준비	-8.38097
12	-8.38128
▁덮개	-8.38162
▁통증을	-8.38462
유	-8.38528
▁길이	-8.38839
▁진료	-8.38967
P	-8.39061
번지	-8.39157
▁붕괴	-8.39335
▁설치하는	-8.39627
▁없는	-8.39768
▁천공	-8.39898
▁조	-8.39926
▁터파기	-8.39934
▁인지	-8.40015
체	-8.40065
▁하차	-8.4051
▁펌프카	-8.40692
▁통	-8.40853
▁못	-8.40864
▁통해	-8.41029
되면서	-8.41333
▁부분	-8.41497
▁18	-8.41661
▁중량물	-8.41739
▁금지	-8.41829
▁지지대	-8.41887
▁타일	-8.41988
하거나	-8.42005
▁낙하하여	-8.42154
▁안전한	-8.42156
▁파손	-8.42229
▁신	-8.42307
▁관련	-8.42343
김	-8.42391
▁사망	-8.42737
▁탈락	-8.42832
▁통증이	-8.42895
▁마치고	-8.42995
▁하부에	-8.43229
C	-8.43273
▁유무	-8.43302
▁물	-8.43326
▁17	-8.43422
▁굴착기	-8.43494
▁추정	-8.43522
▁이용	-8.4385
▁부	-8.43937
▁06	-8.44053
▁이후	-8.44121
▁최	-8.4419
▁작업방법	-8.44274
▁데크플레이트	-8.44503
하였으나	-8.44674
▁호스	-8.4501
▁안전고리	-8.4503
▁유	-8.45047
계획	-8.45302
계	-8.45314
2.	-8.45327
▁핸드그라인더	-8.45478
재해자	-8.45826
▁빔	-8.46041
▁도로	-8.46103
당	-8.46122
▁이상이	-8.46181
하다	-8.462
▁항타기	-8.46465
▁운반중	-8.46482
장치	-8.46533
거나	-8.46609
▁받음	-8.47092
▁없	-8.47269
▁조정	-8.47338
▁인근	-8.47438
위	-8.47564
▁정도	-8.47807
▁이동하던	-8.47877
▁갑자기	-8.47886
▁당함	-8.48003
▁하다가	-8.48282
▁병원으로	-8.48454
▁있어	-8.48487
거푸집	-8.48525
▁안전벨트	-8.48539
▁블록	-8.49058
남	-8.49064
▁고리	-8.49204
▁재	-8.49283
kg	-8.49397
▁무리한	-8.49649
발	-8.49674
방법	-8.49999
▁한쪽	-8.50151
▁근로자에게	-8.5025
▁맞아	-8.50443
▁임시	-8.50578
▁04	-8.50612
방	-8.50891
▁접질림	-8.50943
▁하	-8.50995
▁입은	-8.51141
▁자재에	-8.51272
▁약지	-8.51334
▁빠지면서	-8.5147
▁세대	-8.51486
▁손이	-8.51592
▁수행	-8.51612
▁반입	-8.51931
▁우려	-8.51994
F	-8.52016
여	-8.52088
▁안전성	-8.52147
▁배근	-8.52212
위에서	-8.5222
▁부족	-8.52289
▁등이	-8.52677
금	-8.52794
정도	-8.53004
배관	-8.5306
그림	-8.53134
▁운전원	-8.53159
▁사	-8.53185
▁비	-8.53218
림	-8.53279
▁갈비뼈	-8.53299
토	-8.53331
▁사다리에서	-8.53376
▁퇴근	-8.53531
00)	-8.53605
려	-8.53734
▁장소	-8.53769
▁03	-8.53814
▁타박상	-8.53852
되도록	-8.53875
류	-8.53883
▁주장	-8.53954
▁교체	-8.53996
반	-8.54083
바	-8.54098
▁102	-8.54125
S	-8.5415
▁중에	-8.54367
▁들어	-8.54528
▁타격하여	-8.54576
▁떨어진	-8.54629
▁미끄러지며	-8.5465
▁충분	-8.54886
▁기존	-8.55117
▁본인	-8.55233
▁강	-8.55326
▁분리	-8.55436
▁조작	-8.5556
하다가	-8.55602
▁추진	-8.5561
▁설치작업	-8.55632
▁헛딛어	-8.55702
점	-8.55744
▁엄지	-8.55774
▁단열재	-8.55816
어야	-8.55826
▁파열	-8.55846
질	-8.56149
▁상황	-8.56293
▁바닥에서	-8.56685
▁덤프트럭	-8.56793
▁승인	-8.56864
하던중	-8.56943
비	-8.5723
▁맨홀	-8.5731
▁되어	-8.57405
▁동시	-8.57509
러	-8.57511
▁고소작업대	-8.57579
▁설치하여	-8.58011
공구	-8.58046
▁급	-8.58171
15	-8.58245
▁아니	-8.58364
▁돌	-8.58401
▁신고	-8.58557
A	-8.58626
줄	-8.58632
될	-8.58642
발생	-8.5872
(2	-8.58748
▁수술	-8.59335
▁판단	-8.59365
▁사용하는	-8.59369
▁대하여	-8.59391
▁1.	-8.59551
해야	-8.6001
▁무리	-8.60081
▁교육	-8.60153
▁보조	-8.60375
▁24	-8.60389
▁전도되어	-8.60444
▁잘못	-8.60706
해체	-8.60748
▁수직재	-8.60955
▁우마	-8.61061
▁공구	-8.6116
기구	-8.61214
▁철판	-8.61335
▁내려오다가	-8.61371
▁정리정돈	-8.61422
▁데크	-8.6143
▁손으로	-8.61737
▁05	-8.61947
▁통증	-8.6226
50	-8.62323
▁옆	-8.6255
▁무게	-8.62719
구간에서	-8.63088
▁01	-8.63535
▁결정	-8.63621
▁관	-8.63715
작업자	-8.63885
▁안전조치	-8.63989
양	-8.64479
여부	-8.64523
▁종료	-8.64546
문	-8.64615
▁재료	-8.64785
▁올라가	-8.64999
▁얼굴	-8.65012
▁순서	-8.65033
철근	-8.65681
▁접근	-8.65712
▁전원	-8.65743
▁입원	-8.66056
▁02	-8.66333
▁운전	-8.66498
▁파이프를	-8.67005
▁취	-8.67103
회	-8.67315
시간	-8.67494
▁앞	-8.67496
▁어깨에	-8.67573
하였으며	-8.67579
▁휴식	-8.67637
▁사실	-8.67785
▁넘어진	-8.67821
▁엘리베이터	-8.67893
포	-8.68282
▁23	-8.68305
외	-8.68354
▁단순과실	-8.68516
있는	-8.68521
▁시행	-8.68542
▁팔꿈치	-8.68584
▁101	-8.6865
▁드릴	-8.69039
▁파일	-8.6911
표	-8.69122
▁하지	-8.69174
▁내용	-8.69228
▁된	-8.693
▁자재정리	-8.69745
▁산재	-8.6987
▁조사	-8.69977
부분	-8.70008
▁양	-8.70144
▁벽돌	-8.70524
열	-8.70529
▁관한	-8.70578
▁힘을	-8.70666
▁서	-8.70684
▁골절이	-8.7069
D	-8.7071
방향	-8.70725
▁선정	-8.70816
▁같다	-8.70892
▁본	-8.7101
▁토류판	-8.71053
13	-8.7111
▁트럭	-8.71157
▁염좌	-8.71167
▁후진	-8.71324
B	-8.71335
▁방향	-8.71724
병원	-8.72196
마	-8.72224
▁거치	-8.72284
▁설계	-8.72356
▁허벅지	-8.72367
t	-8.72471
결과	-8.72495
안전	-8.72568
▁팔	-8.7262
하였음	-8.72788
▁미착용	-8.72811
린	-8.72882
▁X	-8.72952
▁상승	-8.72968
▁리프트	-8.73067
▁구간에서	-8.73268
▁28	-8.73271
▁있으므로	-8.73448
▁천장	-8.73472
▁낙상	-8.73485
▁못을	-8.73492
▁22	-8.73639
▁단순	-8.73656
▁낙하물	-8.73674
▁장소에	-8.73835
▁보호	-8.73934
▁상부로	-8.73981
비계	-8.74053
▁근무	-8.74194
설비	-8.74258
▁새끼손가락	-8.74328
▁없음	-8.7439
16	-8.74504
▁난간	-8.74584
▁빠져	-8.74593
▁계단에서	-8.74594
▁적정	-8.74651
▁상차	-8.74665
▁폭	-8.74719
▁형틀목공	-8.75144
▁변형	-8.75282
▁예방	-8.75436
▁근로복지공단	-8.75569
▁후송	-8.75606
▁받고	-8.75736
터	-8.75908
▁적재된	-8.75948
▁바람	-8.7607
▁발생된	-8.76177
무	-8.76203
▁처리	-8.76216
하였고	-8.76341
▁발가락	-8.76395
01	-8.764
▁못하여	-8.7644
적으로	-8.76487
e	-8.76509
▁재해가	-8.76601
병원으로	-8.77018
영	-8.77107
▁동	-8.7711
▁통제	-8.77139
종	-8.77182
근	-8.77183
▁철근이	-8.77326
▁하였으나	-8.77529
▁개인	-8.77559
쪽	-8.7795
판넬	-8.77987
▁다리가	-8.78008
미	-8.78025
V	-8.78051
▁지하주차장	-8.78111
▁내부에서	-8.78247
▁포함	-8.78293
강	-8.78443
▁받아	-8.78454
▁E	-8.78468
▁의하여	-8.78522
하부	-8.7867
으며	-8.7867
서는	-8.7869
대로	-8.7875
▁투입	-8.78751
▁지면에	-8.79042
▁시멘트	-8.79064
▁기타	-8.79115
▁원인	-8.79312
~	-8.79315
▁잘	-8.79416
▁정강이	-8.79497
▁미설치	-8.79528
▁넘어지는	-8.79574
▁협소	-8.79588
지구	-8.79599
▁목격자	-8.79785
압	-8.79899
40	-8.79972
▁공간	-8.80066
▁내려오는	-8.80102
▁실수로	-8.80368
▁폐기물	-8.80422
▁가설계단	-8.80428
▁전달	-8.80467
▁교량	-8.80518
항	-8.80569
(1	-8.80661
▁현재	-8.80691
로프	-8.80717
▁계속	-8.80838
▁00	-8.81055
▁골절상을	-8.81153
▁지시	-8.81369
14	-8.81372
a	-8.81446
▁위로	-8.81719
▁발견	-8.81768
되어야	-8.82001
▁설치한	-8.82135
▁남	-8.82177
▁설치되어	-8.82192
▁앞으로	-8.82193
▁작성	-8.82197
군	-8.82268
골절	-8.82332
▁실족	-8.82372
▁맞	-8.82421
▁타	-8.82468
▁협착되어	-8.82606
속	-8.82801
▁자	-8.82865
▁과실	-8.82963
▁발생하지	-8.83046
▁사고로	-8.83135
장소	-8.83172
▁보호구	-8.83234
▁안전난간대	-8.83271
▁폼	-8.83465
▁장갑이	-8.83466
▁배수	-8.83487
▁끝	-8.83502
▁업무	-8.83527
▁검사	-8.83758
▁난간대	-8.83774
▁침하	-8.83883
▁붐대	-8.83919
▁반출	-8.8443
감	-8.84441
▁선	-8.84495
▁사고입니다	-8.84548
▁관로	-8.84776
▁유도	-8.84777
▁발판에서	-8.85033
▁차	-8.85041
▁잃어	-8.85104
▁아웃트리거	-8.85203
번째	-8.85221
▁거푸집이	-8.85369
▁된다	-8.8545
▁미장	-8.85474
▁수평재	-8.85538
▁상단	-8.85618
▁개인보호구	-8.85836
07	-8.85892
▁레미콘	-8.85914
▁측면	-8.86007
-1	-8.86024
▁간격	-8.86546
▁시작	-8.86593
▁화상	-8.86622
▁가능한	-8.86649
▁103	-8.86651
▁유리	-8.86796
저	-8.86823
▁L	-8.86847
신	-8.87044
▁나	-8.87141
▁옆으로	-8.87298
▁탑승	-8.87303
▁램프	-8.87372
▁협력업체	-8.87379
블럭	-8.87466
도중	-8.87472
▁26	-8.87503
▁촬영	-8.87592
▁강도	-8.87611
▁각파이프	-8.87763
▁T	-8.87833
망	-8.87905
▁지정	-8.88
▁불	-8.88057
▁허리에	-8.88092
▁구	-8.88106
관리	-8.8811
▁붐	-8.8812
▁터널	-8.88144
▁케이싱	-8.88174
▁104	-8.88199
08	-8.88208
▁옆구리	-8.8822
▁사이로	-8.88233
▁앵커	-8.88248
▁버팀대	-8.88317
▁놓쳐	-8.88625
▁지	-8.88891
18	-8.88956
▁따른다	-8.88957
해서	-8.88976
▁P	-8.88989
▁고정용	-8.89041
과정에서	-8.89234
▁이동시	-8.89302
근로자	-8.89432
벽	-8.89463
오	-8.89781
▁단부	-8.89785
터널	-8.89826
▁케이블	-8.89859
▁이동통로	-8.89922
▁하강	-8.89946
증	-8.89966
▁27	-8.90014
▁인대	-8.90056
도로	-8.90206
철	-8.90252
▁망치	-8.90276
▁소	-8.90288
▁불안정	-8.9033
▁목	-8.90382
차량	-8.90571
▁천막	-8.90595
▁적치	-8.90701
▁발생하여	-8.90755
각	-8.90995
기계	-8.91
▁상해를	-8.91014
▁보수	-8.91041
▁통보	-8.91074
▁GUIDE	-8.91139
▁작업에	-8.91156
길이	-8.91281
▁하부에서	-8.91413
▁호소	-8.91564
▁못이	-8.91688
▁부위에	-8.91735
▁슬링벨트	-8.91739
▁소재	-8.91789
▁다친	-8.91796
▁이내	-8.92032
방지	-8.92038
▁종아리	-8.92042
▁옥상	-8.92091
▁형틀공	-8.92258
▁하기위해	-8.92402
중인	-8.92568
창	-8.92701
▁직접	-8.92704
▁긴장	-8.92713
▁끝부분	-8.92754
▁이동하여	-8.92828
▁PC	-8.92919
▁밖	-8.93065
운반	-8.93254
▁두	-8.93294
▁원	-8.93323
▁다	-8.93348
던중	-8.93364
▁아닌	-8.93437
입	-8.93476
▁경계석	-8.93638
▁핀	-8.93737
▁추락사고	-8.93802
▁해체된	-8.93805
▁옆에	-8.93848
▁아파트	-8.93949
▁심	-8.94371
골	-8.94377
09	-8.94534
암	-8.94587
▁나무	-8.94594
▁골절되는	-8.9475
▁가지	-8.94756
▁부분이	-8.94802
▁신청	-8.94919
▁모서리에	-8.95003
▁절단기	-8.95013
▁건설기계	-8.95284
▁버팀보	-8.95291
박	-8.95353
▁감	-8.95435
▁점검하고	-8.95477
▁도	-8.9548
▁재해발생	-8.95495
▁강재	-8.95531
▁장소에서	-8.95766
측	-8.95804
▁입	-8.95931
▁손잡이	-8.95972
▁정지	-8.96047
▁타격함	-8.96054
▁주입	-8.96054
▁현장에	-8.96134
▁뒤	-8.96236
사항	-8.96314
▁우	-8.96381
▁화장실	-8.9639
3.	-8.96405
품	-8.9652
조립	-8.9659
▁설치중	-8.96666
부터	-8.9673
틀	-8.96733
▁대피	-8.96747
▁발파	-8.96785
▁무	-8.96936
▁동료작업자	-8.97038
]	-8.97065
로부터	-8.97105
▁실시하고	-8.97141
▁무릎이	-8.97159
▁안전대를	-8.97288
▁완전	-8.97476
▁작업하던	-8.97562
▁검지손가락	-8.97623
▁보안경	-8.97792
발판	-8.9793
▁피	-8.97943
▁다짐	-8.97969
03	-8.98012
▁미흡으로	-8.9805
이상	-8.98223
▁본인이	-8.98246
▁또한	-8.98302
▁사용할	-8.98304
▁짚어	-8.98345
▁무게중심	-8.98376
▁이동하는	-8.98445
▁피해	-8.98481
사이	-8.98553
▁날	-8.9862
19	-8.98643
▁파이프가	-8.9873
**(	-8.99049
▁2022	-8.9921
▁오른발	-8.99258
▁떨어지는	-8.99278
하려고	-8.99319
▁종류	-8.99324
▁29	-8.99359
▁이용한	-8.99372
▁진입	-8.99408
상부	-8.99548
으로부터	-8.99634
▁날이	-8.99729
크	-9.00006
▁작업구간	-9.00152
▁해	-9.00167
▁보관	-9.00343
▁중간	-9.00499
▁다시	-9.0053
▁안전화	-9.00672
달	-9.00674
팀	-9.00706
놓은	-9.00737
▁크레인으로	-9.00791
02	-9.00805
▁작업하여야	-9.00826
▁필요	-9.0098
▁않는	-9.01219
▁위치를	-9.01235
L	-9.01255
시켜야	-9.01307
에도	-9.01524
▁당시	-9.01604
▁영향	-9.01681
수지	-9.01772
▁항	-9.01851
▁열상	-9.02025
조치	-9.02044
축	-9.02102
▁공정	-9.02208
▁본인의	-9.02248
하중	-9.02279
▁톱날에	-9.02477
▁놓	-9.02536
▁내에서	-9.0279
씨는	-9.02912
04	-9.02991
▁작업계획	-9.03001
▁내려오던중	-9.0306
▁확보하여야	-9.03345
▁후크	-9.03386
▁바로	-9.03493
▁D	-9.0355
▁파악	-9.03619
▁상해	-9.03633
▁레일	-9.03691
▁수정	-9.03727
▁설치할	-9.03748
21	-9.04108
▁부딪힌	-9.04288
▁삽입	-9.0429
▁적절한	-9.04349
쪽으로	-9.04356
송	-9.0437
▁못한	-9.04599
▁작업발판을	-9.0488
높이에서	-9.04922
▁중량	-9.0509
▁끼여	-9.05265
▁바지선	-9.05293
▁석고보드	-9.0531
▁인양작업	-9.05511
▁이음	-9.0553
▁줄걸이	-9.05535
▁철근공	-9.05566
콘크리트	-9.05593
▁덕트	-9.05643
자재를	-9.05649
▁비산	-9.05701
▁늑골	-9.05701
▁부분을	-9.05749
▁부딪쳐	-9.0588
▁바	-9.05885
▁문	-9.05985
위치	-9.06019
▁미준수	-9.06064
▁일어난	-9.06065
니	-9.06107
▁적합한	-9.0618
▁운반하던	-9.06256
▁절곡기	-9.06357
▁접지	-9.06392
▁운행	-9.0645
봉	-9.0666
▁찰과상	-9.06965
▁철근배근	-9.07151
▁도착	-9.0723
업체	-9.07298
R	-9.07462
위험	-9.07518
▁공법	-9.07801
▁운전원이	-9.07841
▁공사현장	-9.07882
▁설치하기	-9.08013
▁목공	-9.08415
▁단	-9.08479
22	-9.08509
▁바닥을	-9.08588
▁계단을	-9.08594
▁위치에	-9.08595
▁앞에서	-9.08653
+	-9.08788
설	-9.0887
▁복공판	-9.08917
i	-9.08928
▁105	-9.08941
▁연결부	-9.08949
재해	-9.08979
06	-9.09131
▁손목이	-9.09326
▁사면	-9.09345
?	-9.09525
브	-9.09692
s	-9.09708
▁인접	-9.09717
▁찔림	-9.09718
▁하단	-9.09721
▁떨어지며	-9.09735
▁마	-9.09972
▁장애물	-9.10024
▁백호	-9.10277
▁물질	-9.10332
▁흙	-9.10618
건	-9.10695
▁수시	-9.1077
공법	-9.10791
▁고임목	-9.10799
거	-9.10799
▁벽	-9.10837
▁호이스트	-9.10857
온	-9.10864
심	-9.11036
05	-9.11054
▁출입구	-9.112
다고	-9.11241
▁눈에	-9.11255
▁병원에서	-9.11271
연	-9.11292
막	-9.11303
▁놓은	-9.11354
뼈	-9.11364
▁시간	-9.11532
▁핸드	-9.11575
▁엉덩이	-9.11596
▁들어가	-9.11601
▁미확인	-9.11637
▁거	-9.11661
▁협착됨	-9.11763
▁기계실	-9.11798
▁집수정	-9.11823
▁해체중	-9.11858
▁응급실	-9.11872
▁주변에	-9.11898
17	-9.11905
▁질병	-9.11907
▁공	-9.12048
▁수목	-9.12049
▁제출	-9.12266
▁KOSHA	-9.12296
구조물	-9.12373
▁있다	-9.12403
▁포장	-9.12409
▁기준	-9.1248
▁받침목	-9.12576
짐	-9.12581
▁사다리가	-9.12588
▁잔재물	-9.12596
▁진	-9.12664
▁마무리	-9.12677
▁지주	-9.12734
▁앵글	-9.12995
▁지면	-9.12995
▁지하층	-9.13039
▁방	-9.13041
▁홀	-9.13157
▁000	-9.13175
그	-9.13362
위에	-9.13362
확인	-9.13392
▁환기	-9.13442
▁세	-9.13458
”	-9.13509
▁카고크레인	-9.13511
▁철저히	-9.13527
▁자재운반	-9.13538
정리	-9.13878
▁착지	-9.13891
▁쉬	-9.13891
▁부분에	-9.13955
▁클램프	-9.14024
▁순간적	-9.14117
25	-9.14121
볼트	-9.14332
▁1.2	-9.14383
'	-9.14397
파이프	-9.14471
곡	-9.14472
▁되메우기	-9.1448
▁방향으로	-9.14601
▁넘어	-9.1477
▁해체작업중	-9.14847
▁피해자	-9.15019
▁모서리	-9.15049
▁구멍	-9.151
▁확인하지	-9.15104
▁실시하여	-9.15307
▁측정	-9.15307
"	-9.15396
버	-9.15403
▁샤클	-9.15461
▁튕기	-9.15461
▁신체	-9.15508
▁반영	-9.15514
▁소운반	-9.15644
▁하다	-9.15797
▁배	-9.1582
▁여	-9.15841
▁2.5	-9.15892
▁정비	-9.15897
호기	-9.16147
▁작업자세	-9.16174
들	-9.16252
박스	-9.16397
▁위해서	-9.1651
절	-9.16897
▁지침	-9.17015
본	-9.17059
▁정리작업	-9.17254
병	-9.17283
복	-9.17506
▁전방	-9.17535
▁적용	-9.17547
▁작업도중	-9.17655
시공	-9.17914
▁계측	-9.18054
▁진동	-9.18117
▁S	-9.18118
▁내리는	-9.18146
▁자세	-9.18195
▁대책	-9.18271
▁없이	-9.18431
▁충돌하여	-9.18443
▁모든	-9.18463
▁미체결	-9.1848
BL	-9.1848
▁작업전	-9.18486
▁예방하기	-9.18552
▁유해	-9.18567
▁후면	-9.1858
▁방수	-9.18581
▁브라켓	-9.18683
▁전동	-9.18764
급	-9.18874
▁걸	-9.18987
▁강풍	-9.19092
▁병원에	-9.19211
▁방지를	-9.19292
▁조립작업	-9.1938
▁튕겨	-9.19421
이며	-9.19607
▁브레이크	-9.19684
▁파이프에	-9.19696
▁확인한	-9.19703
▁타고	-9.19755
▁작업순서	-9.19814
▁잡	-9.19835
▁통행	-9.19849
▁없어	-9.19887
(4	-9.19966
o	-9.19995
▁변경	-9.20048
▁곳에	-9.20354
▁몸	-9.2037
▁야적	-9.2043
루	-9.20456
I	-9.20478
ing	-9.20487
▁유도자	-9.20753
▁PIT	-9.20846
▁천공기	-9.20947
프	-9.21347
기를	-9.21502
상황	-9.21523
▁흄관	-9.21554
24	-9.21649
▁협력사	-9.21761
▁'	-9.21884
▁스	-9.21889
역	-9.21935
▁발판이	-9.221
손	-9.22246
▁부근	-9.22513
피	-9.22592
차로	-9.22732
▁피부	-9.22912
▁송	-9.22928
구역	-9.22989
▁별도	-9.22995
파	-9.2317
▁가스	-9.23324
▁인양물	-9.23438
▁받은	-9.23446
▁인부	-9.23448
▁철근가공	-9.23706
▁건설공사	-9.23774
▁곳	-9.23896
4.	-9.23926
▁최초	-9.23945
▁개	-9.23958
없이	-9.23969
▁사고자가	-9.24142
▁금	-9.24171
▁법면	-9.24175
▁안쪽	-9.24223
▁거푸집에	-9.24277
▁목재를	-9.2452
착	-9.24555
▁호	-9.24561
제거	-9.24617
▁있을	-9.24685
▁공사중	-9.24693
▁내부로	-9.24837
W	-9.2486
▁돌출된	-9.24864
▁마감	-9.25141
명과	-9.25177
료	-9.25323
출	-9.25678
현	-9.25724
▁착용하여야	-9.25769
▁먼저	-9.25833
▁부딪침	-9.25835
▁끝마디	-9.2584
▁미확보	-9.25844
▁고소작업	-9.25911
▁무너짐	-9.25914
더	-9.25915
▁의식	-9.25973
▁안전장치	-9.26021
▁자세로	-9.26193
▁요청	-9.26344
사업	-9.26404
계단	-9.26528
레	-9.26543
벽체	-9.26605
▁충격으로	-9.26847
▁과정에	-9.26934
▁흔들리	-9.27091
려고	-9.27514
▁창호	-9.27545
▁안전작업	-9.27556
▁작업으로	-9.27624
처리	-9.27708
▁안전교육	-9.27877
평	-9.27954
▁교각	-9.28049
▁주탑	-9.2806
래	-9.28087
E	-9.2811
현장에서	-9.28206
▁요구	-9.28283
▁보지	-9.28467
▁질환	-9.28495
고정	-9.28777
광	-9.29079
▁뛰어	-9.29174
▁이물질	-9.29198
추	-9.29215
▁하였고	-9.29226
두	-9.29277
▁철근조립	-9.29389
중에	-9.29415
층바닥	-9.29691
▁차단	-9.29744
배	-9.2984
▁최대	-9.29857
▁상기	-9.3003
▁내리던	-9.3017
▁발생됨	-9.30178
▁깊이	-9.30211
름	-9.30212
우측	-9.30243
▁쓰러짐	-9.30303
▁왼발	-9.30303
▁흔들림	-9.30305
▁설치작업을	-9.30405
▁화	-9.30499
▁인대가	-9.3061
▁주차	-9.30645
날	-9.30812
▁저	-9.30836
연결	-9.30908
▁타박상을	-9.30967
▁위험요인	-9.31044
▁경사로	-9.31211
▁스위치	-9.31227
▁강타	-9.31404
▁쓰러져	-9.31452
▁찢어짐	-9.31452
▁연	-9.31455
기준	-9.31547
▁충격이	-9.31745
조치를	-9.31811
▁힘	-9.31932
26	-9.32011
▁받침대	-9.32053
▁건	-9.32209
기위해	-9.32263
(3	-9.32288
▁안전발판	-9.32312
▁출근	-9.32362
바닥	-9.32426
▁옮기던	-9.32472
르	-9.32488
지점	-9.3261
▁인장	-9.32706
▁옮기는	-9.32741
▁자상	-9.32755
▁윈치	-9.32797
▁균열	-9.32822
▁경사면	-9.32829
폼	-9.32852
유로폼	-9.32934
▁지점	-9.33001
▁착용하고	-9.3303
부재	-9.33147
▁[	-9.33208
▁되지	-9.33241
▁작업이	-9.33246
29	-9.33248
▁규격	-9.33261
▁양생	-9.33294
▁걸어	-9.33437
▁절단작업	-9.33484
▁항타	-9.33536
▁지상으로	-9.3362
▁잡아	-9.33698
센터	-9.3371
으나	-9.33751
ᆞ	-9.33785
ray	-9.33791
▁굴러	-9.33792
▁건축물	-9.33815
▁미비	-9.33881
타	-9.33921
▁사업주	-9.33937
▁소화기	-9.33953
▁지면으로	-9.33953
청	-9.33976
▁철재	-9.34067
길	-9.34231
▁특성	-9.34247
속도	-9.34275
▁손에	-9.34291
결	-9.34481
▁기사	-9.34505
▁이에	-9.3489
▁현장의	-9.34924
읍	-9.3494
▁놓치면서	-9.35009
▁이동하다가	-9.35054
카	-9.3507
▁작업용	-9.35109
▁부러지	-9.35123
▁안전시설	-9.35143
▁경사	-9.35156
▁OOO	-9.35188
▁미장작업	-9.35206
▁매설	-9.3528
▁철물	-9.3542
▁기대어	-9.35421
▁유압	-9.35458
▁보양	-9.35464
▁예정	-9.35578
▁추가	-9.35588
내부	-9.35653
▁쪽으로	-9.35681
▁작업계획서	-9.35785
▁점	-9.35786
▁요양	-9.3584
처	-9.35937
▁노	-9.35992
▁45	-9.36114
▁도장	-9.36132
탄	-9.36177
하였습니다	-9.3618
▁요양급여	-9.36184
▁작업장소	-9.36235
▁접수	-9.36311
▁작업종료	-9.36351
▁시설	-9.36402
▁주행	-9.36412
▁성능	-9.36497
부위에	-9.36536
▁표시	-9.3655
▁인	-9.36591
링	-9.36642
▁/	-9.36746
▁화기	-9.36818
▁근처	-9.36821
▁31	-9.36947
-3	-9.36949
▁기록	-9.37423
▁연락	-9.37433
▁"	-9.37487
학	-9.37499
▁해상	-9.37512
▁바퀴	-9.37516
합	-9.37519
▁잡고있던	-9.37568
00(	-9.37637
▁화물	-9.37736
▁거더	-9.3776
불	-9.37809
홀	-9.37851
▁삼	-9.37974
용접	-9.37986
▁사용하고	-9.37997
▁발생하였음	-9.38
▁중앙	-9.38203
▁미숙	-9.38282
▁검토하여	-9.38315
▁신호를	-9.38385
▁영	-9.38409
티	-9.38438
▁멍에	-9.38486
▁철탑	-9.38645
▁부재를	-9.38647
하기위해	-9.38662
▁운전석	-9.38691
▁MRI	-9.38809
▁발생할	-9.38845
▁있음	-9.38889
▁동일	-9.38958
-2	-9.38979
▁입구	-9.39094
초	-9.39242
입니다	-9.39355
격	-9.39469
▁부딪히	-9.39544
▁있는지	-9.39677
▁왜	-9.39718
▁만	-9.39736
▁고정된	-9.39756
른	-9.39793
▁날에	-9.39832
▁천공작업	-9.39839
▁헛디딤	-9.39891
▁주위	-9.39955
▁밑	-9.3996
▁매설물	-9.40003
▁화약류	-9.40014
▁반동	-9.40029
▁작업반경	-9.4003
23	-9.40098
침	-9.4011
핀	-9.40122
▁파단	-9.40144
▁승강	-9.40172
▁이하	-9.4018
▁사무실	-9.40215
모	-9.40223
▁채	-9.40224
▁작업장에서	-9.40251
▁받침	-9.40252
생	-9.40278
=	-9.4028
▁집	-9.40284
▁끼	-9.40299
l	-9.40303
▁1.8	-9.40836
▁대상	-9.40857
▁원형	-9.41033
h	-9.41039
사다리	-9.41039
▁안면	-9.41056
▁접합	-9.41112
▁비계파이프	-9.41194
▁화물차	-9.41226
▁팔목	-9.41231
▁코	-9.41232
r	-9.41277
▁뒤꿈치	-9.41302
▁멍에재	-9.41315
▁“	-9.41329
▁철선	-9.41337
▁큰	-9.41382
▁왼손으로	-9.41389
▁벽체거푸집	-9.41396
▁작업발판에서	-9.4154
코	-9.41566
사용	-9.41609
▁단차	-9.41631
폭	-9.41643
블록	-9.41679
▁방호	-9.4173
▁간섭	-9.41734
작업자가	-9.41951
▁성	-9.41976
병원에서	-9.42083
▁백	-9.423
▁보행	-9.42381
▁특히	-9.4244
▁주요	-9.42469
▁신속	-9.42479
28	-9.42494
형강	-9.4256
공간	-9.42671
▁확인하여	-9.42723
▁조절	-9.42858
기둥	-9.42874
▁방법으로	-9.42898
▁버켓	-9.42928
실에서	-9.42941
위해	-9.43038
개소	-9.4309
행	-9.43154
▁치	-9.43202
▁지상에서	-9.43276
▁놓여	-9.43336
지역	-9.43339
▁작업자에게	-9.43359
▁열	-9.43395
거리	-9.43532
▁2021.	-9.43542
절단	-9.43575
부분을	-9.43642
혀	-9.43688
▁작업은	-9.43695
▁미실시	-9.43751
▁밀려	-9.43804
▁과도	-9.43812
▁실	-9.43917
▁버킷	-9.43936
▁단독	-9.43992
▁철근망	-9.44018
▁누수	-9.44034
▁동작	-9.44092
▁월요일	-9.4416
▁골절상	-9.44161
▁호소하여	-9.4417
▁작업자와	-9.4417
▁렌탈	-9.4421
▁인력으로	-9.44259
BEAM	-9.44286
신고	-9.44356
▁매	-9.44404
라이	-9.44516
부위가	-9.4471
▁후방	-9.44716
▁#	-9.44879
락	-9.44901
겨	-9.44985
완료	-9.45002
▁방호선반	-9.45054
▁금속	-9.45072
통로	-9.4509
▁최종	-9.45096
▁양수기	-9.45148
▁믹서기	-9.45208
▁당현장	-9.45225
▁지장물	-9.45231
▁주변에서	-9.45329
▁장치	-9.45373
▁귀가	-9.45391
▁손바닥	-9.45421
위로	-9.45465
크레인	-9.45618
노	-9.45656
▁당해	-9.45668
▁재단	-9.45686
▁108	-9.45705
검사	-9.45707
마다	-9.45739
▁작업후	-9.45942
▁배수로	-9.46115
▁F	-9.46169
▁공구를	-9.46332
▁수직보호망	-9.46386
하므로	-9.46386
파일	-9.46403
(6	-9.46404
▁새끼	-9.4644
▁바닥면	-9.46459
▁소견	-9.46514
▁그라우팅	-9.46568
▁전도되면서	-9.4657
▁U	-9.46573
기초	-9.46782
▁롤러	-9.4682
조건	-9.46838
c	-9.4688
슬라브	-9.46944
집	-9.47021
채	-9.47027
[	-9.47052
▁압력	-9.47089
▁모	-9.47142
▁적	-9.47196
p	-9.47365
▁이외	-9.47472
반장	-9.47701
▁펌프	-9.47704
▁안전수칙	-9.47758
▁지지력	-9.47827
보다	-9.47841
▁있어야	-9.47921
▁우천으로	-9.47937
▁가격함	-9.47996
산업	-9.4816
토건	-9.48273
▁안면부	-9.48392
▁대기	-9.48638
▁황	-9.48663
부분이	-9.48712
▁받	-9.48721
▁사용하지	-9.48756
▁것이	-9.48758
▁산소	-9.49078
▁않음	-9.49108
▁엉덩방아	-9.49108
▁고속절단기	-9.49109
▁원칙	-9.49109
▁인양용	-9.49113
▁대차	-9.49126
▁60	-9.49151
미리	-9.49259
외부	-9.49263
데	-9.49326
▁과정	-9.49455
n	-9.49477
▁전체	-9.49555
시켜	-9.49585
부분에	-9.49593
▁정상	-9.49742
난	-9.49747
칠	-9.4981
27	-9.49979
▁세워	-9.50005
부에	-9.50024
▁비래	-9.50069
▁틈	-9.50334
▁되는	-9.50406
▁무릎에	-9.50433
▁압출	-9.50488
▁손수레	-9.50496
(5	-9.50519
▁해제	-9.50556
▁아	-9.50586
▁다음날	-9.50615
▁안전시설물	-9.50634
▁강선	-9.50651
▁박스	-9.50721
▁중인	-9.50822
▁맞지	-9.50831
▁굴착면	-9.51162
▁왼쪽발	-9.51345
▁미끄러	-9.51394
법	-9.51509
▁하역작업	-9.5153
▁트러스	-9.51579
▁감전	-9.51616
▁연결된	-9.51659
방지를	-9.5166
립	-9.51669
▁초과	-9.5174
▁지하매설물	-9.51905
▁압송관	-9.5192
토록	-9.51934
▁최소화	-9.51945
▁인발	-9.51946
▁응급조치	-9.51985
▁불량으로	-9.51999
조사	-9.52038
▁걸고	-9.52079
▁안구	-9.52145
▁덤프	-9.52169
▁목요일	-9.52275
G	-9.5231
▁슈	-9.52336
CM	-9.52393
▁체인	-9.52462
업	-9.52481
▁변위	-9.52483
▁손가락에	-9.52652
▁장갑	-9.52653
▁작업대차	-9.52689
▁내부에	-9.52754
굴착	-9.52781
▁비상	-9.52949
▁옥탑	-9.52965
▁일반	-9.52969
▁요	-9.53039
이동	-9.53103
▁못함	-9.53133
방문하여	-9.53235
덕	-9.53273
▁하였음	-9.53283
▁인력	-9.53311
▁마디	-9.53326
Beam	-9.53333
▁옮겨	-9.53334
▁반대편	-9.53335
▁확실	-9.53347
▁107	-9.53422
▁근로복지공단에	-9.53433
▁M	-9.5346
요	-9.53462
▁부딪히면서	-9.53467
▁방문	-9.53584
▁전도됨	-9.53599
:20	-9.53614
▁토요일	-9.53618
▁산업재해	-9.53647
구조	-9.53798
▁줄	-9.538
▁운반하는	-9.53852
▁타설중	-9.5387
▁금요일	-9.53919
되고	-9.54068
목격자	-9.54202
것으로	-9.54382
▁블럭	-9.54394
▁파	-9.54396
▁이동하다	-9.54457
▁구조물에	-9.54592
▁올라가던	-9.54748
▁조적	-9.54756
▁앉아	-9.54783
▁느껴	-9.54783
▁부식	-9.54899
라고	-9.54911
▁인상	-9.54918
장에서	-9.54956
▁크기	-9.54986
▁하면서	-9.55121
▁변화	-9.55129
▁공기	-9.55404
촬영	-9.55693
2020	-9.55816
▁관계	-9.55833
▁어디서	-9.55839
▁기구	-9.55855
2021	-9.55997
령	-9.56032
▁미끄럼	-9.56152
▁근린생활시설	-9.56255
▁튀면서	-9.56299
▁미고정	-9.56309
▁내리	-9.56339
▁106	-9.56373
▁설치작업중	-9.56386
▁이동식틀비계	-9.56463
:40	-9.56488
▁화요일	-9.56516
▁윤	-9.56701
▁외부비계	-9.56761
▁수리	-9.56776
▁코어	-9.56787
▁산	-9.56871
▁진행중	-9.56929
▁양중작업	-9.56937
:10	-9.57112
▁이송하여	-9.57117
▁마대	-9.57185
▁슬라브에서	-9.57379
▁작업공간	-9.57464
되며	-9.57488
돌	-9.57524
▁근육	-9.57528
족	-9.57629
▁지급	-9.57661
드릴	-9.57678
런	-9.57746
▁보통인부	-9.57747
▁밀리면서	-9.57751
▁전동드릴	-9.57756
▁결함	-9.57803
▁보강토	-9.57821
▁끼이면서	-9.57843
▁물기	-9.57857
▁걸쳐	-9.57881
▁기설치	-9.57891
▁강구	-9.57896
>	-9.57904
▁넘어져서	-9.57957
라인	-9.58005
때	-9.58014
지면서	-9.58033
자가	-9.58039
지지	-9.58091
▁비닐	-9.58108
▁추락방지	-9.58544
▁조명	-9.58607
하려다	-9.58691
및	-9.58755
소속	-9.58814
▁둥근톱	-9.58907
▁경과	-9.59152
▁상단부	-9.59155
▁상황에서	-9.59192
▁어	-9.59211
작	-9.59249
▁대응	-9.59255
▁가이드	-9.59261
▁불티	-9.59279
▁유도로프	-9.59293
▁가지러	-9.59298
▁고려	-9.5938
▁정상적	-9.59389
▁벽체에	-9.59404
▁이동하기	-9.5942
▁집중	-9.59448
▁사망함	-9.59471
▁페인트	-9.59504
▁원형톱	-9.59514
▁발판에	-9.59622
▁올라	-9.59636
▁고장	-9.59646
▁협의	-9.5984
▁PE	-9.59847
▁벨트	-9.60012
▁폭발	-9.60065
▁발생하는	-9.60082
▁자중	-9.60151
술	-9.6021
▁밸브	-9.60235
▁접	-9.60501
▁우수	-9.60638
염	-9.60757
beam	-9.608
▁혼자	-9.608
▁때문	-9.60893
▁안전통로	-9.60901
▁타공	-9.60918
▁걸리면서	-9.60919
▁일용직	-9.60926
▁올려	-9.60946
▁메고	-9.60947
▁내원하여	-9.60989
▁말려들어가	-9.61044
▁규정	-9.61107
▁인화성	-9.61201
▁정리중	-9.61216
▁밴드	-9.61529
기관	-9.61585
▁공사현장에서	-9.61727
▁설치한다	-9.61835
호세대	-9.61883
▁80	-9.61968
▁증가	-9.61999
철물	-9.62097
▁전면	-9.62192
▁힘이	-9.62204
시키고	-9.62367
▁매립	-9.62371
▁접지름	-9.62378
▁이상유무	-9.62397
▁틈새	-9.6244
▁하천	-9.62459
▁등과	-9.62477
▁교대	-9.62575
보고	-9.62586
▁끼인	-9.62649
인이	-9.62655
▁놓고	-9.62701
▁몰탈	-9.62773
접	-9.62974
▁위험성	-9.6314
er	-9.63204
▁대구	-9.63224
▁타설작업	-9.63269
▁작업중인	-9.63437
거더	-9.63487
▁상단에	-9.63697
▁작업하는	-9.63716
친	-9.63921
▁붙어	-9.63931
→	-9.63949
▁의사소통	-9.63949
▁불일치	-9.6395
▁걸리	-9.63952
빔을	-9.63959
▁방망	-9.63973
▁소음	-9.63982
▁현장소장	-9.6401
▁낙하물방지망	-9.64033
▁CT	-9.64053
▁지나	-9.64058
▁90	-9.64073
▁컨테이너	-9.64133
▁업무상	-9.64137
▁정확한	-9.6421
▁오른손으로	-9.64247
상부에서	-9.64288
▁외측	-9.64347
▁풀려	-9.64351
▁단부에	-9.64391
▁편	-9.64395
▁잭	-9.64412
▁보강재	-9.64478
▁철	-9.64765
▁고소	-9.6481
개발	-9.64871
▁짚으	-9.64938
▁응급	-9.65179
▁알	-9.65467
▁내려놓	-9.65524
▁레미탈	-9.65562
▁심폐소생술	-9.65562
▁근접	-9.65566
▁다치는	-9.6557
▁잔여	-9.65583
▁지보공	-9.65593
▁작업시작	-9.65599
▁미사용	-9.65616
▁수신호	-9.65655
▁철거작업	-9.65657
▁어떻게	-9.65679
▁무엇을	-9.65679
▁서로	-9.65728
▁동선	-9.65764
▁높은	-9.6582
▁광	-9.6588
▁컷팅	-9.65893
▁유로폼에	-9.65989
▁직영	-9.66027
▁말뚝	-9.66124
▁벽에	-9.66189
려다	-9.66235
▁넘어가	-9.6638
▁작업반장	-9.6642
▁횡대	-9.66432
▁권	-9.66434
▁조건	-9.66439
▁중심	-9.66485
2)	-9.66502
▁설계도서	-9.66617
▁낙하로	-9.66619
X	-9.66818
추락	-9.66834
▁작업자간	-9.66926
:00	-9.66927
▁차량이	-9.6695
▁예	-9.66961
간의	-9.6697
▁필요시	-9.6706
▁일어나	-9.67124
▁마지막	-9.67202
▁깔림	-9.67202
▁출입금지	-9.67202
▁장기간	-9.67224
▁유입	-9.67248
▁형상	-9.67263
▁각종	-9.67275
▁절차	-9.67301
▁배치하여	-9.67327
▁옷	-9.67357
▁개방	-9.67401
▁자재와	-9.67406
▁기울기	-9.67406
▁해체하여	-9.67447
▁닫	-9.67451
▁씨가	-9.67506
▁두어야	-9.67544
▁서울	-9.67715
▁판정	-9.67725
▁반복	-9.67782
▁협착사고	-9.67927
▁언제	-9.67927
▁안전사고	-9.6805
했	-9.68235
▁거리	-9.68271
▁더	-9.68375
해진	-9.68461
▁인양하여	-9.68528
▁단순과실로	-9.68551
방향으로	-9.68643
흥	-9.68691
충	-9.68842
▁적재되어	-9.68862
▁궤도	-9.68868
▁전방주시	-9.68869
▁답단	-9.68873
▁신호체계	-9.68875
▁설계변경	-9.68876
▁접질러	-9.68882
▁피난	-9.68884
▁연결핀	-9.68924
아래로	-9.68939
▁충돌한	-9.6898
▁구성	-9.68997
▁발견하지	-9.69042
▁각목	-9.69049
▁용접작업	-9.6913
▁기능	-9.69176
것을	-9.69202
▁미세골절	-9.69245
단에서	-9.69279
▁선회	-9.69313
▁의견서	-9.69387
▁일반적	-9.69389
▁공장	-9.69396
6.	-9.69398
▁밀	-9.69467
▁삐끗	-9.69486
▁이동식비계	-9.69507
▁G	-9.69576
▁손목을	-9.69682
▁목수	-9.69731
▁발에	-9.69818
▁직원	-9.69923
▁직	-9.7013
▁미끄러짐으로	-9.70156
커	-9.70195
▁정확	-9.7022
▁사람	-9.70239
▁이용해	-9.70283
▁비계공	-9.70311
국	-9.70494
▁고압	-9.70562
▁부적절	-9.70563
▁싣고	-9.70563
▁있었으나	-9.70566
▁차량에	-9.70579
▁노출	-9.70601
▁세그먼트	-9.70688
▁고정핀	-9.70692
▁탈락되어	-9.70885
▁출입문	-9.71093
▁자동	-9.71272
▁해체한	-9.71375
▁소형	-9.71549
승	-9.71628
▁담	-9.71654
▁비치	-9.71703
▁턱	-9.71712
▁장비가	-9.71725
교육	-9.71841
▁교통	-9.71884
▁금일	-9.71889
편	-9.71889
▁불안전	-9.7205
습니다	-9.72062
환	-9.72064
지하	-9.72195
워	-9.72221
▁엔진	-9.72254
▁뛰어내려	-9.72272
재를	-9.7228
▁누전차단기	-9.72287
▁뚜껑	-9.72287
▁아침	-9.72298
▁원활	-9.72299
▁들	-9.72314
▁타이	-9.72363
▁다만	-9.72373
▁뒷꿈치	-9.72415
:50	-9.72484
80	-9.7254
▁스라브	-9.7256
▁면	-9.72596
▁거푸집과	-9.726
▁측량	-9.72652
▁치료중	-9.72657
▁몸이	-9.72688
▁케이지	-9.72858
▁못해	-9.72878
▁홍	-9.7296
▁이탈하여	-9.73323
▁건설	-9.73419
▁안정	-9.73527
디	-9.73711
▁부근에서	-9.73738
난간대	-9.73763
작업시	-9.738
추정	-9.73834
로서	-9.73845
▁내려가던	-9.73924
호스	-9.73967
▁수중	-9.74019
▁빗물	-9.74042
▁하도급업체	-9.74047
▁유해가스	-9.74049
▁마스트	-9.7405
▁요추	-9.74082
▁안전대책	-9.7411
▁각각	-9.74111
▁인양고리	-9.74117
▁상호	-9.74129
▁그레이팅	-9.74208
▁굴착작업	-9.74232
▁자리	-9.74251
▁수요일	-9.74431
▁문틀	-9.74439
▁불가	-9.74561
▁표면	-9.74601
기에	-9.74616
공장	-9.74704
▁낙상사고	-9.74834
▁앙카	-9.74864
▁용기	-9.74917
▁정리하던	-9.74964
내려오면서	-9.74983
▁단면	-9.75062
▁정한	-9.75289
걸이	-9.75318
▁토사를	-9.75365
▁몸을	-9.75548
끝	-9.7556
완	-9.75607
▁방치	-9.75639
철판	-9.75763
▁경험	-9.75827
▁보일러	-9.75829
▁찍힘	-9.75829
▁해머	-9.7583
▁창틀	-9.75837
▁자신	-9.75867
N	-9.75977
▁이격	-9.75991
▁주차장에서	-9.76027
▁타격한	-9.7603
▁주장함	-9.76049
5.	-9.76081
▁의사	-9.76098
▁두부	-9.76213
단지	-9.76217
손가락	-9.76252
년생	-9.76404
▁운반작업	-9.76405
▁서서	-9.76473
▁지하수	-9.76518
보강	-9.76586
▁금이	-9.7659
▁배면	-9.76727
▁이상인	-9.76875
▁끼이	-9.77159
▁불꽃	-9.77269
%	-9.77273
▁상처	-9.77449
앞	-9.77458
▁비계발판	-9.77464
▁대해	-9.77526
▁설치하던	-9.7762
액	-9.77628
▁지렛대	-9.77645
▁쌓기	-9.77646
氏	-9.77646
승인	-9.77648
▁포크	-9.77652
▁작업지휘자	-9.7766
▁계단참	-9.77665
▁허리통증	-9.77674
▁방지망	-9.77714
▁부석	-9.77733
▁인근에서	-9.77747
▁이상으로	-9.77805
▁안전로프	-9.77871
▁시설물	-9.77945
▁가로보	-9.7809
개가	-9.78191
▁플레이트	-9.78202
▁별	-9.78214
▁시점	-9.78249
▁초	-9.78269
▁골조	-9.78315
▁양쪽	-9.78352
▁총	-9.78433
▁비트	-9.78531
레이	-9.78542
▁35	-9.78611
▁짚	-9.78682
예	-9.78815
O	-9.78877
▁공종	-9.78949
다리	-9.78975
▁이동하던중	-9.78979
▁절	-9.78986
▁비계에서	-9.78989
▁정형외과	-9.79045
으면서	-9.79048
병원에	-9.79076
▁지속적	-9.79147
▁평탄	-9.79166
▁방수작업	-9.79231
▁최소	-9.7927
철거	-9.79363
치료	-9.79385
▁형틀작업	-9.7943
주변	-9.7945
되었	-9.79455
▁유의	-9.79491
정거장	-9.79498
▁달비계	-9.79499
▁리더	-9.79506
▁엄지발가락	-9.79506
▁말려	-9.79511
▁병원진료	-9.79513
주간	-9.79517
▁암반	-9.79518
▁분진	-9.79544
▁창상	-9.79556
▁피트	-9.79561
면에	-9.79563
▁소통	-9.79564
▁이동식크레인	-9.79576
▁정확히	-9.79579
▁인식	-9.79583
▁베이	-9.7962
▁뒷걸음질	-9.7965
▁초기	-9.79692
▁대퇴부	-9.79712
등을	-9.79734
▁부설	-9.7978
▁유공발판	-9.7979
▁강관비계	-9.79879
▁대해서	-9.79962
▁수직도	-9.80031
▁수립하고	-9.80033
▁비계파이프를	-9.80139
쪽에	-9.80149
▁세우기	-9.80158
▁평가	-9.80282
▁암	-9.80303
하였	-9.8034
▁해체하는	-9.80384
▁좌	-9.80713
직	-9.80757
▁시야	-9.80801
고리	-9.80983
▁외부로	-9.81106
이라	-9.81162
▁발코니	-9.81218
곳	-9.81238
무엇을	-9.81247
어떻게	-9.81247
좌측	-9.81269
제작	-9.81292
독	-9.81337
합판	-9.81343
시킨	-9.81369
▁R	-9.81374
님	-9.81376
▁쌓아	-9.81384
▁불구하고	-9.81384
▁생각	-9.81385
▁숙지	-9.81396
▁부주위	-9.81398
▁추락방지망	-9.81402
▁힘줄	-9.81415
▁두번째	-9.8142
▁치수	-9.81525
▁근로	-9.81597
전기	-9.81625
▁지연	-9.8163
▁굴착공사	-9.81638
▁작용	-9.81645
▁재해자와	-9.81658
▁판단하여	-9.81714
▁합벽	-9.81847
▁포설	-9.81855
▁작업진행	-9.8187
▁프레임	-9.81882
되	-9.81893
▁설계에	-9.81897
기간	-9.81947
▁강관파이프	-9.82063
관로	-9.82154
▁벽면	-9.82171
▁대비하여	-9.82251
▁착용한	-9.82368
▁전도로	-9.82392
하면	-9.82414
빔에	-9.8265
▁2020.	-9.82749
형틀	-9.82884
못	-9.82909
▁장소로	-9.82916
▁고려한	-9.82948
지반	-9.82949
▁내에	-9.82965
인치	-9.8302
▁골절사고	-9.83191
손상	-9.83202
d	-9.83282
▁알려	-9.83282
▁혼합	-9.83307
▁느낌	-9.83307
▁써포트	-9.83307
▁실린더	-9.8331
▁풍속	-9.83312
▁당사	-9.8332
▁빠지며	-9.83333
▁산재처리	-9.83337
▁철근사이	-9.8334
▁식사	-9.83345
▁검사결과	-9.83352
▁망치질	-9.83357
▁부착설비	-9.83396
▁인양할	-9.83398
걸	-9.83413
▁이때	-9.83461
매	-9.83477
인양	-9.83479
▁멈추	-9.83502
▁내린	-9.83594
▁일을	-9.83659
▁시공중	-9.83662
▁모래	-9.83705
▁보고함	-9.83743
▁관리자	-9.83779
▁추진관	-9.83814
▁석공사	-9.83837
▁배치하고	-9.83864
▁높	-9.83908
▁하였으며	-9.8393
▁스카이	-9.84069
▁외상	-9.84084
▁상하	-9.84086
원인	-9.84223
▁막	-9.8423
▁돌출	-9.84313
▁부터	-9.84348
▁시공사	-9.84371
▁곳에서	-9.84655
▁통과	-9.84667
되었음	-9.84788
▁범위	-9.84811
▁벌목	-9.84901
▁휀스	-9.8492
▁인양중	-9.84923
▁고정작업	-9.84953
▁도중에	-9.85037
공사를	-9.85081
▁태	-9.85096
퍼	-9.85252
팅	-9.85252
▁상가	-9.85265
▁갑작스	-9.85266
▁건드려	-9.85268
▁방음벽	-9.85268
▁분전반	-9.85268
▁경기도	-9.8527
▁흔들려	-9.85272
NA	-9.85289
▁미끄러운	-9.85305
▁물건	-9.85316
수평	-9.85334
▁안정성	-9.85355
▁철수	-9.8538
▁제거하고	-9.85389
▁오수관로	-9.85469
▁밴딩	-9.85498
▁제거하기	-9.85527
▁1>	-9.85723
▁절단중	-9.85755
▁작업준비	-9.85779
▁다발	-9.86072
▁하단부	-9.86146
▁밴딩기	-9.862
▁STA	-9.86202
▁***(	-9.8629
▁레벨	-9.86494
▁옥상에서	-9.86528
▁메	-9.86532
▁신축공사현장	-9.86578
▁본체	-9.86614
▁안전관리	-9.86701
▁지면서	-9.86737
점검	-9.86832
ME	-9.86864
상태에서	-9.86871
▁복도	-9.86924
▁소화	-9.86925
보니	-9.8696
▁척추	-9.87025
▁○	-9.87052
대학교	-9.87056
▁빼내	-9.87063
▁근로자와	-9.87135
올	-9.87164
▁각도	-9.87208
힌	-9.87224
습	-9.87251
▁시험	-9.87266
▁부득이	-9.87268
▁창문	-9.8727
▁포크레인	-9.87273
▁정격하중	-9.87274
▁긴급	-9.87275
▁배합	-9.87286
▁PS	-9.873
▁걸린	-9.87301
:30	-9.87303
▁사용시	-9.87344
▁경사진	-9.87363
▁물체	-9.87367
공사중	-9.87372
▁누	-9.87392
▁온	-9.87399
▁연장	-9.87434
지지대	-9.87436
▁슬리브	-9.87458
▁적재함에	-9.87475
보호	-9.87515
▁소방	-9.87516
▁사고원인	-9.87578
▁이마	-9.87646
▁수립하여	-9.87669
(***)	-9.87693
설치를	-9.87718
▁상부의	-9.87776
▁이동중에	-9.8785
▁전문가	-9.87887
▁축	-9.87927
있	-9.88013
▁폐	-9.88076
▁운반구	-9.88135
▁사망한	-9.88154
근로자가	-9.8833
▁반경	-9.88452
▁철근자재	-9.88491
▁위치에서	-9.88506
▁불승인	-9.88535
▁벽체철근	-9.88566
부상	-9.88583
▁무리가	-9.88694
▁타워	-9.887
부의	-9.8872
60	-9.88738
▁양손	-9.88765
▁이설	-9.88765
▁70	-9.88789
과정	-9.88802
▁관계자	-9.88824
▁진단서	-9.88885
▁화기작업	-9.88925
변	-9.88932
울	-9.89046
▁작용하	-9.89096
▁의견	-9.89146
옆	-9.89157
▁준비중	-9.89174
특	-9.89227
규	-9.89235
▁타설시	-9.89262
킬	-9.89264
활	-9.8927
마디	-9.89276
촌	-9.89304
▁빠짐	-9.89309
▁응급처치	-9.89309
▁처짐	-9.89309
▁경미한	-9.8931
긴	-9.89318
▁걸이	-9.89322
▁부산	-9.89328
▁오거	-9.89335
▁정기적	-9.89336
▁탈형	-9.89337
▁장착	-9.89357
▁15:00	-9.89397
▁부딪히며	-9.8941
▁조립중	-9.89416
▁배선	-9.89434
▁넘어지지	-9.89437
▁추정됨	-9.8944
중지	-9.89467
▁작업반경내	-9.89522
▁쓰레기	-9.89546
▁전기톱	-9.89583
배수	-9.8964
▁작동상태	-9.89646
강도	-9.8969
▁살수	-9.89765
▁설치공사	-9.89852
▁상판	-9.90027
▁공급	-9.90087
▁이루어지	-9.90123
진단	-9.90145
들이	-9.90194
-6	-9.90251
▁게이트	-9.90412
▁미처	-9.90438
▁주지	-9.90447
▁소지	-9.90477
▁절단작업중	-9.90557
순서	-9.90582
▁거푸집해체	-9.90598
▁담당자	-9.90729
▁클	-9.90793
▁뒤쪽	-9.90847
물을	-9.90941
▁가격한	-9.9099
균형을	-9.911
1.2	-9.91113
▁현장사무실	-9.91131
▁진술	-9.91137
대를	-9.91149
힘	-9.91208
▁설치상태	-9.91316
▁캐노피	-9.91392
극	-9.91392
▁위험성평가	-9.91392
▁커터칼	-9.91394
▁있었음	-9.91395
▁합벽지지대	-9.91398
▁당한	-9.914
▁진찰	-9.91401
▁주지시켜야	-9.91405
▁접질려	-9.91409
▁절단하던	-9.91411
▁할석	-9.9143
▁도포	-9.91444
▁풀리면서	-9.91478
옹벽	-9.9148
▁받아야	-9.91525
▁제품	-9.9154
▁내측	-9.91559
▁누가	-9.91629
▁쓰	-9.91677
▁****	-9.91704
▁용역	-9.91728
▁PVC	-9.91811
▁내원	-9.9184
▁크	-9.91908
▁부지	-9.91921
▁점심식사	-9.91951
▁파편이	-9.9199
▁잡은	-9.92025
하려	-9.92176
▁작업발판이	-9.92196
▁포함한	-9.92211
~1	-9.9224
▁결	-9.92278
▁사항에	-9.92278
▁오른	-9.92299
OO	-9.92378
된다	-9.92522
▁바퀴에	-9.92767
▁환경	-9.92779
▁현	-9.92781
-4	-9.92976
▁있지	-9.93027
▁사다리에	-9.93083
▁손톱	-9.93139
▁추락하는	-9.93141
▁절곡	-9.93168
▁적합	-9.93258
▁대기중	-9.93317
▁수상	-9.93364
간격	-9.9347
▁타박	-9.93481
하였다고	-9.93499
▁강널말뚝	-9.9352
▁오피스텔	-9.9352
▁토압	-9.93535
▁모두	-9.93535
▁이물질이	-9.93538
▁체인블럭	-9.93541
▁위험요소	-9.93543
탑	-9.93554
▁측	-9.93555
밀	-9.9357
▁14:00	-9.93589
▁안전보건작업	-9.93633
▁구조적	-9.93635
▁1,2	-9.93648
▁상수도	-9.93649
주택	-9.9368
▁노후	-9.93686
▁바닥이	-9.93697
되어있던	-9.93709
▁건립공사	-9.93795
▁운반하여	-9.93798
▁단계별	-9.93871
▁근골격계	-9.93946
철근에	-9.94012
▁추	-9.94029
▁뼈가	-9.94101
▁디뎌	-9.94174
▁철근콘크리트	-9.94219
▁현황	-9.94267
상의	-9.94281
▁안전관리자	-9.9433
▁계측기	-9.94335
▁코킹	-9.94361
체결	-9.94405
업무	-9.9446
▁뛰어내리다	-9.94569
▁제한	-9.94607
▁압착	-9.94627
▁내려가다	-9.94717
▁해야	-9.94859
▁작업선	-9.94942
▁망	-9.94971
태	-9.94984
▁톱	-9.95067
▁x	-9.95263
▁용접기	-9.95313
▁안전보건	-9.95389
하고자	-9.95392
▁결빙	-9.95428
▁소요	-9.95692
▁트레일러	-9.95694
▁필로티	-9.95694
센티미터	-9.95694
▁특별	-9.95694
▁매몰	-9.95697
▁해치발판	-9.95698
▁용수	-9.95701
▁형식	-9.95702
▁부상자	-9.95702
사실	-9.95703
▁가연성	-9.95716
3)	-9.95744
종합건설	-9.95756
○	-9.95764
▁쪽	-9.95772
▁되었음	-9.95778
백	-9.95816
지며	-9.95832
▁기둥에	-9.95875
▁조종	-9.9588
▁차량계	-9.95906
부주의	-9.95927
▁해체하고	-9.95999
▁지점에서	-9.96072
▁실내	-9.96101
▁묶	-9.96155
▁도장작업	-9.9617
▁잠시	-9.96171
▁지장이	-9.96179
***	-9.96189
▁감독	-9.96212
되면	-9.96223
▁치우	-9.96239
▁발생하였습니다	-9.96261
▁장비기사	-9.96319
▁형태	-9.96354
▁곳으로	-9.96404
▁현장으로	-9.96454
▁예상	-9.96492
▁구급차	-9.965
▁좌우	-9.96559
▁경로	-9.96684
▁동안	-9.96725
▁감시	-9.96732
▁내려와	-9.96765
▁개구부에	-9.96805
▁직후	-9.96842
단으로	-9.96876
▁고정되어	-9.97042
▁건축	-9.97073
▁올리는	-9.97137
▁될	-9.97141
▁요인	-9.97149
▁관리감독	-9.97235
단부	-9.97245
었	-9.97307
▁현장내에서	-9.97392
난간	-9.97449
▁건설현장	-9.97626
아래	-9.97629
▁여러	-9.97698
▁세륜기	-9.97719
▁구조검토	-9.97738
▁밀어	-9.9781
▁잠	-9.97813
▁정밀	-9.97851
▁쐐기	-9.97877
▁뒷걸음	-9.97897
▁절연	-9.97903
°	-9.97916
▁붙잡	-9.97916
▁자바라	-9.97916
▁파라펫	-9.97916
▁견딜	-9.97916
▁저수조	-9.97917
▁무릅	-9.97918
▁새끼발가락	-9.9792
민	-9.97922
▁보도블럭	-9.97924
▁낙석	-9.97926
▁토질	-9.97927
▁증축공사	-9.97937
▁보완	-9.98017
풍	-9.98017
끼	-9.98027
▁판단됨	-9.98037
옥	-9.98041
▁옆에서	-9.98107
▁가능성	-9.9812
▁기둥철근	-9.98236
▁작성하고	-9.98259
▁파렛트	-9.98316
작업대	-9.98351
개월	-9.98353
하자	-9.98359
▁지속	-9.98395
▁뼈	-9.98448
▁시행하여야	-9.98454
▁복합	-9.98559
▁말	-9.98569
▁준설	-9.98617
▁안내	-9.98641
▁올리	-9.987
▁가슴부위	-9.98735
▁야간작업	-9.98783
개의	-9.98788
▁홈	-9.98788
▁지게차로	-9.98877
▁끝단	-9.98915
▁사용중	-9.98924
▁움직이	-9.98938
▁조립된	-9.99037
▁용량	-9.99043
▁조적작업	-9.9912
▁주시	-9.9916
타설	-9.99173
▁설치하거나	-9.9918
y	-9.99185
다는	-9.99207
▁땅	-9.99263
▁신호에	-9.99316
기지	-9.99328
▁내려가는	-9.99332
▁계	-9.99344
누	-9.99477
탈	-9.99747
▁주어	-9.99947
▁일정	-10
▁밀폐공간	-10.0004
굴	-10.0009
네	-10.0016
▁곤란	-10.0019
▁유압잭	-10.0019
▁파쇄	-10.0019
는데	-10.0019
▁OO	-10.0021
▁어려	-10.0021
▁걸림	-10.0023
보수	-10.0028
▁골재	-10.0029
▁탈락되면서	-10.003
▁지붕판넬	-10.0036
▁첫	-10.0038
▁진행하던	-10.0044
않아	-10.0046
▁구분	-10.005
철골	-10.005
말비계	-10.0051
▁일용근로자	-10.0052
▁야적장에서	-10.0053
▁지내력	-10.0055
▁스쳐	-10.0057
우마	-10.0057
▁해체하던	-10.006
▁정차	-10.0062
▁행	-10.0081
▁출혈	-10.0084
-5	-10.0087
구간에	-10.0091
▁광주	-10.0092
▁표지판	-10.011
▁끝이	-10.0111
1.0	-10.0116
▁맞은	-10.0119
인지	-10.0121
▁스킬	-10.0123
▁지휘하	-10.0125
▁두께	-10.0128
이엔씨	-10.0128
▁갖추어	-10.0129
▁커버	-10.0138
▁뛰어내리	-10.0138
▁수직으로	-10.0144
가서	-10.0155
▁유출	-10.0165
▁단위	-10.0168
▁이하로	-10.0179
▁이음부	-10.0181
당시	-10.0182
▁작업하다	-10.019
신호	-10.0204
기사	-10.0215
▁있	-10.023
불량	-10.023
▁비계에	-10.0242
머	-10.0242
느	-10.0251
RAY	-10.0251
▁Area	-10.0251
▁않을	-10.0251
▁지반침하	-10.0251
▁근입	-10.0253
▁여건	-10.0254
70	-10.0255
▁측구	-10.0258
▁문제	-10.0258
▁넘	-10.0259
▁지정하여	-10.026
향	-10.0261
▁사유	-10.0262
▁작업지시	-10.0264
▁착용하였으나	-10.0265
▁유발	-10.0265
▁작은	-10.0269
말	-10.0274
▁상수도관	-10.0279
가닥	-10.0281
헤드	-10.0283
▁분	-10.0283
▁상세	-10.0283
왜	-10.0284
메	-10.0284
▁이용하지	-10.0287
안전모	-10.0288
리면서	-10.029
▁파손되어	-10.0297
하되	-10.0299
▁설정	-10.0299
나무	-10.0301
부지	-10.0303
▁가해	-10.0305
▁청	-10.0305
▁돌아	-10.0314
공이	-10.0314
▁타이어	-10.032
▁반장	-10.032
운전자	-10.0322
▁베이스	-10.0339
▁배관이	-10.034
▁100	-10.0347
▁팔에	-10.0348
▁농	-10.0348
차도	-10.0351
단계	-10.0357
▁고정하기	-10.0369
▁작업완료	-10.0373
▁내리다	-10.0376
▁변형이	-10.0397
▁소장	-10.0398
▁생명줄	-10.0415
▁순서에	-10.0418
▁점심식사를	-10.0439
w	-10.045
▁평	-10.047
내용	-10.047
▁내려가	-10.0477
▁밟	-10.0483
▁부속	-10.0483
엔	-10.0486
졌	-10.0488
▁슬라이딩	-10.049
▁쏠리	-10.049
▁생긴	-10.049
▁퇴원	-10.0491
▁퇴사	-10.0492
▁선행	-10.0492
▁북측	-10.0494
▁있으며	-10.0494
▁건축공사	-10.0496
▁휴식시간	-10.0496
▁가설구조물	-10.0498
▁인천	-10.0499
▁조임	-10.0505
▁안된다	-10.0506
▁구체적	-10.0508
▁넣어	-10.0512
전도	-10.0513
▁전일	-10.0515
기사가	-10.0518
뒤	-10.0528
▁있어서	-10.0528
(10	-10.0535
▁손상이	-10.0545
▁슈트	-10.0547
▁난간대에	-10.0549
소재	-10.0553
▁확보하고	-10.0559
▁고소작업차	-10.0561
으	-10.0568
▁기초철근	-10.0572
▁지층	-10.0582
▁고정되지	-10.0586
▁옥상층	-10.0594
▁견출	-10.0616
▁물이	-10.0617
▁토	-10.0618
▁후미	-10.0628
▁속	-10.0632
인대	-10.0637
기가	-10.0639
▁입니다	-10.0639
일까지	-10.0659
▁올라가다	-10.0676
▁미숙으로	-10.0683
▁55	-10.0684
▁맞는	-10.0686
▁올려놓	-10.0691
▁시트	-10.0696
▁골반	-10.0708
▁가량	-10.0708
▁해체시	-10.0708
▁구역	-10.0719
▁동료와	-10.0719
▁올라가는	-10.0728
▁종	-10.0729
팔	-10.073
▁다쳤다고	-10.0733
▁박리제	-10.0733
▁우레탄폼	-10.0734
▁악천후	-10.0735
▁주출입구	-10.0735
▁소방배관	-10.0736
▁지하수위	-10.0736
▁자격	-10.0737
▁근로자들	-10.074
▁계산	-10.0741
▁고무	-10.0744
▁일원	-10.0744
▁접질	-10.0749
▁하여금	-10.075
방식	-10.0751
▁발판과	-10.0752
▁노면	-10.0754
le	-10.0758
둔	-10.0758
출입	-10.0762
쳐	-10.0764
▁덮개가	-10.0765
▁트렌치	-10.0767
▁스트러트	-10.0772
휀스	-10.0775
콘	-10.0778
▁잡으려다	-10.0779
▁재해예방	-10.0788
건물	-10.0791
▁재질	-10.0792
뼈가	-10.0797
▁대비	-10.0806
▁풀	-10.0811
▁잡는	-10.0832
스트	-10.0841
▁고정상태	-10.0843
▁창	-10.0844
▁골	-10.085
▁쇠	-10.0862
▁작업통로	-10.0863
▁부재에	-10.0876
▁경우에	-10.089
▁동료근로자	-10.0891
▁고정하고	-10.0903
▁식재	-10.091
▁가동	-10.0918
대책	-10.0927
도장	-10.0929
▁도구	-10.0932
▁사용한	-10.0939
▁철근과	-10.0948
▁믹서	-10.0954
육	-10.0955
준	-10.0956
았	-10.0958
▁충격에	-10.0959
숙	-10.0959
K	-10.0962
▁침	-10.0977
▁배출	-10.098
칭	-10.098
f	-10.0981
▁우레탄	-10.0983
▁왼팔	-10.0983
탑재형	-10.0983
▁견디	-10.0984
▁잔디	-10.0984
▁보험가입자	-10.0985
ton	-10.0985
▁기울어져	-10.0986
▁마모	-10.0986
▁식별	-10.0986
▁세워져	-10.0988
▁금지시켜야	-10.099
▁과다	-10.0991
▁점화	-10.0991
▁없으며	-10.0991
▁백호우	-10.0992
▁지질	-10.0992
▁추후	-10.0998
▁온도	-10.0999
▁전날	-10.1001
운전	-10.1002
▁풀고	-10.1002
보조	-10.1004
▁지형	-10.1006
▁알루미늄	-10.1007
▁전용	-10.101
물이	-10.1015
호선	-10.1017
▁경고	-10.1018
갈	-10.1028
턱	-10.103
▁제거하던	-10.1031
x	-10.1031
k	-10.1032
▁추락하였음	-10.1033
청소	-10.1038
▁출근하여	-10.1039
각재	-10.1054
측정	-10.1055
작업발판	-10.1063
▁3.5	-10.1074
▁플	-10.1075
창고	-10.1094
▁잠수	-10.1094
함에	-10.1101
▁구동	-10.1101
▁밟으면	-10.1103
▁없다	-10.1103
▁ᄋᄋᄋ	-10.1111
가해져	-10.1122
▁넣	-10.1125
▁연락을	-10.1129
▁설계서	-10.113
▁연결하는	-10.1139
▁팔이	-10.1145
▁용	-10.1149
▁확인할	-10.1153
▁점검하여	-10.1163
▁빠루	-10.1168
▁목재가	-10.1171
▁가로	-10.119
▁막장	-10.1191
검	-10.1203
▁전도사고	-10.1208
이다	-10.1212
존	-10.1214
▁지정병원	-10.1227
너	-10.1232
록	-10.1233
응	-10.1234
▁회전근개	-10.1235
척	-10.1237
▁핸드카	-10.1239
▁TBM	-10.124
▁브레이커	-10.124
▁슬립폼	-10.124
랑	-10.124
이므로	-10.124
▁네번째	-10.124
▁흉부	-10.124
▁봉합	-10.124
▁발뒤꿈치	-10.124
▁시트파일	-10.1241
▁운영	-10.1241
▁자택	-10.1241
▁하도급사	-10.1243
▁방지조치	-10.1244
▁앵커볼트	-10.1244
▁전주	-10.1245
▁지브	-10.1245
▁있다가	-10.1246
▁치아	-10.1246
▁우측발목	-10.1246
▁튕겨져	-10.1247
▁토공	-10.1247
▁생기	-10.1248
▁15:30	-10.1249
▁칼날	-10.1251
▁베인	-10.1254
▁가능	-10.1255
▁신호방법	-10.1255
▁회전체	-10.1256
▁퇴행성	-10.1259
▁연속	-10.1265
▁장선	-10.1267
▁준수하여	-10.127
▁정착	-10.1272
▁대형	-10.1277
▁깔려	-10.1278
▁업체	-10.1281
▁보거푸집	-10.1281
▁풀어	-10.1283
▁2>	-10.1293
맨홀	-10.1298
트러스	-10.1299
▁저항	-10.1301
▁패드	-10.1309
현재	-10.1309
현상	-10.1312
▁주위에	-10.1314
▁수직철근	-10.1315
▁주장하는	-10.1315
▁묶음	-10.1317
▁BT	-10.1321
▁작업발판에	-10.1324
▁너트	-10.1324
▁성토	-10.1328
하러	-10.133
▁내려놓는	-10.1333
▁없고	-10.1338
▁돌출부	-10.134
▁패널	-10.1342
▁나무가	-10.1353
▁완료하고	-10.1357
▁틀	-10.1365
▁과정중	-10.1371
회전	-10.1388
준비	-10.1393
▁110	-10.1394
▁복	-10.14
▁인원	-10.1401
▁증	-10.1405
▁카	-10.1405
▁되었습니다	-10.1413
▁버팀	-10.1438
▁준	-10.144
▁번째	-10.1452
▁묶어	-10.1466
▁당기는	-10.1469
▁강관파이프를	-10.1472
움	-10.1473
▁비상시	-10.1473
▁작성하여	-10.1481
통증	-10.1483
가량	-10.1494
범위	-10.1497
색	-10.1502
▁아스콘	-10.1503
▁닿아	-10.1503
▁맨홀뚜껑	-10.1503
밍	-10.1503
▁동절기	-10.1503
▁충전전로	-10.1503
▁살짝	-10.1503
▁절삭	-10.1503
▁하수관로	-10.1504
▁편심	-10.1504
▁부담	-10.1505
▁2019.	-10.1506
▁짚음	-10.1508
▁철근다발	-10.151
진행	-10.1511
되기	-10.1511
▁횡	-10.1516
▁묻은	-10.1517
▁저하	-10.1519
▁건설용	-10.1524
▁승강용	-10.1528
▁그러	-10.1534
▁스크류	-10.1539
▁에어	-10.154
함마	-10.1542
▁토목	-10.1542
▁머리에	-10.1545
▁바지	-10.1551
▁길	-10.1553
담	-10.1554
▁먹	-10.1554
덮개	-10.1554
▁탈락으로	-10.1557
▁들어올리는	-10.1557
▁이동할	-10.1563
▁식당	-10.1564
▁방호조치	-10.1565
정형외과	-10.1567
▁로프에	-10.1569
건축	-10.157
운전원	-10.1571
▁중단	-10.1571
▁연골	-10.1575
▁근거	-10.1576
(20	-10.1584
▁조립도	-10.1585
▁작업대에서	-10.1602
▁체결상태	-10.1602
▁전화	-10.1606
스위치	-10.1608
▁접합부	-10.1611
했다고	-10.1618
▁뼈에	-10.1632
▁능력	-10.1634
▁도면	-10.1642
▁천	-10.1643
▁했으나	-10.1647
▁리어카	-10.1649
대차	-10.1654
시키는	-10.1659
▁합	-10.1677
▁감전재해	-10.1688
▁하였습니다	-10.1689
▁판	-10.1695
▁역	-10.1715
부가	-10.1717
▁향	-10.1726
▁용이	-10.1729
▁인근에	-10.1729
받	-10.1734
▁무너지	-10.1735
▁현관	-10.1736
▁자가	-10.1739
▁전기실	-10.1739
▁한국	-10.1744
▁뒷	-10.1745
▁목격	-10.1752
▁작업위치	-10.1755
▁충전	-10.1755
▁사용을	-10.177
▁가운데	-10.1773
▁규칙	-10.1773
▁깨끗	-10.1773
▁부딛혀	-10.1773
▁움직여	-10.1773
▁추락방호망	-10.1773
셔	-10.1773
형측구	-10.1773
▁스스로	-10.1773
▁잭서포트	-10.1774
▁연약지반	-10.1774
▁승하강	-10.1774
▁휴업	-10.1774
▁인대파열	-10.1775
▁단관파이프	-10.1776
▁급격	-10.1777
▁방호장치	-10.1778
▁안전점검	-10.1785
▁전도되며	-10.1785
▁공사용	-10.1786
31	-10.1787
▁배관공	-10.179
▁2~3	-10.179
▁왼쪽다리	-10.1794
▁골조공사	-10.1795
지만	-10.1797
▁국	-10.1801
▁조인트	-10.1816
▁운반시	-10.1818
▁상태임	-10.1821
▁있다고	-10.1829
▁피복	-10.1834
폐	-10.1839
지점에서	-10.1841
바퀴	-10.1843
요청	-10.1845
KOSHA	-10.1846
오른쪽	-10.1847
데크	-10.1848
▁앞쪽	-10.185
▁빔을	-10.1851
▁연결부위	-10.1852
하강	-10.1854
되거나	-10.1856
▁방화문	-10.1874
▁사용하	-10.1882
▁좌측발	-10.1885
었으나	-10.1888
▁대전	-10.1888
▁올라가서	-10.189
▁가해지	-10.1911
가스	-10.1925
▁수량	-10.1937
▁운전원과	-10.194
▁위쪽	-10.1941
▁발판으로	-10.1945
▁시공자	-10.1949
▁작업구역	-10.1951
(7	-10.1967
▁정하여	-10.1971
▁용접공	-10.1977
타일	-10.1986
▁112	-10.1995
▁계획서	-10.1996
▁*	-10.2003
▁이동하면서	-10.2012
▁창고	-10.2018
▁근처에	-10.2025
▁수평재에	-10.2027
예방	-10.2034
▁시점부	-10.2047
핑	-10.205
▁우물통	-10.205
▁비계해체	-10.2051
▁날카로운	-10.2051
▁낮은	-10.2051
▁움직임	-10.2051
▁인테리어	-10.2051
▁눌러	-10.2051
▁매뉴얼	-10.2051
▁복귀	-10.2051
▁기술지침	-10.2051
▁최하단	-10.2051
▁불필요	-10.2052
▁부딪치면	-10.2053
▁철제	-10.2057
.2.	-10.2059
▁삐끗함	-10.2062
▁기울	-10.2064
▁강우	-10.2064
▁소정	-10.2065
▁왼쪽발목	-10.2065
▁승	-10.2067
▁구조체	-10.2069
▁입게	-10.207
▁10:30	-10.2074
▁이행	-10.2075
▁인력운반	-10.2075
▁때까지	-10.2079
re	-10.2083
▁교	-10.2084
▁받지	-10.2087
▁모르타르	-10.209
▁쇄골	-10.209
▁재설치	-10.2093
허	-10.2094
톱	-10.2099
▁구간에	-10.21
어디서	-10.2104
▁현장정리	-10.2107
▁소홀	-10.2117
▁조립식	-10.2124
엄지	-10.2126
시스템	-10.2127
▁c	-10.2128
마감	-10.2129
빠루	-10.213
클	-10.213
하역	-10.2131
▁절단하는	-10.2131
▁작업내용	-10.2132
▁굴삭기로	-10.2133
▁서측	-10.2138
깊이	-10.2139
검지	-10.2142
예정	-10.2142
▁경사지	-10.2146
▁고려하여야	-10.2147
▁조도	-10.2147
▁지반이	-10.2151
▁밑에	-10.2158
▁팀장	-10.2162
▁운반하기	-10.2169
▁수술을	-10.2171
미장	-10.2173
낙하	-10.2174
35	-10.2175
▁조경	-10.2178
도구	-10.2179
▁새	-10.2179
방지용	-10.2186
▁경계	-10.2202
▁플랜트	-10.2203
어서	-10.2209
가설	-10.221
▁양수작업	-10.2212
밑으로	-10.2221
▁기준으로	-10.2224
▁신청인	-10.2227
▁진입로	-10.2244
▁연결작업	-10.2256
▁작업발판으로	-10.2266
▁나가	-10.2266
▁나와	-10.2266
▁추락재해	-10.2285
입구	-10.2293
와서	-10.2298
투	-10.2307
▁변	-10.2313
▁해체하기	-10.2316
하려는	-10.2318
▁종아리에	-10.2325
▁기대	-10.2332
깔	-10.2333
▁고체연료	-10.2334
▁해체후	-10.2334
▁찧음	-10.2337
▁주철관	-10.2337
▁깔린	-10.2337
▁산업안전보건법	-10.2337
▁흙막이가시설	-10.2337
▁통원치료	-10.2337
▁줄파기	-10.2337
▁엄지말뚝	-10.2338
▁추돌	-10.2338
▁구명줄	-10.2338
▁공도구	-10.2338
▁미끄러워	-10.2338
초등학교	-10.2339
▁화재예방	-10.2339
▁굴착사면	-10.234
▁발이걸려	-10.234
▁공동구	-10.2341
▁실려	-10.2342
▁지병	-10.2342
▁기울어지면서	-10.2344
▁분배기	-10.2348
▁화재발생	-10.2349
▁교사동	-10.235
▁설비배관	-10.2351
사고발생	-10.2351
▁왼쪽팔	-10.2353
-8	-10.2354
자재가	-10.2364
▁작업간	-10.2371
▁운반기계	-10.2372
▁일정한	-10.2372
▁올라가던중	-10.2374
수로	-10.2377
▁내리던중	-10.2383
▁돌풍으로	-10.2383
▁커팅	-10.2383
▁잡지	-10.2386
g	-10.2387
▁빼는	-10.2388
▁탑승하여	-10.2393
▁가던	-10.2398
▁표준	-10.2399
▁건설현장에서	-10.2403
▁신호수가	-10.2411
타워	-10.2425
파열	-10.2432
공종	-10.2444
000	-10.2444
빔이	-10.2444
▁제어	-10.2445
교체	-10.245
▁하중에	-10.2453
▁용접작업을	-10.2454
▁세대내	-10.2459
▁받는	-10.2461
▁제거한	-10.2464
▁체결하고	-10.2468
▁중지하고	-10.2468
▁볼	-10.2471
방수	-10.2493
▁작동하여	-10.2501
▁양중기	-10.2501
유도	-10.252
동에서	-10.2523
▁고리에	-10.2527
▁중심이	-10.2539
형사다리	-10.2546
신호수	-10.2553
▁전단	-10.2574
▁방화	-10.2574
대가	-10.2587
▁속도	-10.2588
▁신축현장	-10.2598
▁돌에	-10.2601
장이	-10.2602
▁풀리	-10.261
택	-10.2612
찰	-10.262
▁슬링	-10.2626
▁표	-10.2627
▁부착하여야	-10.263
∼	-10.2631
▁가설벤트	-10.2631
▁아스팔트	-10.2631
▁엑스레이	-10.2631
▁테두리	-10.2631
▁헛딛여	-10.2631
▁헬기	-10.2631
▁도급인	-10.2631
▁눌려	-10.2631
▁함마드릴	-10.2631
▁톤마대	-10.2631
▁명확	-10.2631
▁벽이음	-10.2631
▁맞추기	-10.2631
▁맞추어	-10.2631
▁활용	-10.2631
▁오른팔	-10.2631
▁줄눈	-10.2632
▁회수	-10.2632
▁끼워	-10.2632
▁의거	-10.2633
▁풀림	-10.2633
▁놓침	-10.2634
▁있으나	-10.2635
▁적당	-10.2636
▁들다가	-10.2636
▁쓰러지면서	-10.2641
▁고압선	-10.2641
▁권상	-10.2642
당일	-10.2642
▁조금	-10.2644
▁파손되면서	-10.2648
▁넣고	-10.2653
▁공사장	-10.2663
▁초과하는	-10.2664
▁삽	-10.2664
▁신축	-10.2667
▁유선	-10.2668
▁휴대용	-10.2669
▁신경	-10.267
용으로	-10.2676
▁절단작업을	-10.2677
▁자체	-10.268
▁순	-10.2691
▁?	-10.2693
▁의심	-10.27
▁실금이	-10.2702
▁보행중	-10.2703
황	-10.2712
견	-10.2715
▁리	-10.2717
Y	-10.2722
U	-10.2728
화장실	-10.273
▁톱날이	-10.2731
기기	-10.2733
비래	-10.2733
▁운반하던중	-10.2734
▁타설공	-10.2735
▁놓는	-10.274
▁사고당일	-10.274
치는	-10.2742
망치	-10.2745
▁바닥판	-10.2748
▁작업원	-10.2749
▁목적	-10.2761
▁비계설치	-10.2764
▁p	-10.2768
▁조립하여야	-10.2775
▁b	-10.2786
▁응력	-10.2804
▁전도방지	-10.2808
약지	-10.2816
▁예상되	-10.2827
▁아래에	-10.2833
▁재해자에게	-10.2847
▁당기	-10.2865
목재	-10.2874
▁콘	-10.2878
공인	-10.2893
▁방식	-10.2894
▁긴	-10.2922
▁호흡	-10.2922
▁당기던	-10.2923
일간	-10.2925
▁귀	-10.2931
켓	-10.2932
었습니다	-10.2933
으므로	-10.2933
▁피해자가	-10.2933
솔	-10.2934
▁곤돌라	-10.2934
▁로우프	-10.2934
▁많이	-10.2934
▁슬러지	-10.2934
▁인코너	-10.2934
▁수평연결재	-10.2934
▁항발기	-10.2934
▁벤트	-10.2934
▁잠금장치	-10.2934
이동중	-10.2935
▁받쳐	-10.2935
▁탈골	-10.2935
▁예인선	-10.2937
▁떨어져서	-10.294
▁집게	-10.294
▁받치고	-10.294
▁미인지	-10.294
파이프를	-10.2941
▁안전표지판	-10.2941
▁제작장	-10.2942
▁시도	-10.2943
▁16:00	-10.2943
▁철골부재	-10.2945
▁피하려다	-10.2949
▁상황임	-10.2951
지고	-10.2951
▁파열됨	-10.2951
▁이완	-10.2954
▁자재인양	-10.2957
▁횡단	-10.2959
▁외국인	-10.2963
▁측면에	-10.2964
▁내리기	-10.2967
▁제반	-10.2967
▁착용하	-10.2975
▁옮기던중	-10.2975
▁옥	-10.2977
▁작업환경	-10.2981
▁찬넬	-10.2982
▁미세	-10.2985
판을	-10.2992
▁공장동	-10.2998
▁휴식중	-10.3003
▁작업도구	-10.3009
▁지반에	-10.3013
▁지붕층	-10.3017
릴	-10.3018
눈	-10.3026
▁보온	-10.3033
▁협착되는	-10.3037
칼	-10.3039
되었습니다	-10.3041
바닥에	-10.3041
▁감리자	-10.3042
요양	-10.3045
와이어	-10.3046
관절	-10.3049
1.5	-10.305
▁없는지	-10.3051
다른	-10.3053
▁파열된	-10.3055
수술	-10.3059
▁신고하여	-10.3065
▁오수	-10.3067
방호	-10.3069
으로서	-10.3075
되었고	-10.3078
▁언	-10.3082
▁]	-10.3089
▁109	-10.3097
렸	-10.31
사고임	-10.3106
▁지역	-10.3118
적재	-10.3131
▁간섭되	-10.3132
▁코너	-10.3148
▁동시작업	-10.3155
시키	-10.3156
▁작업자들	-10.3189
▁외부에서	-10.319
▁식	-10.3194
▁장비에	-10.3203
▁구조로	-10.3204
천정	-10.3206
좌	-10.3208
례	-10.3212
▁골절을	-10.3216
▁설치위치	-10.3216
▁박는	-10.3232
▁톱날	-10.3234
왔	-10.3243
롤	-10.3244
블	-10.3246
▁안전인증	-10.3246
▁PHC	-10.3246
▁부딛힘	-10.3246
▁비탈면	-10.3246
▁젖은	-10.3246
▁좁은	-10.3246
광역시	-10.3246
되었는지	-10.3247
▁있었고	-10.3247
▁떨어뜨려	-10.3247
▁지나가던	-10.3248
▁튀어올라	-10.3248
▁수로관	-10.3248
되었다고	-10.3248
▁유의사항	-10.3249
▁깔리	-10.3249
▁물청소	-10.3249
▁미끄러저	-10.325
it	-10.3251
▁가설휀스	-10.3251
▁넘어지	-10.3251
▁가새	-10.3251
▁미쳐	-10.3252
▁접히	-10.3256
▁허용	-10.3256
▁철골기둥	-10.3256
▁폐기	-10.3262
▁가스관	-10.3263
▁불어	-10.3267
▁움직이지	-10.3271
▁사고경위	-10.3271
▁비계기둥	-10.3274
▁설치시	-10.3275
▁설계자	-10.3281
▁안전망	-10.3283
▁노출된	-10.3286
▁차수	-10.3288
▁지반상태	-10.3288
▁강성	-10.3301
조각이	-10.3304
▁작업계획서에	-10.3306
▁크레인이	-10.3306
▁잔	-10.3322
▁전문	-10.3325
▁아시바	-10.333
▁아래쪽	-10.3336
▁건조	-10.334
▁경위	-10.3342
슬	-10.3349
▁오르던	-10.3351
회전하는	-10.3354
▁불이	-10.3356
구멍	-10.3362
위험요인	-10.3363
삼	-10.3363
그라인더	-10.3363
밸브	-10.3364
아파트	-10.3364
왼쪽	-10.3364
보건	-10.3366
관련	-10.3367
지붕	-10.3367
백호	-10.337
#2	-10.3371
▁소단	-10.3371
▁1.7	-10.3376
▁옮기다	-10.3377
부족	-10.3377
보양	-10.3386
수급	-10.3387
▁가설재	-10.3387
▁낙하물에	-10.3398
착용	-10.3401
▁확인하기	-10.3404
or	-10.3406
▁석	-10.3409
작업으로	-10.3418
▁근	-10.3427
▁까지	-10.3437
순간	-10.3452
▁가능하	-10.3461
▁접질리	-10.3485
부근	-10.3485
누가	-10.35
▁록	-10.35
oo	-10.3501
▁후진하던	-10.351
도가	-10.3511
불량으로	-10.3514
▁끝단부	-10.3515
▁작업하중	-10.3517
▁가시설공	-10.3537
▁닿지	-10.3538
자의	-10.354
▁이동간	-10.3543
키	-10.3544
차선	-10.3549
▁디딤	-10.356
율	-10.356
테	-10.3563
딩	-10.3569
떨	-10.3569
～	-10.3569
▁가설방음벽	-10.3569
▁덮어	-10.3569
▁미끌려	-10.3569
▁쉬트파일	-10.3569
▁안전밸트	-10.3569
▁천천히	-10.3569
▁페이로더	-10.3569
란	-10.3569
▁가급적	-10.3569
▁현수교	-10.3569
▁꺽임	-10.3569
▁정화조	-10.3569
▁호스가	-10.3569
구급대	-10.3569
▁구획	-10.3569
▁질식	-10.3569
▁태풍	-10.357
▁세워둔	-10.357
▁클립	-10.357
▁안전의식	-10.357
▁무너져	-10.357
▁이격거리	-10.357
▁없었으며	-10.3571
▁출력	-10.3571
▁꺽이	-10.3572
kgf	-10.3572
▁제거하여야	-10.3572
▁감겨	-10.3572
▁개거	-10.3573
▁묻어	-10.3575
▁발전기	-10.3576
▁설계도면	-10.3576
▁강봉	-10.3576
▁몸체	-10.3576
▁부품	-10.3578
▁날아	-10.358
물질	-10.3582
▁재해사실	-10.3583
▁진단결과	-10.3588
▁N	-10.359
▁안전거리	-10.3591
성이	-10.3592
▁재해입니다	-10.3593
▁실리콘	-10.3593
▁선형	-10.3595
▁횡방향	-10.3598
ri	-10.3603
▁보행자	-10.3603
▁보강작업	-10.3607
▁난	-10.3609
▁들어가면서	-10.361
▁운반도중	-10.3611
▁CIP	-10.3614
▁열고	-10.3619
내에서	-10.362
▁디	-10.3621
▁경찰	-10.3622
▁낙하하며	-10.3623
▁수직사다리	-10.3626
발을	-10.3639
▁금지하고	-10.3645
▁접속	-10.3656
정지	-10.3661
동바리	-10.3663
▁빼	-10.3673
받침	-10.3676
취	-10.3679
▁가함	-10.3688
▁청소작업	-10.3692
방호벽	-10.3694
레벨	-10.3696
늑골	-10.3697
불승인	-10.3697
장을	-10.3698
연락	-10.3699
장갑	-10.37
유무	-10.3701
▁운전기사	-10.3704
세대	-10.3712
▁약간의	-10.3713
▁레버	-10.3717
▁발판의	-10.372
▁올리던	-10.3725
▁배관에	-10.3727
통보	-10.3733
▁추락하면서	-10.3733
어져	-10.3756
씩	-10.3758
지지용	-10.3767
▁보수작업	-10.3774
▁통행로	-10.3784
라는	-10.3789
어진	-10.379
▁공간에서	-10.3809
150	-10.3818
▁밖에	-10.3821
▁컷팅기	-10.3834
▁오작동	-10.3847
▁떨어지	-10.3859
▁빔이	-10.3865
▁작업차량	-10.3865
▁W	-10.3867
▁해체공	-10.3868
잡	-10.3875
▁일시	-10.3877
대교	-10.388
on	-10.3882
▁작업발판과	-10.389
▁잔재	-10.3899
▁통증으로	-10.3902
빌	-10.3902
죽	-10.3902
▁권과방지장치	-10.3902
▁뛰어내림	-10.3902
▁말아야	-10.3902
▁매듭	-10.3902
▁잃음	-10.3902
▁훼손	-10.3902
댐	-10.3902
▁무거운	-10.3902
곽	-10.3902
▁육안	-10.3902
사고자	-10.3903
▁이야기	-10.3903
▁볼팅	-10.3903
▁받침철물	-10.3904
▁입었음	-10.3904
▁돌풍에	-10.3905
▁스침	-10.3905
▁요철	-10.3906
▁건강상태	-10.3906
▁설치후	-10.3906
▁분석	-10.3907
▁사각파이프	-10.3909
▁부합	-10.3909
▁판개	-10.3911
▁산정	-10.3911
▁양호한	-10.3915
▁누적	-10.3924
▁천공장비	-10.3924
▁11:00	-10.3925
▁농도	-10.3926
▁본관동	-10.3933
▁복숭아뼈	-10.3936
▁비산방지	-10.3938
9.	-10.3945
▁스치	-10.3946
▁턱에	-10.3949
▁짐	-10.3952
▁들어감	-10.3958
분에	-10.3979
▁복구	-10.3985
타이	-10.3986
▁슬링벨트가	-10.3987
▁철근공이	-10.3988
65	-10.399
▁이유	-10.3992
▁행위	-10.3994
▁허	-10.3999
**(**	-10.4
▁중지손가락	-10.4001
▁작업장소로	-10.4016
▁밀착	-10.4017
날에	-10.4021
발판에서	-10.4031
미흡	-10.4032
최	-10.4035
▁강풍에	-10.4035
되므로	-10.4038
램프	-10.4041
권	-10.4041
형틀목공	-10.4042
요추	-10.4043
협착	-10.4043
반출	-10.4044
▁캡	-10.4057
부에서	-10.4058
▁반장이	-10.4065
▁지휘	-10.4068
(1.2	-10.4074
▁강관파이프가	-10.4076
▁유지하여	-10.4081
▁동바리에	-10.4081
지상	-10.4086
▁켜	-10.4088
▁내장	-10.4114
▁키	-10.4118
▁슬	-10.4121
▁책임자	-10.4126
▁유동	-10.4132
어짐	-10.4148
받아	-10.4148
주의	-10.4148
el	-10.4155
▁용접부	-10.4155
▁냉	-10.4163
▁승강로	-10.4177
▁쓰러지	-10.4177
용단	-10.4182
▁쌓여	-10.4185
▁측정하여	-10.4198
▁신설	-10.42
었으며	-10.4205
▁매달	-10.4212
▁연결하여	-10.4216
강관	-10.423
▁시공하는	-10.4233
암거	-10.4236
케	-10.4245
믹	-10.4247
▁본관	-10.4247
▁아파	-10.4247
션	-10.4247
▁뇌출혈	-10.4247
▁몰딩	-10.4247
▁지식산업센터	-10.4247
▁카운터	-10.4247
▁안전방망	-10.4247
▁열풍기	-10.4247
▁원인미상	-10.4247
▁의정부	-10.4247
▁방진마스크	-10.4247
의료원	-10.4247
▁웨지핀	-10.4247
▁버력	-10.4247
▁핸드레일	-10.4248
▁기울어	-10.4248
▁당겨	-10.4248
▁부러짐	-10.4248
▁습기	-10.4248
▁마찰	-10.4249
▁형틀목수	-10.4249
▁측벽	-10.425
▁뒤편	-10.425
▁연료	-10.425
▁접지르	-10.4251
▁신규	-10.4251
▁지난	-10.4252
▁가설전기	-10.4253
▁V	-10.4256
▁교반기	-10.4256
▁좋	-10.4259
▁동력	-10.4261
▁선임	-10.4263
▁관통	-10.4264
▁떨어지지	-10.4266
▁사업장	-10.4266
▁맞게	-10.4273
▁혹	-10.4273
▁담당	-10.4274
▁전복	-10.4276
▁거푸집동바리	-10.4276
▁인양하중	-10.428
▁호소함	-10.4281
▁담장	-10.4281
▁손상됨	-10.4289
▁수직구	-10.4299
더미	-10.4302
▁야적장	-10.4303
▁인양하던	-10.4303
▁화물차에	-10.4304
▁오작동으로	-10.4307
▁빈	-10.431
▁견인	-10.4312
▁사고보고	-10.4314
▁수압	-10.4316
▁박던	-10.4316
▁약지손가락	-10.4318
▁토목공사	-10.4319
이기	-10.4319
▁벌목작업	-10.4321
▁단단	-10.4329
▁작업공구	-10.4329
상단에서	-10.433
양중	-10.434
공정	-10.4343
▁세대내부	-10.4347
▁저장	-10.4353
▁적재함을	-10.4353
▁통신	-10.4357
400	-10.4362
▁사고당시	-10.4366
▁복도에서	-10.4375
▁발견하여	-10.4377
휴	-10.4379
▁구조물과	-10.4386
▁정하고	-10.4386
농	-10.4394
계단을	-10.4394
드럼	-10.4398
응력	-10.44
충격	-10.4401
,000	-10.4409
회사	-10.4422
대상	-10.4424
포장	-10.443
▁쳐	-10.4442
▁인지하여	-10.4446
119	-10.445
▁기준에	-10.4465
▁사람이	-10.4467
▁실시한	-10.4468
▁드럼	-10.4469
하나	-10.447
▁벽면에	-10.4486
시키기	-10.4493
절단기	-10.4496
▁현상	-10.4515
▁둔	-10.4518
▁정리하는	-10.453
▁마감작업	-10.4534
받은	-10.4537
(8	-10.4541
▁돌풍	-10.4547
하려던	-10.4548
(25	-10.4549
▁작업장으로	-10.4551
인원	-10.4555
▁비가	-10.4558
▁#1	-10.4567
▁뒤에	-10.4568
▁난간에	-10.4576
▁조적공	-10.4578
▁제공	-10.4588
혈	-10.4597
센	-10.4602
악	-10.4602
답	-10.4603
▁라이닝	-10.4603
뜨	-10.4604
페	-10.4604
▁딛는	-10.4604
▁미끌어져	-10.4604
▁부적합	-10.4604
▁윗부분	-10.4604
▁규모	-10.4604
▁안전보건관리책임자	-10.4604
▁커플러	-10.4604
앤	-10.4605
▁들어올려	-10.4605
▁사춤	-10.4605
▁타이핀	-10.4606
▁소나무	-10.4607
▁입술	-10.4607
바늘	-10.4608
▁분류	-10.4609
했습니다	-10.4609
▁참조	-10.4609
▁모르고	-10.4609
▁추진코	-10.461
▁인정	-10.461
▁자재야적장	-10.4611
▁선박	-10.4611
▁판명	-10.4612
▁방호시설	-10.4612
▁안전조치사항	-10.4612
▁정보	-10.4613
▁끼우	-10.4613
▁16:30	-10.4613
▁여유	-10.4613
▁스치면서	-10.4617
▁참고	-10.462
러운	-10.4621
▁기초콘크리트	-10.4623
▁가설비계	-10.4623
▁발포	-10.4626
년간	-10.4634
90	-10.4634
▁우수관로	-10.4636
▁신발	-10.4639
▁없다고	-10.4639
해체작업	-10.464
사고가	-10.4646
▁인양로프	-10.4646
▁알고	-10.4647
▁메인	-10.4647
▁파편	-10.4649
▁견출작업	-10.465
▁타설용	-10.4653
▁~	-10.4657
▁주의하여	-10.4657
중임	-10.4673
손목	-10.4675
▁종료후	-10.4679
▁세우	-10.4686
전선	-10.4693
사이로	-10.4696
▁충돌함	-10.4697
▁옥탑층	-10.4699
등이	-10.4703
▁양손으로	-10.4707
▁단차부	-10.4714
▁가진	-10.4717
▁관리자에게	-10.4732
하지않고	-10.4733
▁준수하고	-10.4734
사다리를	-10.4737
지침	-10.4739
▁취부	-10.474
(1.5	-10.4744
▁고속	-10.4746
▁건너	-10.4752
끼임	-10.4762
▁잡기	-10.4764
결속	-10.477
▁사용하기	-10.477
규격	-10.4771
질병	-10.4773
수직	-10.4773
▁운반하다	-10.4776
▁이동용	-10.4778
▁내려오	-10.478
▁칠	-10.4781
거치	-10.4785
▁토사에	-10.4793
▁이동하지	-10.4794
▁밟으	-10.4797
기술	-10.4798
-7	-10.48
1.1	-10.48
▁반복적	-10.4802
▁적재물	-10.4806
▁결속된	-10.4807
▁견출작업을	-10.4807
▁넘어졌	-10.4818
▁높이에	-10.4829
▁칼	-10.4831
▁야간	-10.4832
▁이해	-10.4833
조정	-10.4837
▁물기가	-10.4846
▁체결한	-10.4859
▁가까	-10.4873
지않고	-10.4878
▁복부	-10.489
▁거푸집설치	-10.4895
**,	-10.4896
인근	-10.4896
▁용이하	-10.4906
▁밟는	-10.4909
▁소리	-10.4914
▁설치하지	-10.4914
교량	-10.4915
▁약간	-10.4926
마을	-10.4928
었던	-10.4929
▁튀	-10.4938
천공	-10.4942
▁후진하는	-10.4944
▁6.	-10.4951
▁사용하던	-10.4957
~5	-10.4959
)-	-10.496
▁헛디디	-10.4963
▁철근가공장	-10.4966
▁긴결	-10.4967
▁건강	-10.4968
▁울	-10.4972
헤	-10.4972
륜	-10.4973
랜	-10.4975
▁뿜칠	-10.4975
▁않자	-10.4975
▁잃으면서	-10.4975
▁휴게실	-10.4975
▁존재	-10.4975
▁부딪친	-10.4975
▁우수맨홀	-10.4976
▁바탕	-10.4976
-10	-10.4976
▁팔뚝	-10.4976
▁살점	-10.4976
▁가해짐	-10.4976
▁출발	-10.4977
▁잔류	-10.4977
▁관찰	-10.4977
▁파이프서포트	-10.4977
자료	-10.4977
▁벗어나	-10.4977
▁이동경로	-10.4977
▁안전보호구	-10.498
혈관	-10.4981
▁환기설비	-10.4981
▁말한다	-10.4986
▁08:00	-10.4986
▁안착	-10.4987
▁주의사항	-10.4988
▁감소	-10.4988
▁가설도로	-10.4992
▁닫히	-10.4992
▁게시	-10.4993
▁이송하였으나	-10.4993
▁사용하여서	-10.4995
▁외부벽체	-10.4995
켜	-10.4996
▁찢어지는	-10.4998
▁현장대리인	-10.5003
▁경량	-10.5003
▁비교	-10.5003
▁유실	-10.5005
▁오류	-10.5012
▁부상발생	-10.5017
▁3>	-10.5018
▁플라스틱	-10.5019
▁사고사실	-10.5026
▁플랜지	-10.5026
▁현장조건	-10.5029
▁아니라	-10.5031
▁지켜보	-10.5033
▁양수	-10.5041
▁기간	-10.5048
▁커	-10.5048
창호	-10.5051
▁작업인부	-10.5051
-9	-10.5053
▁인양장비	-10.506
▁운반용	-10.5061
▁입어	-10.5064
▁하도급	-10.5066
보드	-10.5074
▁검토하고	-10.5078
▁3,4	-10.5078
▁앞서	-10.509
▁보건	-10.5097
▁땅에	-10.5102
으로써	-10.5103
#1	-10.5105
교회	-10.5109
▁가장	-10.5118
무릎	-10.5119
압력	-10.5124
▁배수관	-10.5138
주차장	-10.5141
▁지붕에서	-10.5144
밑	-10.5147
필	-10.5148
▁남은	-10.5149
▁동측	-10.5151
플랜트	-10.5152
쇠	-10.5152
조작	-10.5153
게이트	-10.5153
했으나	-10.5154
클램프	-10.5154
타박상	-10.5155
소견	-10.5156
파손	-10.5158
덕트	-10.5161
변경	-10.5164
▁램프구간	-10.5168
▁종합	-10.5168
et	-10.518
통제	-10.5182
무게	-10.5185
▁일어서	-10.5187
▁회사	-10.5196
▁미장공	-10.52
▁끼임사고	-10.5225
작동	-10.5228
▁왼손이	-10.5239
지사	-10.5241
▁부착하여	-10.5253
▁조사중	-10.5254
중량	-10.5257
▁출	-10.5261
공원	-10.5263
▁가압	-10.5271
재해가	-10.5279
상단	-10.528
었음	-10.5286
▁실족으로	-10.5287
쪽에서	-10.5294
▁개폐	-10.5304
대병원	-10.5306
▁헤드	-10.531
▁충격하여	-10.5311
▁신호수와	-10.5312
▁우천	-10.5317
▁적절	-10.5335
이내	-10.5349
빙	-10.5357
꺼	-10.5358
갱	-10.5358
꼬	-10.5359
뇌	-10.5359
엠	-10.5359
▁갖춘	-10.5359
▁닿으	-10.5359
▁받았으며	-10.5359
▁발꿈치	-10.5359
▁부직포	-10.5359
▁쏠려	-10.5359
▁지탱하	-10.5359
▁찔린	-10.5359
▁헛딛음	-10.5359
▁따르	-10.5359
▁불완전	-10.5359
▁어스앙카	-10.5359
▁한손으로	-10.5359
▁과부하방지장치	-10.5359
▁부상당한	-10.5359
▁러그	-10.5359
▁반력벽	-10.536
▁코핑	-10.536
▁발주자	-10.5361
▁수급인	-10.5361
테크	-10.5361
▁산재신청	-10.5361
▁누출	-10.5361
▁면정리	-10.5362
▁예측	-10.5362
▁연마	-10.5363
▁조경석	-10.5363
▁산재승인	-10.5363
▁하지철물	-10.5364
▁구르	-10.5364
▁계약	-10.5365
▁창원	-10.5366
▁전동공구	-10.5367
▁건설장비	-10.5367
▁인방	-10.537
▁정격	-10.537
▁실제	-10.537
▁누전	-10.5371
▁AL	-10.5371
▁최근	-10.5372
▁명시	-10.5377
▁시스템폼	-10.5377
▁감전사고	-10.5379
▁Support	-10.538
▁강제	-10.5384
▁(1)	-10.5384
▁날개	-10.5388
동구	-10.539
▁세부	-10.5391
km	-10.5393
▁남측	-10.5394
▁4>	-10.5394
▁받아치기	-10.5397
▁열어	-10.5398
▁잡아주	-10.5401
.4.	-10.5407
▁뒷부분	-10.5407
▁기재	-10.5412
▁제작사	-10.5416
▁청소중	-10.5432
.3.	-10.5432
▁철근콘크리트공사	-10.5435
▁조성공사	-10.5435
▁울타리	-10.5438
▁자재운반중	-10.5441
▁승강기	-10.5456
▁철거작업중	-10.5466
계단실	-10.5469
▁개구부로	-10.5471
▁되	-10.5474
경위	-10.5475
인부	-10.548
▁가공작업	-10.5487
▁진행하여야	-10.5488
▁말리	-10.5499
▁카고	-10.5516
▁입구에서	-10.5518
시설물	-10.5518
▁조각	-10.5524
▁제단	-10.5525
▁법	-10.5526
▁수평대	-10.5528
▁예방조치	-10.5531
작업자의	-10.5537
커버	-10.5544
새	-10.5545
베	-10.5548
b	-10.555
▁철거중	-10.5552
▁표지	-10.5554
갈비뼈	-10.5554
하는데	-10.5556
▁위험물	-10.5556
▁무의식	-10.5564
▁진행하다	-10.5572
되었으며	-10.5572
담당자	-10.5589
재해발생	-10.5592
▁인양시	-10.5595
들어	-10.5601
▁지상층	-10.5604
▁했	-10.5605
▁이전	-10.5618
▁하역중	-10.5618
자재에	-10.5628
쳐서	-10.5629
▁사이에서	-10.5633
▁201	-10.5634
▁경보	-10.5636
▁비계보	-10.5639
금지	-10.564
작업에	-10.5652
▁공구가	-10.5652
▁살수차	-10.5655
▁잡아당기	-10.5662
▁발화	-10.5664
포대	-10.5673
▁보도	-10.5682
▁석공	-10.5683
45	-10.5689
▁탈	-10.57
▁입선	-10.5721
▁커터	-10.5726
▁계단에	-10.5744
▁볼트가	-10.5746
늘	-10.5746
펌프장	-10.5755
▁철저	-10.5756
널	-10.5758
쳤	-10.5758
▁가드레일	-10.5759
▁나머지	-10.5759
▁딛어	-10.5759
▁벗겨지	-10.5759
▁산소농도	-10.5759
▁산업안전보건기준에	-10.5759
▁주민공동시설	-10.5759
▁찔리	-10.5759
▁찢어진	-10.5759
▁다치게	-10.5759
▁눌림	-10.5759
▁착오	-10.5759
▁체크	-10.576
▁있었으며	-10.576
▁뒷바퀴	-10.576
▁보양천막	-10.576
▁좌굴	-10.576
▁만들어	-10.576
▁안정액	-10.5761
▁결합	-10.5761
▁접근금지	-10.5761
▁찾	-10.5761
▁선택	-10.5761
▁인대손상	-10.5762
▁입원치료	-10.5763
▁PSC	-10.5764
첨부	-10.5764
▁기울어지며	-10.5765
▁굴착토사	-10.5766
:45	-10.5766
▁재사용	-10.5766
▁자재인양구	-10.5767
▁지반보강	-10.5767
▁제출하였으나	-10.5769
▁대처	-10.5769
▁수직부재	-10.5769
▁14:30	-10.577
▁보조로프	-10.577
▁도로에서	-10.577
▁기름	-10.5772
▁전기기계	-10.5773
▁빠지지	-10.5775
▁2.4	-10.5776
▁고정하던	-10.5776
시킨다	-10.5776
▁왼쪽눈	-10.5778
▁적재하중	-10.5779
▁지보	-10.578
▁고용노동부	-10.5781
▁최상단	-10.5781
▁청주	-10.5782
▁자재하역	-10.5784
▁반대쪽	-10.5785
▁조사하여	-10.5785
▁주장하며	-10.5785
▁개구부를	-10.5789
▁콘크리트타설	-10.5789
▁점심시간	-10.5791
▁본사	-10.5792
여야	-10.5793
▁하자	-10.5793
▁바깥쪽	-10.5794
▁탈락하면서	-10.5795
▁근로복지공단에서	-10.5797
▁다음사항	-10.5798
▁본선	-10.5798
▁나오는	-10.5798
▁10:00	-10.5801
▁비산되어	-10.5801
▁조성	-10.5802
▁정전	-10.5812
▁달기	-10.5813
▁미치	-10.5813
▁미끄러지는	-10.5814
▁거주	-10.5814
▁사항임	-10.5816
▁관절	-10.5818
▁유지하	-10.5822
▁결속선	-10.5823
▁포	-10.5823
▁연약	-10.5824
▁확	-10.5828
▁계단발판	-10.583
▁전력	-10.5833
▁칸막이	-10.5833
▁종료하고	-10.5834
▁파악하여	-10.5839
상태로	-10.5846
▁설계도서에	-10.585
▁우측손	-10.5855
▁거치대	-10.5859
▁들던	-10.5865
▁봉	-10.5867
▁20**	-10.587
▁용도	-10.5881
▁기상	-10.5892
책임자	-10.5895
▁검사를	-10.5911
▁직경	-10.5917
북	-10.5922
오는	-10.5928
용량	-10.5929
▁기존에	-10.593
▁전등	-10.5942
▁배면에	-10.5943
벨트	-10.5959
▁엄지와	-10.5959
▁돌아가	-10.5961
능력	-10.5965
옴	-10.5965
언	-10.5965
※	-10.5965
확보	-10.5967
발가락	-10.5969
▁지중	-10.597
굴삭기	-10.5971
불안전한	-10.5971
넘어짐	-10.5972
▁차량으로	-10.5975
개구부	-10.5977
▁준비작업	-10.5979
폭발	-10.5979
▁휴	-10.5983
▁수레	-10.6002
용역	-10.6017
▁못하	-10.6019
▁장비와	-10.602
유리	-10.604
al	-10.6042
▁바닥재	-10.6049
▁1.0	-10.6054
▁후속	-10.6058
▁공법에	-10.6059
▁청소작업을	-10.6072
▁부딪	-10.6076
36	-10.608
▁상부를	-10.6082
▁버켓에	-10.6096
람	-10.611
▁민	-10.6115
▁늘어	-10.6127
▁합판에	-10.6132
▁이동작업	-10.6138
▁긴장작업	-10.6142
▁새끼손가락을	-10.6158
▁요양신청	-10.6158
▁베임사고	-10.6158
▁깨지	-10.616
▁착용상태	-10.616
같	-10.6173
범	-10.6173
▁체결을	-10.6174
희	-10.6174
▁품질	-10.6175
하수도	-10.6175
▁흘러	-10.6175
렌	-10.6175
KG	-10.6176
▁뿜어붙	-10.6176
▁나뭇가지	-10.6176
▁놀라	-10.6176
▁도르래	-10.6176
▁붙이기	-10.6176
▁빗겨	-10.6176
▁쇠지렛대	-10.6176
▁오픈	-10.6176
▁탱크	-10.6176
팬	-10.6176
▁부상당함	-10.6176
▁에폭시	-10.6176
▁깔판	-10.6176
▁욕실	-10.6176
▁달줄	-10.6176
▁완성	-10.6176
▁떨어졌	-10.6176
▁믹서트럭	-10.6176
▁포스트	-10.6176
▁평택	-10.6176
▁환자	-10.6177
▁출역	-10.6177
▁도괴	-10.6177
▁불가능	-10.6178
▁포터	-10.6178
산업개발	-10.6178
▁첫번째	-10.6179
▁없었으나	-10.6179
▁조적벽체	-10.618
하다고	-10.6181
▁리프트카	-10.6182
▁17:00	-10.6182
▁계측관리	-10.6182
▁베	-10.6182
▁끊어지면서	-10.6183
▁09:30	-10.6186
포트	-10.6187
▁크게	-10.6187
▁막장면	-10.6191
▁공구류	-10.6191
▁시방서	-10.6191
▁역할	-10.6194
부록	-10.6195
▁광대뼈	-10.6208
위한	-10.6209
▁보기	-10.621
▁있고	-10.621
▁상호간	-10.6211
실시	-10.6213
▁피하지	-10.6215
▁벌	-10.6215
▁합판거푸집	-10.6215
으려다	-10.6218
▁가는	-10.622
▁시공순서는	-10.6225
▁포함한다	-10.6226
▁미만	-10.6238
▁발견하고	-10.6242
57	-10.6242
용수	-10.6245
하였을	-10.6245
▁각관	-10.6245
쇄	-10.6246
▁감기	-10.625
▁충돌로	-10.625
▁석재가	-10.6257
▁피하는	-10.6258
▁부딪쳐서	-10.6265
진동	-10.6266
▁넣는	-10.6274
▁시동	-10.6275
▁끈	-10.628
부를	-10.628
▁보고하지	-10.6284
▁상이	-10.6284
▁이음철근	-10.6285
▁이동하여야	-10.629
▁75	-10.6294
▁심근경색	-10.6316
요인	-10.6317
▁조작미숙	-10.6326
▁참	-10.6332
▁장애	-10.6335
▁드는	-10.6338
고르기	-10.6347
▁검진	-10.6351
▁재해로	-10.6365
▁목재가공	-10.6378
▁발생하였고	-10.6379
▁간이	-10.6389
▁부자재	-10.6389
었고	-10.6394
MM	-10.6398
든	-10.6399
1.8	-10.64
볼	-10.6401
트럭	-10.6401
밴드	-10.6403
▁보양작업	-10.6403
STA	-10.6404
관계자	-10.6404
앙카	-10.6405
감독	-10.6405
두께	-10.6405
앵글	-10.6405
신청	-10.6407
직원	-10.641
스킬	-10.6411
▁하는데	-10.6415
▁차이	-10.6418
진입	-10.6436
▁이루어	-10.644
▁무시	-10.644
가지	-10.6449
▁용접부위	-10.6458
▁양중하여	-10.6459
▁낙하방지	-10.646
▁형틀자재	-10.6469
개인	-10.6474
▁회전하여	-10.6478
▁사업	-10.6484
차단	-10.6485
있어	-10.649
▁이동함	-10.6492
▁관내	-10.6496
▁내용이	-10.6507
▁111	-10.6509
관리자	-10.6512
▁비계파이프에	-10.6514
았으나	-10.6514
▁코킹작업	-10.6518
▁버켓이	-10.6527
▁조립하여	-10.654
경찰서	-10.6548
을때	-10.6556
▁상황이	-10.6562
▁기술	-10.6569
▁미끄러지	-10.6574
▁방지하고	-10.6575
효	-10.6578
정보	-10.6579
▁관계기관	-10.658
▁300	-10.6589
▁전선관	-10.6593
날이	-10.6599
▁건립	-10.6608
탕	-10.661
×	-10.661
▁무한궤도	-10.6611
▁뿌리	-10.6611
▁슬립업	-10.6611
▁콘센트	-10.6611
▁턴버클	-10.6611
듯	-10.6611
률	-10.6611
_	-10.6611
▁plate	-10.6611
▁사실관계	-10.6611
▁검측	-10.6611
▁사무동	-10.6611
▁안전장화	-10.6611
▁원청	-10.6611
▁후두부	-10.6611
▁도시가스	-10.6611
▁크롤러	-10.6611
▁공동주택	-10.6611
▁슬관절	-10.6611
섬유	-10.6611
▁않았으며	-10.6612
▁주차타워	-10.6612
▁맞지않아	-10.6612
▁날개벽	-10.6612
▁정밀검사	-10.6612
▁튀어나온	-10.6613
▁누름	-10.6613
▁연직	-10.6613
▁콘판넬	-10.6613
▁형성	-10.6613
▁체인블록	-10.6613
▁자갈	-10.6614
▁놓치며	-10.6616
▁종점부	-10.6617
▁사건	-10.6621
▁연결고리	-10.6621
▁화약	-10.6621
▁가설통로	-10.6622
▁강재거푸집	-10.6622
▁발행	-10.6623
구간의	-10.6624
▁PCT	-10.6626
▁왼쪽무릎	-10.6627
▁주방	-10.6628
▁미제거	-10.6628
▁사이를	-10.6628
▁절상	-10.6629
▁충격하중	-10.6629
▁받기	-10.6637
▁방진	-10.6638
▁철도	-10.6638
▁비치하고	-10.6639
▁장력	-10.6639
▁정문	-10.664
▁구명	-10.664
▁제출함	-10.6642
▁자동차	-10.6644
▁콘크리트못	-10.6649
매우	-10.6649
▁로울러	-10.6653
단면	-10.6657
▁판넬이	-10.6657
▁경비	-10.6659
▁설치하되	-10.6661
▁상실	-10.6665
▁운반차량	-10.6666
▁작	-10.6667
▁공사구간	-10.667
역사	-10.6671
▁사용해서	-10.6675
토사	-10.6676
▁발파기	-10.6678
개요	-10.6682
▁펴	-10.6683
발파	-10.6685
▁실금	-10.6686
내리	-10.6686
철근을	-10.6687
▁작업실시	-10.6688
▁부상이	-10.6689
▁유도원	-10.6691
▁발파작업	-10.6693
▁초과하여	-10.6693
번호	-10.6698
▁***-*	-10.6703
환경	-10.6704
▁발생일시	-10.6707
▁문을	-10.671
▁파괴	-10.671
▁인지하고	-10.6716
▁줄이	-10.6717
▁코아	-10.672
▁수공구	-10.672
▁'20	-10.6722
▁철판이	-10.6735
▁점검구	-10.6736
▁반생	-10.6742
호세대에서	-10.6753
▁보던	-10.6768
▁심한	-10.6772
▁조립도에	-10.6774
▁벽체와	-10.6775
내릴	-10.6786
도달	-10.6786
▁정돈	-10.6787
▁양측	-10.6797
▁인양하기	-10.68
▁용단	-10.6805
설계	-10.6807
함으로써	-10.6808
▁견	-10.6812
▁끝부분에	-10.6815
4.5	-10.6817
▁보호조치	-10.6819
▁있으	-10.6824
▁수원	-10.6825
피해	-10.6828
목적으로	-10.683
한국	-10.683
▁옮기기	-10.6839
▁생명줄에	-10.684
표지	-10.6847
바로	-10.6851
▁배관파이프	-10.6852
풀	-10.6854
캡	-10.6856
▁따라서	-10.6857
붐	-10.686
왼손	-10.6861
슬래브	-10.6862
레버	-10.6862
출입구	-10.6866
이동식	-10.6878
55	-10.6881
▁되므로	-10.6882
바닥으로	-10.6887
직후	-10.6888
▁h	-10.6891
▁앞에	-10.6891
▁피하다	-10.69
▁제시	-10.6903
투입	-10.6905
법면	-10.6909
▁수평목	-10.6914
오후	-10.6933
▁철골공	-10.6936
측에서	-10.6943
들은	-10.6953
▁날씨	-10.6966
▁적재중	-10.6971
▁시기	-10.698
▁인도	-10.6983
대기	-10.6995
부착	-10.6998
▁연락이	-10.7002
▁넘어가다	-10.7004
▁주는	-10.7006
▁수도	-10.7012
산동	-10.7013
49	-10.7013
▁보이	-10.7022
▁빠지	-10.703
▁오류로	-10.704
▁배관작업	-10.7043
▁운	-10.7044
▁구체	-10.7044
하니	-10.7054
인력	-10.7057
째	-10.706
▁막기	-10.7061
장소에서	-10.7063
등학교	-10.7064
득	-10.7065
▁스프링	-10.7065
▁후레싱	-10.7065
덧	-10.7065
렉	-10.7065
엉	-10.7065
▁갖는	-10.7065
▁꺾이	-10.7065
▁끊어져	-10.7065
▁발끝막이판	-10.7065
▁부등침하	-10.7065
▁슬링밸트	-10.7065
▁십자인대	-10.7065
▁아우트리거	-10.7065
▁지압판	-10.7065
▁쪼그려	-10.7065
▁테이블리프트	-10.7065
▁협력회사	-10.7065
▁흙막이지보공	-10.7065
」	-10.7065
보험급여	-10.7065
엔지니어링	-10.7065
체육관	-10.7065
▁가장자리	-10.7065
▁분전함	-10.7065
테이프	-10.7065
▁경광등	-10.7065
▁2020.07.	-10.7065
▁락볼트	-10.7065
▁부딪치는	-10.7066
▁마련	-10.7066
▁스파크	-10.7066
▁반발력	-10.7067
▁옥외	-10.7068
▁폐쇄성	-10.7069
▁지나가다	-10.707
▁요골	-10.707
▁타카	-10.707
▁천안	-10.707
▁걸이시설	-10.7072
▁EL	-10.7074
▁인양능력	-10.7074
▁슬링바	-10.7074
▁동료들	-10.7076
▁스킬톱	-10.7076
▁우측어깨	-10.7076
▁석면	-10.7077
염좌	-10.7078
▁굽	-10.708
▁연결통로	-10.708
▁알게	-10.708
▁선별	-10.7082
것	-10.7086
▁전환	-10.7086
▁주저	-10.7087
▁근육이	-10.7087
▁부속자재	-10.7088
▁가료	-10.709
▁환기구	-10.7092
▁도보	-10.7093
▁북	-10.7095
▁끝나	-10.7099
▁나사	-10.7099
▁中	-10.71
▁건축자재	-10.7102
해야하나	-10.7106
면허	-10.7109
▁틈새로	-10.7116
▁시술	-10.7118
▁경사면에	-10.7121
▁내벽	-10.7124
:3	-10.7129
▁작업동료	-10.7129
▁당기다가	-10.7132
▁확장	-10.7142
▁예방할	-10.7143
▁가다가	-10.7146
▁조사하고	-10.7148
▁내림	-10.715
▁성모병원	-10.7159
▁제원	-10.716
(17	-10.7171
손가락이	-10.7178
0.9	-10.7183
▁증기	-10.7186
내려	-10.7187
▁반복작업	-10.7188
되어있는	-10.7189
▁체계	-10.7191
▁지지하고	-10.7194
▁우측발	-10.72
(60	-10.7204
▁태만	-10.7208
▁모터	-10.7214
▁정면	-10.7217
밀리	-10.7218
청사	-10.722
▁조치함	-10.7234
▁낙하한	-10.7235
2019	-10.7236
▁장갑을	-10.7236
▁보고하고	-10.724
▁회전날	-10.7242
강재	-10.7248
▁못에	-10.7249
▁거실	-10.7266
▁타박상이	-10.7267
▁입원하여	-10.7269
▁낙하되어	-10.7271
▁아래층	-10.7276
▁경상	-10.7276
▁경화	-10.7278
(9	-10.7286
조각	-10.7301
어깨	-10.7309
▁조립작업중	-10.7322
참	-10.7328
▁#2	-10.7331
플	-10.7333
잔	-10.7334
총	-10.7335
리프트	-10.7336
<	-10.7337
언제	-10.7339
비트	-10.7341
근처	-10.7342
▁고인	-10.7345
각파이프	-10.7347
요소	-10.7348
▁전도방지를	-10.735
골조	-10.735
▁주로	-10.7351
시멘트	-10.7356
▁205	-10.7377
43	-10.738
▁오차	-10.7382
▁보에	-10.7387
▁Y	-10.739
▁확보하여	-10.739
▁자재이동	-10.7392
48	-10.7392
▁일일	-10.7392
▁사항이	-10.7396
▁갈	-10.7398
사람	-10.7402
▁없어야	-10.7413
▁도장공	-10.7418
▁단계	-10.7437
▁시스템비계에서	-10.7446
▁움직이는	-10.7452
▁간섭이	-10.7455
▁쏟아	-10.7456
▁와이어에	-10.748
▁풀던	-10.7481
▁탄성	-10.7501
바닥에서	-10.7505
~2	-10.7505
▁가공장	-10.7513
까	-10.7514
갑	-10.7516
▁탑	-10.7518
▁구간의	-10.7521
진료	-10.7526
▁접속부	-10.7532
▁필요하다	-10.7535
▁마루	-10.7536
▁파열로	-10.7537
▁불편	-10.7537
▁주저앉	-10.7538
뚝	-10.7539
▁방호울	-10.7539
▁겹질	-10.7541
▁끌어	-10.7541
웅	-10.7541
MSDS	-10.7541
▁물리치료	-10.7541
▁부딪혔다	-10.7541
▁빠른	-10.7541
▁숏크리트	-10.7541
▁앉은	-10.7541
▁잃으며	-10.7541
▁전기뇌관	-10.7541
▁흡연	-10.7541
Pile	-10.7541
▁가교각	-10.7541
▁강연선	-10.7541
▁그라인드	-10.7541
▁일요일	-10.7541
▁주두부	-10.7541
▁안전작업계획서	-10.7542
신규채용	-10.7542
▁착각	-10.7542
▁최상층	-10.7542
빌딩	-10.7542
▁얼어	-10.7542
▁2021.10.	-10.7542
▁지나가는	-10.7543
▁보호덮개	-10.7544
▁점심	-10.7544
▁면처리	-10.7545
▁출입통제	-10.7545
▁마친	-10.7545
▁Con	-10.7545
▁주기적	-10.7546
▁실측	-10.7547
하기위하여	-10.7547
▁일체	-10.7549
▁고르지	-10.7549
▁담아	-10.7549
▁보강거더	-10.755
▁분산	-10.755
▁박힌	-10.755
▁강관파일	-10.7551
▁분사	-10.7556
▁기온	-10.756
▁장비운전원	-10.7561
▁지장	-10.7561
▁트럭에	-10.7564
▁도배	-10.7564
▁세보	-10.7565
파크	-10.7566
▁‘	-10.7567
▁명일	-10.7569
▁절연용	-10.7571
▁때려	-10.7575
▁기둥거푸집	-10.7575
었는데	-10.7582
▁부실	-10.7583
▁내려가던중	-10.7587
▁회전하며	-10.7587
▁제방	-10.7596
▁통화	-10.7598
▁0	-10.7599
연성	-10.76
▁왼쪽손	-10.7603
▁경남	-10.7604
▁절단하여	-10.7604
▁해체물	-10.7604
▁고정하여	-10.7609
▁Pipe	-10.7619
▁살수기	-10.7622
▁갱폼이	-10.7625
▁인지함	-10.7625
▁꺼내	-10.7631
▁요청하여	-10.7632
▁인입	-10.7632
▁던지	-10.7633
▁여수	-10.7634
▁허리부분	-10.7641
59	-10.7645
하였던	-10.7645
▁정비사업	-10.7645
▁골절발생	-10.7648
▁매달기	-10.7659
▁폐자재	-10.7661
▁절단됨	-10.7667
▁고시	-10.7669
▁이송후	-10.7676
▁뒤집	-10.7678
▁부어	-10.7682
▁사고이며	-10.7693
▁낙하함	-10.7699
▁절단한	-10.77
동안	-10.7705
벽돌	-10.7705
▁거푸집조립	-10.7708
▁거동	-10.7712
▁라인	-10.7731
▁점검중	-10.7731
▁하거나	-10.7735
-2011(	-10.7735
2.5	-10.7743
오전	-10.7744
▁훈련	-10.7745
▁배관자재	-10.7745
▁넘어졌다	-10.7749
려는	-10.7749
▁필	-10.775
▁정리작업중	-10.7757
순	-10.7769
려던	-10.7777
38	-10.7779
▁폭은	-10.7781
▁옴	-10.7787
▁용접작업중	-10.779
▁밑에서	-10.7796
▁나오던	-10.7806
▁감전방지	-10.7807
▁미상	-10.781
▁설치계획	-10.7812
지면	-10.7813
못하고	-10.7815
재해자가	-10.7816
주위	-10.7816
협	-10.7827
퇴	-10.783
▁편의	-10.7831
훈련	-10.7832
검진	-10.7833
▁포대	-10.7834
스카이	-10.7835
▁조치하고	-10.7835
▁작업장소에	-10.7836
금요일	-10.7836
협력업체	-10.7836
근로복지공단	-10.7836
질환	-10.7837
터파기	-10.7838
줄걸이	-10.7841
시스템비계	-10.7846
변형	-10.7849
▁들어가는	-10.7853
엄지손가락	-10.7855
▁방호벽	-10.7856
다짐	-10.7857
처리시설	-10.786
▁발생시	-10.7867
▁불시	-10.787
#	-10.7873
▁작업현장	-10.7873
안전화	-10.7878
▁원인이	-10.7884
중학교	-10.7902
▁올라서	-10.7905
▁가공중	-10.7907
는순간	-10.7919
재해자는	-10.7925
▁단부에서	-10.793
▁조적공사	-10.793
동료	-10.7932
▁철판에	-10.7937
▁설치구간	-10.7952
▁깊	-10.7965
시트	-10.7965
▁설치하며	-10.797
▁교체작업	-10.7978
2-2	-10.7983
▁시공순서	-10.7999
▁부러	-10.8
대구	-10.8001
항타	-10.8009
▁주민	-10.8012
▁상황에	-10.8014
사면	-10.8019
▁실수	-10.8023
▁주택	-10.8028
지않은	-10.8033
텍	-10.8035
슴	-10.8036
▁작업하	-10.8039
론	-10.8039
(40	-10.804
▁대차에	-10.804
▁헛디	-10.8041
논	-10.8041
글	-10.8041
룡	-10.8041
▁꺾임	-10.8041
▁끊어짐	-10.8041
▁부딛쳐	-10.8041
▁부딪치며	-10.8041
▁어지러움	-10.8041
▁웨이트	-10.8041
튜브	-10.8041
▁부적정	-10.8041
방파제	-10.8041
▁맞추는	-10.8042
▁이루어져야	-10.8042
▁2020.04.	-10.8042
▁유로품	-10.8042
▁집어넣	-10.8042
▁트랜	-10.8042
▁깔아	-10.8042
▁충남	-10.8042
▁뇌관	-10.8042
▁악화	-10.8042
▁먼지	-10.8042
▁올바	-10.8042
▁보험가입자의견서	-10.8042
놓았던	-10.8042
▁처음	-10.8042
▁밀폐	-10.8042
▁격리	-10.8042
▁침투	-10.8042
▁어려움	-10.8042
하였는데	-10.8043
▁풍압	-10.8043
▁난청	-10.8043
▁가설울타리	-10.8043
▁고압호스	-10.8043
▁가설사무실	-10.8044
▁네일	-10.8044
▁호퍼	-10.8044
▁도움	-10.8044
▁매달려	-10.8044
▁측압	-10.8045
▁직각	-10.8046
▁금이감	-10.8046
▁피복석	-10.8046
▁철망	-10.8046
▁관계근로자	-10.8046
▁홀더	-10.8047
▁GS	-10.8048
▁인출	-10.8048
▁자연	-10.8048
▁사각	-10.8048
▁막아	-10.8049
▁알리지	-10.805
▁배열	-10.805
▁구축	-10.8051
▁진행하여	-10.8052
소장	-10.8053
▁예정임	-10.8054
▁통지서	-10.8054
▁호안	-10.8055
▁불발	-10.8056
▁09:00	-10.8056
▁확보하기	-10.8056
▁평탄성	-10.8056
▁고온	-10.8057
▁사전조사	-10.8057
▁준공	-10.8058
▁발현	-10.8059
▁발급	-10.806
▁올라서서	-10.806
~3	-10.8063
▁피스	-10.8063
▁요양신청서	-10.8064
▁미니	-10.8066
▁요함	-10.8066
▁임의해체	-10.8067
▁11:30	-10.807
▁벤딩기	-10.8072
▁방해	-10.8072
주진단	-10.8072
▁침수	-10.8074
▁석고	-10.8076
기업	-10.8076
▁무선	-10.808
▁38	-10.808
▁우선	-10.8081
▁통원	-10.8083
ᄋᄋᄋ	-10.8085
▁저면	-10.8092
▁치면서	-10.8093
▁설치장소	-10.8094
▁왼쪽발등	-10.8094
▁전면부	-10.8097
▁측정하고	-10.8099
▁올라오던	-10.81
했으며	-10.81
▁호수	-10.8104
▁돌출되어	-10.8105
하수관	-10.8109
RC	-10.8112
▁상하부	-10.8114
체인	-10.8118
▁놓치	-10.8118
▁당사자	-10.8119
▁적정성	-10.812
▁전남	-10.8121
▁파레트	-10.8123
▁설계도서와	-10.8124
▁버팀목	-10.8125
▁엄	-10.8128
▁쓰러지는	-10.8128
▁짚은	-10.8129
▁쌓여있	-10.8133
▁브레싱	-10.8134
▁남아있	-10.814
들에게	-10.8142
▁오르다	-10.8145
▁요동	-10.8146
수리	-10.8157
▁우측발이	-10.8158
▁중앙부	-10.816
(15	-10.8167
▁값	-10.8167
▁두고	-10.8168
내부에서	-10.8172
▁단차부위	-10.8182
▁부분에서	-10.8184
▁가까이	-10.8187
▁전치	-10.8194
▁돌아서	-10.8195
▁시방	-10.8197
▁유지하고	-10.8203
▁진행함	-10.8208
▁떠	-10.8211
▁유리창	-10.8215
성토	-10.8215
▁세워놓	-10.8216
▁경북	-10.8229
▁철거공사	-10.8234
▁기울어지	-10.8235
▁합니다	-10.8245
▁되며	-10.8247
위치를	-10.8251
▁전진	-10.8259
▁부착되어	-10.8266
했고	-10.8266
▁기계적	-10.8278
▁가려	-10.8279
ᄋ	-10.8284
▁후크에	-10.8291
지원	-10.8292
:15	-10.8294
▁절단하기	-10.8302
▁작업하던중	-10.831
▁되었으며	-10.8311
받음	-10.8311
▁관을	-10.8314
▁최상부	-10.832
▁열려	-10.8324
▁검토한	-10.8326
▁금이가	-10.8327
▁횡대에	-10.8329
트리	-10.8329
▁구름	-10.8335
0.2	-10.8337
▁제거작업	-10.8339
반경	-10.835
케이블	-10.835
▁기술자	-10.8353
파편	-10.8355
없음	-10.8357
합니다	-10.8359
패널	-10.836
팀장	-10.836
홈	-10.8361
홍	-10.8362
흙막이	-10.8363
보안경	-10.8363
렌탈	-10.8363
폐기물	-10.8363
변위	-10.8364
경사	-10.8366
▁바닥면에	-10.8374
근무	-10.8374
특성	-10.8376
▁확인하던	-10.8379
장애	-10.8388
▁되었고	-10.839
로인한	-10.8394
정비	-10.8397
실금	-10.8398
전달	-10.8398
단위	-10.8399
▁발생되어	-10.8401
철선	-10.8403
▁도시	-10.8407
▁피로	-10.841
▁옮기	-10.841
하차	-10.841
▁지하층에서	-10.8412
▁가설계단에서	-10.8421
▁장약	-10.843
하수도관	-10.8432
▁입원중	-10.8437
▁위치로	-10.8443
가능	-10.8447
▁지상에	-10.8456
▁당사에	-10.8477
교차로	-10.8482
▁남아	-10.8487
안전난간	-10.8493
써	-10.8508
▁발목부위	-10.8523
현장내	-10.8528
▁장비작업	-10.8542
▁비로	-10.8543
▁생활	-10.8548
목공	-10.8555
자에게	-10.8557
▁2019.10.	-10.8561
괴	-10.8564
▁산업	-10.8565
킹	-10.8565
텐	-10.8567
▁괜찮	-10.8567
맨	-10.8567
럽	-10.8567
징	-10.8567
▁과부하	-10.8568
덩	-10.8568
▁Crane	-10.8568
▁비틀림	-10.8568
▁빠진	-10.8568
▁스윙	-10.8568
▁스토퍼	-10.8568
▁원인불명	-10.8568
▁통영지사에	-10.8568
▁핸들	-10.8568
▁행복주택	-10.8568
▁화물자동차	-10.8568
룸	-10.8568
▁원도급사	-10.8568
▁지게발	-10.8568
▁돌부리	-10.8568
▁얼음	-10.8568
▁낙뢰	-10.8568
클러치	-10.8568
▁노즐	-10.8568
▁어스앵커	-10.8568
▁병행	-10.8568
▁화성시	-10.8568
▁회복	-10.8568
▁습식	-10.8568
▁작업절차	-10.8568
▁도와주	-10.8568
▁순차적	-10.8568
▁노동부	-10.8568
▁견관절	-10.8568
▁근골격계질환	-10.8568
▁하자보수	-10.8568
▁어께	-10.8568
▁봉합수술	-10.8568
▁발뒷꿈치	-10.8569
▁찍혀	-10.8569
▁피로티	-10.8569
▁일어남	-10.857
성심병원	-10.857
도서관	-10.857
▁휴무	-10.857
▁석축	-10.857
▁트러스거더	-10.857
▁입었습니다	-10.857
▁유압호스	-10.8571
▁부러져	-10.8571
▁초래	-10.8571
▁도수로	-10.8571
▁승강통로	-10.8571
▁넘어지거나	-10.8571
▁무전기	-10.8572
▁밀크	-10.8572
▁승강설비	-10.8575
▁푸는	-10.8575
▁암석	-10.8575
▁도출	-10.8575
▁들리	-10.8576
▁세번째	-10.8577
▁숙련도	-10.8577
▁진입도로	-10.8577
▁유압장치	-10.8578
▁폐목재	-10.8578
▁성남	-10.8578
▁기다리	-10.8578
▁발끝	-10.8579
▁의거하여	-10.858
▁헛딪어	-10.8581
▁연결철물	-10.8582
▁인계	-10.8583
▁구비	-10.8583
▁13:00	-10.8584
▁양질	-10.8585
▁곧	-10.8585
▁불량품	-10.8586
▁TT	-10.8586
:35	-10.8587
▁기본	-10.8587
▁좌상	-10.8589
▁내민	-10.8591
▁향후	-10.8592
▁폭우	-10.8593
▁취약	-10.8593
▁왼쪽손목	-10.8593
▁평면	-10.8594
▁사석	-10.8594
▁위험구역	-10.8596
▁보이지	-10.8597
▁승인됨	-10.8598
▁경추	-10.8599
▁5>	-10.8601
▁저장소	-10.8603
▁동등	-10.8604
▁정위치	-10.8604
▁충전부	-10.8605
▁말고	-10.8614
▁시공된	-10.8616
▁들어올리던	-10.8617
▁업체인	-10.8619
▁살	-10.8619
▁브레이싱	-10.862
▁급성	-10.8621
채움	-10.8622
00(00	-10.8632
▁설	-10.8638
▁시공방법	-10.8638
37	-10.8641
시티	-10.8649
▁이송함	-10.865
▁최소한	-10.865
▁첫마디가	-10.8651
▁풀기	-10.8654
▁공구함	-10.8659
▁선정하고	-10.8662
▁개인의	-10.8666
▁매트	-10.8666
▁통보하여	-10.8666
▁결정하고	-10.8669
▁안산	-10.8679
▁불꽃이	-10.868
▁전까지	-10.8685
▁작업반	-10.8695
▁중이었으며	-10.8701
▁못으로	-10.8703
▁경사각	-10.8713
장소로	-10.8722
▁주의하고	-10.8726
▁터널내부	-10.874
▁203	-10.8742
▁등쪽	-10.8743
▁해서	-10.8753
PE	-10.8761
▁공동	-10.8764
▁제공하는	-10.8781
▁상주	-10.8783
▁퇴	-10.8783
▁합판과	-10.8786
0.5	-10.879
▁분리하여	-10.8798
▁가하여	-10.8799
▁보강용	-10.8801
▁들려	-10.8809
▁둥근톱으로	-10.8811
1.9	-10.8813
▁지원	-10.8819
났	-10.883
▁무의식적	-10.8833
각도	-10.8853
▁않는다	-10.8862
UT	-10.8862
▁설치구간에서	-10.8879
▁운송	-10.8881
▁알폼자재	-10.8889
▁단차구간	-10.8901
▁손목부위	-10.8904
▁리모델링	-10.8904
검토	-10.8918
으려고	-10.8918
구급차	-10.8918
정강이	-10.8919
표지판	-10.8919
지게차	-10.892
접합	-10.8921
중국	-10.8922
스타	-10.8933
허리	-10.8934
▁놓아	-10.8939
▁밟아서	-10.8942
오던	-10.8947
공급	-10.8952
▁피하기	-10.8956
▁철사	-10.8957
▁작업공간이	-10.8959
->	-10.8962
▁낙	-10.8971
산재	-10.8974
▁굴착구간	-10.8977
일부터	-10.8977
▁선단	-10.8998
조적	-10.9017
전원	-10.9018
ro	-10.902
▁다짐작업	-10.9022
▁보고하여	-10.9026
▁떨어	-10.9027
▁하러	-10.9028
▁맨홀에	-10.9029
중심을	-10.9031
받고	-10.9033
방지장치	-10.9036
▁원인으로	-10.9041
▁협의하여	-10.9053
▁울산	-10.9064
▁구조이	-10.907
▁압	-10.9073
▁오수관	-10.9077
▁조립한	-10.9086
▁자의	-10.9087
▁수부	-10.9087
▁보지못하	-10.9089
▁손잡이에	-10.9093
본인	-10.9108
▁수직형	-10.9109
쯤	-10.9114
띠	-10.9115
▁일으	-10.912
▁불인정	-10.912
▁안되어	-10.9121
칸	-10.9122
이앤씨	-10.9123
웨	-10.9123
벤	-10.9123
테이블	-10.9123
▁SCW	-10.9123
▁겐츄리크레인	-10.9123
▁긁힘	-10.9123
▁납품	-10.9123
▁늦게	-10.9123
▁런칭거더	-10.9123
▁싣는	-10.9123
▁쓰러진	-10.9123
▁주상복합	-10.9123
▁진동다짐기	-10.9123
▁항공마대	-10.9123
▁화학물질	-10.9123
넷	-10.9123
폴	-10.9123
▁실링바	-10.9123
Bar	-10.9123
▁추락방망	-10.9123
▁충북	-10.9123
▁현장여건	-10.9123
고혈압	-10.9123
▁대리석	-10.9123
▁스터드	-10.9123
▁굴곡	-10.9123
▁너무	-10.9123
▁꼬임	-10.9123
▁올린	-10.9123
하우스	-10.9123
▁겹쳐	-10.9123
배전반	-10.9124
.0+	-10.9124
▁병원이송	-10.9124
▁에어컨	-10.9124
▁특이사항	-10.9124
▁갈고리	-10.9124
테스트	-10.9124
▁깔고	-10.9124
▁의사소견	-10.9124
▁진흙	-10.9124
▁옹이	-10.9124
▁에어호스	-10.9125
내국인	-10.9125
Jack	-10.9125
▁해지장치	-10.9125
정수장	-10.9125
▁주지시키고	-10.9125
▁눌리	-10.9126
▁심정지	-10.9126
▁토출	-10.9126
▁폼타이	-10.9126
▁누르	-10.9126
▁문턱	-10.9126
▁없었고	-10.9126
▁경보장치	-10.9126
▁분출	-10.9127
▁종골	-10.9127
▁폐콘크리트	-10.9127
▁안내벽	-10.9127
▁잔토	-10.9127
▁결여	-10.9129
링크	-10.9129
▁내려올	-10.913
▁철근절곡기	-10.9131
▁모양	-10.9131
▁권유	-10.9132
▁어깨통증	-10.9133
▁PL	-10.9133
중공업	-10.9134
▁전북	-10.9134
▁하카	-10.9134
▁엔진톱	-10.9135
▁우각부	-10.9135
▁금이간	-10.9135
▁넘어질	-10.9135
▁볼트체결	-10.9135
▁복공	-10.9135
▁왼손검지	-10.9136
▁13:30	-10.9137
▁수평거리	-10.9138
▁안전장갑	-10.9138
▁안전율	-10.9138
▁소화전	-10.914
▁시공계획서	-10.914
▁인정할	-10.9141
▁잡다가	-10.9141
▁아치	-10.9141
▁지표면	-10.9142
▁각막	-10.9142
▁보조기구	-10.9142
▁호흡용	-10.9146
▁미끄러진	-10.9147
▁운용	-10.9147
▁설정하고	-10.915
▁자재적재	-10.9155
▁전락	-10.9158
▁우측다리	-10.9158
▁주변상황	-10.9158
▁골절되었음	-10.9159
에이치	-10.9159
▁좌측손	-10.916
▁지지점	-10.9161
▁가조립	-10.9164
▁상체	-10.9165
▁1~2	-10.9165
▁찍	-10.917
▁철근절단기	-10.9172
▁파악하지	-10.9172
▁해체순서	-10.9172
▁출동	-10.9175
▁함석	-10.9177
(06	-10.9179
프라	-10.9182
▁낙상함	-10.9182
▁감시인	-10.9184
▁결빙구간	-10.9194
▁다수	-10.9194
받았다고	-10.9196
▁가져	-10.9196
요령	-10.9198
▁외관	-10.9199
▁협	-10.9205
▁진행하던중	-10.9208
▁보양지	-10.9208
▁낀	-10.9215
▁치다가	-10.9215
▁연락하여	-10.9217
작업방법	-10.9226
▁숙소	-10.9227
▁미장공사	-10.9232
▁옆면	-10.9236
사거리	-10.924
▁보통	-10.9241
▁동료인	-10.9245
▁공용	-10.9248
▁달라	-10.926
▁입고	-10.9262
▁BOX	-10.9264
▁덩어리	-10.9264
▁하부작업자	-10.9267
마대	-10.9268
▁착용하지	-10.9273
▁발코니에서	-10.9276
#3	-10.9278
▁선반	-10.9279
▁아프다	-10.9281
▁철선에	-10.9284
수칙	-10.9286
▁아무	-10.9291
▁가구	-10.9297
▁협력업체인	-10.9303
▁보온작업	-10.9304
▁시공사에	-10.9308
▁강판	-10.9311
▁발판사이	-10.9336
▁간단	-10.9339
▁0.5	-10.9341
방지대책	-10.9343
▁202	-10.9345
▁동결	-10.9359
▁방지장치	-10.9365
없	-10.9375
▁밀다	-10.9391
▁절단면	-10.9392
▁회전톱	-10.9401
▁502	-10.9411
대원	-10.9412
▁가도	-10.9425
▁기초바닥	-10.9432
단하고	-10.9436
능	-10.9436
▁반대	-10.9438
lo	-10.9439
▁오던	-10.9442
85	-10.9444
▁내려오기	-10.946
▁교통사고	-10.9474
▁철근운반	-10.9477
▁박혀있	-10.9479
▁내려치	-10.948
▁깨	-10.9481
▁강관파이프에	-10.949
▁후진시	-10.9494
말뚝	-10.9503
승강로	-10.9504
넘	-10.9504
▁연결되어	-10.9505
현황	-10.9507
=2.	-10.951
강관파이프	-10.9511
▁짚는	-10.9518
(***	-10.9518
▁필요로	-10.9518
서포트	-10.9522
직경	-10.9523
▁작업복	-10.9523
수정	-10.9524
천막	-10.9525
▁장애물이	-10.9526
머리	-10.9526
밴딩기	-10.9528
PC	-10.9535
화재	-10.9536
기존	-10.9538
(50	-10.9541
시행	-10.9545
▁마다	-10.9573
▁가시설공사	-10.9574
▁빼내려	-10.9587
열상	-10.9597
모서리에	-10.9602
▁퍼티	-10.9604
책	-10.9609
▁어깨부위	-10.9612
오다가	-10.9614
계단에서	-10.9632
▁돌리	-10.9666
3.5	-10.967
▁드럼에	-10.9679
▁묻	-10.9688
목수	-10.9691
조경	-10.9694
차장	-10.9695
▁ᄋᄋᄋ씨	-10.97
련	-10.9702
▁2020.12.	-10.9705
았고	-10.9706
몰	-10.9706
폰	-10.9707
휀	-10.9708
▁증축	-10.9709
▁버림	-10.971
랫	-10.9711
싱	-10.9711
체중이	-10.9711
PILE	-10.9712
Span	-10.9712
▁EPS	-10.9712
▁공기압축기	-10.9712
▁깁스	-10.9712
▁꺾여	-10.9712
▁덮쳐	-10.9712
▁뒤틀림	-10.9712
▁받았습니다	-10.9712
▁붙임	-10.9712
▁비산먼지	-10.9712
▁사료됨	-10.9712
▁산소결핍	-10.9712
▁생계형	-10.9712
▁순간풍속	-10.9712
▁압롤박스	-10.9712
▁짧은	-10.9712
▁찧어	-10.9712
▁커튼월	-10.9712
왕	-10.9712
짜	-10.9712
햄	-10.9712
▁빗물받이	-10.9712
▁텐션	-10.9712
▁달포대	-10.9712
▁케이슨	-10.9712
하수처리장	-10.9712
▁억제	-10.9712
▁안전계수	-10.9712
사무소	-10.9712
▁운행경로	-10.9712
▁받았고	-10.9712
▁정상근무	-10.9712
▁압축	-10.9713
▁가스용기	-10.9713
▁걸어가다	-10.9713
하였지만	-10.9713
▁던져	-10.9713
▁교환	-10.9713
▁탈거	-10.9713
▁떨어질	-10.9714
정형외과의원	-10.9714
▁개인질병	-10.9714
▁심해져	-10.9714
▁버킷에	-10.9714
▁직영반장	-10.9715
▁남양	-10.9715
▁없었음	-10.9715
톤트럭	-10.9715
▁불가피	-10.9715
▁앙카볼트	-10.9715
▁함몰	-10.9715
▁입힘	-10.9715
▁결박	-10.9716
▁타이볼트	-10.9716
▁꽂	-10.9716
▁핸드드릴	-10.9716
▁대형거푸집	-10.9717
▁문제점	-10.9717
▁기상상태	-10.9717
▁소화배관	-10.9718
▁있음에도	-10.9718
▁평소	-10.9719
되었으나	-10.9719
▁밟음	-10.972
▁탈구	-10.972
▁지름	-10.9721
▁불편함	-10.9722
▁걸어가던	-10.9722
▁지그	-10.9723
▁통합	-10.9723
▁긴결재	-10.9725
▁방안	-10.9728
1-1	-10.9728
▁미보고	-10.9728
▁요양급여신청서	-10.9729
▁베여	-10.9729
▁보존	-10.9731
▁작업안전	-10.9732
니다	-10.9738
▁우측팔	-10.9739
9-1	-10.9741
Cable	-10.9741
▁용접봉	-10.9742
▁해치	-10.9742
▁기종	-10.9744
▁어린이집	-10.9744
▁돌출물	-10.9749
▁단관	-10.975
▁오르는	-10.975
▁옹벽거푸집	-10.9752
▁협착재해	-10.9753
▁철골자재	-10.9753
플러	-10.9753
▁추락방지대	-10.9753
다발	-10.9757
▁인하	-10.9757
▁있기	-10.9759
▁양중장비	-10.976
레스	-10.9761
▁함유	-10.9763
▁통보함	-10.9764
▁일단	-10.9766
되나	-10.9768
▁「	-10.977
▁진술에	-10.977
▁우리	-10.9772
▁지연보고	-10.9772
있습니다	-10.9777
▁사진	-10.978
▁확보되지	-10.9784
▁원형톱날	-10.9785
▁가던중	-10.9789
v	-10.9795
▁무너	-10.9795
ON	-10.9796
▁마스크	-10.9796
▁미숙지	-10.9799
▁수거	-10.98
▁완료한	-10.9803
▁부딪히고	-10.9804
▁일어서는	-10.9806
▁보여	-10.9807
▁*****	-10.9808
(100	-10.9809
▁발병	-10.9812
▁들어올리다	-10.9816
▁신축현장에서	-10.9816
수받이	-10.9818
▁취하고	-10.9822
▁접질리는	-10.9822
▁정리하기	-10.9827
건설산업	-10.9828
▁포함하여	-10.9837
▁내려놓다	-10.9841
▁증상이	-10.9841
▁교차	-10.9841
▁안전계단	-10.9847
▁AM	-10.9847
▁보임	-10.9849
▁기사와	-10.9851
4,5	-10.9852
▁외부계단	-10.9859
요원	-10.986
▁작업전선	-10.9863
▁놓쳐서	-10.9865
BH	-10.987
▁작업범위	-10.987
▁자르다	-10.9874
▁전정	-10.9877
▁우마발판	-10.9879
▁심해	-10.9882
TG	-10.9883
▁결속하고	-10.9887
▁이력	-10.9896
(1.8	-10.9896
▁형틀작업자	-10.9898
받침대	-10.9903
▁경사도	-10.9907
1200	-10.9908
시키던	-10.991
▁제작장에서	-10.9913
파기	-10.992
하여야하나	-10.9924
▁먹메김	-10.9927
매설	-10.9942
▁철근작업자	-10.9949
표시를	-10.9949
▁조립하기	-10.995
▁1.6	-10.995
오거	-10.9951
▁->	-10.9954
미숙으로	-10.9959
Ch	-10.9959
▁마감재	-10.996
▁걸어서	-10.996
▁시설물에	-10.9961
▁제거하지	-10.9987
▁실시하던	-10.9987
▁작동시켜	-10.9987
▁형틀작업중	-10.999
▁리어카에	-10.9993
▁든	-11.0006
▁잠수작업	-11.0016
▁※	-11.0019
▁일시적	-11.002
▁경부	-11.0023
▁1.3	-11.0029
▁갖추	-11.0033
▁공법으로	-11.0036
▁강한	-11.0041
관리자에게	-11.0051
▁인근병원	-11.0059
▁자료	-11.0059
발목	-11.0064
▁요추부	-11.0067
▁공단	-11.007
▁BEAM	-11.007
소지	-11.0083
▁상부작업자	-11.0095
▁개소	-11.01
조종원	-11.0115
▁않아서	-11.0126
떠	-11.0127
슈	-11.0128
심근경색	-11.0128
둥근톱	-11.0131
PIT	-11.0131
허벅지	-11.0131
월요일	-11.0132
롤러	-11.0133
너트	-11.0136
올라	-11.0137
보호구	-11.0138
단순	-11.0142
코어	-11.0149
통신	-11.0151
4-2	-11.0153
62	-11.0166
비계에서	-11.0166
전문	-11.0166
▁포장공사	-11.0169
오른손	-11.0171
측으로	-11.0188
▁나오	-11.0197
경사로	-11.0201
▁잡으려	-11.0211
▁넘어가던	-11.0212
▁단독작업	-11.0214
▁현장관리자	-11.0215
▁후속작업	-11.0224
카고	-11.0229
▁보철근	-11.0229
▁첫마디	-11.024
부근에서	-11.0248
재단	-11.0252
대학병원	-11.0267
▁하되	-11.0268
▁풍	-11.0276
▁상수관	-11.0278
▁연결한	-11.0299
▁산소절단	-11.0309
▁근무중	-11.0313
추간판	-11.0314
▁의식이	-11.0318
▁요양급여신청	-11.0319
ge	-11.0322
▁터널내	-11.0327
▁일부분	-11.0327
푸	-11.0328
▁압송	-11.0329
첨	-11.0329
께	-11.033
학교	-11.0332
▁후진중	-11.0333
▁체결하여	-11.0333
럼	-11.0334
삭	-11.0336
컨	-11.0336
▁톤백	-11.0337
샤	-11.0337
쏘	-11.0337
▁그라인딩	-11.0337
▁석탄취급설비	-11.0337
▁싣던	-11.0337
▁실족방지망	-11.0337
▁안전보건규칙	-11.0337
▁암롤박스	-11.0337
▁죄측	-11.0337
▁콧등	-11.0337
▁트롤리	-11.0337
▁특징	-11.0337
탐	-11.0337
▁겹침	-11.0337
▁개인지병	-11.0337
▁노무자	-11.0337
▁불안전행동	-11.0337
▁올릴	-11.0337
▁사각지대	-11.0337
투바이	-11.0337
▁밸트	-11.0337
▁빨리	-11.0337
▁갑판	-11.0337
▁보안면	-11.0337
▁렌치	-11.0337
▁안전장구	-11.0337
▁생김	-11.0337
▁굴진	-11.0337
▁충진	-11.0337
▁익일	-11.0337
nch	-11.0337
▁노끈	-11.0337
▁계측값	-11.0337
▁미숙련	-11.0337
▁기중기	-11.0338
▁받았으나	-11.0338
▁스텐	-11.0338
▁괜찮다고	-11.0338
▁비상정지	-11.0338
▁근육파열	-11.0338
▁근생	-11.0338
▁트레이	-11.0339
▁세척	-11.034
▁소켓	-11.034
▁행거	-11.034
▁회전반경	-11.034
개발사업	-11.0341
▁이빨	-11.0341
▁창문틀	-11.0341
▁개인부주의	-11.0341
▁원지반	-11.0341
▁착수	-11.0341
▁강관동바리	-11.0342
▁부검	-11.0343
▁개착	-11.0343
▁광양	-11.0344
▁일어	-11.0344
▁진단받음	-11.0344
▁알림	-11.0345
▁전동기계	-11.0346
▁탈락되며	-11.0346
▁의하면	-11.0347
▁공벽	-11.0347
▁계측결과	-11.0347
▁폭설	-11.0348
▁목재절단	-11.0349
▁도입	-11.0349
▁타입	-11.0349
▁연계	-11.0349
▁부서지	-11.0349
▁좌측어깨	-11.0349
▁찢어지고	-11.035
▁허리부상	-11.035
▁사전점검	-11.035
LC	-11.035
▁하루	-11.035
IC	-11.0351
▁입회	-11.0351
▁3~4	-11.0351
▁08:30	-11.0352
▁적정여부	-11.0354
▁않았고	-11.0355
▁물품	-11.0355
▁방통	-11.0355
▁결선	-11.0356
▁전담	-11.0356
▁당초	-11.0357
적벽돌	-11.0357
▁발바닥	-11.0357
▁안전덮개	-11.0358
▁주변지반	-11.0358
▁광차	-11.0358
▁긴장력	-11.0358
▁못하였고	-11.0359
▁국도	-11.036
▁일산	-11.036
▁DH	-11.0361
▁PT	-11.0361
▁서류	-11.0362
번길	-11.0363
▁6>	-11.0364
▁폭약	-11.0365
▁내려오지	-11.0368
▁일어나는	-11.0372
▁굴착부	-11.0373
▁실시하였고	-11.0379
▁기둥과	-11.0379
▁기계기구	-11.0379
▁역순	-11.0379
▁작업배치	-11.038
▁고통	-11.0382
▁상당	-11.0382
:05	-11.0382
▁하지만	-11.0384
▁공공	-11.0384
▁경골	-11.039
ᄋᄋ	-11.0395
▁요청함	-11.0396
▁채용	-11.04
해당	-11.0402
▁주입재	-11.0405
1.4	-11.0405
▁시공계획	-11.0406
20.11.	-11.0409
하겠다	-11.0411
▁사망자	-11.0416
▁두개	-11.0422
▁투입되어	-11.0424
▁예인	-11.0424
▁심장	-11.0424
▁배면부	-11.0425
▁굴착장비	-11.0425
▁전기선	-11.0431
▁평탄한	-11.0435
▁제조	-11.044
▁일상	-11.0445
▁진동기	-11.0451
레일	-11.0451
▁샌드위치	-11.0453
▁양단	-11.0461
끼리	-11.0462
▁막장에서	-11.0466
1.7	-11.0466
▁가시설물	-11.0466
▁침하방지	-11.0475
▁사고조사	-11.0475
0.7	-11.0483
▁의자	-11.0486
▁작업신호	-11.0493
▁지표	-11.0501
▁적은	-11.0504
▁J	-11.0508
(2.5	-11.0513
▁해체공사	-11.0532
▁흙바닥	-11.0543
▁연결재	-11.055
▁투입하여	-11.0553
▁다쳐	-11.0562
▁기기	-11.0571
해체작업중	-11.0578
▁탑승한	-11.0586
▁허가	-11.0588
▁낙상하여	-11.0602
▁연결하고	-11.0621
▁낙하사고	-11.0627
복사	-11.0631
▁올리다	-11.0631
▁조작하여	-11.0635
▁통보받	-11.064
▁113	-11.0643
수도관	-11.0654
▁당사에서	-11.066
▁기지	-11.0672
▁본동	-11.0679
▁관리자가	-11.0684
▁수레에	-11.0688
▁관절염	-11.0689
▁양중물	-11.0699
중심	-11.0715
▁작업구간으로	-11.0718
▁항시	-11.0725
신축공사	-11.0726
▁휘	-11.0729
▁설치하던중	-11.073
미숙	-11.0741
▁움직이다	-11.0749
1.3	-11.0752
▁들어오	-11.0754
확	-11.0756
▁안된	-11.0756
▁진행하는	-11.0758
3.0	-11.0772
도면	-11.0785
플레이트	-11.0795
디뎌	-11.0795
잭	-11.0795
귀	-11.0795
윤	-11.0797
케이지	-11.0797
버팀보	-11.0798
앵커	-11.0798
팔꿈치	-11.0798
횡	-11.0799
파악	-11.08
충돌	-11.0801
모터	-11.0803
이동통로	-11.0804
연골	-11.0806
북도	-11.0808
외벽	-11.0814
마감재	-11.0814
▁감리	-11.0823
200)	-11.0825
조절	-11.0826
입원	-11.083
건설기계	-11.0844
▁간과	-11.0846
~8	-11.0851
되자	-11.0851
서울	-11.0859
판정	-11.0865
안전대	-11.0866
당사	-11.0867
천교	-11.0887
▁말려들어	-11.0895
~7	-11.0896
▁책임	-11.0896
ve	-11.0909
▁부주의하게	-11.0911
’	-11.0911
▁체결된	-11.0927
형태	-11.0931
여서	-11.0933
▁걸기	-11.0933
▁그라인더날	-11.0959
애	-11.0964
▁숙련	-11.097
▁우수관	-11.0972
▁종사	-11.0973
▁원위지골	-11.0975
▁않았	-11.0978
▁부대	-11.0979
▁교사	-11.0986
▁케이	-11.099
▁끊어지	-11.0991
▁강당	-11.0992
▁전파	-11.0996
밴	-11.1
춤	-11.1001
촉	-11.1002
즈	-11.1002
얼	-11.1002
뛰	-11.1003
펜	-11.1003
엇	-11.1003
▁CCTV	-11.1003
▁겨드랑이	-11.1003
▁꼬리뼈	-11.1003
▁물질안전보건자료	-11.1003
▁생물반응조	-11.1003
▁스프레이	-11.1003
▁안전기울기	-11.1003
▁일직선	-11.1003
▁찢어져	-11.1003
▁태우이엔지	-11.1003
▁트랙	-11.1003
▁파형강관	-11.1003
▁프리스트레스	-11.1003
낸	-11.1003
콘테이너	-11.1003
Lug	-11.1003
▁CPB	-11.1003
▁멈춤	-11.1003
▁슬라임	-11.1003
▁습윤	-11.1003
뿐	-11.1003
▁그물코	-11.1003
▁빨려	-11.1003
피니셔	-11.1003
▁족관절	-11.1003
드레인	-11.1003
발전소	-11.1003
▁주형보	-11.1003
▁RCS	-11.1003
▁선도관	-11.1003
▁공조기	-11.1003
▁완벽	-11.1003
▁밀리며	-11.1003
▁법령에	-11.1003
▁미니굴삭기	-11.1004
▁활차	-11.1004
▁팀원	-11.1004
▁갑작스럽	-11.1004
▁센서	-11.1004
▁문짝	-11.1004
럭스	-11.1004
▁고압전선	-11.1004
▁생산	-11.1005
▁풍하중	-11.1005
▁면장갑	-11.1005
▁어려워	-11.1005
▁맞은편	-11.1005
=1.5	-11.1005
▁미끄러움	-11.1005
▁압입	-11.1005
▁활동	-11.1005
▁파일항타	-11.1006
▁정렬	-11.1006
▁허용하중	-11.1006
▁방수턱	-11.1006
▁포항	-11.1006
▁기울어짐	-11.1006
▁목장갑	-11.1006
▁침설	-11.1007
TON	-11.1007
▁부속품	-11.1007
▁과거	-11.1008
▁오른속	-11.1008
▁대좌	-11.1009
▁오른손가락	-11.101
▁매입	-11.101
▁공기압	-11.1011
▁끝난	-11.1011
▁떼	-11.1012
잭베이스	-11.1012
▁공종별	-11.1012
▁버티지	-11.1015
▁유격	-11.1016
▁없으나	-11.1016
▁승차	-11.1017
이었음	-11.1017
▁파손되며	-11.1017
▁올라간	-11.1019
▁연소	-11.1021
▁지반조건	-11.1022
▁부축	-11.1022
▁외상성	-11.1022
▁TS	-11.1023
▁수평부재	-11.1023
호라인	-11.1023
▁우측무릎	-11.1023
▁앵커체	-11.1025
▁바이브레이터	-11.1026
▁감아	-11.1027
버스	-11.1028
용기	-11.1028
▁장비신호수	-11.1029
▁가로수	-11.1029
▁운반대차	-11.1029
0.6	-11.103
▁좌측팔	-11.103
▁비상구	-11.103
▁CD	-11.1031
▁터빈동	-11.1031
▁열차	-11.1033
▁부여	-11.1035
측면	-11.1035
▁대표	-11.1035
▁미조치	-11.1038
▁승강사다리	-11.104
▁스티로폼	-11.104
▁줌	-11.104
▁숙이	-11.1042
▁흔들리며	-11.1042
▁강타함	-11.1043
▁골절진단	-11.1044
▁매단	-11.1045
▁골절부상	-11.1045
▁지식	-11.1045
▁보온재	-11.1045
개방성	-11.1048
▁코뼈	-11.1051
▁사용법	-11.1053
▁주유	-11.1055
pe	-11.1059
▁경사발판	-11.1059
단차	-11.1062
▁올리고	-11.1062
▁보호공	-11.1073
▁짚고	-11.1075
▁설계도	-11.1075
▁밀어내	-11.1076
차례	-11.1079
▁밀고	-11.1084
▁동해	-11.1085
했음	-11.1091
▁미끄러지지	-11.1095
▁걸이로	-11.1096
▁추락위험이	-11.1096
RP	-11.1103
▁진주	-11.1104
▁용인	-11.1104
▁현대	-11.111
63	-11.1119
▁작업책임자	-11.112
▁수벽	-11.1128
▁내방	-11.1134
▁0.8	-11.1134
▁방수공사	-11.1135
▁제거하던중	-11.1139
▁판단하고	-11.114
종합병원	-11.115
▁용접사	-11.1151
하였음에도	-11.1151
▁건설자재	-11.1162
▁설치기준	-11.1166
들고	-11.1169
▁화단	-11.1169
▁걸려있는	-11.117
▁부근에	-11.117
▁내력	-11.1171
▁감독자	-11.1171
▁좌수	-11.1182
▁적재하던	-11.1189
▁확인됨	-11.1193
생활관	-11.1201
▁문화	-11.1201
▁확인하며	-11.1216
운반중	-11.1221
넘어지면서	-11.1222
단부에	-11.1223
0.15	-11.1238
▁상차작업	-11.1241
▁비치하여	-11.1247
설치공사	-11.1255
▁실시함	-11.1276
작업도중	-11.1287
▁머리부분	-11.1289
▁발받침	-11.1293
▁인양구	-11.1294
▁당현장에서	-11.1295
수량	-11.1304
기계장치	-11.1321
▁마감공사	-11.133
▁가능하다	-11.1331
▁조공	-11.1332
▁매일	-11.1333
▁되어있는	-11.1339
▁1.4	-11.1351
할때	-11.1371
▁설치방법	-11.1372
분야	-11.138
▁실시하는	-11.1382
▁부족한	-11.1387
▁사용전	-11.1388
▁앞부분	-11.1394
▁정리하고	-11.1401
원형톱	-11.1444
▁지지하여	-11.1451
▁수조	-11.1494
▁종합적	-11.1495
직영	-11.1499
ool	-11.15
흙	-11.1511
묶음	-11.1512
밖	-11.1512
버팀대	-11.1512
피재자	-11.1513
출혈	-11.1513
설치작업중	-11.1514
갱폼	-11.1514
▁무단	-11.1517
복합	-11.1517
베임	-11.1518
안전벨트	-11.1519
태만	-11.1521
운행	-11.1527
▁하물	-11.1536
▁설정하여	-11.1542
▁철골공사	-11.1546
▁묶여있	-11.1548
▁파악하고	-11.156
ent	-11.1565
도착	-11.1577
ᄋᄋ씨	-11.1588
과정중	-11.1596
추락방지용	-11.1602
았음	-11.1602
▁진단받	-11.1608
300)	-11.162
▁확인함	-11.162
ack	-11.1628
▁당기다	-11.1631
▁치다	-11.1649
석재	-11.1659
▁설명	-11.1674
▁결속작업	-11.1675
성군	-11.1677
이탈	-11.1687
▁멍애	-11.1701
▁자재반입	-11.1712
▁벗어	-11.1712
균	-11.1714
딪	-11.1714
탁	-11.1715
대비	-11.1716
밸	-11.1716
▁둥근	-11.1717
억	-11.1717
춘	-11.1717
▁하이드로	-11.1718
겼	-11.1718
릭	-11.1718
힐	-11.1718
j	-11.1718
▁Tank	-11.1718
냄	-11.1718
셀	-11.1718
PIPE	-11.1718
Ray	-11.1718
▁Ramp	-11.1718
▁골정상	-11.1718
▁귀마개	-11.1718
▁그라우트	-11.1718
▁끌려	-11.1718
▁냉각수	-11.1718
▁덮침	-11.1718
▁둘째	-11.1718
▁방향전환	-11.1718
▁불균형	-11.1718
▁비디아이	-11.1718
▁사보강재	-11.1718
▁산업재해조사표	-11.1718
▁안전보건총괄책임자	-11.1718
▁압쇄기	-11.1718
▁오랜기간	-11.1718
▁워킹타워	-11.1718
▁유압펌프	-11.1718
▁전기배선	-11.1718
▁중환자실	-11.1718
▁찧으	-11.1718
▁차징카	-11.1718
▁턴테이블	-11.1718
▁팔레트	-11.1718
▁펼치	-11.1718
▁호박돌	-11.1718
▁화학설비	-11.1718
▁흡입	-11.1718
밥	-11.1718
쌍	-11.1718
Out	-11.1718
EGI	-11.1718
▁구덩이	-11.1718
▁전산볼트	-11.1718
▁부디쳐	-11.1718
▁불분명	-11.1718
lock	-11.1718
▁생겨	-11.1718
▁2020.02.	-11.1718
CSI	-11.1718
▁불명확	-11.1718
▁뒤틀리	-11.1718
▁액체	-11.1718
▁아침조회	-11.1718
▁처방	-11.1718
▁미끄	-11.1718
▁활선	-11.1718
▁모멘트	-11.1718
▁건설용리프트	-11.1718
▁폐수처리	-11.1718
▁꼬여	-11.1718
▁착공	-11.1718
▁달대비계	-11.1718
▁시야확보	-11.1719
Kg	-11.1719
▁발휘	-11.1719
▁살피	-11.1719
▁강릉	-11.1719
▁피복손상	-11.1719
▁소요강도	-11.1719
▁라이닝폼	-11.1719
▁탈착	-11.1719
▁pc	-11.172
중족골	-11.172
=1.8	-11.172
▁면밀	-11.172
▁보호캡	-11.172
▁검진결과	-11.172
▁토사붕괴	-11.172
개설공사	-11.1721
▁직업	-11.1721
▁인력굴착	-11.1721
▁찍음	-11.1722
▁피하고자	-11.1722
▁골조업체	-11.1722
▁작아	-11.1723
▁철구조물	-11.1723
▁드럼통	-11.1723
번코어	-11.1723
▁걸침	-11.1724
▁강우량	-11.1724
▁깨진	-11.1725
▁ALC	-11.1725
▁토사반출	-11.1726
▁풍부	-11.1727
▁방심	-11.1727
▁호송	-11.1727
▁실린	-11.1727
▁물호스	-11.1727
▁열린	-11.1727
▁축력	-11.1728
▁이상없음	-11.1728
▁높아	-11.1728
▁점화원	-11.1729
▁공구사용	-11.1729
▁성질	-11.1731
▁잔해	-11.1731
▁레미콘차량	-11.1732
▁고덕	-11.1732
▁잡석	-11.1735
▁관리기준	-11.1735
▁면적	-11.1737
▁축조	-11.1738
▁왼쪽어깨	-11.174
▁PP	-11.1741
▁양호	-11.1742
▁찍어	-11.1743
▁조속	-11.1743
▁차체	-11.1743
▁직선	-11.1744
▁사양	-11.1744
▁진료결과	-11.1745
▁끼이며	-11.175
▁찾아와	-11.175
▁작동여부	-11.175
▁성명	-11.175
▁항목	-11.1752
▁뒷면	-11.1753
▁추진력	-11.1754
▁귀가함	-11.1755
▁발목골절	-11.1761
▁운전미숙으로	-11.1766
▁심사	-11.1766
▁자르는	-11.1767
▁때림	-11.1769
▁둔부	-11.177
▁위험기계	-11.1771
▁지급하고	-11.1772
▁감안	-11.1775
1.6	-11.1782
안전보건교육	-11.1784
▁관리적	-11.1786
▁맞으	-11.1788
▁잔여물	-11.1797
▁재차	-11.1798
▁다친사고	-11.1798
▁단계에서	-11.1799
▁떨어뜨리	-11.1801
▁철골설치	-11.1803
▁기계식	-11.1812
▁보관하고	-11.1815
▁음성	-11.1817
▁현장조사	-11.182
▁사장	-11.1821
트레	-11.1824
▁대화	-11.1824
▁보강조치	-11.1826
▁지정하고	-11.1827
▁발생하였다고	-11.1828
▁전류	-11.1829
▁ᄃ	-11.1837
▁발생되었음	-11.1838
인지못하고	-11.184
▁경사지에서	-11.1851
▁이미	-11.1852
▁적재되어있	-11.1857
▁사용방법	-11.1865
▁고정장치	-11.1866
으면	-11.1871
=0.	-11.1881
▁디스크	-11.1886
▁운반물	-11.1893
▁조적벽	-11.1898
▁제출하여	-11.1901
▁KS	-11.1902
구배	-11.1915
▁대기하던	-11.1915
▁소리가	-11.1915
▁허리부위	-11.1916
▁와중	-11.1917
▁싸	-11.1918
▁차단기	-11.1918
▁나서	-11.1921
▁소방서	-11.1923
▁진입하여	-11.1932
▁정강이뼈	-11.1938
ct	-11.1941
▁하역작업중	-11.1948
▁받던	-11.1955
▁동료작업자와	-11.1961
▁지면과	-11.1972
분간	-11.1979
▁올라와	-11.1982
▁취한	-11.1986
▁꺼내던	-11.199
▁통지	-11.1992
2.6	-11.1995
▁철골작업	-11.1995
▁일과	-11.1998
▁사고내용	-11.1998
:25	-11.2003
▁공중	-11.2029
▁2020.08.	-11.2031
▁자르던	-11.2034
공단	-11.2039
▁접근하여	-11.2042
▁소견으로	-11.2048
▁이동하려	-11.2052
연결부	-11.2057
공구현장	-11.2067
▁기초공사	-11.2079
▁설치해야	-11.2079
2.9	-11.2094
▁부족하여	-11.2099
남자	-11.2138
▁전기공	-11.2161
▁빼려	-11.2165
▁뒷채움	-11.2175
▁골절재해	-11.2212
오른	-11.224
▁양중하던	-11.225
싸	-11.2275
J	-11.2276
벌	-11.2278
▁튀어오르	-11.2279
하도급	-11.2279
아시바	-11.2279
틈	-11.228
프레임	-11.228
패드	-11.2281
목요일	-11.2281
인화성	-11.2281
몸	-11.2281
몰탈	-11.2281
필요	-11.2282
고소작업대	-11.2282
토류판	-11.2284
취급	-11.2284
▁내려서	-11.2285
중앙	-11.2285
중량물	-11.2288
사고당일	-11.229
반생	-11.229
타이어	-11.2291
체계	-11.2308
형틀공	-11.2308
피해자	-11.2309
부상자	-11.2312
입음	-11.2316
토목	-11.2337
▁아산	-11.2338
~4	-11.2339
▁오른손등	-11.2341
증후군	-11.2344
▁하차중	-11.2354
▁운행중	-11.237
표면	-11.2373
외상	-11.2376
▁HO	-11.2381
신축공사현장	-11.239
▁떨어뜨	-11.2394
▁날리	-11.2394
사무실	-11.2397
▁운전중	-11.2407
▁놓지	-11.241
▁정착부	-11.2415
▁병원방문	-11.2418
▁체결작업	-11.2424
설치작업	-11.2434
▁포설작업	-11.2434
▁회전부	-11.2439
▁벤딩	-11.2439
동작	-11.2448
▁터빈	-11.2454
▁배관설치	-11.2455
▁현장내부	-11.2455
왔으며	-11.2457
▁분배	-11.2461
▁올려주	-11.2464
꺽	-11.248
▁폐쇄	-11.2482
윈	-11.2483
눌	-11.2483
성능	-11.2485
흘	-11.2485
▁늦어	-11.2486
▁튕김	-11.2486
객	-11.2487
펀	-11.2487
닝	-11.2487
▁PBD	-11.2487
▁걸레받이	-11.2487
▁공기호흡기	-11.2487
▁글라인더	-11.2487
▁끊어치기	-11.2487
▁도시형생활주택	-11.2487
▁리어커	-11.2487
▁먹매김	-11.2487
▁미끌리	-11.2487
▁발걸림	-11.2487
▁방염포	-11.2487
▁붙여	-11.2487
▁빗자루	-11.2487
▁송기마스크	-11.2487
▁숙박시설	-11.2487
▁않기	-11.2487
▁웅덩이	-11.2487
▁죔줄	-11.2487
▁지하연속벽	-11.2487
▁짊어지	-11.2487
▁체크리스트	-11.2487
▁타정총	-11.2487
▁홈메우기	-11.2487
▁화재감시인	-11.2487
▁흐트러	-11.2487
댄	-11.2487
웠	-11.2487
▁PRD	-11.2487
▁기숙사	-11.2487
▁노무사	-11.2487
▁쉬스관	-11.2487
▁스페이	-11.2487
▁용수개거	-11.2487
산승각	-11.2487
▁구부러	-11.2487
▁발주청	-11.2487
▁징크	-11.2487
▁균등	-11.2487
▁끝내고	-11.2487
▁신축이음	-11.2487
▁가지치기	-11.2487
▁너비	-11.2487
저류조	-11.2487
▁오르내리	-11.2487
▁2021.12.	-11.2487
▁수장공사	-11.2487
▁검수	-11.2487
▁그리고	-11.2487
▁곡선	-11.2488
▁기인물	-11.2488
▁프리	-11.2488
▁절토	-11.2488
▁크램프	-11.2488
▁균일	-11.2488
▁한손에	-11.2488
▁NO	-11.2488
▁기상조건	-11.2488
▁의뢰	-11.2488
kN	-11.2489
▁조성사업	-11.2489
▁떨어뜨림	-11.2489
▁방호덮개	-11.2489
▁품질관리	-11.2489
▁해빙	-11.249
▁전동톱	-11.249
▁보호커버	-11.249
▁TTP	-11.249
▁꽂아	-11.2491
▁인접건물	-11.2491
▁기초철근배근	-11.2491
▁새벽	-11.2491
▁차폐	-11.2491
▁추락위험	-11.2492
▁승용차	-11.2492
▁이행여부	-11.2492
▁화염	-11.2492
▁부분파열	-11.2493
▁매달아	-11.2493
▁단열	-11.2494
단띠장	-11.2494
▁과열	-11.2495
▁일으키	-11.2495
▁강관틀비계	-11.2496
la	-11.2496
▁설계조건	-11.2497
▁명기	-11.2497
▁좌안	-11.2498
▁구두	-11.2498
▁상향	-11.2498
▁물탱크실	-11.2498
▁설계기준	-11.2498
▁전력선	-11.2499
▁복원	-11.2499
▁단축	-11.2499
통신케이블	-11.2499
분쯤	-11.2499
▁침목	-11.25
▁자루	-11.25
▁주변주차장	-11.25
EA	-11.2501
▁동행	-11.2501
▁쇠파이프	-11.2501
▁조명시설	-11.2501
▁추락방지시설	-11.2501
▁알폼핀	-11.2502
▁조합	-11.2503
▁강박스	-11.2503
▁기존구조물	-11.2504
▁로비	-11.2504
▁안전커버	-11.2504
▁지조립	-11.2504
▁인장력	-11.2505
▁노후화	-11.2505
▁EV	-11.2506
▁안전지침	-11.2506
Lifting	-11.2506
▁목포	-11.2506
▁채우	-11.2507
▁지반조사	-11.2507
▁로드	-11.2508
▁다발성	-11.2509
▁지열	-11.251
▁말단	-11.2511
▁헛디디면서	-11.2512
▁밀차	-11.2513
▁잡으려고	-11.2513
▁동반한	-11.2513
▁근무하였으나	-11.2514
▁유지관리	-11.2515
▁합판절단	-11.2516
----------------	-11.2517
▁장선재	-11.2517
▁대신	-11.2518
▁왼손중지	-11.2519
▁필요하다고	-11.2521
▁절리	-11.2521
▁골절상해	-11.2521
▁방호구	-11.2522
▁7>	-11.2523
▁고양	-11.2525
▁가용접	-11.2525
▁영구	-11.2526
▁제조사	-11.2526
▁전기배관	-11.2526
▁착용여부	-11.2527
▁산소절단기	-11.2528
▁빼지	-11.253
▁부산물	-11.253
▁토공사	-11.2533
ch	-11.2537
연합	-11.254
▁주변정리	-11.254
효과	-11.2541
▁미끄럼방지	-11.2542
▁도어	-11.2542
▁시운전	-11.2542
▁안전핀	-11.2542
▁바닥슬라브	-11.2544
▁강원	-11.2544
▁슬개골	-11.2547
▁안전기준	-11.2548
▁압박골절	-11.2548
▁시작전	-11.255
▁사망사고	-11.2551
▁함체	-11.2554
▁신청함	-11.2554
▁비상용	-11.2555
▁이동시키는	-11.2556
▁지붕판	-11.2556
▁전도방지조치	-11.2558
▁잠수부	-11.2558
▁구간내	-11.2559
▁정전기	-11.2567
▁내려야	-11.2567
▁******	-11.257
▁동료근로자와	-11.2572
▁안전사항	-11.2573
▁진단됨	-11.2574
▁낙하되면서	-11.2576
▁분리하기	-11.2578
▁패	-11.2579
▁일용	-11.2581
▁Plate	-11.2582
▁등록	-11.2583
▁신고함	-11.2585
9.11.	-11.2586
▁장화	-11.2591
▁관로공	-11.2591
▁밟은	-11.2593
▁’2	-11.2594
▁상처부위	-11.2595
▁파고	-11.2596
▁3.2	-11.2599
▁한쪽발	-11.2603
▁방치하여	-11.2605
▁올라서다	-11.2613
owe	-11.262
▁중이었음	-11.2622
▁상병	-11.2624
▁안성	-11.2627
▁한장	-11.2631
▁정상작업	-11.2634
▁전석	-11.2635
▁작업지침	-11.264
▁작업공정	-11.2647
▁외함	-11.2654
▁비산물	-11.2654
▁당진	-11.2655
▁손톱부분	-11.2662
▁보조공	-11.2663
▁밀폐공간에서	-11.2666
▁입지	-11.2669
▁사고신고	-11.2674
계통	-11.2674
▁디디	-11.2678
▁빠져나오	-11.268
▁해지	-11.268
▁묶여	-11.2681
▁인지하게	-11.2691
▁사고발생함	-11.2691
▁한번	-11.2691
(0.6	-11.2698
▁현장사무실로	-11.2712
▁개인적	-11.2726
▁가설전선	-11.2738
▁옥상층에서	-11.2742
▁고정식	-11.2758
공영	-11.2759
▁신중	-11.2759
▁이천	-11.2769
▁제거작업중	-11.2785
북면	-11.2789
▁이탈방지	-11.2791
▁이외에	-11.2803
적요인	-11.281
▁느슨해	-11.2814
▁관로공사	-11.2815
나온	-11.282
대학교병원	-11.2823
▁작업장내	-11.2823
장씩	-11.2825
▁박혀	-11.2826
▁내려오는중	-11.2826
▁탑승자	-11.2839
▁시공사에서	-11.285
▁구름방지	-11.2853
나오면서	-11.2857
▁무릎부위	-11.2857
관측	-11.2879
▁항타작업	-11.2894
▁배수지	-11.2903
▁피하려	-11.2906
▁목자재	-11.2926
gg	-11.2926
경보기	-11.2942
저장	-11.2945
▁대비한	-11.2962
▁느슨	-11.2976
▁지적	-11.2988
▁재개	-11.2995
▁운전실	-11.2999
확인사항	-11.3022
=1	-11.3023
작업장에서	-11.3039
담당	-11.3046
3,4	-11.3062
`	-11.3082
밴딩	-11.3082
▁각부	-11.3084
▁다리부분	-11.3086
▁직접적	-11.3089
5.5	-11.3094
사망자	-11.3109
값	-11.3109
끈	-11.311
BOX	-11.311
덩어리	-11.311
생활	-11.3111
▁우회	-11.3113
뒷	-11.3113
넣	-11.3113
세우기	-11.3114
비닐	-11.3115
경계석	-11.3115
KS	-11.3115
집수정	-11.3116
접촉	-11.3116
걸려	-11.3116
손톱	-11.3117
최초	-11.3117
새끼손가락	-11.3118
따라	-11.3118
띠장	-11.312
사고내용	-11.3122
양생	-11.3125
화물	-11.3127
최대	-11.3131
보행	-11.3143
▁타현장	-11.3143
상승	-11.3149
취부	-11.3154
이하로	-11.3157
▁개선	-11.3158
잡고	-11.3164
공업	-11.3167
▁내외	-11.3171
키지	-11.3186
배수지	-11.3191
▁지켜	-11.3192
걸음	-11.3194
▁깔려있	-11.3195
선회	-11.3197
접지	-11.3203
시키려	-11.3204
고정용	-11.3209
광주	-11.321
중이었으며	-11.3222
식재	-11.3229
▁하역하던	-11.323
▁멈추기	-11.3233
▁지붕작업	-11.3251
▁전선설치	-11.3261
▁빼다	-11.3267
▁밀림	-11.3284
▁살수작업	-11.3288
으려	-11.3296
▁느끼	-11.3301
▁비계자재	-11.3302
▁타일자재	-11.3309
선반	-11.3311
▁종점	-11.3316
오차	-11.3317
위지골	-11.3319
램	-11.3319
▁견출공	-11.332
맹	-11.332
eck	-11.332
휠	-11.332
략	-11.332
▁한국산업표준	-11.332
▁열수송관	-11.332
▁트레미관	-11.332
▁피난안전구역	-11.332
하겠습니다	-11.332
Duct	-11.332
Line	-11.332
▁Girder	-11.332
▁긁히	-11.332
▁다쳤음	-11.332
▁몰탈혼합기	-11.332
▁버럭	-11.332
▁벽돌쌓기	-11.332
▁붕락	-11.332
▁비스듬	-11.332
▁비전기발파	-11.332
▁선홈통	-11.332
▁엘레베이터	-11.332
▁올라갔다가	-11.332
▁인과관계	-11.332
▁일기예보	-11.332
▁전석쌓기	-11.332
▁즉각	-11.332
▁찢김	-11.332
▁케노피	-11.332
▁프로그램	-11.332
드라이버	-11.332
쁜	-11.332
이중벽관	-11.332
캐	-11.332
큐	-11.332
▁랜탈	-11.332
▁쇠지레	-11.332
▁장비반입구	-11.332
▁배풍기	-11.332
▁익산	-11.332
▁굴취	-11.332
▁면갈이	-11.332
▁발주처	-11.332
▁헌치	-11.332
Air	-11.332
▁꺽여	-11.332
▁일방적	-11.332
▁테라스	-11.332
엠이씨	-11.332
▁안전조회	-11.332
▁System	-11.332
▁게이지	-11.332
▁담당의사	-11.332
▁빙판	-11.332
▁접이식	-11.332
▁왼쪽가슴	-11.332
▁끄고	-11.332
▁띠철근	-11.332
▁허용오차	-11.332
▁간이흙막이	-11.3321
▁왼손가락	-11.3321
▁풍향	-11.3321
▁Rack	-11.3321
만큼	-11.3321
▁압축강도	-11.3321
Shoe	-11.3321
결정통지	-11.3321
▁않았으나	-11.3321
▁깔기	-11.3321
▁마스터	-11.3321
▁화물칸	-11.3321
▁직영인부	-11.3322
▁버림콘크리트	-11.3322
▁뒤채움	-11.3322
▁청결	-11.3324
▁겹질림	-11.3324
▁벽타일	-11.3324
▁아님	-11.3324
▁아직	-11.3324
▁편심하중	-11.3324
▁요양승인	-11.3324
▁선단부에	-11.3324
▁않았음	-11.3324
▁채워	-11.3324
▁올라타	-11.3325
▁전기발파	-11.3325
▁앞바퀴	-11.3326
▁주저앉음	-11.3326
▁중간난간대	-11.3327
건업	-11.3327
▁고관절	-11.3328
▁전단력	-11.3328
▁확정	-11.3328
▁귀가조치	-11.3328
▁동반	-11.3329
▁계류	-11.3329
▁지중보	-11.3329
▁일체형	-11.333
▁누유	-11.333
▁엉켜	-11.3331
▁실신	-11.3331
▁작업동선	-11.3331
▁작업개시	-11.3331
▁2.0	-11.3332
▁찍히	-11.3332
▁원청사	-11.3333
▁주말	-11.3333
:55	-11.3333
▁출구	-11.3334
ic	-11.3334
▁넘어지게	-11.3335
▁늑골골절	-11.3335
▁동력선	-11.3335
▁인증	-11.3336
▁추진구	-11.3337
▁소각	-11.3337
▁요통	-11.3337
▁산소통	-11.3337
▁하중조건	-11.3337
▁내려와야	-11.3338
▁제외한	-11.3339
▁2.7	-11.3339
▁위험물질	-11.3339
▁안되며	-11.334
▁배수설비	-11.3341
▁PD	-11.3341
더라	-11.3342
▁붕괴위험	-11.3343
▁항타장비	-11.3343
▁성산	-11.3343
▁내려온	-11.3343
▁한마디	-11.3344
하였나	-11.3344
▁디딤판	-11.3344
▁1/2	-11.3348
▁마산	-11.3348
▁튕겨나	-11.3349
▁후송하였으나	-11.335
중수골	-11.3351
▁사망하였음	-11.3351
▁교차부	-11.3352
▁돌려	-11.3352
▁기시공	-11.3352
▁마음	-11.3353
▁검지사이	-11.3353
▁감시자	-11.3353
▁흔들어	-11.3353
▁이송하였음	-11.3353
▁펴기	-11.3354
▁집어	-11.3354
신도	-11.3354
▁유류	-11.3357
▁정밀도	-11.3358
▁철골구조물	-11.3358
▁손목골절	-11.3359
▁미정리	-11.3359
▁의무	-11.3359
▁만나	-11.336
▁온수	-11.336
▁나왔	-11.3361
▁세우고	-11.3366
▁위험상황	-11.3367
▁오른쪽팔	-11.3367
▁작업단계별	-11.3367
▁내부벽체	-11.3367
상판	-11.3367
▁구내	-11.3368
▁밀바	-11.3368
원건설	-11.3369
▁강당동	-11.337
▁착용방법	-11.3371
▁낙동	-11.3372
▁퇴근하기	-11.3372
▁현장근로자	-11.3372
▁가격당	-11.3376
해둔	-11.3377
▁접촉되면서	-11.3377
부두	-11.3378
▁불명	-11.3379
▁조명등	-11.3379
▁안방	-11.3379
▁손상여부	-11.3383
▁조치사항	-11.3383
▁무관	-11.3384
▁관계기관과	-11.3385
▁행정	-11.3393
▁간섭되어	-11.3397
▁철근절단	-11.3398
FC	-11.3398
▁실시하였으나	-11.3399
▁상수관로	-11.34
분경어디서	-11.34
▁베어	-11.34
▁기초거푸집	-11.34
씨에게	-11.3401
▁감지	-11.3405
▁반사	-11.341
▁시흥	-11.3412
농업	-11.3413
▁박다가	-11.3415
▁서구	-11.3416
▁받침판	-11.3416
▁10:40	-11.3419
▁튀어나	-11.3423
Sta	-11.3424
▁양중하기	-11.3424
▁김포	-11.3427
▁심도	-11.3428
▁제조자	-11.3431
▁설치간격	-11.3431
▁퇴근함	-11.3432
▁파지	-11.3432
(300	-11.3432
▁필요함	-11.3435
▁작업팀장	-11.3437
▁기계톱	-11.3439
▁보양재	-11.3441
시킴	-11.3447
▁넘어서	-11.3447
▁건설업	-11.3451
▁보조작업자	-11.3456
▁지지물	-11.3457
▁터지	-11.3458
▁석재판	-11.3467
▁문주	-11.3467
▁지간	-11.3478
▁신고하고	-11.3497
▁가정	-11.3498
▁전기공사	-11.3504
보건설	-11.3506
ot	-11.3507
▁자기	-11.3513
21.02.	-11.352
CC	-11.3521
▁시공법	-11.3527
스터	-11.3527
▁터널공	-11.3536
▁두어	-11.3547
▁옮기려	-11.3547
▁자르	-11.355
▁일반인	-11.3564
야하나	-11.3575
▁가설자재	-11.3579
to	-11.3604
▁옥상바닥	-11.3607
▁난연	-11.3612
로써	-11.3614
▁공사현장내	-11.3631
놓아야	-11.3633
▁판넬자재	-11.3637
▁적치되어	-11.3644
▁틈사이	-11.3651
▁밀던	-11.3678
고개	-11.3679
ry	-11.3709
▁입었다	-11.374
경사면	-11.3748
▁신호자	-11.3773
▁휘어지	-11.3784
▁준비하던	-11.379
▁치우던	-11.3808
정돈하여	-11.383
▁식재작업	-11.3831
제일병원	-11.3844
경계선	-11.3847
▁나오다	-11.3856
▁건너다	-11.3857
EN	-11.386
▁들어가서	-11.3874
▁오르	-11.3901
▁배수펌프	-11.3901
▁설비작업	-11.3906
▁철골빔	-11.3909
용단작업	-11.3909
▁제거하려	-11.391
▁타일공사	-11.3951
ip	-11.3958
야적장	-11.4003
소홀	-11.4003
알폼	-11.4004
▁고려대	-11.4008
신축	-11.4009
ag	-11.4016
디스크	-11.4017
▁파일공사	-11.4017
의견서	-11.4018
밟	-11.402
파괴	-11.402
붕괴	-11.4021
빈	-11.4021
잠	-11.4022
미세골절	-11.4023
수요일	-11.4023
브라켓	-11.4024
호이스트	-11.4024
옆구리	-11.4024
정리정돈	-11.4024
슈트	-11.4027
접속	-11.403
근육	-11.4031
피복	-11.4032
틀비계	-11.4035
실수로	-11.4038
코아	-11.4041
저항	-11.4042
변화	-11.4047
종류	-11.4052
결정	-11.4053
옥상	-11.4055
없어	-11.4061
BT	-11.4064
철재	-11.4072
복구	-11.4073
▁넘어지려	-11.408
행위	-11.4082
식당	-11.4092
~6	-11.4098
문화	-11.4103
소음	-11.4107
닥	-11.4107
았다고	-11.4114
철근공	-11.4126
스판	-11.4138
▁연속적	-11.4149
▁찢어지	-11.4151
▁운전미숙	-11.4173
▁실외기	-11.4174
천공기	-11.4174
처리장	-11.4192
▁찾아	-11.4195
▁도배작업	-11.4197
어지는	-11.4203
▁휘어	-11.4204
2019.08.	-11.4206
▁교반	-11.4214
따	-11.4225
▁SK	-11.4226
▁생명	-11.4228
뎌	-11.4228
틸	-11.4228
훈	-11.4229
▁근로복지	-11.4229
흄	-11.4229
꿈	-11.4229
&	-11.4229
Heav	-11.4229
ain	-11.4229
pile	-11.4229
▁갓길	-11.4229
▁꼬리표	-11.4229
▁바브켓	-11.4229
▁산업재해보상보험	-11.4229
▁탑다운	-11.4229
▁하청업체	-11.4229
〈	-11.4229
듬	-11.4229
렛	-11.4229
륙	-11.4229
봐	-11.4229
Sheet	-11.4229
z	-11.4229
Φ	-11.4229
▁가스농도	-11.4229
▁계단식옹벽	-11.4229
▁굳어	-11.4229
▁급작스런	-11.4229
▁낮아	-11.4229
▁다목적강당	-11.4229
▁다쳤습니다	-11.4229
▁뒤돌아	-11.4229
▁뜨거운	-11.4229
▁많아	-11.4229
▁미끌어지면	-11.4229
▁배터리	-11.4229
▁벗겨짐	-11.4229
▁불규칙	-11.4229
▁빠르	-11.4229
▁뽑아	-11.4229
▁수직구명줄	-11.4229
▁시행규칙	-11.4229
▁씌워	-11.4229
▁어긋나	-11.4229
▁젖어있	-11.4229
▁조적쌓기	-11.4229
▁좁아	-11.4229
▁지지로우프	-11.4229
▁직사광선	-11.4229
▁짧아	-11.4229
▁침매함	-11.4229
▁토류벽	-11.4229
▁현기증	-11.4229
▁휀룸	-11.4229
▁휘니샤	-11.4229
▁휴게시간	-11.4229
델	-11.4229
표준시방서	-11.4229
Anchor	-11.4229
▁강관추진	-11.4229
▁관부설	-11.4229
▁딸려	-11.4229
▁불충분	-11.4229
▁유니트	-11.4229
Z	-11.4229
▁고성하이화력	-11.4229
▁다목적	-11.4229
▁덩굴	-11.4229
▁흉추	-11.4229
▁정기점검	-11.4229
▁지수판	-11.4229
▁구조형식	-11.4229
▁안정가료	-11.4229
▁2019.11.1	-11.4229
▁제외하고	-11.4229
▁충청	-11.4229
투기장	-11.4229
600*1200)	-11.4229
화수소	-11.4229
oil	-11.4229
▁작업여건	-11.4229
end	-11.4229
Form	-11.4229
▁루프	-11.4229
▁수로암거	-11.4229
▁미이행	-11.423
▁제동장치	-11.423
▁0.3	-11.423
▁흘러내려	-11.423
▁내구성	-11.423
▁바라보	-11.423
본인주장	-11.423
▁터져	-11.423
▁경미하다	-11.423
▁피뢰	-11.423
▁분쇄골절	-11.423
도달기지	-11.423
▁연락체계	-11.423
▁제이드	-11.423
▁벌어짐	-11.4231
▁올라오는	-11.4231
▁힌지	-11.4231
▁인화성물질	-11.4231
▁평촌	-11.4231
▁뒷편	-11.4231
▁판독	-11.4232
▁병용	-11.4232
▁우물통기초	-11.4232
▁접착	-11.4232
▁휴대	-11.4232
▁면보수	-11.4232
▁언급	-11.4232
.1+	-11.4233
▁단독주택	-11.4233
▁가벼	-11.4233
▁에어건	-11.4233
▁막혀	-11.4233
▁레버블럭	-11.4233
▁구조도면	-11.4234
▁교량받침	-11.4234
▁자키	-11.4234
▁치환	-11.4234
▁비포장	-11.4235
▁참석	-11.4235
▁갈라	-11.4235
▁급정지	-11.4235
▁수평변위	-11.4235
▁세종	-11.4236
▁발견되면	-11.4236
▁현저	-11.4236
▁자재반입구	-11.4236
▁분진망	-11.4237
▁탑정	-11.4237
▁소화설비	-11.4237
ed	-11.4237
▁비상조치	-11.4238
▁방폭	-11.4238
▁있거나	-11.4238
▁하향	-11.4238
▁개구부덮개	-11.4239
▁송파	-11.4239
▁순천	-11.4239
▁5~6	-11.4239
▁덤프차량	-11.4239
▁빼던	-11.4239
▁주관절	-11.424
▁토석	-11.424
▁미작동	-11.424
▁미결속	-11.424
▁높이조절	-11.424
▁두손	-11.4242
▁기준틀	-11.4243
▁지지지반	-11.4243
▁뒤집히	-11.4244
▁압력계	-11.4245
▁쐐기목	-11.4246
▁거터	-11.4246
▁점토	-11.4246
▁벌리	-11.4247
▁예상치	-11.4247
▁반경내	-11.4247
▁가스배관	-11.4248
▁이송하였습니다	-11.4249
▁배토	-11.4249
▁2.8	-11.4251
▁완충재	-11.4252
▁수평방향	-11.4252
▁조종사	-11.4252
▁개량	-11.4253
▁좌측무릎	-11.4253
▁불러	-11.4255
▁왼손약지	-11.4255
▁근무하였으며	-11.4255
▁경향	-11.4256
▁요동치	-11.4258
▁당하였습니다	-11.426
▁자재하차	-11.4261
▁소량	-11.4261
▁다량	-11.4261
▁수평이동	-11.4261
▁침하량	-11.4262
▁공사기간	-11.4263
▁4~5	-11.4264
▁주거	-11.4265
▁중심선	-11.4265
▁이슬	-11.4266
▁일치	-11.4266
▁다소	-11.4267
▁지주목	-11.4268
▁못질	-11.427
▁연결볼트	-11.4271
▁착지하면서	-11.4272
▁발견됨	-11.4272
▁양산	-11.4275
▁장비점검	-11.4281
▁노출되어	-11.4281
▁할석작업	-11.4283
▁소화기구	-11.4283
▁풀리지	-11.4287
▁판재	-11.4288
▁당하였음	-11.4288
▁줄자	-11.4288
▁노상	-11.4289
▁분할	-11.4291
▁취급소	-11.4292
▁신천	-11.4292
▁반발	-11.4298
할려고	-11.4298
5-1	-11.4299
▁굴착토	-11.43
▁사고일시	-11.4309
▁설치되어있는	-11.4309
▁구조검토서	-11.431
▁공상	-11.4311
▁인함	-11.4312
▁철근인양	-11.4312
▁반력	-11.4318
▁내려와서	-11.432
▁현장점검	-11.4323
▁후송함	-11.4328
▁막고	-11.4328
▁재하	-11.4331
▁반대방향	-11.4335
▁***(**	-11.4336
OOO	-11.4344
▁손실	-11.435
▁상치	-11.4352
▁약포	-11.4356
▁코너부	-11.4357
톱날	-11.436
▁보강형	-11.436
감지기	-11.4363
소매	-11.4367
▁층고	-11.437
영업	-11.4371
▁운전수	-11.4373
▁거치작업	-11.4377
▁가해자	-11.4384
생수	-11.4386
되는데	-11.439
▁입선작업	-11.4391
▁받치	-11.4395
▁적치장소	-11.4404
문틀	-11.4407
에의해	-11.441
▁정리하던중	-11.4413
▁아산병원	-11.4432
달라	-11.445
▁진입하던	-11.4456
▁용역공	-11.4461
강판	-11.447
▁접촉방지	-11.4474
▁걸치	-11.4479
▁안전교육장	-11.4509
CO	-11.451
▁준비작업중	-11.4516
▁근육통	-11.4534
▁빼내던	-11.454
코드	-11.4567
금강	-11.4569
▁내부계단	-11.4586
▁성형	-11.4625
7-3	-11.4628
냉장	-11.4661
평리	-11.4682
타공	-11.469
▁사토	-11.4714
▁재발	-11.4759
5-2	-11.4804
▁공회전	-11.4808
▁방수공	-11.4809
▁얼굴부위	-11.4816
▁무릎뼈	-11.4822
모서리	-11.486
광장	-11.4865
오던중	-11.4867
성병원	-11.4868
낙	-11.4868
▁인적	-11.4872
▁인공호흡	-11.4876
그린	-11.4895
▁진행방향	-11.4912
▁배근작업	-11.495
경력	-11.4969
▁흔들	-11.4976
▁고정시키	-11.4982
배치	-11.4986
▁경사구간	-11.4994
엄	-11.5002
▁표준안전	-11.5008
냉	-11.5017
매달기	-11.502
펴	-11.502
성모병원	-11.5021
알	-11.5021
정비사업	-11.5022
닫	-11.5022
먹	-11.5022
짚	-11.5022
생명줄	-11.5022
근골격계	-11.5023
PVC	-11.5023
토요일	-11.5023
협력사	-11.5024
브레이크	-11.5024
덤프	-11.5024
단열재	-11.5024
322	-11.5025
견출	-11.5026
5%	-11.5026
울타리	-11.5026
탈락	-11.5028
협소	-11.503
모래	-11.5031
노출	-11.5031
▁증상	-11.504
있음	-11.5041
규정	-11.5042
수평재	-11.5045
측량	-11.5054
소방	-11.5062
▁주행중	-11.5062
안전발판	-11.5077
보관소	-11.5085
수행	-11.5096
▁받으	-11.5097
▁부설작업	-11.5098
재질	-11.5105
▁터파기구간	-11.514
▁들어올리	-11.5155
▁절단톱	-11.517
▁감안하여	-11.5182
▁헛딪	-11.5203
둥	-11.5204
▁완충	-11.5204
▁버티	-11.5212
▁라쳇	-11.5222
벨	-11.5224
엘	-11.5225
렬	-11.5225
주머니	-11.5226
릉	-11.5227
ead	-11.5228
흉	-11.5229
욕	-11.5229
껴	-11.5229
빛	-11.5229
Q	-11.5229
▁마그네틱	-11.5229
GATE	-11.5229
Slime	-11.5229
▁GIRDER	-11.5229
▁pvc	-11.5229
▁강아치지보공	-11.5229
▁구명조끼	-11.5229
▁눕혀	-11.5229
▁다락방	-11.5229
▁대아이앤씨	-11.5229
▁도르레	-11.5229
▁떨어트려	-11.5229
▁멈춘	-11.5229
▁밑둥잡이	-11.5229
▁블록쌓기	-11.5229
▁빨려들어가	-11.5229
▁산업안전보건관리비	-11.5229
▁슬래그	-11.5229
▁아웃리거	-11.5229
▁앉았다	-11.5229
▁암파쇄	-11.5229
▁엠베드	-11.5229
▁용마루	-11.5229
▁원상복구	-11.5229
▁제연덕트	-11.5229
▁지붕보호벽	-11.5229
▁집중호우	-11.5229
▁초기대응	-11.5229
▁컨트롤	-11.5229
▁판매시설	-11.5229
▁펼쳐	-11.5229
▁합성버팀보	-11.5229
▁핸드글라인더	-11.5229
▁햄머드릴	-11.5229
겸	-11.5229
릿	-11.5229
웃	-11.5229
지역주택조합	-11.5229
챙	-11.5229
쿵	-11.5229
-48-2012	-11.5229
▁가림막	-11.5229
▁건강장해	-11.5229
▁관로부설	-11.5229
▁마대자루	-11.5229
▁안전작업절차	-11.5229
▁에어리스	-11.5229
▁하반신	-11.5229
▁횡돌기	-11.5229
▁구조계산	-11.5229
▁스트럽	-11.5229
▁차량적재함	-11.5229
▁통증호소	-11.5229
일반산업단지	-11.5229
추간판탈출증	-11.5229
▁물양장	-11.5229
▁변압기	-11.5229
▁투척	-11.5229
▁중현테크	-11.5229
▁침사지	-11.5229
휘발유	-11.5229
▁부디치	-11.5229
▁정기검사	-11.5229
▁용출수	-11.5229
▁보호장구	-11.5229
▁RCD	-11.5229
▁익사	-11.5229
▁장해물	-11.5229
▁헤드가드	-11.5229
물류센터	-11.5229
▁있었다	-11.5229
▁가설기자재	-11.5229
▁소나기	-11.5229
▁부대토목	-11.5229
▁구급대원	-11.5229
▁검정	-11.5229
▁선단슈	-11.523
▁찰나	-11.523
▁특정	-11.523
▁외주부	-11.523
▁첫째마디	-11.523
▁첫째	-11.523
sta	-11.523
만들기	-11.523
▁달아	-11.523
▁복사뼈	-11.523
▁들어올	-11.523
▁원주시	-11.523
▁도색작업	-11.523
▁2020.10.1	-11.523
▁공상처리	-11.523
둘러	-11.523
▁받았음	-11.523
▁con	-11.523
▁사진촬영	-11.523
▁순찰	-11.523
▁있었던	-11.523
▁인적사항	-11.5231
▁통풍이	-11.5231
▁압박	-11.5231
▁법규	-11.5231
▁선큰	-11.5231
▁Deck	-11.5231
▁높으므로	-11.5231
▁승탑	-11.5231
▁임시야적장	-11.5232
▁일주일	-11.5232
▁급상승	-11.5232
▁1/3	-11.5232
▁폐목	-11.5232
▁2021.06.	-11.5232
▁스트레스	-11.5232
▁리퍼	-11.5232
▁한의원	-11.5232
▁송전선	-11.5232
▁압송배관	-11.5233
▁합격	-11.5233
▁평행	-11.5233
▁접질름	-11.5233
▁족장	-11.5233
▁차륜	-11.5234
rd	-11.5234
▁Pit	-11.5234
▁목수반장	-11.5234
▁합벽폼	-11.5234
▁자연석	-11.5234
▁노출기준	-11.5235
▁레미콘타설	-11.5236
▁난방	-11.5236
▁산출	-11.5237
▁토대로	-11.5237
▁폭풍	-11.5237
▁고령자	-11.5238
▁압출공법	-11.5238
▁제작회사	-11.5238
▁연결부분	-11.5239
▁추진기지	-11.5239
▁고체연료통	-11.5239
▁방청	-11.524
▁협조	-11.524
▁무모	-11.5241
▁도로변	-11.5241
▁고령	-11.5241
▁안전표지	-11.5241
▁자동바	-11.5242
▁남겨	-11.5242
▁예비	-11.5242
▁인접구조물	-11.5242
▁다르	-11.5243
텍스	-11.5243
▁건설공구	-11.5243
▁원료	-11.5243
▁데크슬라브	-11.5244
▁미끄러질	-11.5244
▁빈번	-11.5244
▁주변환경	-11.5244
▁대응하였으나	-11.5245
▁가설작업대	-11.5246
▁오염	-11.5246
▁상황입니다	-11.5246
▁원위치	-11.5246
▁통신선	-11.5248
▁강부재	-11.5248
▁페인트통	-11.5248
▁07:30	-11.5249
▁공터	-11.5249
▁임시고정	-11.5249
▁강설	-11.525
▁잠수사	-11.5251
▁무릎통증	-11.5251
밀어서	-11.5251
▁마루판	-11.5252
순환	-11.5252
▁느끼고	-11.5253
▁돕기	-11.5254
▁진위	-11.5256
아킬레스건	-11.5256
▁기법	-11.5256
▁열다가	-11.5257
▁빈도	-11.5258
▁움직이며	-11.5259
▁자문	-11.526
▁좌측발목	-11.526
▁화물차량	-11.5262
▁오창	-11.5262
▁공통	-11.5262
▁알리	-11.5262
▁내밀어	-11.5263
▁진술함	-11.5263
▁무안	-11.5263
▁건식	-11.5264
▁입력	-11.5265
▁손가락끼임	-11.5266
▁거제	-11.5268
▁배수시설	-11.527
▁미추	-11.527
했어야	-11.527
▁부표	-11.5271
▁지체	-11.5271
▁대블럭	-11.5271
▁강남	-11.5272
▁실어	-11.5272
▁잘라	-11.5273
▁주틀	-11.5275
▁급유	-11.5275
▁물려	-11.5276
▁하남	-11.5276
▁동남	-11.5277
▁가격하였음	-11.5281
▁회의	-11.5282
▁연구	-11.5282
철근배근	-11.5283
▁측판	-11.5284
▁연선	-11.5286
▁매달고	-11.5288
▁당기던중	-11.5289
▁실외기실	-11.5291
▁지휘자	-11.5292
▁대체	-11.5296
▁전기시설	-11.5299
▁비산방지조치	-11.5299
▁진행하였고	-11.53
▁기반	-11.5302
▁방지시설	-11.5306
체제	-11.5308
▁방수재	-11.531
▁작업의자	-11.5311
▁넘어오다	-11.5312
수준	-11.5312
▁땅바닥	-11.5316
▁소선	-11.5317
▁수평력	-11.5317
▁적재방법	-11.5318
▁커터기	-11.5319
▁일자	-11.5331
▁올려주던	-11.5346
설명서	-11.5351
▁계기	-11.5353
바가지	-11.5362
▁속대	-11.5367
▁주철근	-11.5377
하던도중	-11.5383
현관문	-11.5403
▁착용중이	-11.5404
ER	-11.5414
▁쏟아지	-11.5417
TO	-11.5448
직접원인	-11.5454
▁손톱부위	-11.5455
▁목부위	-11.5472
▁치우다	-11.5474
▁2,3	-11.549
▁넣던	-11.5537
▁장철근	-11.5567
재해예방	-11.5584
▁서있	-11.5616
▁잡자재	-11.5626
▁펌프실	-11.5637
▁중앙계단	-11.5683
▁기울여	-11.5684
▁운송하는	-11.5696
▁데크자재	-11.5699
깨기	-11.5705
유도등	-11.5727
▁알폼해체	-11.5754
▁건설사고	-11.576
예정입니다	-11.5762
▁위험표시	-11.5762
▁입었	-11.5776
았는데	-11.5784
▁2019.12.2	-11.5789
▁'19	-11.5793
강하	-11.5806
▁열리	-11.5832
전선관	-11.5833
▁고정시키기	-11.5876
▁고르	-11.5893
0.8	-11.5894
판넬설치	-11.5897
하차도	-11.5909
▁교통신호	-11.5919
▁크레인기사	-11.5928
▁세우던	-11.593
▁차량유도	-11.5944
▁상기현장	-11.5952
칙	-11.5996
20.7.	-11.6045
▁합벽구간	-11.6057
오르면서	-11.6102
▁신호불량	-11.6102
▁지방	-11.6114
샌드위치	-11.6129
브레싱	-11.613
칸막이	-11.6132
조성공사	-11.6132
큰	-11.6133
파렛트	-11.6134
발코니	-11.6134
페인트	-11.6134
화요일	-11.6135
종아리	-11.6135
엘리베이터	-11.6135
코킹	-11.6135
관리감독자	-11.6136
균열	-11.6137
화물차	-11.6142
숙소	-11.6143
타격	-11.6144
돌출	-11.6146
안전고리	-11.6146
소방서	-11.615
철근콘크리트	-11.6152
두어야	-11.6155
포설	-11.6156
사고당시	-11.6159
기능	-11.6162
요구	-11.6179
▁자체적	-11.619
▁파손되	-11.6193
ler	-11.6212
▁바깥	-11.6243
▁몸쪽	-11.6243
oa	-11.6253
멘트	-11.6275
▁이로인	-11.6288
▁밟았	-11.6295
---------------	-11.6296
▁물탱크	-11.6323
▁2019.09.	-11.6332
끄	-11.6335
옹	-11.6337
겹	-11.6337
▁우각	-11.6339
꽃	-11.6339
짝	-11.6339
효율	-11.634
먼	-11.634
잉	-11.634
▁최대접지하중	-11.634
±	-11.634
▁MDF	-11.634
▁도통시험	-11.634
▁리바운드	-11.634
▁믹스트럭	-11.634
▁소규모	-11.634
▁슬레이트	-11.634
▁어지럼증	-11.634
▁인명피해	-11.634
▁절취면	-11.634
▁프레타이	-11.634
퉁	-11.634
-2-2012)	-11.634
Pump	-11.634
russ	-11.634
▁Drum	-11.634
▁고압살수기	-11.634
▁긁혀	-11.634
▁끌어당기	-11.634
▁눈꺼풀	-11.634
▁대수롭	-11.634
▁도급업체	-11.634
▁미그러	-11.634
▁반깁스	-11.634
▁보조붐대	-11.634
▁불확실	-11.634
▁비상사태	-11.634
▁세륜장	-11.634
▁쇠지랫대	-11.634
▁스트랜드	-11.634
▁용접불티	-11.634
▁위험물저장소	-11.634
▁유압실린더	-11.634
▁인공섬	-11.634
▁일용노무자	-11.634
▁전선거치대	-11.634
▁찌름	-11.634
▁최대적재하중	-11.634
▁커뮤니	-11.634
▁콤프레셔	-11.634
▁텔레스코	-11.634
▁튕긴	-11.634
▁특별안전교육	-11.634
▁플륨관	-11.634
▁합성섬유	-11.634
▁헛딛으	-11.634
▁헛딧어	-11.634
〉	-11.634
內	-11.634
녹생토	-11.634
땀	-11.634
맥	-11.634
몹	-11.634
뻘	-11.634
쉘	-11.634
욱	-11.634
흠	-11.634
bar	-11.634
▁CPR	-11.634
▁건네주	-11.634
▁계측항목	-11.634
▁근고블록	-11.634
▁섬유벨트	-11.634
▁예초기	-11.634
▁재봉사	-11.634
▁차량통행	-11.634
▁토사유출	-11.634
궁	-11.634
▁관급자재	-11.634
▁물러나	-11.634
▁부딪치고	-11.634
▁샤워	-11.634
▁유한기술	-11.634
▁그물망	-11.634
▁대각선	-11.634
▁캔틸레버	-11.634
▁2019.07.0	-11.634
▁내진보강	-11.634
▁조형물	-11.634
▁지양하고	-11.634
▁방음판	-11.634
▁시건장치	-11.634
▁트랩	-11.634
▁21.03.	-11.634
▁고사목	-11.634
▁병원내원	-11.634
▁조수석	-11.634
▁넘어뜨리	-11.634
▁닥트	-11.634
▁섬유로프	-11.634
▁분야별	-11.634
▁희망	-11.634
▁가연물	-11.634
▁구부리	-11.634
▁독립	-11.634
▁펜스	-11.634
베이어	-11.634
쟈키	-11.634
ide	-11.634
▁같아	-11.634
▁맞추던	-11.634
▁쥐고	-11.634
▁환봉	-11.634
▁수영장	-11.634
▁전신주	-11.634
서원토건	-11.6341
▁공사감독자	-11.6341
▁자재적치	-11.6341
▁피스브라켓	-11.6341
▁다녀	-11.6341
▁가설수도	-11.6341
▁안전인증고시	-11.6341
▁톤백마대	-11.6341
▁육교	-11.6341
▁운동장	-11.6341
▁전조등	-11.6341
▁탄력	-11.6341
▁달려	-11.6341
하였는지	-11.6341
▁독성	-11.6341
아파트건설공사	-11.6341
사망진단서	-11.6341
유치원	-11.6341
▁가공전로	-11.6341
▁보조기층	-11.6341
▁허용응력	-11.6341
▁맞추려	-11.6341
▁베어링	-11.6342
▁스틸	-11.6342
▁시험발파	-11.6342
▁병사	-11.6342
▁산소용기	-11.6342
▁표준신호	-11.6342
▁족부	-11.6343
이엔지	-11.6343
▁보도블록	-11.6343
▁지키지	-11.6343
▁비파괴	-11.6343
▁강설량	-11.6343
▁샌드위치판넬	-11.6343
▁벌어져	-11.6343
▁막힘	-11.6344
▁면담	-11.6344
▁너울성	-11.6344
▁닫힘	-11.6344
▁발파책임자	-11.6344
▁부탁	-11.6344
▁미끄러지면	-11.6344
▁삼척	-11.6344
▁풀링	-11.6345
▁접착제	-11.6345
▁나옴	-11.6345
엘보	-11.6345
방지장갑	-11.6345
▁물론	-11.6346
▁깨져	-11.6346
▁과굴착	-11.6346
▁통신설비	-11.6346
▁참여	-11.6346
▁관계법	-11.6347
▁교통처리	-11.6347
▁리브	-11.6347
▁사면보호	-11.6347
▁세울	-11.6347
▁오늘	-11.6347
▁부석정리	-11.6348
▁출입금지구역	-11.6348
네오	-11.6348
▁산재요청	-11.6348
▁오조작	-11.6348
▁안전보건관리	-11.6348
▁주케이블	-11.6348
ax	-11.6348
▁풀린	-11.6348
▁소변	-11.6349
▁아닌곳	-11.6349
▁먹줄	-11.6349
▁인지부족	-11.6349
▁잠금	-11.6349
▁올라온	-11.6349
▁통신시설	-11.635
▁과적	-11.635
▁기둥밴드	-11.635
▁포천	-11.635
▁반단면	-11.6351
▁절토부	-11.6351
▁호출	-11.6352
▁별표	-11.6353
▁단락	-11.6353
▁분포	-11.6353
▁처지면서	-11.6353
▁데크철판	-11.6353
▁핸드카트	-11.6353
군데	-11.6354
▁감리단	-11.6354
개씩	-11.6355
▁조명기구	-11.6355
▁당황	-11.6356
▁방호설비	-11.6356
▁우수배관	-11.6356
▁넘어감	-11.6359
▁스카이장비	-11.6359
▁접안	-11.6361
▁안전대걸이	-11.6361
▁걸쳐져	-11.6362
아크용접	-11.6362
▁철재거푸집	-11.6362
▁접히며	-11.6364
▁앞니	-11.6364
▁가져오	-11.6364
▁BN	-11.6365
▁조경공사	-11.6365
▁남양주	-11.6366
▁기준점	-11.6366
▁행어	-11.6366
▁배출구	-11.6367
▁상해발생	-11.6367
▁연석	-11.6367
▁멍애재	-11.6367
▁DA	-11.6368
▁렌탈장비	-11.6368
▁강관틀	-11.6368
▁사토장	-11.6369
▁SP	-11.6369
▁않은채	-11.637
▁만약	-11.637
▁무릎인대	-11.637
▁석재시공	-11.637
▁어스	-11.6371
▁조심	-11.6371
▁천공위치	-11.6372
▁위생	-11.6372
▁공유	-11.6373
▁통로박스	-11.6373
▁조사결과	-11.6373
번손가락	-11.6373
▁타공정	-11.6374
▁장비조작	-11.6374
▁고정미흡	-11.6375
▁처지	-11.6376
▁숙련공	-11.6377
▁유압식	-11.6377
▁지시하였으나	-11.6379
▁정읍	-11.638
▁백호장비	-11.638
질러	-11.638
▁수직하중	-11.6381
▁16:20	-11.6382
▁용구	-11.6382
▁선체	-11.6382
▁가설공법	-11.6384
▁전기판넬	-11.6387
▁작업구간내	-11.6394
연휴	-11.6396
▁길어	-11.6404
▁새들	-11.6404
Ton	-11.6406
▁석자재	-11.6419
▁복장	-11.642
토막	-11.6427
▁성토부	-11.6428
중이었고	-11.6431
▁기술적	-11.6433
▁다른작업자	-11.6438
▁일용직근로자	-11.6444
▁교실	-11.6452
▁용역근로자	-11.6453
▁11/2	-11.6459
갈바	-11.646
▁둥근톱날	-11.6471
필러	-11.6476
▁여러개	-11.6479
▁소단부	-11.6485
겠다	-11.6494
=3.	-11.651
▁가스절단	-11.6531
▁뒷쪽	-11.6538
▁코너부위	-11.654
상수도	-11.6567
▁후면부에	-11.657
▁부딪쳤	-11.6585
▁치어	-11.6593
지방도	-11.6615
▁오르려	-11.6619
▁실리	-11.6623
9.10.1	-11.6644
▁동파이프	-11.6665
▁가슴쪽	-11.6686
per	-11.6703
▁시도하다	-11.6717
▁잡으	-11.6721
▁장약작업	-11.6728
▁급경사	-11.6728
▁비상계단	-11.6816
▁벌어지	-11.6884
렸다	-11.689
▁꺼내다	-11.6893
▁위험장소에	-11.6945
났다	-11.6972
엔씨	-11.6995
▁풀다	-11.7031
배근	-11.7062
보링	-11.7081
▁밀착되	-11.716
▁작동시키	-11.7212
▁뒤집어	-11.7218
ap	-11.7222
사고이후	-11.7228
▁손목뼈	-11.7239
▁수술예정	-11.724
▁아프	-11.7243
쉬트	-11.7279
쳤으나	-11.7324
단계별	-11.7326
쉬	-11.7367
스트러트	-11.7368
절곡기	-11.7368
ck	-11.7372
ᄃ	-11.7378
낀	-11.738
파레트	-11.7381
Pipe	-11.7381
찬넬	-11.7383
조인트	-11.7384
밀폐공간	-11.7384
지내력	-11.7384
추진관	-11.7384
유공발판	-11.7384
스라브	-11.7384
틈새	-11.7385
일용직	-11.7385
석고보드	-11.7385
케이싱	-11.7385
고임목	-11.7385
버킷	-11.7385
부딪힘	-11.7386
커팅	-11.7387
철근콘크리트공사	-11.7389
윈치	-11.7392
확장	-11.7395
매트	-11.74
▁매다	-11.7414
▁하였다	-11.7424
수직재	-11.7434
보호장비	-11.7489
▁추가적	-11.7533
-2011)	-11.7542
▁회전시키	-11.7546
붕	-11.7571
▁모르	-11.7579
▁아크	-11.7579
▁스트레	-11.7589
릅	-11.7589
딜	-11.759
랩	-11.759
컴	-11.759
Lock	-11.759
Lux	-11.759
Stopper	-11.759
▁가스누출	-11.759
▁공조덕트	-11.759
▁미끌림	-11.759
▁발빠짐	-11.759
▁블루폼	-11.759
▁스크린	-11.759
▁안전불감증	-11.759
▁장례식장	-11.759
▁테트라	-11.759
▁프라이머	-11.759
꼭	-11.759
낼	-11.759
딘	-11.759
라바콘	-11.759
행정복지센터	-11.759
Buck	-11.759
Slab	-11.759
Zone	-11.759
slab	-11.759
▁Grating	-11.759
▁건설안전보건	-11.759
▁겨울철	-11.759
▁겹이음	-11.759
▁대처방안	-11.759
▁모노레일	-11.759
▁미끄려져	-11.759
▁방독마스크	-11.759
▁부딛히	-11.759
▁수평조절목	-11.759
▁시나리오	-11.759
▁시뮬레이션	-11.759
▁신호불일치	-11.759
▁쌍줄비계	-11.759
▁암버럭	-11.759
▁연료탱크	-11.759
▁웨빙띠	-11.759
▁젠다이	-11.759
▁존치기간	-11.759
▁크람쉘	-11.759
▁크래인	-11.759
▁테이핑	-11.759
▁트래블러	-11.759
▁휘니셔	-11.759
곤	-11.759
곱	-11.759
깃	-11.759
복선전철	-11.759
부스러기	-11.759
후방십자인대	-11.759
▁냉각탑	-11.759
▁느낀	-11.759
▁메인지브	-11.759
▁발파모선	-11.759
▁비상조명	-11.759
▁익숙	-11.759
간접원인	-11.759
손까락	-11.759
숲	-11.759
케이피	-11.759
환풍기	-11.759
▁나타내	-11.759
▁되어있지	-11.759
▁솟음	-11.759
▁시추조사	-11.759
▁아차사고	-11.759
▁창원기전	-11.759
▁외장판넬	-11.759
▁이의제기	-11.759
▁헤머	-11.759
▁구부려	-11.759
▁급수배관	-11.759
▁토사유실	-11.759
연구원	-11.759
▁구조해석	-11.759
▁Joint	-11.759
▁도화선	-11.759
▁싱크	-11.759
▁자유장	-11.759
▁회전근계	-11.759
광평건설	-11.759
▁휠라	-11.759
구조기술사	-11.759
▁물고임	-11.759
▁논산	-11.759
▁2020.10.2	-11.759
▁발파시방	-11.759
위원회	-11.759
불순물	-11.759
▁뒷걸음치다	-11.759
▁겹치	-11.7591
▁어렵	-11.7591
▁2021.07.	-11.7591
▁염려	-11.7591
▁달대	-11.7591
▁병영	-11.7591
▁자재창고에서	-11.7591
▁순천향	-11.7591
▁생겼다고	-11.7591
▁기관실	-11.7591
▁제설작업	-11.7591
▁안전작업허가서	-11.7591
▁평균	-11.7591
▁음료	-11.7591
▁바꾸	-11.7591
▁휘청	-11.7591
▁턱끈	-11.7591
▁빠져나가	-11.7591
▁감아올	-11.7591
▁놓아둔	-11.7591
▁버림타설	-11.7591
▁작업유형	-11.7591
▁덕진	-11.7591
▁묻힘	-11.7591
▁찍힌	-11.7592
▁미세조정	-11.7592
벨브	-11.7592
▁모르터	-11.7592
▁효율적	-11.7592
▁잔존	-11.7592
▁오인하여	-11.7592
▁격자	-11.7592
▁아랫	-11.7592
▁특기	-11.7592
읍니다	-11.7592
▁각도절단기	-11.7592
이행되는지	-11.7592
지연사유	-11.7592
▁버리	-11.7592
▁교통통제	-11.7593
▁긴밀	-11.7593
▁진동롤러	-11.7593
▁깨짐	-11.7593
유공관	-11.7593
▁화물트럭	-11.7593
▁마킹	-11.7593
▁중간말뚝	-11.7593
전완부	-11.7593
▁Base	-11.7594
▁타카건	-11.7594
▁말려들어감	-11.7594
▁밑받침	-11.7594
▁상층부	-11.7594
▁내려놓아야	-11.7594
▁국립	-11.7594
▁메디	-11.7595
▁진통제	-11.7595
▁토질조건	-11.7595
▁낙반	-11.7595
=1.0	-11.7595
▁속초	-11.7596
▁안구손상	-11.7596
▁해머드릴	-11.7596
▁모습	-11.7596
▁누락	-11.7596
▁미배치	-11.7596
▁배척	-11.7596
▁핀구멍	-11.7596
▁제한속도	-11.7596
▁다세대	-11.7596
▁상대적	-11.7597
▁심폐	-11.7597
▁동출입구	-11.7597
프라임	-11.7597
▁세끼	-11.7598
~1.5	-11.7598
▁효과적	-11.7598
▁번선	-11.7598
II	-11.7598
▁금액	-11.7598
▁왼손검지손가락	-11.7598
▁눈주위	-11.7599
▁연마석	-11.7599
▁가공전선	-11.7599
▁해상크레인	-11.7599
▁부속설비	-11.76
휴대폰	-11.76
▁라쳇바	-11.76
▁내장목공	-11.76
▁지반다짐	-11.76
▁권상장치	-11.76
▁천단부	-11.76
▁산소병	-11.7601
▁일치하지	-11.7601
▁결근	-11.7601
테라	-11.7602
▁경비원	-11.7602
▁관계자외	-11.7602
▁병명	-11.7602
▁시스템서포트	-11.7603
▁제출하였습니다	-11.7603
▁특이	-11.7603
▁작동스위치	-11.7603
▁항행	-11.7604
▁알렸	-11.7604
▁차단막	-11.7604
▁다칠	-11.7605
▁보강대책	-11.7605
▁붙어있는	-11.7605
▁암질	-11.7605
세종병원	-11.7606
▁대각재	-11.7606
▁대칭	-11.7606
▁한사람	-11.7606
▁북구	-11.7607
책상	-11.7607
▁확장공사	-11.7607
▁작업대기중	-11.7608
도달구	-11.7608
▁국제	-11.7608
▁세심	-11.7608
▁아니되며	-11.7608
▁이음위치	-11.7609
▁표식	-11.7609
▁영무	-11.7609
▁예상됨	-11.7609
26-1	-11.7611
oe	-11.7611
▁알아	-11.7614
▁회로	-11.7617
▁유자격자	-11.7618
건강검진	-11.7619
▁말단부	-11.7622
잡고있는	-11.7644
▁국내	-11.7652
▁재하자	-11.7661
▁전후에	-11.7676
▁종사하	-11.7679
두었던	-11.7686
▁민원	-11.7698
전기원형톱	-11.7713
▁척추뼈	-11.7752
설공사현장	-11.7773
▁8/2	-11.7817
삼거리	-11.7819
회전근	-11.7832
nter	-11.7865
▁스테	-11.788
근무기간	-11.7882
▁밟다	-11.791
핀제거	-11.7912
▁잡아당기던	-11.7915
▁좌회전	-11.7956
▁3.8	-11.796
▁넘다	-11.7978
▁산업안전보건	-11.8007
▁드릴날	-11.8017
▁일어서다	-11.8031
양수장	-11.804
리모델링공사	-11.8121
뒷채움재	-11.8134
18%	-11.8136
사고발생장소	-11.8254
0-2011(	-11.8255
방지조치	-11.8262
▁돌리다	-11.8285
제작장에서	-11.8425
▁들어올리려	-11.8443
양생용	-11.8532
▁벌어	-11.8533
쇄골	-11.8557
▁의심되	-11.8716
한국병원	-11.8733
▁전체적	-11.8781
마스크	-11.8808
찍	-11.8809
퇴근	-11.881
플랜지	-11.8811
CIP	-11.8811
상병명	-11.8811
모르타르	-11.8812
스크류	-11.8812
트렌치	-11.8812
쓰	-11.8812
그라우팅	-11.8813
“	-11.8813
MRI	-11.8813
이동식틀비계	-11.8813
마무리	-11.8814
일용근로자	-11.8814
레미콘	-11.8814
아웃트리거	-11.8814
핸드그라인더	-11.8814
작업종료	-11.8814
미끄러져	-11.8815
데크플레이트	-11.8815
들어감	-11.8816
강관비계	-11.882
미래	-11.8827
전문병원	-11.8878
▁2020.01.	-11.89
able	-11.8944
▁벽사이	-11.8961
▁엉켜있	-11.9001
▁보험가입	-11.9011
얹	-11.9013
벼	-11.9013
뢰	-11.9014
▁음주	-11.9014
획	-11.9015
ase	-11.9015
섬	-11.9017
▁갈비	-11.9017
익	-11.9017
덤	-11.9018
▁뛰어내렸	-11.9018
뉴얼	-11.9018
딪혀	-11.9018
롭	-11.9019
찬	-11.9019
Wheel	-11.9019
Bracket	-11.9019
▁기왕증	-11.9019
▁기저질환	-11.9019
▁세트앙카	-11.9019
▁쓰러졌	-11.9019
노루발못뽑이	-11.9019
Hook	-11.9019
ING	-11.9019
Pulley	-11.9019
ear	-11.9019
imb	-11.9019
▁AREA	-11.9019
▁강아치교	-11.9019
▁걷어내	-11.9019
▁게비온	-11.9019
▁계약금액	-11.9019
▁곤도라	-11.9019
▁끌어올리	-11.9019
▁노루발	-11.9019
▁뇌진탕	-11.9019
▁느꼈다	-11.9019
▁떼어내	-11.9019
▁리미트	-11.9019
▁배기휀	-11.9019
▁벤토나이트	-11.9019
▁부딛침	-11.9019
▁부딪혔으	-11.9019
▁부딪혔음	-11.9019
▁비산불티	-11.9019
▁비상탈출구	-11.9019
▁사모래통	-11.9019
▁상태였음	-11.9019
▁세일이엔에스	-11.9019
▁소일네일링	-11.9019
▁수리시설개보수사업	-11.9019
▁실란트	-11.9019
▁안전순찰	-11.9019
▁않으면	-11.9019
▁압밀침하	-11.9019
▁어두운	-11.9019
▁용접불꽃	-11.9019
▁인발시험	-11.9019
▁있었지만	-11.9019
▁접질렀다	-11.9019
▁제반여건	-11.9019
▁콘트리트	-11.9019
▁탈출증	-11.9019
▁털어내	-11.9019
▁투광등	-11.9019
▁튀어오름	-11.9019
▁페이스트	-11.9019
▁포디움	-11.9019
▁폴딩도어	-11.9019
▁폴리에틸렌	-11.9019
▁합성목재	-11.9019
▁호흡곤란	-11.9019
▁흐름도	-11.9019
관입시험	-11.9019
부자연스	-11.9019
위험방지계획서	-11.9019
츠	-11.9019
컬	-11.9019
콤프레샤	-11.9019
턴	-11.9019
톨	-11.9019
편한세상	-11.9019
atch	-11.9019
lux	-11.9019
▁개보수사업	-11.9019
▁공용욕실	-11.9019
▁발진기지	-11.9019
▁비상대피	-11.9019
▁유관기관	-11.9019
▁주택재개발	-11.9019
▁지반지지력	-11.9019
▁커플링	-11.9019
▁파주운정	-11.9019
▁한국전력	-11.9019
▁화재감시자	-11.9019
▁화재종합방재실	-11.9019
건설기술진흥법	-11.9019
네모도	-11.9019
샤프트	-11.9019
스포츠	-11.9019
콤	-11.9019
▁각입재	-11.9019
▁관계전문가	-11.9019
▁관로매설공사	-11.9019
▁내연기관	-11.9019
▁뛰어내린	-11.9019
▁배기가스	-11.9019
▁사디리	-11.9019
▁살포기	-11.9019
▁상재하중	-11.9019
▁서포터	-11.9019
▁전선펴기	-11.9019
▁절대치	-11.9019
▁청탑지	-11.9019
씌우기	-11.9019
LINE	-11.9019
▁ACS	-11.9019
▁급결재	-11.9019
▁나일론	-11.9019
▁바르고	-11.9019
▁불연재	-11.9019
▁아침이슬	-11.9019
됩니다	-11.9019
(300*300*	-11.9019
▁케이블트레이	-11.9019
▁연면적	-11.9019
▁일치하는지	-11.9019
▁2019.12.1	-11.9019
▁데릭	-11.9019
▁사고사례	-11.9019
▁상대방	-11.9019
▁유리운반대	-11.9019
▁잉여	-11.9019
▁20~30	-11.9019
▁가설전등	-11.9019
▁안전하카	-11.9019
▁광역상수	-11.9019
▁인서트	-11.9019
▁앉아있다	-11.9019
▁감속기	-11.9019
▁같으며	-11.9019
▁물호수	-11.9019
▁버클	-11.9019
▁생태	-11.9019
▁피재근로자	-11.9019
~2.0	-11.9019
▁사고당사자	-11.9019
▁굴절	-11.9019
▁웨지	-11.9019
▁공공하수처리시설	-11.9019
▁유증기	-11.9019
▁테마	-11.9019
▁해체정리공	-11.9019
▁후유증	-11.9019
▁재료분리	-11.9019
▁ooo	-11.9019
▁아픔	-11.9019
▁진동로라	-11.9019
▁쳐다보	-11.9019
SCP	-11.9019
▁침전조	-11.9019
▁그리스	-11.9019
▁장도리	-11.9019
▁염증	-11.9019
▁준비운동	-11.9019
▁텐던	-11.9019
▁갱내	-11.9019
▁압축공기	-11.9019
도폭선	-11.9019
▁활석	-11.9019
▁덕양	-11.9019
▁맹판	-11.9019
▁절토사면	-11.9019
바르게	-11.9019
마이삭	-11.9019
▁끄지	-11.9019
▁보받이	-11.9019
▁장비운용	-11.9019
스치로폼	-11.9019
▁부천시	-11.9019
▁나르던	-11.9019
▁터짐	-11.9019
도화상	-11.9019
▁염산	-11.9019
ast	-11.9019
▁파주시	-11.902
그네식	-11.902
▁투하	-11.902
▁징후	-11.902
▁회신	-11.902
▁Column	-11.902
▁분쇄	-11.902
▁실패	-11.902
▁튕김현상	-11.902
▁정상퇴근	-11.902
▁송수관	-11.902
ose	-11.902
▁안좋	-11.902
▁늦어졌	-11.902
▁뒤집어지면서	-11.902
▁짐칸	-11.902
▁완화	-11.902
농협	-11.902
쉴드	-11.902
▁오르막	-11.902
▁돕던	-11.902
▁완공	-11.902
소하천	-11.902
▁초벌	-11.902
▁세부공정	-11.902
▁흘러내리	-11.902
▁준공청소	-11.902
▁수로박스	-11.902
▁배관조공	-11.902
▁카리프트	-11.902
▁며칠	-11.902
▁앵글브레싱	-11.902
▁가이드레일	-11.9021
▁아스콘포장	-11.9021
▁둘이	-11.9021
▁따로	-11.9021
▁노즈	-11.9021
▁요추염좌	-11.9021
▁잔가지	-11.9021
▁인장잭	-11.9021
▁성애	-11.9021
▁변색	-11.9021
▁청사동	-11.9021
▁가연성물질	-11.9021
▁짚었음	-11.9021
공작물	-11.9021
▁역회전	-11.9021
▁자가운전	-11.9022
도로건설공사	-11.9022
▁소흘	-11.9022
▁갈탄	-11.9022
▁민락	-11.9022
했음에도	-11.9022
▁시공이음	-11.9022
겠	-12.025
킴	-12.0427
패	-12.0469
살	-12.0474
삽	-12.0478
빨	-12.0673
둘	-12.0681
꾸	-12.0684
킷	-12.0684
헌	-12.0685
훼	-12.0686
겐	-12.0686
졸	-12.0686
쪼	-12.0686
첩	-12.0686
렁	-12.0686
캔	-12.0686
휘	-12.2467
「	-12.2475
묶	-12.2476
빼	-12.2478
첫	-12.2479
옷	-12.248
덜	-12.2664
됐	-12.2685
슨	-12.2685
꼽	-12.2685
랐	-12.2686
셋	-12.2686
햇	-12.2686
늬	-12.2686
中	-12.4977
혹	-12.4978
앙	-12.5059
돈	-12.5174
넬	-12.5176
럭	-12.5179
닐	-12.5182
멘	-12.5183
앵	-12.5185
닌	-12.5185
쥐	-12.5185
쟈	-12.5185
ᄀ	-12.5185
뻐	-12.5185
럴	-12.5186
롱	-12.5186
멸	-12.5186
짓	-12.5186
깊	-12.8206
줌	-12.8309
‘	-12.8311
킨	-12.8386
돕	-12.8423
뮤	-12.8514
쉴	-12.8516
깥	-12.8518
렵	-12.8518
딤	-12.8518
뉴	-12.8519
솟	-12.8519
딸	-12.8519
닛	-12.8519
섯	-12.8519
젠	-12.8519
쿠	-12.8519
깨	-13.3192
높	-13.3212
좋	-13.3308
묻	-13.3311
곧	-13.3312
굽	-13.3313
튀	-13.3314
녀	-13.3517
즐	-13.3518
픔	-13.3518
떼	-14.3323
꽂	-14.3324
찾	-14.3326
땅	-14.3328
쉼	-14.3352
숫	-14.3353
숨	-14.3354
뮬	-14.3355
럿	-14.3356
뀌	-14.3357
깡	-14.3358
굄	-14.3359
̊	-14.336
흩	-14.3361
얇	-14.3362
씻	-14.3363
쇳	-14.3364
퀵	-14.3365
얘	-14.3366
밞	-14.3367
멀	-14.3368
륨	-14.3369
똥	-14.337
뇨	-14.3371
찜	-14.3372
겁	-14.3373
굼	-14.3374
켰	-14.3375
굵	-14.3376
풋	-14.3377
읽	-14.3378
헐	-14.3379
짊	-14.338
줍	-14.3381
죔	-14.3382
녁	-14.3383
죄	-14.3384
썹	-14.3385
꼈	-14.3386
굳	-14.3387
얻	-14.3388
뭉	-14.3389
렀	-14.339
뜯	-14.3391
털	-14.3392
쇼	-14.3393
밧	-14.3394
튜	-14.3395
쿨	-14.3396
꿰	-14.3397
핍	-14.3398
콧	-14.3399
츄	-14.34
붓	-14.3401
쳇	-14.3402
융	-14.3403
쓸	-14.3404
뻗	-14.3405
띄	-14.3406
롯	-14.3407
듣	-14.3408
윙	-14.3409
뭇	-14.341
몇	-14.3411
눕	-14.3412
춰	-14.3413
숏	-14.3414
닦	-14.3415
괄	-14.3416
픈	-14.3417
씌	-14.3418
딧	-14.3419
튐	-14.342
깁	-14.3421
쏟	-14.3422
긋	-14.3423
휨	-14.3424
밝	-14.3425
듭	-14.3426
걷	-14.3427
흐	-14.3428
팽	-14.3429
펼	-14.343
놀	-14.3431
짧	-14.3432
헬	-14.3433
팩	-14.3434
샌	-14.3435
넓	-14.3436
괜	-14.3437
엑	-14.3438
찌	-14.3439
뿌	-14.344
뚫	-14.3441
납	-14.3442
긁	-14.3443
틱	-14.3444
숭	-14.3445
펫	-14.3446
윗	-14.3447
좁	-14.3448
혔	-14.3449
쉽	-14.345
뽑	-14.3451
십	-14.3452
튼	-14.3453
랙	-14.3454
늦	-14.3455
쐐	-14.3456
갔	-14.3457
뿜	-14.3458
훅	-14.3459
젖	-14.346
꺾	-14.3461
낌	-14.3462
쏠	-14.3463
낮	-14.3464
녹	-14.3465
텔	-14.3466
궤	-14.3467
탱	-14.3468
찧	-14.3469
멈	-14.347
끊	-14.3471
많	-14.3472
껑	-14.3473
뚜	-14.3474
벗	-14.3475
컷	-14.3476
떻	-14.3477
싣	-14.3478
닿	-14.3479
갖	-14.348
빗	-14.3481
삐	-14.3482
끗	-14.3483
섭	-14.3484
늑	-14.3485
혼	-14.3486
찔	-14.3487
끌	-14.3488
앉	-14.3489
퀴	-14.349
촬	-14.3491
찢	-14.3492
쌓	-14.3493
튕	-14.3494
흔	-14.3495
붙	-14.3496
u	-14.3497
잘	-14.3498
멍	-14.3499
옮	-14.35
펌	-14.3501
즉	-14.3502
므	-14.3503
핸	-14.3504
덮	-14.3505
큼	-14.3505
딛	-14.3506
빠	-14.3507
릎	-14.3508
흡	-14.3509
맞	-14.351
또	-14.3511
놓	-14.3512
헛	-14.3513
잃	-14.3514
템	-14.3515
험	-14.3516
였	-14.3517
않	-14.3518
됩	-14.3519
갓	-14.3519
늄	-14.3519
벅	-14.3519
왼	-14.3519
찮	-14.3519
