<unk>	0
<s>	0
</s>	0
▁	-3.88065
을	-4.08809
에	-4.1828
▁중	-4.21979
)	-4.2457
를	-4.26213
(	-4.44831
이	-4.49435
가	-4.55028
.	-4.5869
,	-4.84499
일	-4.85554
의	-4.9175
▁작업	-4.95772
으로	-4.96002
월	-5.00751
로	-5.03006
에서	-5.04733
시	-5.12662
년	-5.20038
층	-5.25575
▁위해	-5.36601
▁1	-5.47086
▁후	-5.47112
동	-5.4773
▁사고	-5.53707
▁발생	-5.56023
▁2	-5.60424
▁및	-5.65791
분경	-5.67462
는	-5.68493
▁거푸집	-5.68764
▁작업중	-5.81515
▁재해자	-5.86836
하여	-5.90578
**	-5.92248
▁이동	-5.92912
m	-5.97333
1	-5.99903
한	-6.00684
▁작업을	-6.01127
▁설치	-6.04465
과	-6.05152
▁현장	-6.0693
서	-6.07246
인	-6.07263
▁작업자	-6.08581
와	-6.13519
▁넘어짐	-6.14302
▁3	-6.1681
▁해체	-6.17528
▁10	-6.18786
▁지하	-6.2194
▁철근	-6.23011
고	-6.23463
▁걸려	-6.24451
▁2020	-6.24904
▁왼쪽	-6.2529
중	-6.2644
▁자재	-6.26611
▁근로자	-6.26772
▁미끄러져	-6.29514
된	-6.29892
2	-6.32858
▁오른쪽	-6.34523
▁인한	-6.34671
▁2021	-6.34725
▁발을	-6.3669
00	-6.40219
▁손가락	-6.40441
씨가	-6.40441
▁있던	-6.40612
▁4	-6.40686
▁사고임	-6.42341
▁재해자가	-6.42766
▁골절	-6.43389
▁바닥에	-6.44004
▁:	-6.44697
▁넘어지면서	-6.45842
면서	-6.46059
▁추락	-6.50003
▁우측	-6.5115
▁이동중	-6.5177
시경	-6.52001
주	-6.53627
▁과정에서	-6.53851
▁오전	-6.54383
지	-6.54893
▁작업자가	-6.55205
후	-6.56592
▁11	-6.56813
-	-6.56834
▁잃고	-6.5831
은	-6.58853
▁하부	-6.60349
▁비계	-6.63098
▁콘크리트	-6.65315
▁상부	-6.65471
▁(	-6.66365
▁있는	-6.68736
▁좌측	-6.69097
기	-6.69237
▁중심을	-6.69956
▁작업자의	-6.74316
▁벽체	-6.7549
▁30	-6.7688
▁바닥	-6.77362
▁발이	-6.78895
용	-6.7974
▁12	-6.7997
분	-6.81268
▁부주의	-6.84189
층에서	-6.855
▁2019	-6.85695
하는	-6.85795
▁5	-6.85892
▁위하여	-6.86156
▁하던	-6.86412
작업	-6.87233
3	-6.87713
▁부딪힘	-6.87737
▁왼손	-6.88491
▁절단	-6.89308
▁지상	-6.8998
/	-6.90198
▁내	-6.9057
▁재해	-6.91017
▁약	-6.92102
▁떨어짐	-6.93034
▁김	-6.93856
▁손가락이	-6.94847
▁8	-6.9499
▁부주의로	-6.95085
▁이	-6.95218
단	-6.96452
▁자재를	-6.96752
M	-6.96788
▁유로폼	-6.97824
되어	-6.97837
▁위한	-6.98169
▁미흡	-6.98631
▁발생한	-6.98713
▁운반	-6.9975
▁헛디뎌	-7.00191
▁15	-7.01538
▁넘어져	-7.01718
▁보	-7.02256
▁재해자의	-7.02824
▁사이에	-7.03834
▁확인	-7.04262
▁배관	-7.05553
4	-7.05857
도	-7.06388
▁고정	-7.0671
▁소속	-7.06951
▁현장에서	-7.07093
▁오후	-7.07366
▁경	-7.0738
cm	-7.08282
▁장비	-7.08762
▁발판	-7.10223
▁H	-7.11117
▁7	-7.11163
▁협착	-7.1213
▁인해	-7.12167
▁6	-7.12195
▁이용하여	-7.12345
:	-7.12767
▁부상	-7.13124
▁미끄러지면서	-7.13743
▁끼임	-7.14179
▁9	-7.14309
경	-7.14865
▁20	-7.15003
▁계단	-7.15181
▁떨어져	-7.15689
자	-7.15704
▁슬라브	-7.16382
▁도중	-7.16677
▁오른손	-7.17247
▁외부	-7.18524
▁인양	-7.19873
며	-7.20512
▁입음	-7.20896
부	-7.21669
▁높이	-7.21844
▁바닥으로	-7.21926
▁못하고	-7.22511
작업을	-7.2298
리	-7.23126
▁무릎	-7.23386
▁재해임	-7.25664
▁상태에서	-7.2598
하게	-7.26625
30	-7.26918
함	-7.27088
▁근로자가	-7.27834
▁등	-7.27999
▁사다리	-7.28323
▁크레인	-7.28867
▁그라인더	-7.29261
수	-7.29497
작업중	-7.29521
하고	-7.29663
▁14	-7.30501
▁사고가	-7.3065
▁내부	-7.31009
▁함께	-7.31064
▁정리	-7.31225
▁밟고	-7.31532
▁시	-7.32599
▁타설	-7.33104
▁미끄러짐	-7.34546
공	-7.34971
▁시스템	-7.35311
번	-7.35384
면	-7.3554
▁08	-7.35675
▁순간	-7.35723
▁사용	-7.36003
▁제거	-7.36345
▁전도	-7.36582
▁부딪혀	-7.36596
▁16	-7.37411
건설	-7.37456
▁13	-7.3755
▁말비계	-7.38317
▁주변	-7.38534
▁조립	-7.39102
구간	-7.39388
▁불안전한	-7.39506
▁작업발판	-7.39525
대	-7.40119
던	-7.40397
▁09	-7.40589
▁합판	-7.41132
5	-7.41185
구	-7.41472
▁상부에서	-7.41618
▁설치된	-7.42276
▁전	-7.42528
장	-7.43077
▁발생함	-7.43146
▁어깨	-7.43282
이던	-7.43815
진	-7.43884
▁않고	-7.43956
▁들고	-7.45974
10	-7.46107
▁굴삭기	-7.4639
상	-7.47423
▁인하여	-7.4847
▁발목	-7.49895
▁높이에서	-7.50118
하지	-7.50278
차	-7.50399
▁의한	-7.50552
▁잡고	-7.50563
▁허리	-7.51015
▁가시설	-7.51662
▁시스템비계	-7.54328
▁내려오던	-7.54565
▁사고발생	-7.5474
▁철근에	-7.55384
▁위에서	-7.55656
▁병원	-7.55958
▁동료	-7.56141
▁진단	-7.56297
세	-7.56683
▁타격	-7.56855
▁신축공사	-7.57098
높이	-7.57448
▁철근을	-7.58206
하기	-7.58349
▁제	-7.59351
해	-7.59627
형	-7.59635
공사	-7.6027
하던	-7.60385
▁***	-7.6066
호	-7.60775
하면서	-7.60815
▁차량	-7.61519
▁현장내	-7.61589
▁동바리	-7.62063
▁철골	-7.62731
전	-7.62739
▁엄지손가락	-7.63892
▁119	-7.64018
7	-7.64248
▁넘어지며	-7.645
▁한	-7.64871
화	-7.65192
어	-7.65637
있던	-7.6565
▁아래로	-7.65834
6	-7.6603
▁07	-7.66157
▁낙하	-7.66174
▁행동	-7.66335
▁-	-7.66484
▁설치를	-7.66701
명	-7.67341
▁B	-7.67526
▁공사	-7.67769
▁당	-7.6779
▁하던중	-7.67869
8	-7.67981
▁형틀	-7.68183
사	-7.68656
교	-7.68912
▁충돌	-7.69097
성	-7.6943
▁베임	-7.69513
▁함	-7.69619
관	-7.69729
▁발등	-7.69808
▁진행	-7.69921
▁뒤로	-7.70314
조	-7.70439
▁중지	-7.70566
▁각재	-7.71262
▁발	-7.71546
**)	-7.71892
▁보고	-7.72287
▁의해	-7.72333
▁박	-7.72503
▁위치	-7.74036
▁체결	-7.74418
▁충격	-7.74458
▁일부	-7.74853
▁다침	-7.7495
▁미	-7.75171
▁다리	-7.75236
▁완료	-7.75382
▁골절됨	-7.75399
▁파이프	-7.75534
선	-7.75663
▁추락하여	-7.75903
게	-7.76001
▁인지하지	-7.76328
▁계단실	-7.76455
명이	-7.76599
▁부위	-7.76717
▁A	-7.77266
다	-7.77859
▁지게차	-7.78088
▁가격	-7.78262
▁상태	-7.7835
실	-7.78502
▁사용하여	-7.78575
▁손목	-7.78936
▁손	-7.80117
▁않아	-7.80166
mm	-7.80267
개	-7.80587
▁발목을	-7.80958
원	-7.81029
른	-7.81036
▁판넬	-7.81108
▁안전	-7.81215
▁타워크레인	-7.81503
▁철거	-7.81625
▁골절된	-7.82238
목	-7.82384
사고	-7.82598
▁검지	-7.82685
▁가	-7.83148
9	-7.83204
H	-7.8364
▁손을	-7.8396
▁사다리를	-7.84123
▁끼어	-7.84491
▁기초	-7.84589
에게	-7.84603
▁**	-7.84641
▁떨어지면서	-7.84773
▁시공	-7.85061
빔	-7.85188
▁부상을	-7.8527
▁이동식	-7.85347
▁치료	-7.87591
▁하기	-7.87612
다가	-7.87939
▁시스템동바리	-7.88558
▁추락한	-7.88735
층으로	-7.89026
▁실시	-7.89654
▁않은	-7.89712
내	-7.89871
▁연결	-7.90021
보	-7.90039
▁기	-7.90901
▁피재자	-7.90952
▁21	-7.91171
스	-7.91609
▁해체작업	-7.9183
▁결과	-7.91839
▁로프	-7.91933
▁수	-7.91938
▁위	-7.92596
▁토사	-7.93049
씨	-7.93409
부위	-7.93716
▁재해자는	-7.94068
▁기둥	-7.94116
▁발목이	-7.94141
▁임	-7.94691
▁손상	-7.94764
▁옹벽	-7.9508
▁머리	-7.95108
히	-7.95173
▁천정	-7.95496
▁추락함	-7.95945
간	-7.96093
만	-7.96789
▁사이	-7.96979
▁틀비계	-7.97401
▁19	-7.98191
임	-7.98677
▁자재가	-7.98849
20	-7.99733
▁따	-7.99858
▁망치로	-7.99868
▁사고자	-7.99932
▁그	-8.0015
▁됨	-8.00436
▁하나	-8.0083
11	-8.0105
▁하역	-8.01127
▁당일	-8.01214
음	-8.01438
▁맞음	-8.01583
트	-8.0166
▁밟아	-8.01772
천	-8.0184
▁신호	-8.02297
▁튀어	-8.02439
▁40	-8.02466
▁손등	-8.02621
▁안전모	-8.0316
▁내려오다	-8.03187
▁내려	-8.03241
정	-8.03677
▁몸의	-8.04023
▁갱폼	-8.04086
▁주차장	-8.04264
▁작업시	-8.04809
▁해당	-8.04815
0	-8.05389
*	-8.05693
▁임의	-8.0601
▁통증을	-8.0639
됨	-8.06402
아	-8.06638
▁알폼	-8.06767
▁볼트	-8.06773
번지	-8.0683
조로	-8.07336
자재	-8.07343
▁불량	-8.07413
▁가슴	-8.0755
재	-8.078
사이에	-8.07857
▁같이	-8.07918
약	-8.07972
▁청소	-8.08205
▁50	-8.08364
산	-8.08419
▁진료	-8.08978
제	-8.09438
▁외벽	-8.09532
▁낙하하여	-8.09686
져	-8.10034
T	-8.10103
▁눈	-8.10232
▁통증이	-8.10622
▁마치고	-8.10687
▁주	-8.11355
▁25	-8.11536
▁06	-8.11636
되면서	-8.11773
되는	-8.12104
치	-8.12132
▁와이어	-8.12289
▁적재함	-8.1301
현장	-8.13082
▁접촉	-8.13131
▁목재	-8.1335
재해자	-8.13633
▁안전고리	-8.13688
▁구간	-8.1376
등	-8.13862
▁18	-8.13963
▁서포트	-8.14206
▁터파기	-8.14445
▁핸드그라인더	-8.14649
▁받음	-8.1475
▁1.	-8.14854
톤	-8.15074
설치	-8.15104
▁이용	-8.15117
▁1.5	-8.15179
▁인근	-8.15289
▁이동하던	-8.15335
▁사망	-8.15409
라	-8.15497
▁17	-8.15563
▁지붕	-8.15589
소	-8.15614
▁하다가	-8.15654
▁용접	-8.1567
▁당함	-8.15818
2.	-8.15882
김	-8.1602
▁병원으로	-8.16179
▁적재	-8.16466
▁신고	-8.16689
▁운반중	-8.16832
▁회전	-8.17577
▁안	-8.17583
▁이송	-8.18003
▁04	-8.18212
▁상부에	-8.18221
▁안전벨트	-8.18265
▁올라가	-8.18376
▁빔	-8.18531
▁접질림	-8.18635
▁맞아	-8.18647
▁상태로	-8.18792
▁약지	-8.18843
▁있어	-8.18884
▁인지	-8.19082
▁신호수	-8.19276
▁빠지면서	-8.19685
▁균형	-8.19705
▁개구부	-8.19823
▁자재에	-8.19881
▁양중	-8.20174
▁결속	-8.20223
▁입은	-8.20264
▁갑자기	-8.2075
▁하는	-8.2094
▁타박상	-8.20949
▁갈비뼈	-8.20991
우	-8.21149
▁03	-8.21299
▁정	-8.21716
▁102	-8.21978
▁구조물	-8.22217
▁미끄러지며	-8.2234
▁사다리에서	-8.22432
▁타격하여	-8.22582
▁것으로	-8.22593
▁손이	-8.22962
00)	-8.23003
적	-8.23029
▁다른	-8.23054
▁이후	-8.23161
▁아래	-8.23183
▁헛딛어	-8.2344
▁본인	-8.23496
▁흙막이	-8.23544
▁한쪽	-8.24057
토	-8.2424
하며	-8.24846
▁추정	-8.25562
▁부족	-8.25564
kg	-8.25586
▁엄지	-8.25676
▁석재	-8.25706
▁세대	-8.26526
▁하차	-8.26673
안	-8.26874
▁수술	-8.27127
▁파열	-8.27467
▁것을	-8.27592
▁착용	-8.27668
▁간	-8.27677
▁떨어진	-8.27874
까지	-8.27951
▁전도되어	-8.2806
▁대한	-8.28071
12	-8.28519
식	-8.28679
▁오	-8.28854
▁무리한	-8.29203
▁내려오다가	-8.29204
▁작업대	-8.29434
▁05	-8.29487
▁못	-8.29667
▁하고	-8.29698
F	-8.29799
하던중	-8.29887
▁즉시	-8.30119
▁배근	-8.30177
▁01	-8.30347
▁주장	-8.30505
▁신	-8.3079
위	-8.30941
하였으나	-8.31337
여	-8.3146
▁건물	-8.31686
정도	-8.3242
▁바닥에서	-8.32525
▁이탈	-8.32577
▁단열재	-8.32586
▁굴착기	-8.32678
▁최	-8.32693
▁우마	-8.32835
▁무리	-8.32971
▁고리	-8.33018
▁맨홀	-8.33066
▁손으로	-8.33668
▁02	-8.33858
▁통증	-8.34091
▁대	-8.3431
▁얼굴	-8.34511
금	-8.34545
▁퇴근	-8.34588
▁24	-8.34791
판	-8.3481
▁옆	-8.34823
▁통해	-8.35091
▁장	-8.351
공구	-8.35549
▁파이프를	-8.35964
▁잘못	-8.35995
남	-8.36087
▁앞	-8.36231
▁입원	-8.36242
▁설치작업	-8.36252
▁어깨에	-8.36256
석	-8.36262
▁팔꿈치	-8.36276
려	-8.36304
▁단순과실	-8.36306
쪽	-8.3657
▁덮개	-8.36577
위에서	-8.3662
▁조	-8.3728
▁부	-8.37296
▁서	-8.37331
▁상	-8.37452
▁부분	-8.37466
▁방향	-8.37769
▁101	-8.37863
▁띠장	-8.37919
▁엘리베이터	-8.38065
▁지지대	-8.38514
▁넘어진	-8.38576
▁자재정리	-8.38686
하다	-8.3873
(2	-8.3882
▁염좌	-8.38858
유	-8.3888
A	-8.39039
15	-8.39216
▁23	-8.39505
있는	-8.39646
▁휴식	-8.39736
▁돌	-8.39845
▁허벅지	-8.40059
거푸집	-8.4013
▁골절이	-8.40559
▁구간에서	-8.40677
▁팔	-8.40751
▁사실	-8.41039
▁낙상	-8.41112
▁미착용	-8.41218
▁따라	-8.4129
▁되어	-8.41508
▁준비	-8.41606
▁들어	-8.41817
하	-8.42029
▁28	-8.42054
▁새끼손가락	-8.4225
▁못을	-8.42401
▁형틀목공	-8.42838
▁빠져	-8.42955
▁근로복지공단	-8.43167
▁X	-8.43241
▁된	-8.4326
▁타일	-8.43376
▁22	-8.43714
하였고	-8.43942
▁발가락	-8.44084
배관	-8.44278
▁기계	-8.44349
▁항타기	-8.44477
▁위에	-8.44553
하다가	-8.44616
작업자	-8.44713
▁하였으나	-8.44732
▁가설	-8.45228
▁조치	-8.45295
운	-8.45295
▁무게	-8.45381
▁못하여	-8.45421
▁가공	-8.45587
50	-8.45638
나	-8.45665
▁상부로	-8.45699
▁발생된	-8.4573
▁하여	-8.45797
▁지하주차장	-8.45811
▁다리가	-8.45901
▁강	-8.46203
상태	-8.46418
▁힘을	-8.46452
▁받고	-8.46456
▁E	-8.46471
력	-8.46747
▁상차	-8.46777
지구	-8.47006
▁정강이	-8.47174
▁슬래브	-8.47248
▁철판	-8.47257
포	-8.47462
▁목격자	-8.47466
병원	-8.47616
▁데크	-8.47654
철근	-8.47655
▁탈락	-8.47695
드	-8.47704
▁내려오는	-8.47736
▁통로	-8.4776
▁하부에	-8.47854
▁작동	-8.47868
▁벽돌	-8.47985
▁00	-8.48178
▁철근이	-8.48777
▁적재된	-8.48779
▁골절상을	-8.48899
▁작업장	-8.49109
방	-8.49136
부터	-8.49255
▁펌프카	-8.49307
▁기존	-8.49308
▁급	-8.49443
▁실수로	-8.49451
▁산재	-8.49476
▁임시	-8.4956
▁수직	-8.49805
▁앞으로	-8.50034
▁후송	-8.50053
▁수직재	-8.5011
▁미설치	-8.50111
▁고소작업대	-8.50148
▁협착되어	-8.503
▁과실	-8.50664
▁토류판	-8.50719
하였음	-8.50728
▁단순	-8.50824
▁재해가	-8.50912
▁없음	-8.50917
16	-8.5093
▁종료	-8.51141
구간에서	-8.51547
▁후진	-8.51565
문	-8.51803
▁전기	-8.51861
▁장갑이	-8.51887
▁덤프트럭	-8.52077
▁실족	-8.52079
▁수평	-8.52102
근	-8.52253
▁사고입니다	-8.52332
▁분리	-8.52399
▁넘어지는	-8.52831
장비	-8.53285
도중	-8.5339
물	-8.53415
▁재	-8.53438
▁사고로	-8.53451
▁지지	-8.53472
▁잃어	-8.53526
▁파손	-8.53725
림	-8.54014
체	-8.54116
▁103	-8.5421
균형을	-8.54212
▁정리정돈	-8.54423
양	-8.54517
40	-8.54592
▁내부에서	-8.54599
▁드릴	-8.54777
비계	-8.54834
시설	-8.55069
▁26	-8.55091
▁발판에서	-8.55281
▁촬영	-8.55285
린	-8.55338
▁비	-8.55829
방향	-8.55906
▁옆구리	-8.55912
▁104	-8.56008
▁각파이프	-8.56058
▁현재	-8.56186
러	-8.56259
▁운전원	-8.56472
▁난간대	-8.56651
번째	-8.56698
▁놓쳐	-8.57025
▁안전난간대	-8.57421
V	-8.57461
▁인대	-8.57519
▁호스	-8.57664
▁27	-8.57808
병원으로	-8.58235
▁폐기물	-8.58299
▁원인	-8.58367
▁사이로	-8.58893
▁호소	-8.59221
▁망치	-8.59239
▁운전자	-8.59248
▁상해를	-8.59255
▁소재	-8.59434
▁하지	-8.59491
▁제작	-8.59517
▁옆으로	-8.59695
3.	-8.59779
~	-8.59963
▁하기위해	-8.60072
▁안전대	-8.60332
▁구	-8.60364
영	-8.60428
▁데크플레이트	-8.60454
▁못이	-8.605
▁붐대	-8.60501
▁계속	-8.60564
▁고	-8.60705
▁미장	-8.60724
▁허리에	-8.60897
C	-8.60929
▁유	-8.61226
▁경계석	-8.61229
▁와이어로프	-8.61263
▁가설계단	-8.61322
바	-8.61524
▁추락사고	-8.61542
▁아파트	-8.61643
▁지면에	-8.61671
▁정도	-8.6177
▁조작	-8.61816
▁남	-8.61834
13	-8.61934
▁관로	-8.62002
▁천장	-8.62083
판넬	-8.62117
발생	-8.62126
▁골절되는	-8.62194
▁받아	-8.62198
하였으며	-8.62299
▁다친	-8.62383
▁점검	-8.62528
▁근무	-8.62601
▁물	-8.62675
할	-8.62692
07	-8.62741
▁화상	-8.62792
▁위로	-8.62805
▁협력업체	-8.62815
▁협소	-8.62887
B	-8.63041
과정에서	-8.63258
되지	-8.63296
▁설치중	-8.63382
▁옥상	-8.63478
▁작업하던	-8.63637
▁타격함	-8.63737
D	-8.63821
▁강관	-8.6385
▁하부에서	-8.6392
▁종아리	-8.63948
▁사	-8.64241
결과	-8.64368
▁이동하여	-8.64378
▁모서리에	-8.64797
▁위험	-8.64956
▁동료작업자	-8.64975
▁선	-8.65023
▁무릎이	-8.65067
▁유리	-8.65174
▁부재	-8.65181
미터	-8.65203
▁검지손가락	-8.65355
▁뒤	-8.65409
통	-8.65423
▁조정	-8.65886
▁관	-8.65959
▁본인이	-8.66059
▁짚어	-8.66115
▁중량물	-8.66203
▁외	-8.66278
▁미흡으로	-8.66438
▁끝부분	-8.66807
놓은	-8.66871
▁시행	-8.66873
▁레미콘	-8.66901
▁보조	-8.66946
▁파이프가	-8.66983
▁29	-8.67046
(1	-8.67121
▁폼	-8.67124
▁PC	-8.67132
▁날이	-8.67301
▁판단	-8.67329
마	-8.67362
18	-8.6762
▁측면	-8.67664
▁하	-8.67715
▁옆에	-8.67825
▁발생하여	-8.67929
▁동	-8.67988
터널	-8.67998
14	-8.6806
▁화장실	-8.68062
▁천공	-8.68091
골절	-8.68097
▁개인	-8.68392
▁2022	-8.68601
▁통보	-8.68697
▁본인의	-8.68821
▁전선	-8.6888
▁램프	-8.69051
계	-8.69143
▁열상	-8.69591
▁나무	-8.69707
비	-8.69737
하부	-8.69807
블럭	-8.6991
▁승인	-8.70025
▁톱날에	-8.70142
야	-8.70168
▁P	-8.70196
▁원	-8.70225
P	-8.70307
▁내려오던중	-8.70876
▁타	-8.70967
▁형틀공	-8.71237
근로자	-8.71271
하려고	-8.71426
**(	-8.71685
미	-8.71718
씨는	-8.71748
▁천막	-8.71912
▁부딪힌	-8.71979
▁신청	-8.72039
02	-8.72181
▁상해	-8.72388
09	-8.72459
▁통	-8.72526
▁상단	-8.7261
오	-8.72635
▁T	-8.72894
▁오른발	-8.72919
▁끼여	-8.72926
▁설치되어	-8.73088
▁부위에	-8.73283
▁늑골	-8.73296
▁이상	-8.73444
중인	-8.73458
▁해체된	-8.73459
▁차	-8.73712
▁운반하던	-8.73847
▁철근공	-8.73978
부분	-8.74014
▁이동통로	-8.74166
▁부딪쳐	-8.74422
▁고정용	-8.74569
▁일어난	-8.74657
▁찰과상	-8.74657
높이에서	-8.74687
상부	-8.74714
▁파일	-8.74718
▁교체	-8.74839
▁손잡이	-8.75063
▁우	-8.75091
01	-8.75113
대로	-8.75421
사이	-8.7544
▁미준수	-8.75566
발	-8.75619
자재를	-8.7585
19	-8.75946
▁감	-8.7616
S	-8.76235
줄	-8.76289
▁부분이	-8.76616
군	-8.76625
▁105	-8.76736
▁슬링벨트	-8.76783
차량	-8.7686
▁바닥을	-8.7689
▁아닌	-8.77404
▁떨어지며	-8.77423
▁떨어지는	-8.77466
틀	-8.77562
▁이동시	-8.77596
▁수평재	-8.77646
▁못한	-8.77811
▁재해발생	-8.77908
▁하강	-8.77966
▁목공	-8.77979
04	-8.78375
▁복공판	-8.78514
▁손목이	-8.78564
▁절곡기	-8.78599
창	-8.78849
▁당시	-8.78953
▁업무	-8.78976
강	-8.7915
열	-8.79182
▁병원에서	-8.79325
해체	-8.79388
▁협착됨	-8.79455
▁앞에서	-8.79613
▁순간적	-8.79616
▁해체중	-8.79718
▁백호	-8.79853
▁기계실	-8.79937
03	-8.7994
▁상황	-8.8021
▁이물질	-8.8025
▁미확인	-8.80275
▁불안정	-8.8029
▁무게중심	-8.8036
▁응급실	-8.80449
▁도착	-8.80516
▁날	-8.80626
▁바퀴	-8.80628
▁000	-8.80743
▁놓은	-8.80777
▁밑	-8.80838
▁장소	-8.80976
▁목	-8.81041
?	-8.81085
▁눈에	-8.81167
▁찔림	-8.81201
▁철근배근	-8.81402
▁착지	-8.81558
수지	-8.81571
▁넘어	-8.81655
▁공구	-8.81733
류	-8.81754
반	-8.81783
▁도로	-8.81822
▁난간	-8.82032
▁부분을	-8.82156
▁카고크레인	-8.82174
▁사다리가	-8.82268
▁석고보드	-8.82325
▁소	-8.82357
▁피해자	-8.82377
▁호이스트	-8.82387
▁시멘트	-8.82467
▁확인하지	-8.82502
▁계단을	-8.82811
벽	-8.82853
▁튕기	-8.83153
▁지	-8.83195
▁하다	-8.83438
호기	-8.83594
▁맞	-8.83595
던중	-8.83702
▁전달	-8.8374
▁작업방법	-8.83857
▁절단기	-8.83864
쪽으로	-8.84034
▁해체작업중	-8.84214
▁케이싱	-8.84298
▁2.5	-8.84576
▁작업구간	-8.84745
▁탑승	-8.84764
외	-8.8481
'	-8.85061
▁제출	-8.85067
▁정리작업	-8.85317
▁현장에	-8.85354
▁질병	-8.85471
▁운전원이	-8.85645
08	-8.85747
▁작업자세	-8.86046
▁양	-8.86066
]	-8.86136
BL	-8.8617
▁보강	-8.86204
▁고임목	-8.86272
▁병원에	-8.86422
거	-8.86468
25	-8.86622
▁파이프에	-8.86747
팀	-8.86831
06	-8.86876
▁충돌하여	-8.87039
복	-8.87048
▁부착	-8.87109
다고	-8.87118
"	-8.8719
▁미체결	-8.87191
▁지하층	-8.8723
▁바람	-8.87292
▁타고	-8.87409
▁작업도중	-8.87411
▁1.2	-8.87615
▁D	-8.8762
신	-8.87745
▁않	-8.87766
▁중간	-8.87768
▁자재운반	-8.88145
▁전원	-8.88337
▁설비	-8.88425
▁없어	-8.88461
으며	-8.88463
▁PIT	-8.88539
▁곳	-8.8888
▁트럭	-8.88946
▁블록	-8.89095
▁바로	-8.89208
▁잔재물	-8.89305
▁붕괴	-8.89344
▁튕겨	-8.89364
▁협력사	-8.89453
▁없는	-8.89604
▁검사	-8.89632
량	-8.89867
▁후면	-8.8998
▁입	-8.90081
05	-8.90301
박	-8.90306
▁안전난간	-8.90355
▁거치	-8.90438
▁버팀보	-8.90473
17	-8.90508
▁놓	-8.9084
▁인부	-8.90944
▁엉덩이	-8.91018
L	-8.9135
종	-8.91458
e	-8.91481
▁흄관	-8.91485
▁덕트	-8.91833
▁앵글	-8.91862
▁사고자가	-8.92089
명과	-8.92181
▁문	-8.92302
▁철근가공	-8.92794
▁보안경	-8.92854
▁들어가	-8.92979
설	-8.93008
4.	-8.93321
콘크리트	-8.93456
▁끝마디	-8.93614
▁주의	-8.93714
▁핀	-8.93809
▁피부	-8.93951
▁다시	-8.94109
▁안전화	-8.94116
▁천공기	-8.94298
▁집수정	-8.94405
▁C	-8.94451
▁목재를	-8.94523
24	-8.94544
▁공간	-8.94548
▁부딪침	-8.94625
▁미확보	-8.94632
▁이동하는	-8.94996
▁반출	-8.95008
점	-8.95023
▁방	-8.95081
질	-8.95171
▁교량	-8.95188
▁단부	-8.95218
▁후크	-8.95282
▁보지	-8.9534
▁진입	-8.95559
발판	-8.95772
▁충격으로	-8.95875
당	-8.95882
▁홀	-8.9622
측	-8.96232
려고	-8.96687
▁바	-8.96787
22	-8.96859
▁하였고	-8.96919
도로	-8.96959
▁관리	-8.97344
층바닥	-8.97397
▁안쪽	-8.97466
21	-8.97566
▁기사	-8.97592
각	-8.9762
▁없이	-8.97676
무	-8.97749
위치	-8.9777
회	-8.97802
▁발생됨	-8.9781
▁불	-8.97822
▁내리던	-8.97841
-1	-8.97877
▁자세로	-8.9788
우측	-8.97903
(4	-8.97905
▁왼발	-8.97995
▁설치한	-8.9808
▁신체	-8.98097
▁과정에	-8.98143
▁마무리	-8.98149
▁타박상을	-8.98226
▁두	-8.98283
차로	-8.98385
▁나	-8.98387
파이프	-8.98457
▁인대가	-8.98464
▁설치하기	-8.98484
입	-8.9862
▁공사중	-8.98906
버	-8.9909
브	-8.9914
▁찢어짐	-8.99144
▁쓰러짐	-8.99145
현	-8.99191
터	-8.99199
건	-8.99204
재해	-8.99206
업체	-8.99224
▁소운반	-8.99344
▁안전발판	-8.99578
▁발판이	-8.99899
▁심	-8.9991
▁지시	-8.99977
▁출근	-9.00034
▁옮기던	-9.00126
▁L	-9.00189
▁강타	-9.00251
▁옮기는	-9.00378
▁자세	-9.00409
저	-9.00486
뼈	-9.0059
록	-9.00625
유로폼	-9.00625
t	-9.00656
▁굴착	-9.00689
▁가지	-9.00694
▁출입구	-9.00694
조립	-9.01231
센터	-9.01395
▁설치작업을	-9.01428
▁적치	-9.01479
▁돌출된	-9.01555
▁세	-9.01568
▁자상	-9.01586
박스	-9.01744
확인	-9.01815
▁지반	-9.0183
▁확보	-9.02073
▁손에	-9.02077
▁창호	-9.02143
▁본	-9.0219
들	-9.02207
+	-9.02637
읍	-9.02642
▁놓치면서	-9.02708
▁OOO	-9.02808
▁이동하다가	-9.02834
▁끝	-9.02944
▁버팀대	-9.02972
▁도	-9.03002
바닥	-9.03376
시간	-9.03519
▁다	-9.03607
벽체	-9.03758
▁작업으로	-9.03776
▁/	-9.03936
▁요양	-9.0395
니	-9.04023
▁하단	-9.04165
▁최초	-9.0419
파	-9.04294
크	-9.0441
▁거푸집에	-9.04473
▁부분에	-9.04815
손	-9.04887
▁부러지	-9.0496
심	-9.05021
▁S	-9.0506
▁전방	-9.0513
기위해	-9.05145
▁공사현장	-9.0518
▁파악	-9.05234
현장에서	-9.05245
▁잡고있던	-9.05322
▁접수	-9.0536
▁법면	-9.05414
▁기대어	-9.05423
위에	-9.05437
▁충격이	-9.05565
▁둥근톱	-9.05633
정리	-9.05727
▁터널	-9.05764
▁발생하였음	-9.05765
▁미숙	-9.05803
▁경사로	-9.05857
▁핸드	-9.05868
속	-9.05923
▁지면으로	-9.05928
▁하중	-9.06046
(3	-9.06108
로프	-9.06199
▁쓰러져	-9.06312
▁부근	-9.06324
▁뛰어	-9.06326
으나	-9.06494
▁MRI	-9.06501
▁사전	-9.06675
방지	-9.06859
철	-9.07361
▁요양급여	-9.07388
▁의식	-9.07574
▁헛디딤	-9.07583
▁해	-9.07583
▁반동	-9.07861
▁마감	-9.07974
▁때	-9.0806
위해	-9.08094
▁근처	-9.08114
하기위해	-9.08144
▁모서리	-9.08214
▁관련	-9.08228
▁무	-9.08252
▁상기	-9.08387
▁미장작업	-9.08482
골	-9.08721
운반	-9.0873
▁"	-9.08827
▁화물차	-9.08829
ray	-9.0883
▁완전	-9.08861
▁미비	-9.08913
▁팔목	-9.08928
▁뒤꿈치	-9.08995
▁비계파이프	-9.09028
▁벽체거푸집	-9.09084
R	-9.0912
▁멍에재	-9.09121
▁날에	-9.09171
▁조사	-9.09294
▁내리	-9.09341
▁질환	-9.09366
고정	-9.0976
29	-9.09926
▁있음	-9.1012
▁배	-9.1012
00(	-9.10121
송	-9.10127
▁잡아	-9.10152
작업자가	-9.10153
▁왼손으로	-9.10163
▁접근	-9.10324
26	-9.10336
▁철재	-9.10386
▁사무실	-9.10469
▁쪽으로	-9.10555
▁왜	-9.1125
▁몸	-9.11292
▁굴러	-9.11434
▁미실시	-9.11442
▁월요일	-9.11852
▁예정	-9.11867
▁호소하여	-9.11892
▁렌탈	-9.11913
▁클램프	-9.11934
▁리프트	-9.11952
BEAM	-9.11983
W	-9.12008
▁골절상	-9.12012
짐	-9.12317
온	-9.12416
사업	-9.12476
연결	-9.12491
▁안면	-9.12509
▁직접	-9.12547
병	-9.12569
계단	-9.12657
▁흔들리	-9.12668
▁잘	-9.12708
I	-9.12712
▁당현장	-9.12781
▁[	-9.12976
피	-9.13031
암	-9.13076
▁지상으로	-9.13087
▁손바닥	-9.13132
연	-9.13182
▁108	-9.13346
▁사면	-9.13357
▁송	-9.13372
▁야적	-9.13423
길	-9.13522
▁절단작업	-9.13548
르	-9.13982
시공	-9.14094
▁작업발판에서	-9.14118
▁31	-9.14184
▁2021.	-9.14201
▁전도되면서	-9.14256
▁밖	-9.14372
▁다음	-9.14395
프	-9.14468
▁재단	-9.14688
▁부딪히	-9.15
▁작업후	-9.15274
▁되메우기	-9.1543
하였습니다	-9.15469
▁밀려	-9.15493
▁작업종료	-9.15614
▁우천으로	-9.15638
▁가격함	-9.15704
제거	-9.15864
▁#	-9.16071
해서	-9.16109
▁위해서	-9.16218
▁전동	-9.16456
23	-9.16507
▁엉덩방아	-9.168
▁새끼	-9.16826
없이	-9.16952
▁입구	-9.17034
▁케이블	-9.17073
초	-9.17136
▁안면부	-9.17317
▁지면	-9.17349
▁단독	-9.17381
봉	-9.17432
▁단차	-9.17499
▁딛	-9.17513
▁1.8	-9.17574
▁무릎에	-9.17653
▁배수	-9.17715
▁내리는	-9.17764
▁운전	-9.17807
▁발견	-9.17829
곡	-9.1811
▁상승	-9.18154
▁구멍	-9.18188
▁먼저	-9.18188
실에서	-9.18199
▁않음	-9.18233
▁흙	-9.18256
▁고속절단기	-9.18262
▁고정된	-9.18324
▁파단	-9.1835
▁필요한	-9.18374
관리	-9.18473
▁미끄러	-9.18607
▁거	-9.1861
생	-9.18627
▁내부로	-9.18771
역	-9.18809
신고	-9.18826
그	-9.18913
▁손가락에	-9.18957
홀	-9.18985
병원에서	-9.19261
▁포장	-9.19347
▁다음날	-9.1961
▁결정	-9.19679
급	-9.19812
▁투입	-9.19821
부위가	-9.19921
▁믹서기	-9.19958
▁목요일	-9.19969
▁방문	-9.20104
위로	-9.20286
▁작업장에서	-9.20446
▁옥탑	-9.20498
▁못함	-9.20577
▁하였음	-9.20584
▁마	-9.20769
구역	-9.20834
혀	-9.20958
기계	-9.21006
행	-9.21103
▁부딪히면서	-9.21193
▁안구	-9.21194
▁전도됨	-9.21225
▁맞지	-9.21227
▁근로복지공단에	-9.21235
▁토요일	-9.21311
파일	-9.21345
▁107	-9.21349
▁귀가	-9.21407
사다리	-9.21519
▁피해	-9.2153
▁금요일	-9.21613
목격자	-9.21894
▁놓여	-9.21944
▁이동하다	-9.22016
▁과정	-9.22068
▁설치하는	-9.22117
(6	-9.2215
▁자	-9.2219
장소	-9.22219
적으로	-9.22318
▁불량으로	-9.22451
▁올라가던	-9.22455
▁느껴	-9.22475
▁샤클	-9.22475
▁45	-9.22539
▁'	-9.22592
▁왼쪽발	-9.22771
▁작업장소	-9.22795
래	-9.22805
방문하여	-9.22939
장치	-9.22948
▁황	-9.23223
28	-9.23277
더	-9.23326
증	-9.23383
촬영	-9.23383
27	-9.2339
▁교육	-9.23461
▁어디서	-9.23526
▁타설중	-9.23853
▁튀면서	-9.23946
▁근린생활시설	-9.23947
▁반대편	-9.23947
▁취급	-9.23947
▁수행	-9.23984
▁아웃트리거	-9.24023
▁106	-9.24094
▁이동식틀비계	-9.24153
안전	-9.24197
▁하면서	-9.24205
▁화요일	-9.24209
▁앉아	-9.24231
▁윤	-9.24332
▁조적	-9.24335
▁이송하여	-9.24739
폼	-9.24876
절	-9.24888
▁작업자와	-9.24982
▁근육	-9.25075
▁설치작업중	-9.25241
▁현장의	-9.2526
▁보행	-9.25318
▁중앙	-9.25369
토건	-9.25428
▁받은	-9.25438
▁밀리면서	-9.25468
▁보통인부	-9.25517
▁끼이면서	-9.25568
CM	-9.25708
▁줄걸이	-9.25864
▁도장	-9.25909
▁반입	-9.25918
배	-9.26112
▁넘어져서	-9.26114
조치	-9.26173
▁장갑	-9.26184
하여야	-9.26195
▁진행중	-9.26198
▁공구를	-9.26215
▁슬라브에서	-9.26219
▁백	-9.26238
▁길이	-9.26244
소속	-9.26479
▁소견	-9.26596
▁걸	-9.26759
▁내에서	-9.26841
▁가지러	-9.26978
▁미고정	-9.27005
▁원형톱	-9.27158
▁사망함	-9.27166
▁걸어	-9.27186
▁수정	-9.27272
완료	-9.2728
▁처리	-9.27461
부분이	-9.27624
산업	-9.27741
볼트	-9.27843
▁발판에	-9.2787
침	-9.27947
청	-9.28061
▁내용	-9.28084
처	-9.28238
▁손수레	-9.28496
▁짚으	-9.28512
광	-9.28566
▁양수기	-9.28577
▁걸리면서	-9.28613
▁일용직	-9.28616
▁조립작업	-9.28663
▁내원하여	-9.28694
o	-9.28707
▁요청	-9.28908
본	-9.28931
날	-9.28994
▁인력으로	-9.29063
=	-9.29123
▁PE	-9.29124
▁보양	-9.29142
▁노	-9.29157
▁공사현장에서	-9.2938
▁철근조립	-9.29382
호세대	-9.29407
▁정리중	-9.29446
구조물	-9.29534
▁상황에서	-9.29568
▁진	-9.29749
타	-9.2984
항	-9.29891
절단	-9.29951
▁주변에서	-9.29973
락	-9.2999
▁혼자	-9.30054
▁접지름	-9.30057
▁전동드릴	-9.30062
▁동작	-9.30078
▁개인보호구	-9.30171
▁기설치	-9.30236
▁끼인	-9.30246
▁틈새	-9.30301
▁지주	-9.30326
a	-9.30341
▁화재	-9.30367
▁경사면	-9.30473
▁천공작업	-9.30524
▁대구	-9.30793
▁정지	-9.31097
집	-9.31168
및	-9.31208
▁연결부	-9.31532
▁피	-9.31576
▁옮겨	-9.31641
▁비래	-9.31663
▁최종	-9.31678
▁CT	-9.31687
▁메고	-9.31729
상부에서	-9.31785
▁대기	-9.31788
▁컨테이너	-9.31825
▁요구	-9.31836
것으로	-9.31843
▁마디	-9.31856
빔을	-9.31974
▁작업발판을	-9.32037
▁풀려	-9.32093
▁U	-9.32163
▁외부비계	-9.32216
▁연락	-9.3223
망	-9.32357
기를	-9.32418
길이	-9.32545
카	-9.32566
출	-9.32636
▁작업중인	-9.32658
▁힘이	-9.3271
코	-9.32724
5.	-9.32726
인이	-9.32765
▁오른손으로	-9.32891
▁점	-9.3291
기초	-9.32992
▁유로폼에	-9.33058
▁레미탈	-9.33254
▁산업재해	-9.33254
▁다치는	-9.33258
▁미사용	-9.33313
6.	-9.33347
▁무엇을	-9.33371
▁어떻게	-9.33371
▁성	-9.33552
▁보수	-9.33616
▁작업용	-9.33757
부분을	-9.33835
r	-9.33865
▁횡대	-9.34238
E	-9.34488
▁이동하기	-9.34589
▁박스	-9.3461
▁자재와	-9.34715
▁씨가	-9.34769
▁붙어	-9.3487
▁삼	-9.34893
beam	-9.34894
용접	-9.34956
▁잡	-9.34969
▁덤프	-9.351
▁현장소장	-9.35137
▁낙하물	-9.35341
작	-9.35399
▁블럭	-9.35484
감	-9.35538
▁철선	-9.35583
▁적재되어	-9.3559
▁마대	-9.35645
▁협착사고	-9.35679
중에	-9.35711
이동	-9.35876
▁단순과실로	-9.35976
▁방수	-9.35996
축	-9.36014
상황	-9.36161
데	-9.36162
▁저	-9.36185
▁벽에	-9.36195
▁발에	-9.36201
X	-9.36203
O	-9.363
▁손목을	-9.36365
▁대차	-9.36368
▁여	-9.36409
루	-9.36426
흥	-9.36478
s	-9.36548
▁전방주시	-9.36566
▁발견하지	-9.36627
아래로	-9.36701
▁주차	-9.36703
▁착용하고	-9.36763
▁비계공	-9.36787
▁건	-9.36898
▁삐끗	-9.36935
▁미세골절	-9.36939
▁버킷	-9.36988
▁위치를	-9.37101
▁목수	-9.37162
라고	-9.3723
에도	-9.37259
▁연결된	-9.37366
▁스	-9.37536
▁금	-9.37571
슬라브	-9.37617
추	-9.37699
▁충돌한	-9.37892
업	-9.38006
▁연	-9.3814
▁타공	-9.38169
▁작업자간	-9.38252
런	-9.38255
▁있었으나	-9.38258
▁답단	-9.38258
▁유도로프	-9.38266
▁금속	-9.38268
▁받침목	-9.38279
:00	-9.38285
▁해제	-9.383
▁채	-9.38301
▁원형	-9.38351
▁탈락되어	-9.38488
▁윈치	-9.38523
▁벽체에	-9.38525
▁미끄러짐으로	-9.38559
▁판정	-9.38607
해야	-9.38655
▁레일	-9.38736
▁의하여	-9.3874
단에서	-9.3876
▁힘	-9.38856
▁세워	-9.38882
▁직원	-9.38886
결	-9.3897
▁배수로	-9.39077
▁버켓	-9.39135
▁이상이	-9.39304
c	-9.39345
▁금일	-9.39439
레	-9.39492
▁영	-9.39546
채	-9.39606
노	-9.39613
[	-9.39676
▁몸이	-9.39799
▁공	-9.39806
▁비산	-9.39816
핀	-9.39826
▁작업반장	-9.39905
입니다	-9.3991
통로	-9.39964
▁뛰어내려	-9.39967
▁부적절	-9.39979
습니다	-9.40019
▁건설공사	-9.40079
▁뒷꿈치	-9.40107
▁방법	-9.40125
▁옷	-9.40143
▁말려들어가	-9.40182
(5	-9.40195
▁스라브	-9.40252
▁차량이	-9.40256
▁못해	-9.40344
라인	-9.40392
▁신호를	-9.40407
착	-9.40441
▁고정핀	-9.40541
티	-9.40582
▁서울	-9.40886
▁운반하는	-9.41161
때	-9.4119
▁넘어가	-9.41328
▁물기	-9.41342
난간대	-9.41477
추정	-9.41502
▁내려가던	-9.41575
▁잔여	-9.41577
▁시작	-9.41651
▁심폐소생술	-9.41734
▁아침	-9.41742
▁과도	-9.41867
▁코어	-9.41895
▁정리하던	-9.41946
장에서	-9.42045
▁놓고	-9.42062
▁의견서	-9.42068
▁문틀	-9.42081
▁수요일	-9.42129
되	-9.42173
▁자리	-9.42251
▁권	-9.42358
▁철거작업	-9.42445
▁주변에	-9.42576
▁낙상사고	-9.42619
▁작업자에게	-9.4287
▁타격한	-9.43318
▁뚜껑	-9.43519
▁마지막	-9.43519
▁싣고	-9.43519
▁찍힘	-9.43521
▁응급조치	-9.43526
▁그레이팅	-9.43689
▁주장함	-9.43736
내려오면서	-9.43741
손가락	-9.43817
-3	-9.43818
보고	-9.43868
년생	-9.44235
▁앙카	-9.44359
▁주차장에서	-9.44367
▁통제	-9.4439
부분에	-9.44546
▁지정	-9.44688
▁설치하던	-9.44784
▁비계발판	-9.44802
로부터	-9.44897
▁중인	-9.44959
▁작업전	-9.45166
▁불가	-9.45217
부위에	-9.45218
개가	-9.45279
▁흔들림	-9.45337
▁자신	-9.45358
▁허리통증	-9.45367
▁하도급업체	-9.45405
▁체인	-9.45446
▁금이	-9.45485
▁등을	-9.4551
▁직영	-9.4556
▁과	-9.45911
지하	-9.45916
형강	-9.45921
부에	-9.45956
▁언제	-9.46145
▁끼이	-9.46188
▁90	-9.46301
▁롤러	-9.46338
▁해체하여	-9.46505
▁낙하로	-9.46573
합	-9.46599
▁코	-9.46782
▁이동하던중	-9.46948
기둥	-9.46952
Beam	-9.46971
▁폭	-9.47019
▁필요	-9.47135
정거장	-9.4719
▁불일치	-9.4719
▁접질러	-9.47193
▁엄지발가락	-9.47201
▁스위치	-9.47205
▁긴장	-9.47209
▁병원진료	-9.4721
▁안전시설물	-9.4724
▁밀어	-9.47262
개발	-9.47272
▁창상	-9.47273
▁의사	-9.47288
▁수목	-9.47389
품	-9.47389
▁대퇴부	-9.47404
▁화	-9.47427
▁비계파이프를	-9.47477
▁유공발판	-9.47482
두	-9.47585
▁조절	-9.47588
방법	-9.47671
▁재해자와	-9.47773
▁받침대	-9.47831
▁타설작업	-9.4796
▁추가	-9.47991
술	-9.48041
▁2020.	-9.48069
이며	-9.48084
▁줄	-9.48125
▁전도로	-9.48635
공사중	-9.48662
▁동시	-9.487
▁광	-9.48725
돌	-9.48795
▁상처	-9.48846
▁확인하고	-9.48846
크레인	-9.48904
▁멍에	-9.48933
무엇을	-9.48939
어떻게	-9.48939
합판	-9.48974
빔에	-9.49027
님	-9.49068
▁생각	-9.49077
▁말려	-9.4909
▁부주위	-9.4909
▁힘줄	-9.49094
▁두번째	-9.49109
▁안전교육	-9.4915
▁뒷걸음질	-9.49225
다는	-9.49361
▁산	-9.49494
▁몰탈	-9.49552
▁골절사고	-9.49596
▁몸을	-9.49654
▁이용해	-9.49752
인치	-9.49992
처리	-9.50021
▁하였으며	-9.50112
▁형틀작업	-9.50281
평	-9.5031
▁끼	-9.50428
▁유도	-9.50554
했	-9.50631
압	-9.50655
▁일을	-9.50717
▁인력	-9.50804
공장	-9.5081
▁올라	-9.50891
▁하여야	-9.50916
▁느낌	-9.50999
▁의사소통	-9.50999
▁지렛대	-9.50999
▁산재처리	-9.5102
▁빠지며	-9.51026
▁망치질	-9.51032
국	-9.51204
▁벌목	-9.51228
”	-9.51233
▁연결핀	-9.51239
▁비닐	-9.51264
▁베이	-9.51393
▁보고함	-9.51421
걸	-9.51648
▁밴드	-9.5167
내부	-9.51768
▁스카이	-9.51772
▁경과	-9.51834
▁인상	-9.52034
▁후방	-9.52054
▁담	-9.52209
▁턱	-9.52617
승	-9.52642
▁반	-9.52657
▁매	-9.5266
▁만	-9.527
▁불안전	-9.52731
환	-9.52753
▁하역작업	-9.52787
덕	-9.52795
링	-9.52874
좌측	-9.52918
사항	-9.52947
▁건드려	-9.5296
▁깔려	-9.5296
▁경기도	-9.52961
▁방음벽	-9.52963
NA	-9.52975
▁배치	-9.53007
▁작업공간	-9.53017
▁안전로프	-9.53026
▁작업순서	-9.53098
▁차량에	-9.53109
철물	-9.53133
▁시점	-9.53143
▁다발	-9.53143
▁오수관로	-9.53197
이라	-9.53268
단지	-9.53269
드릴	-9.53333
▁밴딩	-9.53361
▁브라켓	-9.53395
▁이동식비계	-9.53426
▁밴딩기	-9.53432
▁사용하지	-9.53449
▁강재	-9.53456
▁골조	-9.53564
▁절단중	-9.53588
막	-9.53603
▁합벽	-9.53649
▁지면서	-9.53653
▁비계에서	-9.53759
하려다	-9.53787
▁STA	-9.53894
▁이동중에	-9.53973
▁신축공사현장	-9.5417
▁○	-9.54215
▁단	-9.54377
달	-9.54432
지점	-9.54519
▁내려놓	-9.54535
▁옥상에서	-9.54574
격	-9.5462
▁보호	-9.54651
▁설치하고	-9.5468
▁척추	-9.54699
▁제거하기	-9.54786
h	-9.54789
ME	-9.54791
▁장애물	-9.54961
▁식사	-9.54981
▁각목	-9.54991
▁검사결과	-9.54994
▁올려	-9.55039
▁업무상	-9.55067
▁이마	-9.55251
▁사고원인	-9.55279
(***)	-9.55362
▁석공사	-9.55412
▁철수	-9.55423
▁외상	-9.55603
▁밸브	-9.5566
▁조립중	-9.55681
물을	-9.55853
계단에서	-9.55873
▁이탈하여	-9.559
▁사망한	-9.55967
형틀	-9.56129
▁강관파이프	-9.5614
▁거푸집과	-9.56172
▁컷팅	-9.56179
것을	-9.56507
▁준비중	-9.56519
▁벽	-9.56573
▁집	-9.56593
못	-9.56818
립	-9.5687
▁방지	-9.56896
으	-9.56936
염	-9.56984
블록	-9.56989
▁빗물	-9.57001
▁흔들려	-9.57001
▁포크레인	-9.57001
불	-9.57004
▁인접	-9.57007
▁진단서	-9.57011
▁미끄러운	-9.57033
▁낙하물방지망	-9.57067
▁하천	-9.57084
▁15:00	-9.57111
▁부딪히며	-9.57115
▁추정됨	-9.57119
▁매설	-9.57136
▁할	-9.57196
▁내린	-9.57283
▁아	-9.57393
▁작업진행	-9.57446
기지	-9.57484
지면서	-9.57609
▁판단하여	-9.57677
▁일반	-9.57795
부상	-9.57796
▁미처	-9.57873
▁열	-9.57906
표	-9.57966
▁방수작업	-9.57998
▁절단하던	-9.58091
▁게이트	-9.58104
▁절단작업중	-9.58336
▁접	-9.58377
접	-9.58391
▁가격한	-9.58492
▁복도	-9.58549
▁벽체철근	-9.58549
▁철근자재	-9.58605
주간	-9.58631
려다	-9.58651
▁무리가	-9.58653
2)	-9.5866
▁들	-9.58895
▁경사	-9.58933
동시에	-9.58956
▁홍	-9.59028
편	-9.59043
▁캐노피	-9.59084
▁커터칼	-9.59085
▁합벽지지대	-9.59089
▁진찰	-9.59089
▁수신호	-9.59103
▁접질려	-9.59104
▁걸린	-9.59111
▁계단참	-9.59114
▁소통	-9.59119
▁인식	-9.59125
▁걸리	-9.59144
▁우수	-9.59169
▁걸쳐	-9.59181
▁풀리면서	-9.59191
▁인양중	-9.59232
▁경미한	-9.59239
주변	-9.59282
▁누가	-9.59372
▁치	-9.59379
▁운전석	-9.59406
▁내원	-9.59414
▁근로	-9.59438
▁PVC	-9.59503
80	-9.59554
▁용역	-9.59573
▁용	-9.59608
외부	-9.59622
▁***(	-9.59667
▁고정작업	-9.59764
▁비트	-9.59772
▁전면	-9.59791
▁점심식사	-9.59885
▁****	-9.59946
▁오른	-9.60077
▁타워	-9.60128
OO	-9.60437
▁뒤쪽	-9.60515
▁양손	-9.6052
▁반복	-9.60521
보니	-9.60672
▁손톱	-9.60711
▁당한	-9.6079
▁부근에서	-9.60889
▁발코니	-9.6092
학	-9.60981
▁시공사	-9.61129
▁양중작업	-9.61159
▁타박	-9.61187
▁누	-9.61201
촌	-9.61205
▁적재함에	-9.61211
▁오피스텔	-9.61212
▁불구하고	-9.61212
▁보일러	-9.61214
탑	-9.61253
▁건축물	-9.61259
▁철근사이	-9.61284
▁14:00	-9.61298
설비	-9.61302
▁내부에	-9.61391
▁지장물	-9.61407
▁추락하는	-9.61453
▁건립공사	-9.61472
▁출입	-9.61552
▁등에	-9.61574
▁뼈가	-9.6163
-2	-9.61642
▁상판	-9.61679
▁디뎌	-9.61686
▁사다리에	-9.61695
▁안전사고	-9.61812
▁두부	-9.61961
▁항타	-9.62036
:40	-9.62185
▁내려가다	-9.62233
▁벨트	-9.62281
▁공정	-9.62312
▁뛰어내리다	-9.62362
모	-9.62423
▁빼내	-9.62452
▁되지	-9.62455
고리	-9.62474
▁요추	-9.6265
설치를	-9.62661
병원에	-9.62756
▁되었음	-9.62963
다리	-9.63015
▁운반작업	-9.63023
공간	-9.63043
▁고소작업	-9.63105
60	-9.63276
▁부설	-9.63358
엔	-9.6338
▁빠짐	-9.63386
▁깔림	-9.63386
▁필로티	-9.63386
▁창문	-9.63388
▁삽입	-9.63391
쳐	-9.63424
치료	-9.63497
▁압송관	-9.63511
중지	-9.63511
폭	-9.63538
▁해치발판	-9.63551
▁상가	-9.63585
하자	-9.63783
▁코킹	-9.63789
▁치료중	-9.63997
▁발생하였습니다	-9.64016
▁간섭	-9.6402
▁파편이	-9.64023
하였다고	-9.64165
▁구급차	-9.64193
▁R	-9.64254
▁설치공사	-9.64309
하고자	-9.64415
▁부상자	-9.64527
▁지상에서	-9.6469
▁멈추	-9.64718
지역	-9.64861
▁작업하다	-9.65081
▁타이	-9.65086
▁60	-9.65111
아래	-9.65215
▁틈	-9.65241
▁당사	-9.65515
겨	-9.65524
▁알	-9.65549
쪽에	-9.65575
▁산소	-9.65594
▁자바라	-9.65608
▁무릅	-9.6561
▁새끼발가락	-9.65614
▁보도블럭	-9.65616
▁판단됨	-9.65692
▁1,2	-9.65702
난	-9.65727
▁증축공사	-9.65745
철거	-9.65782
▁쓰레기	-9.65867
▁정상	-9.65913
▁파렛트	-9.66008
▁출입문	-9.66068
▁실	-9.66134
▁가슴부위	-9.66447
▁내려와	-9.66464
▁강풍	-9.66603
등을	-9.6683
▁땅	-9.6693
▁x	-9.67043
▁상부의	-9.67056
▁휀스	-9.67146
▁취	-9.67242
▁해체하던	-9.674
옆	-9.67619
▁철	-9.6763
워	-9.6763
상태에서	-9.67816
▁관리자	-9.67826
힌	-9.6783
▁바닥이	-9.67833
▁여부	-9.67873
▁안전조치	-9.67943
▁방치	-9.67945
▁탈락되면서	-9.67981
▁지붕판넬	-9.68019
▁OO	-9.68029
▁동선	-9.68058
▁기둥철근	-9.6807
▁스쳐	-9.68122
▁잠시	-9.68138
않아	-9.68151
▁야적장에서	-9.68161
▁맞은	-9.68196
▁일용근로자	-9.68216
우마	-9.68228
▁저수조	-9.68242
▁양쪽	-9.68361
▁더	-9.68411
▁현장내에서	-9.68544
▁안전관리자	-9.68555
▁해체하는	-9.68556
매	-9.68585
▁옆에서	-9.68711
여부	-9.68746
▁반장	-9.68777
▁스킬	-9.68829
▁뛰어내리	-9.68971
▁뼈	-9.69137
사용	-9.69259
▁소형	-9.69282
:10	-9.69322
▁되는	-9.69382
▁상단부	-9.69402
되며	-9.69435
▁지속	-9.6949
육	-9.69524
름	-9.69711
▁평	-9.69713
▁전기톱	-9.69817
▁정비	-9.69938
▁시공중	-9.69958
▁세륜기	-9.69962
▁인	-9.69966
▁밀	-9.70008
철근에	-9.70023
료	-9.70069
▁부산	-9.70116
▁주위	-9.70158
충	-9.70177
RAY	-9.70206
▁Area	-9.70206
▁파라펫	-9.70206
▁인양고리	-9.70289
종합건설	-9.70292
▁착용하였으나	-9.70309
▁상수도	-9.70338
:50	-9.70364
▁진행하던	-9.70383
▁잡은	-9.70402
▁시야	-9.70422
▁집중	-9.70433
▁거푸집해체	-9.7052
왜	-9.70529
말비계	-9.70587
▁고정하기	-9.70759
되고	-9.7089
▁팔에	-9.709
▁광주	-9.70905
▁전일	-9.70935
▁않는	-9.70993
2020	-9.71043
▁소지	-9.71258
▁내려가는	-9.71312
▁창틀	-9.71518
▁토사를	-9.71546
▁벽면	-9.71551
▁불승인	-9.71677
▁35	-9.71689
하였	-9.71698
▁태	-9.71736
▁어	-9.71744
▁생명줄	-9.71789
▁점심식사를	-9.71804
▁구조	-9.71823
▁측	-9.71956
▁사용중	-9.72109
▁미끄럼	-9.72186
▁내리다	-9.72415
▁80	-9.72448
▁갑작스	-9.72586
▁퇴사	-9.72587
▁있었음	-9.72588
▁압력	-9.72601
직	-9.72603
▁북측	-9.72628
▁면	-9.72634
▁안전통로	-9.72645
반장	-9.72655
▁작업지시	-9.72688
▁난간대에	-9.72724
▁슬리브	-9.72815
▁걸고	-9.72826
가닥	-9.72827
▁작업준비	-9.72845
▁이용하지	-9.72859
디	-9.72913
추락	-9.72938
▁도장작업	-9.73013
▁입니다	-9.73022
▁배관이	-9.73057
i	-9.73085
▁일어나	-9.7312
호스	-9.73201
▁기초철근	-9.7326
▁인천	-9.73308
▁진동	-9.73318
단으로	-9.73345
자가	-9.73421
▁주시	-9.73487
▁소장	-9.73619
▁현장으로	-9.73663
▁별	-9.73849
▁바닥면	-9.74059
▁다짐	-9.74161
▁짚	-9.74168
▁페인트	-9.74178
▁용접작업	-9.74298
▁하며	-9.74513
▁동료와	-9.74519
▁작업발판이	-9.74569
▁할석	-9.74578
▁미숙으로	-9.74616
▁가량	-9.74642
앞	-9.74796
▁접질	-9.7494
당시	-9.75006
대학교	-9.75021
▁쌓기	-9.75026
▁쏠리	-9.75026
▁매몰	-9.75028
▁지점에서	-9.75037
▁주출입구	-9.75038
▁정형외과	-9.75042
▁다쳤다고	-9.7505
는데	-9.75053
위험	-9.75321
회전하는	-9.75358
난간	-9.75375
氏	-9.75415
▁스트러트	-9.75416
헤드	-9.75434
일까지	-9.75476
▁잡으려다	-9.75535
되어있던	-9.75588
▁철근과	-9.75682
▁끝이	-9.75705
▁치우	-9.75921
체결	-9.76009
▁올리는	-9.76092
▁ᄋᄋᄋ	-9.76123
▁올라가다	-9.76126
▁온	-9.76167
▁피트	-9.76267
호선	-9.76448
하려	-9.76556
▁동료근로자	-9.76599
~1	-9.76618
(10	-9.76635
▁기둥에	-9.76773
▁기울	-9.7683
▁통행	-9.76884
d	-9.76888
공사를	-9.77066
▁잡는	-9.77074
▁도중에	-9.7708
▁로프에	-9.77167
▁인양작업	-9.77239
▁묶	-9.77373
▁창	-9.77442
▁견출	-9.77478
사실	-9.77496
▁부석	-9.77515
▁공장	-9.77518
▁보험가입자	-9.77525
▁왼팔	-9.77526
▁궤도	-9.77526
▁잔디	-9.77529
▁안전수칙	-9.7754
▁소방배관	-9.77542
▁장기간	-9.77547
▁체인블럭	-9.77549
▁세워져	-9.77571
▁골재	-9.77581
▁일원	-9.7764
되었음	-9.77657
▁정확한	-9.77681
▁고정되지	-9.77797
▁요	-9.77805
▁차단	-9.77817
▁파손되어	-9.77853
▁제거하던	-9.77855
▁가해	-9.77916
말	-9.77938
곳	-9.77995
철판	-9.7806
▁추락하였음	-9.78067
▁망	-9.78084
▁관리감독자	-9.78089
▁출근하여	-9.78126
▁있다가	-9.78174
▁변경	-9.78178
소재	-9.78195
▁하단부	-9.782
타설	-9.78311
▁고정되어	-9.78436
▁지정병원	-9.78533
▁진술	-9.78545
▁건축	-9.78581
▁착용한	-9.78648
▁F	-9.78681
▁3.	-9.78799
▁옥상층	-9.78875
▁철물	-9.79026
▁파	-9.79074
▁추	-9.79262
▁뼈에	-9.79303
▁빠루	-9.7937
***	-9.79371
▁사항	-9.7941
▁덮개가	-9.7942
▁팔이	-9.79453
▁지점	-9.79505
-4	-9.79529
둔	-9.79605
▁내측	-9.79759
▁결빙	-9.79825
▁뒷걸음	-9.79903
가서	-9.79915
차도	-9.79927
▁회전근개	-9.80035
u	-9.8006
▁붐	-9.8007
▁대응	-9.80078
팅	-9.8008
▁생긴	-9.80091
▁흉부	-9.80091
▁자택	-9.80094
▁발뒤꿈치	-9.80097
▁유압	-9.80098
▁작성	-9.80109
▁기울어져	-9.80119
▁치아	-9.80133
▁측구	-9.8016
▁튕겨져	-9.80167
▁우측발목	-9.80172
▁15:30	-9.80175
▁전날	-9.80191
▁보관	-9.80202
▁칼날	-9.80204
▁첫	-9.80252
▁퇴행성	-9.80281
끝	-9.80316
변	-9.80322
▁네번째	-9.80342
▁70	-9.80346
▁하도급사	-9.80369
힘	-9.8041
▁보거푸집	-9.80458
▁목재가	-9.80524
▁주장하는	-9.80567
가량	-9.8063
턱	-9.8065
검사	-9.80672
하러	-9.80702
▁나무가	-9.80747
▁간격	-9.80753
31	-9.80787
▁외부로	-9.8083
▁대기중	-9.80841
▁서로	-9.80851
▁거더	-9.809
▁BT	-9.80922
▁고소작업차	-9.81204
창고	-9.81237
간의	-9.81263
▁과정중	-9.81426
▁되었습니다	-9.81428
▁개방	-9.81571
수로	-9.81584
원인	-9.81605
근로자가	-9.81728
▁좌	-9.81791
▁말	-9.81817
▁올라가는	-9.81845
▁강관파이프를	-9.8195
▁머리에	-9.82116
▁110	-9.82211
▁장비기사	-9.824
탈	-9.82593
활	-9.82674
관로	-9.82713
▁맨홀뚜껑	-9.82722
▁박리제	-9.82722
▁충분	-9.82724
ton	-9.82726
▁포함	-9.82727
▁짚음	-9.82758
▁토공	-9.82784
▁인발	-9.82799
▁아스콘	-9.82859
▁TBM	-9.82863
▁시트파일	-9.82924
▁상단에	-9.82973
▁알루미늄	-9.82974
▁계	-9.83171
▁내려놓는	-9.83174
친	-9.83285
민	-9.83286
운전원	-9.83296
철골	-9.83356
▁*	-9.83376
.2.	-9.83391
▁출혈	-9.83457
ing	-9.8347
▁복합	-9.83485
했다고	-9.83494
▁써포트	-9.83833
▁운행	-9.83932
▁개	-9.83948
▁하였습니다	-9.84074
업무	-9.84108
**,	-9.8416
▁했으나	-9.84161
가해져	-9.84302
▁폐	-9.84379
▁당기는	-9.8471
▁배관공	-9.84718
▁전도사고	-9.84817
▁55	-9.84919
▁건설현장	-9.84983
▁올려놓	-9.85087
▁응급	-9.85119
▁목격	-9.85247
이엔씨	-9.85422
켓	-9.85424
▁가운데	-9.85425
▁닿아	-9.85425
▁부딛혀	-9.85425
▁신호체계	-9.85425
형측구	-9.85425
▁잭서포트	-9.85425
▁교각	-9.85427
▁휴업	-9.85429
▁없으며	-9.85433
▁하수관로	-9.85434
▁교대	-9.85455
▁걸림	-9.8546
▁건축공사	-9.8548
▁강관비계	-9.8548
▁이동식크레인	-9.85481
▁보강토	-9.85497
▁전도되며	-9.855
▁회전체	-9.85531
▁추후	-9.85581
▁풀고	-9.85618
▁지연	-9.85633
▁왼쪽다리	-9.85669
▁상수도관	-9.85697
▁인대파열	-9.85759
▁방화문	-9.85833
지점에서	-9.85877
▁완료하고	-9.85989
풍	-9.86032
▁식당	-9.86036
▁지나	-9.86049
▁112	-9.86067
▁밟으면	-9.86074
기사가	-9.86109
▁개구부에	-9.86358
승인	-9.8637
지며	-9.86428
▁발판과	-9.86439
▁직후	-9.86667
▁각	-9.86687
▁비계해체	-9.86712
▁쇠	-9.86712
▁전기실	-9.86874
▁해체하고	-9.86882
▁전도방지	-9.87508
되었	-9.87571
2021	-9.87754
▁풀	-9.8777
▁이동하면서	-9.88012
너	-9.88126
탄	-9.88163
▁핸드카	-9.88188
▁트레일러	-9.88202
▁살짝	-9.88203
▁스스로	-9.88203
▁복귀	-9.88204
▁리더	-9.8821
와서	-9.88212
▁탈형	-9.88233
작업시	-9.88235
▁쪽	-9.88238
▁묻은	-9.88248
▁수술을	-9.88254
▁백호우	-9.88284
▁탈락으로	-9.8829
▁삐끗함	-9.8832
준비	-9.88323
▁외측	-9.8833
▁왼쪽발목	-9.88367
▁실내	-9.88391
▁10:30	-9.88414
:30	-9.88432
▁스크류	-9.88469
▁부딪치면	-9.88497
▁정차	-9.88506
▁쇄골	-9.88599
어디서	-9.88647
▁수레	-9.88648
▁근골격계	-9.88703
▁먹	-9.88748
▁수직철근	-9.88796
기구	-9.88799
▁주입	-9.88838
옥	-9.88848
인대	-9.88912
담	-9.88948
Y	-9.88976
빠루	-9.8899
정형외과	-9.88994
뒤	-9.89
▁대전	-9.89007
안전모	-9.89021
청소	-9.89034
▁묶음	-9.8904
엄지	-9.89046
수평	-9.89067
각재	-9.89113
손상	-9.89139
▁추진	-9.89167
▁허	-9.89168
▁것	-9.89176
▁언	-9.89259
▁서측	-9.89286
▁트러스	-9.8936
사고발생	-9.89459
▁작업완료	-9.89521
▁현장정리	-9.89562
▁토	-9.8968
이상	-9.89815
뼈가	-9.89876
▁업체	-9.90119
▁절단하는	-9.90348
▁조립된	-9.90485
▁종아리에	-9.90491
발을	-9.90562
키	-9.90686
누	-9.90875
보강	-9.90993
▁절곡	-9.91003
척	-9.91024
▁고체연료	-9.91041
계획	-9.91059
▁인테리어	-9.91059
▁찧음	-9.91059
▁깔린	-9.9106
▁통원치료	-9.91063
▁공도구	-9.91068
▁기울어지면서	-9.91068
▁추돌	-9.91068
▁단관파이프	-9.91083
▁실려	-9.91094
▁수평재에	-9.91095
▁발이걸려	-9.91099
▁지병	-9.91099
35	-9.91133
▁신청인	-9.91194
▁왼쪽팔	-9.91202
▁해체후	-9.91211
초등학교	-9.91221
들이	-9.91234
▁교사동	-9.91239
70	-9.91244
▁골조공사	-9.91294
▁빼는	-9.91334
▁복	-9.91389
▁골절을	-9.91408
▁커팅	-9.91519
▁올라가던중	-9.91526
▁돌풍으로	-9.91531
▁운반하기	-9.91547
▁들어올리는	-9.91552
▁슈트	-9.91588
▁가던	-9.91623
▁내리던중	-9.91624
▁소홀	-9.91675
▁용접공	-9.9169
▁세대내	-9.91732
▁연장	-9.91741
이나	-9.9177
▁상태임	-9.91807
▁총	-9.91822
옹벽	-9.91895
주택	-9.91914
오른쪽	-9.91961
▁접합	-9.92074
▁건설	-9.92109
▁적	-9.92176
▁팀장	-9.92201
▁톱	-9.92301
▁돌에	-9.92321
레이	-9.92331
l	-9.92349
:20	-9.92396
▁운반하여	-9.92737
형사다리	-9.9298
▁빔을	-9.93011
▁리어카	-9.93085
▁전주	-9.93088
지지	-9.93175
▁작업간	-9.93187
▁가로	-9.93328
▁신축현장	-9.93534
▁한국	-9.93539
▁받침	-9.93585
▁밑에	-9.93652
▁골반	-9.93783
▁청	-9.93794
▁봉합	-9.93858
▁비계에	-9.9387
▁현장사무실	-9.93894
▁조종	-9.93904
▁시점부	-9.93939
▁넣어	-9.94001
▁눌려	-9.94001
▁엑스레이	-9.94001
▁응급처치	-9.94001
▁주철관	-9.94001
▁톤마대	-9.94001
▁함마드릴	-9.94003
▁오른팔	-9.94006
▁공동구	-9.94009
▁매립	-9.94012
▁건설기계	-9.94014
▁흙막이가시설	-9.94014
▁미끄러워	-9.94014
▁놓침	-9.94027
▁쓰러지면서	-9.94118
▁파손되면서	-9.94124
▁헛딛여	-9.94144
▁신축	-9.94223
▁2~3	-9.94234
▁들다가	-9.94235
개소	-9.94245
▁토목	-9.9425
▁잡지	-9.94258
▁?	-9.94359
▁철근망	-9.94369
태	-9.94436
▁미세	-9.94456
▁철근콘크리트	-9.94478
▁경우	-9.94495
▁위쪽	-9.94505
▁사유	-9.94587
울	-9.94605
제작	-9.94659
▁앞쪽	-9.94661
기간	-9.94709
▁순서	-9.9471
준	-9.94727
▁보행중	-9.94745
▁타설공	-9.94747
▁실금이	-9.94774
인양	-9.94872
▁좌측발	-9.94942
휀스	-9.9496
▁톱날이	-9.95049
▁운반하던중	-9.95131
▁사고당일	-9.95187
▁굴삭기로	-9.9538
빔이	-9.95391
▁암	-9.95397
전기	-9.95404
교육	-9.95456
▁양수작업	-9.9548
구간에	-9.95507
▁정상적	-9.95516
▁맞추기	-9.95676
약지	-9.9581
▁지붕층	-9.95825
당일	-9.95873
3)	-9.95907
▁번째	-9.96118
-6	-9.96336
▁시도	-9.96408
▁재해자에게	-9.96409
▁모	-9.96431
▁현관	-9.96552
회사	-9.96585
▁나와	-9.96703
개월	-9.96768
전도	-9.96775
▁당기던	-9.96881
○	-9.96883
▁관리감독	-9.96901
규	-9.96997
백	-9.97011
▁배면	-9.97024
▁해머	-9.97028
색	-9.97029
→	-9.97031
랑	-9.97031
▁승하강	-9.97033
▁인코너	-9.97033
▁견디	-9.97036
▁추락방지망	-9.97036
▁탈골	-9.97039
▁마스트	-9.9704
▁미인지	-9.9707
▁지급	-9.9707
▁분배기	-9.9708
▁]	-9.97082
▁설비배관	-9.97096
▁피하려다	-9.97128
▁상황임	-9.97143
▁16:00	-9.97147
▁돌출	-9.97157
▁노출	-9.97176
▁파열됨	-9.97204
7.	-9.9728
▁슬러지	-9.9732
이동중	-9.9733
▁피해자가	-9.97363
▁고리에	-9.97372
▁고장	-9.97427
▁모래	-9.97461
▁안정	-9.9751
▁찬넬	-9.97517
▁옮기던중	-9.97549
▁협착되는	-9.97554
▁프레임	-9.97582
▁공장동	-9.97589
▁베인	-9.97604
▁케이지	-9.97772
되어있는	-9.97832
▁기울어	-9.97858
▁떨어져서	-9.97863
▁파열된	-9.98056
▁휴식중	-9.98077
▁커버	-9.98233
되었고	-9.98287
▁밟으	-9.98399
▁비계설치	-9.98531
▁G	-9.98669
000	-9.98905
지지용	-9.98911
하려는	-9.98916
▁109	-9.98953
도장	-9.99169
▁움직이	-9.99223
으로부터	-9.99351
목재	-9.99396
관절	-9.9947
천정	-9.99499
▁절단작업을	-9.99528
▁구간에	-9.99758
▁근로자와	-9.99859
▁불이	-9.99883
▁귀	-9.99911
p	-9.99932
▁의견	-9.99934
존	-9.99986
올	-10.0003
K	-10.0006
▁해체공	-10.0009
▁집게	-10.0013
▁접히	-10.0013
▁붙잡	-10.0015
▁PHC	-10.0016
▁부딛힘	-10.0016
▁2019.	-10.0016
▁깔리	-10.0016
▁튀어올라	-10.0017
▁미끄러저	-10.0018
▁수로관	-10.0019
▁오거	-10.0021
▁놓는	-10.0021
▁미쳐	-10.0022
▁있었고	-10.0025
광역시	-10.0027
▁기대	-10.0032
▁지나가던	-10.0034
▁박는	-10.0037
▁브레이크	-10.0039
▁배관에	-10.0042
▁작업하는	-10.0043
▁에어	-10.0046
자재가	-10.0048
▁레벨	-10.0059
▁시간	-10.006
▁오르던	-10.0071
▁연골	-10.0071
▁고정상태	-10.0079
▁해체하기	-10.008
▁내려가	-10.0083
▁사고경위	-10.0083
▁밟	-10.0087
▁경위	-10.0087
1.2	-10.0093
▁아시바	-10.0099
▁조적작업	-10.0106
▁홈	-10.0119
긴	-10.0125
별	-10.0129
x	-10.0131
그라인더	-10.0132
아파트	-10.0133
왼쪽	-10.0133
▁깊이	-10.0133
부주의	-10.0134
나무	-10.0134
▁1.7	-10.014
#2	-10.0141
▁호스가	-10.0149
▁옮기다	-10.0152
▁풀리	-10.0169
다른	-10.0172
▁예	-10.0172
1.5	-10.0192
▁끝단	-10.0194
▁해체시	-10.0207
리면서	-10.0217
▁충격에	-10.0219
작업대	-10.0223
▁끝단부	-10.0224
▁가시설공	-10.0236
누가	-10.0251
부지	-10.0267
▁큰	-10.0272
▁막	-10.0273
족	-10.0303
▁연결부위	-10.0305
일간	-10.0307
▁접질리	-10.0307
▁톱날	-10.031
▁이동간	-10.0324
▁예상	-10.0329
▁물이	-10.033
커	-10.0335
▁가설방음벽	-10.0338
▁미끌려	-10.0338
▁쌓아	-10.0338
▁안전밸트	-10.0338
▁움직여	-10.0338
▁페이로더	-10.0338
구급대	-10.0338
▁안전의식	-10.0338
▁없었으며	-10.0339
▁세워둔	-10.0339
▁주어	-10.034
▁개거	-10.034
▁물청소	-10.034
▁몸체	-10.0343
▁발전기	-10.0343
▁받치고	-10.0344
▁재해사실	-10.0351
▁자재인양	-10.0354
▁유선	-10.0357
▁재해입니다	-10.0357
거리	-10.0366
▁낙하하며	-10.0367
G	-10.0367
▁열고	-10.0371
▁수직사다리	-10.038
▁CIP	-10.0383
▁진단결과	-10.0405
▁작업도구	-10.0407
진행	-10.0408
▁운전기사	-10.0417
▁중심이	-10.0418
▁닫	-10.0418
▁위치에	-10.0432
▁가함	-10.0436
내용	-10.0441
▁3.5	-10.045
▁살수	-10.0455
지지대	-10.0461
마감	-10.0462
불승인	-10.0466
▁부속	-10.0466
백호	-10.0471
▁연결작업	-10.0474
현재	-10.0478
▁공종	-10.0478
▁증	-10.0478
▁양생	-10.0479
통보	-10.0481
씩	-10.0482
▁구조물에	-10.0501
으면서	-10.0512
▁추락하면서	-10.0513
▁도포	-10.0537
▁펌프	-10.0538
▁눌러	-10.0548
▁컷팅기	-10.0556
▁후진하던	-10.0586
▁아래쪽	-10.0602
사고자	-10.0606
▁창고	-10.0621
통증	-10.0628
▁작업자들	-10.0633
움	-10.0648
좌	-10.0651
▁빔이	-10.0651
▁턱에	-10.0653
요	-10.0655
▁퇴원	-10.0663
▁잃음	-10.0672
▁뛰어내림	-10.0672
▁절삭	-10.0672
▁정화조	-10.0672
▁이야기	-10.0672
▁무너져	-10.0672
▁떨어뜨려	-10.0673
▁출력	-10.0673
▁고려	-10.0673
▁입었음	-10.0674
▁스침	-10.0674
▁같은	-10.0677
▁물건	-10.0677
▁사각파이프	-10.068
-5	-10.0682
동에서	-10.0689
▁작업선	-10.069
기에	-10.069
▁본관동	-10.0697
▁신호수가	-10.0698
▁11:00	-10.07
▁복숭아뼈	-10.0705
바닥에	-10.071
▁직	-10.072
▁들어가면서	-10.0722
▁들어감	-10.0723
▁타이어	-10.0733
▁통증으로	-10.0736
▁패널	-10.0753
▁건설현장에서	-10.0755
▁올리던	-10.0763
▁철근공이	-10.0766
▁중지손가락	-10.0773
하역	-10.0797
(1.2	-10.0801
**(**	-10.0802
미흡	-10.0802
기술	-10.0803
동바리	-10.0804
방호벽	-10.0806
(7	-10.0806
형틀목공	-10.0811
램프	-10.0812
데크	-10.0813
도구	-10.0837
▁세우	-10.0838
부재	-10.0841
▁작업발판에	-10.0847
보조	-10.0852
▁강관파이프가	-10.0853
유도	-10.086
낙하	-10.0883
▁천	-10.0887
▁도구	-10.0897
사고임	-10.0902
▁보수작업	-10.0904
대가	-10.0906
▁인양하던	-10.0934
스트	-10.0936
▁잡기	-10.0939
▁식재	-10.0945
oo	-10.0948
▁반장이	-10.0955
입구	-10.0957
▁용접작업을	-10.0962
▁박던	-10.0966
능	-10.1004
▁뒷	-10.1006
▁아파	-10.1015
칭	-10.1016
▁무거운	-10.1016
▁웨지핀	-10.1016
▁좁은	-10.1016
▁지식산업센터	-10.1016
▁의정부	-10.1016
▁꺽임	-10.1016
▁뇌출혈	-10.1016
▁핸드레일	-10.1017
의료원	-10.1018
▁꺽이	-10.1018
▁형틀목수	-10.1019
▁가설휀스	-10.1019
▁묻어	-10.102
▁적정	-10.1021
▁철제	-10.1021
▁판개	-10.1022
▁화물	-10.1024
▁승강용	-10.1027
▁입게	-10.1028
▁없고	-10.1032
▁원인미상	-10.1035
▁연락을	-10.1038
▁담장	-10.1043
▁손상됨	-10.1044
▁노후	-10.1045
작업자의	-10.1046
▁몰딩	-10.105
▁호소함	-10.1051
▁바지선	-10.1052
▁조립식	-10.1055
▁접지르	-10.1059
▁스치	-10.1059
▁소방	-10.106
▁재설치	-10.1071
▁근	-10.1071
▁플레이트	-10.1072
▁슬링벨트가	-10.1075
▁수리	-10.1082
▁오작동으로	-10.1083
▁발견하여	-10.1086
▁화물차에	-10.1088
▁전화	-10.1088
▁사고보고	-10.1095
마디	-10.1097
▁무너지	-10.1102
▁M	-10.1105
▁약지손가락	-10.1107
검지	-10.111
▁지속적	-10.1129
지상	-10.113
▁사고당시	-10.1141
분에	-10.1149
▁없다	-10.1153
예	-10.1156
▁세대내부	-10.1161
메	-10.1166
건축	-10.1167
▁조경	-10.1168
▁복도에서	-10.1169
▁사용하는	-10.1184
파열	-10.1191
▁정리하는	-10.1193
▁빼	-10.1198
(20	-10.12
방수	-10.1203
▁인지하여	-10.1206
9.	-10.1284
방지를	-10.1304
지고	-10.1312
▁난간에	-10.1326
법	-10.1326
파이프를	-10.1331
었	-10.1334
▁사용하던	-10.1337
하려던	-10.134
▁의심	-10.1342
례	-10.1359
▁잔재	-10.1359
암거	-10.1367
▁넣고	-10.1373
▁미끌어져	-10.1373
▁가이드	-10.1374
▁볼팅	-10.1374
▁긴급	-10.1374
▁부러짐	-10.1374
바늘	-10.1375
▁소나무	-10.1375
▁입술	-10.1376
▁지난	-10.1376
▁뒤편	-10.1377
했습니다	-10.1378
▁내려오	-10.1379
▁자재야적장	-10.1379
▁유입	-10.1379
▁모르고	-10.1381
▁#1	-10.1382
▁16:30	-10.1382
▁가설비계	-10.1384
▁타이핀	-10.1385
▁조적공	-10.1385
▁안전시설	-10.1387
▁동바리에	-10.1387
▁작업장으로	-10.1389
▁감전	-10.1389
▁스치면서	-10.139
▁인장	-10.1392
하지않고	-10.1402
▁우수관로	-10.141
▁농	-10.1411
▁사용한	-10.1412
▁하도급	-10.1413
▁탑승하여	-10.1418
▁운반도중	-10.142
▁돌풍에	-10.142
▁단차부	-10.1432
▁보호구	-10.1435
기관	-10.1438
▁운반하다	-10.1443
▁종료후	-10.1446
▁충돌함	-10.1455
119	-10.1463
불량	-10.1463
▁청소작업	-10.1472
▁밟는	-10.1495
▁양손으로	-10.1496
▁건너	-10.1498
▁켜	-10.1505
▁옥탑층	-10.1509
▁견출작업을	-10.1528
(1.5	-10.1534
▁메	-10.1536
맨홀	-10.1538
예정	-10.1538
지붕	-10.1541
수술	-10.1551
건물	-10.1551
▁적재함을	-10.156
▁거푸집설치	-10.1563
회전	-10.1571
면에	-10.1578
▁진입로	-10.1594
▁~	-10.1596
▁포크	-10.1603
▁철근가공장	-10.1624
▁부지	-10.1654
진단	-10.167
▁오작동	-10.1674
▁가동	-10.1677
용으로	-10.1678
기가	-10.1684
상단에서	-10.169
▁종	-10.1691
▁상부를	-10.1704
▁벌목작업	-10.171
▁올리	-10.1726
▁헛디디	-10.1728
공인	-10.1729
을때	-10.173
▁소리	-10.1736
협	-10.1736
▁안전관리	-10.1737
(25	-10.1738
▁엔진	-10.1741
▁잃으면서	-10.1744
▁슬라이딩	-10.1744
▁부딪친	-10.1744
▁우수맨홀	-10.1745
▁살점	-10.1745
▁끼워	-10.1745
▁팔뚝	-10.1745
▁근입	-10.1745
▁가해짐	-10.1746
▁원활	-10.1746
▁감겨	-10.1747
▁교반기	-10.1749
신호수	-10.1753
▁경사진	-10.1755
▁찢어지는	-10.1756
▁발파	-10.1758
▁08:00	-10.1758
▁결	-10.1761
지않고	-10.1761
▁휴식시간	-10.1761
▁이송하였으나	-10.1762
방지용	-10.1765
▁이격	-10.1766
▁없다고	-10.1766
▁현장대리인	-10.1772
▁“	-10.1772
▁승강	-10.1772
▁않자	-10.1773
▁고소	-10.178
▁부상발생	-10.1782
▁장소에서	-10.1783
부가	-10.1784
▁조인트	-10.1788
▁수직도	-10.1791
▁사고사실	-10.1804
▁이에	-10.1804
#1	-10.1805
▁안전망	-10.1805
▁3,4	-10.1806
▁램프구간	-10.1806
창호	-10.181
▁작업인부	-10.1814
▁약간의	-10.1822
▁체결하고	-10.1823
교회	-10.1826
▁취부	-10.1829
▁참	-10.1856
▁코너	-10.1865
▁땅에	-10.1866
무릎	-10.1874
▁설치후	-10.1877
▁결속된	-10.188
년간	-10.1882
90	-10.1882
인지	-10.1895
▁동일	-10.1897
▁성토	-10.1901
)-	-10.1902
▁견	-10.1903
사이로	-10.1904
주차장	-10.1908
덮개	-10.1915
시스템	-10.1918
▁벽면에	-10.1922
게이트	-10.1922
했으나	-10.1924
협착	-10.1925
▁대하여	-10.1928
덕트	-10.1931
▁평탄	-10.1934
공원	-10.1941
▁미장공	-10.1948
▁보온	-10.195
▁일어서	-10.1958
▁속	-10.1975
▁물기가	-10.198
▁계단에	-10.1981
▁당기	-10.1984
▁작업위치	-10.1984
▁후진하는	-10.2001
▁V	-10.2005
▁동측	-10.2016
작업발판	-10.2023
▁201	-10.2043
▁끼임사고	-10.2047
▁토사에	-10.2057
▁충격하여	-10.2064
▁쌓여	-10.2066
▁압착	-10.2071
동구	-10.2075
▁근처에	-10.2082
▁조사중	-10.2097
타일	-10.2103
▁실족으로	-10.2125
케	-10.2126
롤	-10.2126
페	-10.2128
▁Support	-10.2128
▁받는	-10.2128
▁받았으며	-10.2128
▁부적합	-10.2128
▁쏠려	-10.2128
▁어스앙카	-10.2128
▁젖은	-10.2128
▁호흡	-10.2128
▁혼합	-10.2128
▁휴게실	-10.2128
▁부상당한	-10.2129
▁파쇄	-10.2129
테크	-10.2129
▁최하단	-10.213
▁산재신청	-10.213
▁면정리	-10.2131
▁조경석	-10.2131
▁헛딛음	-10.2131
▁산재승인	-10.2131
▁부담	-10.2132
▁하지철물	-10.2132
▁닫히	-10.2133
▁철골부재	-10.2134
미장	-10.2135
▁창원	-10.2135
▁날카로운	-10.2141
시킨	-10.2143
▁조금	-10.2144
▁종합	-10.2144
▁불어	-10.2145
▁건설용	-10.2147
▁압	-10.2148
▁남측	-10.2152
물이	-10.2156
▁실리콘	-10.2156
▁왼손이	-10.2158
날에	-10.216
▁알고	-10.2164
▁받아치기	-10.2166
▁가공작업	-10.2167
▁별도	-10.2167
▁휴대용	-10.2174
▁이음	-10.2179
.10.	-10.218
▁청소중	-10.2182
▁트렌치	-10.2182
▁입어	-10.2182
▁곳에	-10.2186
▁수평대	-10.2187
▁공구가	-10.2188
▁조성공사	-10.2193
타이	-10.2196
▁철근콘크리트공사	-10.22
▁유지	-10.2206
상단	-10.221
▁토목공사	-10.2219
▁자재운반중	-10.222
.3.	-10.2221
조각이	-10.2228
▁담당자	-10.2235
▁대피	-10.2236
▁연결하는	-10.2238
팔	-10.225
▁딛는	-10.2253
▁자동	-10.2257
지만	-10.2258
▁제단	-10.2263
▁일시	-10.2271
▁가는	-10.2278
계단실	-10.2281
▁사람	-10.2283
시켜	-10.2283
▁호	-10.2289
▁당겨	-10.2292
▁작업통로	-10.2292
▁인근에	-10.2295
펌프장	-10.2297
▁철거작업중	-10.2302
황	-10.2304
되었습니다	-10.2307
▁비가	-10.2311
발판에서	-10.2313
최	-10.2317
▁입구에서	-10.2318
플랜트	-10.232
되었으며	-10.2322
밑	-10.2322
요청	-10.2322
늑골	-10.2322
갈비뼈	-10.2323
충격	-10.2325
관련	-10.2325
수직	-10.2328
▁철거중	-10.233
보다	-10.2332
무게	-10.2338
교량	-10.234
보양	-10.2341
교체	-10.2347
▁W	-10.235
▁골	-10.235
▁철근다발	-10.2352
재해발생	-10.2352
▁하역중	-10.2361
▁공사장	-10.2361
▁까지	-10.2361
▁소음	-10.2374
었으며	-10.2397
보수	-10.2408
단부	-10.2418
▁버팀	-10.2421
▁복부	-10.2428
▁무의식	-10.2429
▁작업차량	-10.2436
▁입선	-10.2442
▁고정하던	-10.2452
▁석공	-10.2459
▁포설	-10.246
▁옥	-10.2462
▁난	-10.2488
▁들던	-10.2502
▁정확	-10.2505
×	-10.252
필	-10.2527
▁고압	-10.2528
느	-10.2528
y	-10.2528
▁가드레일	-10.2528
▁눌림	-10.2528
▁다치게	-10.2528
▁비탈면	-10.2528
▁지탱하	-10.2528
▁찢어진	-10.2528
▁주민공동시설	-10.2528
▁한손으로	-10.2529
▁뒷바퀴	-10.2529
▁불필요	-10.2529
▁실린더	-10.2529
▁줄눈	-10.2529
▁기울어지며	-10.2529
▁들어올려	-10.2529
▁있었으며	-10.2529
▁태풍	-10.2529
▁출발	-10.2529
▁측량	-10.253
▁침하	-10.2531
▁인대손상	-10.2531
▁구체적	-10.2532
▁알려	-10.2533
▁저하	-10.2534
▁사항임	-10.2534
▁수직으로	-10.2535
:45	-10.2536
▁자재인양구	-10.2536
▁말리	-10.2539
▁14:30	-10.2539
▁제출하였으나	-10.2539
▁하자	-10.254
▁왼쪽눈	-10.2543
▁AL	-10.2543
▁누적	-10.2544
▁주장하며	-10.2547
▁있다고	-10.2548
▁청주	-10.255
▁비산되어	-10.2551
▁현	-10.2553
▁전복	-10.2553
▁탈락하면서	-10.2558
▁점심시간	-10.2562
▁경찰	-10.2565
▁돌아	-10.2567
▁종료하고	-10.2568
▁거치대	-10.2571
▁관절	-10.2571
재를	-10.2571
.-	-10.2574
▁10:00	-10.2579
▁간섭되	-10.2581
▁신경	-10.2585
▁딛어	-10.2586
▁근로복지공단에서	-10.2594
사다리를	-10.2598
▁계단발판	-10.2603
보험	-10.2603
▁이유	-10.2607
대교	-10.2609
▁뿜칠	-10.2611
▁패드	-10.2612
▁카	-10.2614
▁판넬이	-10.2625
▁가해지	-10.2655
▁20.	-10.2656
▁쓰러지	-10.2657
▁엄지와	-10.2693
~5	-10.2696
▁내장	-10.27
▁합판에	-10.27
▁고정하고	-10.2704
▁칼	-10.271
있어	-10.271
완	-10.2713
▁서서	-10.2717
65	-10.2731
▁오류	-10.2732
벨트	-10.2732
옴	-10.2736
▁20**	-10.2737
발가락	-10.2738
쇠	-10.274
타워	-10.274
▁수중	-10.274
불안전한	-10.274
마을	-10.2742
와이어	-10.2742
부근	-10.2745
▁강풍에	-10.2763
렸	-10.2766
포장	-10.2772
용역	-10.2772
▁새끼손가락을	-10.2787
▁재해로	-10.279
주의	-10.2795
▁있다	-10.2817
순간	-10.2827
었으나	-10.2828
N	-10.2829
공정	-10.2846
부에서	-10.2858
기사	-10.2867
57	-10.2868
하중	-10.2896
산동	-10.2905
절단기	-10.2909
▁여러	-10.2918
▁승	-10.292
▁요양신청	-10.2922
▁트	-10.2943
퍼	-10.2944
KG	-10.2944
w	-10.2945
엠	-10.2945
란	-10.2945
셔	-10.2945
▁낮은	-10.2945
▁넣는	-10.2945
▁놀라	-10.2945
▁쇠지렛대	-10.2945
▁열풍기	-10.2945
▁윗부분	-10.2945
▁닿으	-10.2945
▁동절기	-10.2945
▁빗겨	-10.2945
▁예인선	-10.2945
▁착오	-10.2945
▁욕실	-10.2945
▁무너짐	-10.2945
▁환자	-10.2946
▁보양천막	-10.2946
▁출역	-10.2946
▁없었으나	-10.2946
산업개발	-10.2947
▁리프트카	-10.2948
▁파이프서포트	-10.2948
▁첫번째	-10.2948
▁신규	-10.2949
▁부상당함	-10.295
▁베임사고	-10.295
▁경량	-10.2952
▁17:00	-10.2953
▁끊어지면서	-10.2953
▁자체	-10.2953
▁09:30	-10.2955
▁넘어지지	-10.2956
▁결함	-10.2956
▁날아	-10.2959
▁피하지	-10.2961
▁상호	-10.2961
▁발견하고	-10.2966
▁해상	-10.2966
▁외부벽체	-10.2972
▁피하는	-10.2975
▁광대뼈	-10.2977
▁단부에	-10.2977
▁누수	-10.298
▁대해	-10.2983
▁굴착면	-10.2985
▁c	-10.2985
▁뒷부분	-10.2994
▁묶어	-10.3002
▁보고하지	-10.302
▁각관	-10.302
▁보강작업	-10.3021
▁막장	-10.3026
▁조작미숙	-10.3034
▁기존에	-10.3037
▁심근경색	-10.304
▁부딪쳐서	-10.3057
▁명	-10.3057
▁하는데	-10.3063
▁확인하기	-10.3063
▁관리자에게	-10.3065
▁통행로	-10.31
▁검진	-10.3102
▁회전하여	-10.3103
신호	-10.311
▁동안	-10.3136
1.0	-10.3143
대책	-10.3151
인부	-10.3157
견	-10.3158
▁봉	-10.3159
네	-10.3164
▁수로	-10.3164
▁부자재	-10.3164
▁견출작업	-10.3165
요추	-10.3166
칼	-10.3167
갈	-10.3167
▁콘크리트타설	-10.3168
▁타설용	-10.3169
삼	-10.3171
지사	-10.3173
STA	-10.3173
앙카	-10.3174
결속	-10.3174
앵글	-10.3174
굴삭기	-10.3175
화장실	-10.3176
부족	-10.3181
현상	-10.3193
대병원	-10.3193
▁발생하였고	-10.32
MM	-10.3216
▁5.	-10.3233
▁높	-10.3254
▁돌풍	-10.3255
바닥으로	-10.3256
▁도로에서	-10.3259
었음	-10.327
▁개구부를	-10.3276
▁신설	-10.3276
▁시설	-10.3288
▁비계파이프에	-10.3317
▁피하다	-10.3324
▁형틀자재	-10.3331
경찰서	-10.3335
토사	-10.3342
졌	-10.3347
조사	-10.3347
쳐서	-10.3356
▁디딤	-10.3357
위한	-10.3364
찰	-10.3367
령	-10.3372
▁소화	-10.3373
▁충돌로	-10.3375
▁길	-10.3376
▁코킹작업	-10.3378
블	-10.3378
_	-10.338
▁나머지	-10.338
▁나뭇가지	-10.338
▁불완전	-10.338
▁공동주택	-10.338
▁오픈	-10.338
▁사무동	-10.338
▁안전장화	-10.338
▁방호선반	-10.338
▁포터	-10.338
▁슬관절	-10.338
▁정밀검사	-10.338
▁절상	-10.338
▁않았으며	-10.338
▁사실관계	-10.3381
▁주차타워	-10.3381
▁콘판넬	-10.3381
▁날개벽	-10.3381
▁안전보호구	-10.3381
▁튀어나온	-10.3382
▁맞지않아	-10.3382
▁입원치료	-10.3384
▁달비계	-10.3384
▁강재거푸집	-10.3385
▁회수	-10.3385
▁놓치며	-10.3386
▁때문	-10.3387
▁사건	-10.3387
▁안착	-10.3387
▁막장면	-10.3388
▁미제거	-10.3394
▁최근	-10.3395
▁정문	-10.3397
:3	-10.3398
▁외국인	-10.3398
▁아래에	-10.3399
▁후두부	-10.34
▁열어	-10.3403
▁왼쪽무릎	-10.3403
▁콘크리트못	-10.3408
▁보던	-10.3411
▁제출함	-10.3411
▁약간	-10.3414
▁점검구	-10.3414
걸이	-10.3415
▁결속선	-10.3417
▁살수차	-10.3419
▁플라스틱	-10.3422
▁수원	-10.3429
▁우측손	-10.343
▁것이	-10.3432
▁앵커	-10.344
▁실금	-10.3444
▁유발	-10.345
▁체결을	-10.3451
▁침	-10.3463
▁경사지	-10.3479
▁발생일시	-10.3494
▁반생	-10.35
▁조각	-10.3507
▁측면에	-10.3517
▁***-*	-10.3521
▁돌아가	-10.3521
1.8	-10.353
▁카고	-10.3538
▁승강로	-10.354
▁보양작업	-10.3542
▁동료들	-10.3552
▁배수관	-10.3557
▁111	-10.3558
▁준비작업	-10.3559
▁철골공	-10.3563
▁시설물	-10.3564
불량으로	-10.3568
호세대에서	-10.357
▁이동함	-10.3577
▁주저	-10.3583
한국	-10.3586
▁옮기기	-10.359
.4.	-10.3599
장이	-10.36
▁생명줄에	-10.3601
▁무시	-10.3602
▁후미	-10.3611
취	-10.3616
▁양중하여	-10.3619
▁수평목	-10.3623
트럭	-10.3625
굴착	-10.3627
넘어짐	-10.3631
파손	-10.3634
통제	-10.3644
법면	-10.3644
▁인도	-10.3648
속도	-10.3648
▁가공장	-10.3661
▁헛딛	-10.3666
▁배관파이프	-10.367
역사	-10.3682
▁못에	-10.3683
▁자가	-10.37
오후	-10.3703
▁장비에	-10.3718
▁체결한	-10.3722
강관	-10.3737
▁편	-10.3751
▁있지	-10.3754
▁깨지	-10.3755
▁디	-10.3762
▁기타	-10.3771
▁설	-10.3781
▁우천	-10.3781
▁비상	-10.3782
▁넘어가다	-10.3783
등학교	-10.3811
▁등쪽	-10.3811
▁석재가	-10.3814
▁근육이	-10.382
▁상하	-10.3829
딩	-10.3834
꼬	-10.3834
션	-10.3834
보험급여	-10.3834
▁끊어져	-10.3834
▁위험요소	-10.3834
▁있으나	-10.3834
▁쪼그려	-10.3834
▁테이블리프트	-10.3834
▁협력회사	-10.3834
▁후레싱	-10.3834
엔지니어링	-10.3834
체육관	-10.3834
▁꺾이	-10.3834
▁쉬트파일	-10.3834
▁폐쇄성	-10.3835
▁슬링바	-10.3835
▁평택	-10.3835
▁십자인대	-10.3835
▁믹서트럭	-10.3835
▁락볼트	-10.3835
▁긴결	-10.3835
▁사춤	-10.3835
▁반발력	-10.3835
▁근접	-10.3835
▁위험요인	-10.3836
▁모두	-10.3836
▁천안	-10.3839
▁종점부	-10.384
말뚝	-10.384
프라	-10.3841
▁장착	-10.3841
염좌	-10.3842
▁인방	-10.3842
▁전동공구	-10.3843
▁스킬톱	-10.3843
계단을	-10.3844
▁h	-10.3844
▁보완	-10.3845
내리	-10.3845
▁물체	-10.3846
▁우측어깨	-10.3846
▁철골기둥	-10.3847
▁아스팔트	-10.3849
▁도보	-10.3851
▁주방	-10.3853
▁시술	-10.3854
▁나오는	-10.3856
▁위험성	-10.3861
▁노면	-10.3865
▁이음철근	-10.3869
▁中	-10.3869
▁작업반경	-10.3874
▁건축자재	-10.3878
▁지지하고	-10.3879
▁조치함	-10.3884
▁코핑	-10.3889
(60	-10.3893
▁인지하고	-10.3897
▁구르	-10.3897
▁도배	-10.3898
▁작업동료	-10.3902
▁벌	-10.3906
더미	-10.3907
▁당기다가	-10.3908
▁빈	-10.3909
▁없	-10.3909
손가락이	-10.3911
▁가다가	-10.3911
▁지나가다	-10.3919
▁작업공구	-10.3919
▁사각	-10.3926
청사	-10.3926
▁성모병원	-10.3928
-8	-10.3943
▁전선관	-10.3944
▁플	-10.3947
▁풀어	-10.3947
▁판	-10.3952
,000	-10.397
▁거실	-10.397
▁태만	-10.3974
▁대비	-10.398
▁낙하되어	-10.398
▁운전원과	-10.3985
▁칠	-10.3997
▁부상이	-10.3999
장을	-10.3999
었고	-10.3999
▁볼트가	-10.4005
시키고	-10.4029
55	-10.4037
단계	-10.4042
목적으로	-10.4044
망치	-10.4045
▁입원하여	-10.4047
순	-10.4051
▁사업	-10.4055
북	-10.4059
▁앞에	-10.4061
점검	-10.4067
톱	-10.4068
▁사이를	-10.4083
▁점검중	-10.4084
손목	-10.4084
▁적재중	-10.4085
▁오류로	-10.4086
8.	-10.4086
▁드는	-10.4087
향	-10.4087
(17	-10.4089
운전자	-10.4091
▁보도	-10.4092
▁#2	-10.4099
되었다고	-10.41
스킬	-10.4105
▁넘	-10.4106
과정	-10.4106
언제	-10.4107
골조	-10.4108
▁사용할	-10.4118
▁자재이동	-10.4119
▁쳐	-10.412
진입	-10.4131
▁청소작업을	-10.4131
▁문을	-10.4141
▁구역	-10.4141
어짐	-10.4146
보호	-10.4156
진료	-10.4157
개의	-10.4159
▁아니	-10.4161
▁풀던	-10.4164
▁205	-10.4164
▁인양용	-10.4171
▁Y	-10.4178
▁트럭에	-10.4181
낙	-10.4184
▁탈	-10.4184
발이	-10.4187
▁100	-10.4188
45	-10.4192
▁넘어졌다	-10.4218
정보	-10.4219
▁배관작업	-10.4219
중임	-10.4238
▁올라서	-10.4261
▁공간에서	-10.4263
▁제거하고	-10.4285
었습니다	-10.4286
인과	-10.4289
·	-10.429
▁매달	-10.4295
세대	-10.4296
꺼	-10.43
째	-10.4304
▁라이닝	-10.431
▁점심	-10.431
탕	-10.4311
▁그라인드	-10.4311
▁물리치료	-10.4311
▁받기	-10.4311
▁부직포	-10.4311
▁슬링밸트	-10.4311
▁잃으며	-10.4311
▁포스트	-10.4311
▁부딪치는	-10.4311
빌딩	-10.4311
▁누름	-10.4312
~3	-10.4312
▁요골	-10.4313
▁판명	-10.4313
▁불티	-10.4314
▁강관파일	-10.4317
하기위하여	-10.4317
▁때려	-10.432
▁알게	-10.432
▁EL	-10.432
▁박힌	-10.432
▁고무	-10.432
▁앉은	-10.4322
▁2.4	-10.4324
▁안전장치	-10.4325
▁발꿈치	-10.4325
▁환경	-10.4326
▁세보	-10.4328
장애	-10.4328
▁지나가는	-10.4329
▁2021.10.	-10.4333
▁이동하지	-10.4334
▁반대쪽	-10.4334
▁회전하며	-10.4336
▁통화	-10.4338
▁자재하역	-10.4338
▁기둥거푸집	-10.4338
▁조임	-10.4339
▁선형	-10.4343
▁보행자	-10.4345
▁사이에서	-10.4346
▁상실	-10.4346
▁부실	-10.4346
(9	-10.4347
▁지켜보	-10.4349
▁작업반경내	-10.4351
▁살수기	-10.4357
▁경계	-10.4359
▁환기구	-10.4362
▁인력운반	-10.4363
▁내려가던중	-10.4367
▁특별	-10.4368
▁여수	-10.4368
▁정비사업	-10.4373
▁와이어에	-10.4376
▁내림	-10.4379
인한	-10.4384
▁왼쪽손	-10.4385
▁가스	-10.4386
▁인지함	-10.4387
▁담당	-10.4388
▁작업실시	-10.4389
▁미상	-10.4396
못하고	-10.4397
▁코아	-10.4397
▁남은	-10.44
2.5	-10.4401
▁꺼내	-10.4407
▁일요일	-10.4409
▁골절발생	-10.4412
▁절단됨	-10.4421
▁낙하함	-10.4424
▁사고이며	-10.4427
▁반복작업	-10.4427
▁반복적	-10.4429
▁명일	-10.443
▁행위	-10.4432
▁마감작업	-10.4433
나와	-10.4433
실시	-10.4436
▁이송후	-10.4448
▁b	-10.4449
재해자는	-10.4451
관계자	-10.4451
▁거푸집조립	-10.4455
▁장비와	-10.4456
내려	-10.4457
함에	-10.4458
▁드럼	-10.446
▁신발	-10.4463
er	-10.4463
▁용접부위	-10.4471
▁경상	-10.4472
59	-10.4476
오전	-10.4483
▁허리부분	-10.4486
▁용접작업중	-10.4488
타박상	-10.4488
▁휴	-10.4493
▁나오던	-10.4496
장소에서	-10.4501
▁인원	-10.4506
▁완	-10.4543
어서	-10.4548
▁8.	-10.455
▁옴	-10.4554
▁움직임	-10.4558
려는	-10.4558
▁설치구간	-10.4563
▁1.0	-10.4563
▁정리작업중	-10.4566
공종	-10.4567
슬	-10.4584
▁지상층	-10.4588
머	-10.4588
직경	-10.4595
▁나가	-10.46
바퀴	-10.4601
질환	-10.4602
트러스	-10.4603
리프트	-10.4604
스카이	-10.4604
근로복지공단	-10.4604
소견	-10.4605
왼손	-10.4606
금요일	-10.4606
터파기	-10.4607
협력업체	-10.461
개구부	-10.4612
▁가공중	-10.4616
거치	-10.462
안전화	-10.4622
동료	-10.463
직후	-10.4633
▁찔린	-10.4641
▁돌출부	-10.4664
▁대차에	-10.4667
하여야하나	-10.4667
▁변	-10.469
재해자가	-10.4695
▁부재를	-10.4695
치는	-10.4697
▁배관자재	-10.4705
▁타박상이	-10.4709
들어	-10.4711
▁파열로	-10.4721
▁부딪혔다	-10.4746
중학교	-10.4746
▁쓰	-10.4756
▁편의	-10.4761
▁실수	-10.4763
▁라	-10.4768
▁7.	-10.477
▁뒤에	-10.4776
숙	-10.4784
▁후크에	-10.4785
범	-10.4795
1.1	-10.4803
대차	-10.4803
응	-10.4808
벤	-10.4811
▁부딛쳐	-10.4811
▁부딪치며	-10.4811
▁부적정	-10.4811
▁고르지	-10.4811
▁알리지	-10.4811
방파제	-10.4811
▁착각	-10.4811
▁보험가입자의견서	-10.4811
▁얼어	-10.4811
▁숙지	-10.4811
▁불꽃	-10.4811
▁수직보호망	-10.4811
▁마루	-10.4811
▁Con	-10.4812
▁충남	-10.4812
하였는데	-10.4812
▁찾	-10.4813
PE	-10.4814
▁안전거리	-10.4817
▁연결고리	-10.482
▁피스	-10.4823
▁석	-10.4823
▁예정임	-10.4824
▁문제	-10.4826
▁임의해체	-10.4828
▁호수	-10.4828
▁미니	-10.4829
▁09:00	-10.4829
▁과다	-10.483
▁본사	-10.4831
주진단	-10.4831
▁벤딩기	-10.4833
▁맞추는	-10.4833
▁석고	-10.4835
▁미끄러지는	-10.4836
▁11:30	-10.4837
▁이격거리	-10.4839
▁짚은	-10.484
▁돌아서	-10.484
▁인양로프	-10.4842
▁유로품	-10.4849
▁금이감	-10.4851
▁쓰러지는	-10.4854
▁왼쪽발등	-10.4857
▁Pipe	-10.486
▁합판거푸집	-10.486
▁올라오던	-10.486
▁GS	-10.4861
ᄋᄋᄋ	-10.4862
▁전남	-10.4863
▁승강기	-10.4868
▁전치	-10.4876
측에서	-10.488
▁부러	-10.4882
▁정면	-10.4888
-7	-10.489
▁펴	-10.4893
▁브레싱	-10.4904
▁요청하여	-10.4904
는순간	-10.4908
▁시트	-10.491
▁통원	-10.4916
▁진행하여	-10.4927
▁철판에	-10.4928
작업으로	-10.493
부를	-10.4934
▁라인	-10.4936
▁끈	-10.4936
▁우측발이	-10.494
지원	-10.4944
▁단차부위	-10.4944
.*	-10.4948
▁기준	-10.4952
상태로	-10.4954
▁반경	-10.4965
이후	-10.4969
▁양수	-10.497
▁확인하던	-10.4979
(40	-10.498
▁치면서	-10.4983
동안	-10.499
▁철거공사	-10.4993
했고	-10.4994
▁절단하기	-10.5
▁검사를	-10.5013
▁합니다	-10.5014
▁갈	-10.5014
-9	-10.5015
▁신호수와	-10.5033
▁설치하여	-10.5055
ᄋ	-10.5059
▁비로	-10.5062
▁4.	-10.5065
요양	-10.5071
으로써	-10.5077
▁개인의	-10.508
▁되었으며	-10.5081
:15	-10.5082
조각	-10.5083
▁횡대에	-10.5088
▁식	-10.5089
▁작업하던중	-10.5102
팀장	-10.5105
▁우측발	-10.5108
▁끝부분에	-10.5112
정지	-10.5122
▁금이가	-10.5123
베	-10.5123
풀	-10.5126
콘	-10.5126
커버	-10.5126
언	-10.5126
합니다	-10.5128
확보	-10.5129
적재	-10.5129
시티	-10.513
홍	-10.513
사람	-10.513
없음	-10.5131
보안경	-10.5131
클램프	-10.5131
렌탈	-10.5132
▁입원중	-10.5132
조작	-10.5133
근무	-10.5139
장갑	-10.5143
이동식	-10.5145
▁당사에	-10.5152
▁되었고	-10.5159
실금	-10.5165
함마	-10.5167
-10	-10.5171
▁연락이	-10.5183
▁203	-10.5183
어진	-10.5197
각파이프	-10.5212
물에	-10.5217
릴	-10.5217
▁중심	-10.5222
▁맞으	-10.5227
날이	-10.5234
▁달	-10.5238
▁발판위	-10.524
▁가설계단에서	-10.5256
핀을	-10.5262
목공	-10.5268
▁발생하는	-10.5279
▁관계	-10.5285
시설물	-10.5293
▁빠지	-10.5299
▁받지	-10.5303
▁발목부위	-10.5303
▁접지	-10.5306
▁보강용	-10.5307
검	-10.5307
▁작은	-10.5319
▁지하수	-10.5323
액	-10.5326
▁인정	-10.5329
빌	-10.5334
▁받쳐	-10.5335
▁괜찮	-10.5336
논	-10.5337
샤	-10.5337
룸	-10.5337
효	-10.5337
▁숏크리트	-10.5337
▁원인불명	-10.5337
▁집어넣	-10.5337
▁행복주택	-10.5337
춘	-10.5337
▁엉켜	-10.5337
▁일어남	-10.5337
▁원도급사	-10.5337
▁지게발	-10.5337
▁돌부리	-10.5337
▁화성시	-10.5337
▁육안	-10.5337
▁도와주	-10.5337
▁어려움	-10.5337
▁하자보수	-10.5337
▁피로티	-10.5338
▁어께	-10.5338
▁견관절	-10.5338
▁봉합수술	-10.5338
▁고압호스	-10.5338
▁발뒷꿈치	-10.5338
▁찍혀	-10.5338
▁석축	-10.5338
도서관	-10.5338
성심병원	-10.5338
▁가설사무실	-10.5338
▁입었습니다	-10.5339
▁푸는	-10.5339
▁선별	-10.534
▁부러져	-10.534
▁실측	-10.534
▁측벽	-10.5341
▁연속	-10.5341
▁폐목재	-10.5344
▁성남	-10.5346
▁선회	-10.5346
▁헛딪어	-10.5346
▁폭발	-10.5347
▁세번째	-10.5347
러운	-10.5352
▁요함	-10.5352
▁좌상	-10.5352
▁놓아	-10.5353
▁높은	-10.5354
▁통영지사에	-10.5355
▁TT	-10.5355
▁날개	-10.5357
▁기초콘크리트	-10.5357
▁승인됨	-10.5357
▁13:00	-10.5358
km	-10.5362
▁왼쪽손목	-10.5364
▁경추	-10.5365
▁요양신청서	-10.5367
▁사업장	-10.5369
▁믹서	-10.5369
▁들어올리던	-10.5371
▁수공구	-10.5371
주위	-10.5374
▁'20	-10.5375
▁전면부	-10.5376
▁잠	-10.5377
▁삽	-10.5383
▁전체	-10.5383
마디가	-10.5387
▁내벽	-10.5394
▁통지서	-10.5398
▁체크	-10.5401
▁공사구간	-10.5409
▁이송함	-10.5412
▁감기	-10.5413
▁안산	-10.5415
▁도장공	-10.5417
00(00	-10.5421
쇄	-10.5421
▁파레트	-10.5423
▁첫마디가	-10.543
▁베이스	-10.5432
▁J	-10.5434
▁지하층에서	-10.5444
▁수부	-10.5445
▁가설재	-10.5446
▁통과	-10.5447
▁6.	-10.5448
▁호안	-10.545
▁진행함	-10.5459
려던	-10.5465
▁축	-10.5467
▁중이었으며	-10.547
잡	-10.5486
▁볼	-10.5488
▁굴	-10.5489
▁수상	-10.549
▁항	-10.5492
▁무의식적	-10.5499
▁쉬	-10.55
▁틀	-10.5502
▁업체인	-10.5505
▁들어가는	-10.5515
▁용접부	-10.5527
▁맞는	-10.5529
달라	-10.5532
▁유리창	-10.5532
▁피하기	-10.5533
▁용기	-10.5541
습	-10.5548
▁말비계에	-10.5555
▁제거작업	-10.5557
▁조립작업중	-10.5569
▁이동작업	-10.557
바로	-10.5572
(15	-10.5577
▁들려	-10.5589
어져	-10.5592
▁설치구간에서	-10.56
▁버켓에	-10.5604
▁단차구간	-10.5611
밀	-10.5615
경위	-10.5618
▁플랜트	-10.562
▁맨홀에	-10.5632
▁밟아서	-10.5635
▁해야	-10.5637
▁잡아당기	-10.5638
▁갱폼이	-10.5641
2019	-10.5646
▁짐	-10.5651
눈	-10.5655
휴	-10.566
▁옮기	-10.5662
자재에	-10.5662
정동	-10.5664
▁가능	-10.5669
▁당해	-10.5675
참	-10.5675
▁손목부위	-10.5676
▁가려	-10.5677
폐	-10.5677
허	-10.5678
바닥에서	-10.5679
캡	-10.5681
농	-10.5681
철근을	-10.5683
권	-10.5686
정강이	-10.5687
신청	-10.5688
구급차	-10.5688
검진	-10.5688
폐기물	-10.5688
->	-10.569
중심을	-10.5692
허리	-10.5695
▁손잡이에	-10.57
▁휘	-10.5702
▁했	-10.5708
산재	-10.5713
투입	-10.5725
조적	-10.5731
깊이	-10.5745
▁깨	-10.5755
▁알폼자재	-10.5756
차선	-10.5773
▁하러	-10.5789
▁낙하한	-10.5794
시간이	-10.5794
▁리	-10.5799
▁바지	-10.5801
포대	-10.5806
▁추락방지	-10.5812
▁진행하다	-10.5822
▁울산	-10.5825
▁떨어지	-10.583
▁안되어	-10.583
테	-10.583
대구	-10.5831
▁떨어	-10.5847
본인	-10.585
투	-10.5854
▁닿지	-10.5858
▁철선에	-10.5862
k	-10.5864
▁경남	-10.5871
인원	-10.5872
▁본관	-10.5873
거나	-10.5873
▁오수관	-10.5875
었는데	-10.5877
쯤	-10.5881
인력	-10.5882
상에서	-10.5886
놓았던	-10.5886
랜	-10.589
▁불인정	-10.589
악	-10.5891
클	-10.5891
▁헛디	-10.5892
렌	-10.5892
빙	-10.5892
뜨	-10.5892
듯	-10.5892
났	-10.5892
글	-10.5892
테이블	-10.5892
엉	-10.5893
렉	-10.5893
▁늦게	-10.5893
▁또한	-10.5893
▁받던	-10.5893
▁빠진	-10.5893
▁실링바	-10.5893
▁있으며	-10.5893
▁주상복합	-10.5893
▁항공마대	-10.5893
받았다고	-10.5893
▁매듭	-10.5893
▁접근금지	-10.5893
▁충북	-10.5893
▁커플러	-10.5893
▁에폭시	-10.5893
▁병원이송	-10.5893
▁특이사항	-10.5893
▁에어컨	-10.5893
정수장	-10.5893
▁의사소견	-10.5893
▁에어호스	-10.5894
▁대리석	-10.5894
▁벗어나	-10.5894
내국인	-10.5894
▁심정지	-10.5894
▁휴무	-10.5894
▁협의	-10.5895
▁잠수	-10.5895
▁방지망	-10.5895
▁폐콘크리트	-10.5895
▁쓰러진	-10.5896
▁문턱	-10.5896
▁도수로	-10.5896
▁엔진톱	-10.5897
▁건강	-10.5897
▁구름	-10.5897
▁준수	-10.5898
▁하카	-10.5899
▁전북	-10.59
▁권유	-10.59
▁철근절곡기	-10.5901
▁PL	-10.5902
▁어깨통증	-10.5903
▁합판과	-10.5903
▁금이간	-10.5904
▁수압	-10.5904
해진	-10.5905
▁왼손검지	-10.5905
▁잡다가	-10.5906
▁빠지지	-10.5908
▁없었고	-10.591
▁굽	-10.5911
파크	-10.5911
▁작업발판과	-10.5913
에이치	-10.5913
▁자재적재	-10.5914
▁좌측손	-10.5916
▁미끄러진	-10.5917
▁벗	-10.5918
▁파악하지	-10.5919
▁올라서서	-10.5921
▁유실	-10.5924
▁장선	-10.5929
▁골절되었음	-10.593
▁우측다리	-10.5933
▁보온작업	-10.5933
사거리	-10.5935
0.9	-10.5935
▁야적장	-10.5936
▁안내	-10.5936
▁수직구	-10.5943
▁보양지	-10.5947
▁납품	-10.5948
▁찍	-10.5948
▁결빙구간	-10.5951
▁당사자	-10.5953
▁낙상함	-10.5956
▁뇌	-10.5959
▁밀다	-10.5967
▁플랜지	-10.5972
▁확장	-10.5972
▁종골	-10.5974
일부터	-10.5979
▁옆면	-10.5982
차장	-10.5982
▁낀	-10.5984
▁숙소	-10.5984
마대	-10.5984
▁13:30	-10.5985
▁진행하던중	-10.5987
(06	-10.5987
▁치다가	-10.5989
▁나사	-10.5991
▁레버	-10.5996
▁칸막이	-10.5996
▁교체작업	-10.6003
▁굴착구간	-10.6009
▁잔	-10.6017
켜	-10.6031
▁오던	-10.6032
▁BOX	-10.6033
▁지장	-10.6033
▁보지못하	-10.6034
▁놓치	-10.6052
▁협력업체인	-10.6063
▁발코니에서	-10.6072
43	-10.6087
▁아프다	-10.6092
이앤씨	-10.6104
▁보에	-10.6106
▁가도	-10.6107
▁시공사에	-10.6127
▁이전	-10.6132
피해	-10.6133
대기	-10.6138
▁요인	-10.6145
▁동료인	-10.6147
▁짚는	-10.6149
▁교통	-10.615
내에서	-10.615
보드	-10.6165
구간의	-10.6173
내부로	-10.6175
▁내려오기	-10.618
#3	-10.6183
(50	-10.6185
36	-10.619
▁방지하기	-10.6195
▁502	-10.6196
▁인양물	-10.6205
58	-10.6207
▁강관파이프에	-10.6208
교차로	-10.6227
U	-10.6242
0.5	-10.6255
끼임	-10.6256
서포트	-10.6264
받음	-10.6268
넘	-10.6271
칠	-10.6271
하강	-10.6271
밴드	-10.6272
받아	-10.6274
밸브	-10.6275
질병	-10.6275
반출	-10.6277
강관파이프	-10.628
▁움직이는	-10.6282
PC	-10.6288
철선	-10.6296
기존	-10.6299
상을	-10.6309
▁연결하여	-10.6312
▁주택	-10.6313
▁202	-10.6317
어깨	-10.6318
▁퍼티	-10.6319
조정	-10.6332
▁둔	-10.6333
양중	-10.6333
▁가시설공사	-10.6336
모서리에	-10.6338
시키던	-10.6342
▁매달려	-10.6343
유리	-10.6346
험	-10.6346
▁근무를	-10.6354
▁거리	-10.6356
00,	-10.6367
▁헤드	-10.6383
▁끼우	-10.6384
사면	-10.6385
▁어깨부위	-10.6391
▁들리	-10.6392
▁부재에	-10.6396
▁본체	-10.6403
▁표	-10.6405
g	-10.641
▁개폐	-10.6417
조경	-10.6425
#	-10.6426
작업방법	-10.6454
▁돌리	-10.647
희	-10.6472
▁불편	-10.6476
텍	-10.6477
휀	-10.6477
▁증축	-10.6477
괴	-10.6479
핑	-10.6479
답	-10.648
▁떨어졌	-10.648
댐	-10.648
삭	-10.6481
균	-10.6481
싸	-10.6481
▁EPS	-10.6481
▁긁힘	-10.6481
▁깁스	-10.6481
▁꺾여	-10.6481
▁끊어짐	-10.6481
▁덮쳐	-10.6481
▁받았고	-10.6481
▁받았습니다	-10.6481
▁분전함	-10.6481
▁사료됨	-10.6481
▁생계형	-10.6481
▁찧어	-10.6481
▁턴버클	-10.6481
수받이	-10.6481
있습니다	-10.6481
PILE	-10.6481
▁압롤박스	-10.6481
▁도시가스	-10.6481
하수처리장	-10.6481
▁악화	-10.6481
▁남양	-10.6481
▁돌출되어	-10.6481
테스트	-10.6481
▁호퍼	-10.6481
▁정상근무	-10.6482
▁진흙	-10.6482
▁걸어가다	-10.6482
▁난청	-10.6482
▁회복	-10.6482
▁탈거	-10.6483
▁피복석	-10.6483
▁마친	-10.6483
▁면처리	-10.6483
▁숙련도	-10.6484
▁소화배관	-10.6484
▁심해져	-10.6484
▁앙카볼트	-10.6484
▁입힘	-10.6484
▁없었음	-10.6484
▁핸드드릴	-10.6484
▁배합	-10.6485
톤트럭	-10.6485
▁결여	-10.6485
▁분사	-10.6485
▁있음에도	-10.6486
▁통합	-10.6486
▁어려	-10.6487
▁밟음	-10.6487
▁배열	-10.6488
▁평소	-10.6489
▁걸어가던	-10.6489
▁탈구	-10.6489
▁시험	-10.6489
▁불편함	-10.6489
체중이	-10.6492
▁가설도로	-10.6493
▁베여	-10.6493
▁표면	-10.6494
▁오르는	-10.6494
▁관통	-10.6495
두께	-10.6496
▁미보고	-10.6496
니다	-10.6497
▁우려	-10.6497
▁덕	-10.6499
▁직영반장	-10.6499
▁그라우팅	-10.65
▁요양급여신청서	-10.6503
▁수거	-10.6504
▁우측팔	-10.6504
▁인정할	-10.6505
▁소화기	-10.6506
▁내려치	-10.6506
▁앉	-10.6507
▁국	-10.6508
▁상호간	-10.6511
▁세우기	-10.6512
▁견고	-10.6513
▁어린이집	-10.6513
▁내려놓다	-10.6517
▁부속자재	-10.6517
▁베	-10.6517
▁옹벽거푸집	-10.6517
▁출동	-10.652
▁메인	-10.6521
▁개인질병	-10.6528
▁통보함	-10.6532
▁우리	-10.6532
▁공구함	-10.6535
▁일어서는	-10.6536
▁지연보고	-10.654
▁서포트에	-10.654
▁착용하지	-10.6542
▁접질리는	-10.6546
▁이설	-10.6549
▁미숙지	-10.6553
▁가던중	-10.656
▁전정	-10.6566
TG	-10.6567
▁들어올리다	-10.6569
▁부딪히고	-10.6572
▁장갑을	-10.6572
▁원형톱날	-10.6573
▁실시하던	-10.6574
▁빼내려	-10.6576
▁쌓여있	-10.6579
대원	-10.6586
▁발병	-10.6588
(8	-10.66
등으로	-10.6602
▁부어	-10.6602
▁동시작업	-10.6605
으려다	-10.6605
▁선반	-10.6607
었던	-10.6609
▁보임	-10.6613
54	-10.662
▁신축현장에서	-10.662
▁군	-10.662
▁자르다	-10.6625
▁PS	-10.6625
▁우마발판	-10.6625
▁교통사고	-10.6627
▁증상이	-10.663
▁못으로	-10.664
처리시설	-10.6643
▁너트	-10.6643
▁AM	-10.6656
인해	-10.6667
▁형틀작업자	-10.6669
엄지손가락이	-10.6674
▁놓쳐서	-10.6674
▁폐자재	-10.6675
▁마감재	-10.6678
▁철골자재	-10.6686
(1.8	-10.6693
▁기초바닥	-10.6706
▁포대	-10.6707
▁체결상태	-10.6708
▁되	-10.6709
▁->	-10.6711
▁1.6	-10.6712
속에	-10.6713
▁리어카에	-10.6715
▁공사용	-10.6717
▁*****	-10.6721
~2	-10.6722
▁중량	-10.6733
▁아무	-10.6738
▁역	-10.6751
f	-10.6755
▁기사와	-10.676
BH	-10.6764
▁진술에	-10.6777
▁전용	-10.6779
▁인근병원	-10.678
두고	-10.6792
▁체	-10.6799
▁연마	-10.6801
▁넘어가던	-10.6801
▁형틀작업중	-10.6802
▁오수	-10.6813
정형외과의원	-10.6815
▁주저앉	-10.6817
▁발생되어	-10.6823
▁요추부	-10.6832
▁유출	-10.6834
▁BEAM	-10.6837
▁타격으로	-10.6838
오던	-10.6849
▁외부계단	-10.685
▁세워놓	-10.6863
▁심해	-10.6868
운동	-10.6873
착용	-10.6873
발목	-10.6882
▁안된	-10.689
하라	-10.6891
홈	-10.6898
PIT	-10.69
허벅지	-10.6901
▁않아서	-10.6901
0.7	-10.6904
4)	-10.6905
코어	-10.6912
▁회전톱	-10.6914
▁민	-10.6916
▁리모델링	-10.6918
천공	-10.6922
▁회	-10.6925
▁상황이	-10.6926
▁동바리가	-10.6936
오른손	-10.6939
62	-10.694
▁버킷에	-10.6943
월요일	-10.6947
현장내	-10.6954
반장이	-10.6957
▁일어나는	-10.6964
33	-10.6971
▁가새	-10.6971
▁주는	-10.6979
▁잡으려	-10.6982
▁조적공사	-10.6985
▁벽체와	-10.6987
▁낙석	-10.6989
▁첫마디	-10.6997
▁철사	-10.7
▁사망자	-10.7012
ᄋᄋ	-10.7014
부근에서	-10.7025
재단	-10.7033
오는	-10.7035
▁상수관	-10.7037
▁38	-10.7043
▁의식이	-10.7052
대학병원	-10.7052
▁공기	-10.7055
작업구간에서	-10.7057
비계에서	-10.7061
▁근무중	-10.7062
았고	-10.7066
▁바닥면에	-10.7067
▁낙하물에	-10.7073
았	-10.7075
▁현장관리자	-10.7078
1.3	-10.7082
▁요양급여신청	-10.7083
인근	-10.7084
께	-10.7085
뚝	-10.7092
왔	-10.7092
횡	-10.7098
▁환기	-10.7099
앤	-10.7101
▁덤프트럭에	-10.7102
칸	-10.7105
▁충전	-10.7105
죽	-10.7106
v	-10.7106
▁톤백	-10.7106
펜	-10.7106
▁개인지병	-10.7106
▁꺾임	-10.7106
▁노무자	-10.7106
▁받았으나	-10.7106
▁빗물받이	-10.7106
▁석탄취급설비	-10.7106
▁싣는	-10.7106
▁싣던	-10.7106
▁암롤박스	-10.7106
▁울타리	-10.7106
▁죄측	-10.7106
▁콧등	-10.7106
넷	-10.7106
쏘	-10.7106
▁눌리	-10.7106
▁불안전행동	-10.7106
▁수평연결재	-10.7106
▁실족방지망	-10.7106
▁텐션	-10.7106
▁훼손	-10.7106
캐	-10.7106
▁균열	-10.7106
▁밸트	-10.7106
▁얼음	-10.7106
▁케이슨	-10.7106
▁2020.05.	-10.7106
▁생김	-10.7106
▁습기	-10.7106
▁노끈	-10.7107
▁익일	-10.7107
▁스텐	-10.7107
▁대형거푸집	-10.7107
▁않았고	-10.7107
▁스파크	-10.7107
▁의하면	-10.7107
▁초기	-10.7107
▁새	-10.7107
▁괜찮다고	-10.7107
▁던져	-10.7107
▁근육파열	-10.7108
▁근생	-10.7108
▁걸이시설	-10.7108
첨부	-10.7108
▁트레이	-10.7108
▁밀착	-10.7108
▁연료	-10.7108
▁체인블록	-10.7108
▁부검	-10.7109
▁개인부주의	-10.7109
▁피복	-10.7109
되자	-10.711
▁수직부재	-10.711
▁창문틀	-10.7111
▁준공	-10.7111
▁알림	-10.7112
▁진단받음	-10.7112
▁탈락되며	-10.7112
되었으나	-10.7112
▁막아	-10.7112
LC	-10.7113
▁광양	-10.7113
IC	-10.7115
▁보조로프	-10.7115
▁각막	-10.7115
▁국도	-10.7116
▁방통	-10.7117
형태	-10.7117
▁목재절단	-10.7118
▁찢어지고	-10.7118
▁복공	-10.7118
하면	-10.7119
▁좌측어깨	-10.712
▁08:30	-10.7121
▁허리부상	-10.7123
▁고통	-10.7124
▁후진중	-10.7124
▁상체	-10.7128
▁본선	-10.7128
▁PT	-10.713
▁발바닥	-10.7131
▁못하였고	-10.7131
▁내려오지	-10.7132
▁ᄋᄋᄋ씨	-10.7132
▁DH	-10.7132
번길	-10.7138
▁우레탄	-10.7139
▁하지만	-10.714
▁‘	-10.7141
▁실시하였고	-10.7143
▁요청함	-10.7146
▁강선	-10.7148
▁상하부	-10.7149
▁투입되어	-10.715
▁경골	-10.7151
▁1~2	-10.7152
▁심장	-10.7153
▁사진	-10.7156
▁의자	-10.7159
:05	-10.716
▁이행	-10.7161
▁금지	-10.7166
▁클립	-10.7168
▁유도원	-10.7168
▁안전계단	-10.7169
파기	-10.7173
▁정리하기	-10.7177
지않은	-10.718
▁유도자	-10.7181
▁부딪혔	-10.7185
1-1	-10.7185
▁통신	-10.7188
▁이탈로	-10.7195
▁냉	-10.7209
▁든	-10.721
▁개착	-10.7212
▁박혀있	-10.7212
▁북	-10.7212
▁가하여	-10.7226
하도	-10.7229
▁물질	-10.7235
▁발판사이	-10.7237
▁걸이	-10.7238
▁관을	-10.7239
았으나	-10.7248
▁흙바닥	-10.7255
▁벗겨지	-10.7255
▁다쳐	-10.7257
▁예방	-10.7266
최대	-10.7269
리며	-10.7269
▁지면을	-10.7272
▁오른손에	-10.7289
▁가료	-10.729
▁절차	-10.7292
▁아니라	-10.7292
▁올리다	-10.7301
▁쏟아	-10.7302
▁볼트에	-10.7305
▁301	-10.7306
였으며	-10.7316
(2.5	-10.7319
▁작업구간으로	-10.7322
것	-10.7323
▁고인	-10.7327
▁시공자	-10.7329
▁당사에서	-10.7331
(12	-10.7337
▁본동	-10.7346
▁순	-10.735
▁경부	-10.7355
수정	-10.7375
▁이해	-10.7387
▁낙상하여	-10.739
▁자중	-10.739
▁간과	-10.7397
▁작업함	-10.7398
▁공단	-10.7406
▁철근작업자	-10.7428
▁받으	-10.7432
▁움직이다	-10.7434
전선	-10.7443
북도	-10.7449
▁부주의하게	-10.7458
스타	-10.7459
▁관절염	-10.7469
▁설치하던중	-10.7469
▁유동	-10.7475
1.4	-10.7475
▁당시에	-10.7486
▁작업공간이	-10.7491
개방성	-10.7494
신축공사	-10.7499
▁철근운반	-10.7499
▁방호벽	-10.7507
으려고	-10.7507
▁적재하던	-10.752
▁줄이	-10.753
3.5	-10.7543
받침	-10.7555
▁울	-10.7561
드럼	-10.7565
출입구	-10.7565
시멘트	-10.7567
팔꿈치	-10.7567
예방	-10.7568
경사로	-10.7568
충돌	-10.757
거더	-10.7572
이동통로	-10.7572
근처	-10.7576
외벽	-10.7577
▁안전한	-10.7578
입원	-10.7591
천막	-10.7592
정비	-10.7593
하차	-10.7593
▁현대	-10.7633
▁주행	-10.7636
배수	-10.7648
카고	-10.7648
천교	-10.7653
0.2	-10.7653
가시설	-10.7664
지반	-10.7671
’	-10.7698
▁없었	-10.7698
내부에서	-10.7701
▁2020.12.	-10.7701
▁호스에	-10.7702
▁보철근	-10.7717
▁우수관	-10.7721
▁주민	-10.773
▁교사	-10.7732
▁설치하지	-10.7733
작동	-10.7735
▁강당	-10.7737
이었음	-10.7738
▁있었	-10.774
▁지역	-10.7744
▁산소절단	-10.7745
▁원위지골	-10.7747
▁구간의	-10.7749
해당	-10.7756
▁설치공	-10.776
▁HO	-10.7765
▁발행	-10.7768
▁요철	-10.777
헤	-10.777
극	-10.7771
맨	-10.7771
▁설계	-10.7772
컨	-10.7772
덩	-10.7772
TON	-10.7772
▁CCTV	-10.7772
▁겨드랑이	-10.7772
▁그라인딩	-10.7772
▁꼬리뼈	-10.7772
▁덮어	-10.7772
▁빠른	-10.7772
▁빨려	-10.7772
▁뿌리	-10.7772
▁생물반응조	-10.7772
▁아우트리거	-10.7772
▁찢어져	-10.7772
▁콘센트	-10.7772
▁태우이엔지	-10.7772
으므로	-10.7772
▁파형강관	-10.7772
▁규모	-10.7772
발전소	-10.7772
▁족관절	-10.7772
▁주형보	-10.7772
▁공조기	-10.7772
▁겹쳐	-10.7773
▁노즐	-10.7773
▁포항	-10.7773
▁러그	-10.7773
▁처음	-10.7773
▁갑작스럽	-10.7773
▁미니굴삭기	-10.7773
▁사업주	-10.7773
▁기중기	-10.7774
▁보호덮개	-10.7774
▁없으나	-10.7774
▁잔류	-10.7774
▁자갈	-10.7774
=1.5	-10.7774
▁목장갑	-10.7775
▁맞은편	-10.7775
▁미끄러움	-10.7775
▁방수턱	-10.7775
▁옥외	-10.7775
▁고령	-10.7776
▁강관동바리	-10.7776
▁자연	-10.7776
▁오른속	-10.7776
링크	-10.7777
▁대좌	-10.7778
▁암석	-10.7778
▁파손되며	-10.7778
▁밀리며	-10.7779
▁내려올	-10.778
▁고압선	-10.778
▁감전사고	-10.778
▁진입도로	-10.7781
▁오른손가락	-10.7782
▁버티지	-10.7782
▁의거	-10.7783
▁부축	-10.7783
중공업	-10.7785
▁선박	-10.7785
▁끝나	-10.7785
▁향후	-10.7785
▁TS	-10.7786
(100	-10.7786
▁운반대차	-10.7787
▁3~4	-10.7787
▁코뼈	-10.7791
▁미조치	-10.7793
호라인	-10.7793
▁숙이	-10.7793
▁취하고	-10.7794
▁장비운전원	-10.7795
▁좌측팔	-10.7795
▁수벽	-10.78
6)	-10.78
▁우측무릎	-10.78
▁경사발판	-10.7801
▁선정	-10.7802
▁이상없	-10.7808
▁줌	-10.781
▁터빈동	-10.781
▁수지	-10.7811
▁생활	-10.7812
▁흔들리며	-10.7813
▁강타함	-10.7815
▁작업환경	-10.7818
▁채용	-10.782
▁그라인더날	-10.7824
▁제방	-10.7824
▁골절부상	-10.7828
▁살	-10.783
▁짚고	-10.783
▁철근절단기	-10.7831
▁밀고	-10.7832
▁용접사	-10.7838
했음	-10.7839
▁걸어주	-10.7841
할때	-10.7844
▁진주	-10.7847
▁Beam	-10.7853
▁브레이커	-10.7854
▁전등	-10.786
▁일부분	-10.7866
▁작	-10.7872
학교	-10.7872
▁용인	-10.7875
▁내방	-10.7876
하였음에도	-10.788
▁화단	-10.7883
▁후속	-10.7887
▁적재물	-10.7893
▁113	-10.7902
생활관	-10.7902
▁확인됨	-10.7908
▁감독	-10.7915
▁제거하던중	-10.7916
▁작업내용	-10.7927
▁엄지손가락에	-10.7927
된다고	-10.7929
▁작업현장	-10.7933
▁덩어리	-10.7943
▁좌수	-10.7945
시에는	-10.7945
▁상주	-10.7949
▁전진	-10.7951
▁조공	-10.796
▁※	-10.796
150	-10.7979
▁걸려있는	-10.799
넘어지면서	-10.7994
▁인양구	-10.7996
▁골절진단	-10.8
▁캡	-10.8034
▁강한	-10.8037
▁현상	-10.8038
▁슬	-10.804
49	-10.8042
▁콘	-10.8044
▁공간에	-10.8049
▁회전날	-10.8059
▁양중물	-10.8069
작업에	-10.8078
▁전문	-10.808
▁배관과	-10.8098
해체작업중	-10.8101
▁작업하여야	-10.8102
소지	-10.8109
▁미끄러지	-10.8116
▁무단	-10.8118
▁머리부분	-10.8133
▁철물에	-10.8136
▁1.4	-10.8136
건설산업	-10.8145
▁경북	-10.8151
▁당현장에서	-10.8156
▁1.3	-10.8172
▁2020.07.	-10.8173
▁체결된	-10.8176
▁단독작업	-10.8178
▁확인되어	-10.8184
▁남아있	-10.8185
▁하부작업자	-10.8188
자형	-10.82
▁앞부분	-10.8205
▁아이	-10.8211
▁긴	-10.8222
원형톱	-10.8227
n	-10.8229
▁포장공사	-10.8241
▁롤러에	-10.825
굴	-10.8257
▁체결하여	-10.8259
직원	-10.8261
직영	-10.8264
될	-10.8272
▁조명	-10.8272
볼	-10.8274
플	-10.8276
과장	-10.8276
b	-10.8277
잔	-10.8277
흙	-10.8279
둥근톱	-10.828
1200	-10.828
묶음	-10.8281
출혈	-10.8281
▁인양하기	-10.8281
흙막이	-10.8282
피재자	-10.8282
비트	-10.8282
줄걸이	-10.8283
안전벨트	-10.8283
올라	-10.8284
▁제거시	-10.8285
복합	-10.8285
베임	-10.8287
받침대	-10.8287
태만	-10.8288
절차	-10.8308
:35	-10.8312
=0.	-10.8312
도착	-10.8318
▁부딪	-10.8321
과정중	-10.8323
▁왼손에	-10.8325
▁작업대에	-10.8338
▁착용상태	-10.8338
▁있던중	-10.835
시공사	-10.8352
▁진입하여	-10.8355
▁말려들어	-10.8367
▁氏	-10.8371
▁틀어	-10.8378
▁당기다	-10.8386
▁안동	-10.8392
▁부대	-10.8393
▁치다	-10.8394
▁34	-10.84
▁걸기	-10.8406
설치공사	-10.8408
▁오후에	-10.8411
▁넘어지	-10.8417
목수	-10.8418
▁기구	-10.842
▁접합부	-10.8426
시장	-10.844
▁절단하여	-10.845
갑	-10.8462
특	-10.8476
▁케이	-10.8476
딪	-10.8483
▁개인적	-10.8484
밴	-10.8484
룡	-10.8485
인은	-10.8485
텐	-10.8485
▁어지러움	-10.8486
Ray	-10.8487
▁Ramp	-10.8487
▁많이	-10.8487
▁비디아이	-10.8487
▁Tank	-10.8487
▁고용노동부	-10.8487
▁덮침	-10.8487
▁분전반	-10.8487
▁산업재해조사표	-10.8487
▁스윙	-10.8487
▁워킹타워	-10.8487
▁작업지휘자	-10.8487
▁중환자실	-10.8487
▁찧으	-10.8487
▁천천히	-10.8487
▁카운터	-10.8487
▁펼치	-10.8487
책임자	-10.8487
▁전산볼트	-10.8487
▁부디쳐	-10.8487
▁불분명	-10.8487
▁사각지대	-10.8487
▁렌치	-10.8487
▁올린	-10.8487
▁오랜기간	-10.8487
▁처방	-10.8487
▁아침조회	-10.8487
▁꼬여	-10.8487
▁식별	-10.8488
▁어려워	-10.8488
▁pc	-10.8488
▁시야확보	-10.8488
▁갈고리	-10.8488
▁분출	-10.8488
▁면장갑	-10.8488
중족골	-10.8488
▁파일항타	-10.8488
ck	-10.8488
▁탈착	-10.8488
▁라이닝폼	-10.8488
▁강릉	-10.8488
▁직업	-10.8489
▁호송	-10.8489
▁드럼통	-10.8489
▁도움	-10.849
▁폐수처리	-10.849
▁관찰	-10.849
▁피하고자	-10.849
대비	-10.8491
▁철저	-10.8491
▁찍음	-10.8491
▁공구사용	-10.8492
▁풀림	-10.8492
▁꽂	-10.8492
▁물호스	-10.8493
▁이상없음	-10.8493
▁실린	-10.8493
▁제거중	-10.8494
▁골정상	-10.8494
▁보이지	-10.8494
번코어	-10.8495
▁방심	-10.8495
▁고덕	-10.8495
▁때림	-10.8499
▁올라간	-10.8501
▁연약	-10.8501
▁레미콘차량	-10.8501
▁연결통로	-10.8503
▁장비신호수	-10.8504
▁외상성	-10.8504
▁천공장비	-10.8504
▁찍어	-10.8505
▁해치	-10.8505
▁가로수	-10.8506
과정에	-10.8506
▁작업원	-10.8507
▁찾아와	-10.8508
ᄋᄋ씨	-10.8509
공급	-10.851
▁자르는	-10.851
버스	-10.8511
▁바이브레이터	-10.8511
1.7	-10.8511
▁왼쪽어깨	-10.8512
소장	-10.8516
▁진료결과	-10.8516
고혈압	-10.8516
(2021	-10.8517
▁강우	-10.8518
하수관	-10.8519
▁맞게	-10.852
▁둔부	-10.852
▁절단면	-10.8521
▁끼이며	-10.8521
▁움직이지	-10.8521
플러	-10.8521
▁귀가함	-10.8524
수칙	-10.8524
수도관	-10.8525
▁차징카	-10.8527
▁골조업체	-10.8528
▁전기선	-10.8533
▁급성	-10.8537
▁조성	-10.8539
▁잭	-10.8542
▁신규채용	-10.8543
▁운전미숙으로	-10.8545
▁재차	-10.8547
▁대화	-10.8551
▁골절재해	-10.8551
단차	-10.8557
▁브레이싱	-10.8559
▁검진결과	-10.8562
▁철골설치	-10.8562
▁현장에서는	-10.8582
▁상부작업자	-10.8585
▁용접기	-10.8586
▁ᄃ	-10.8589
▁통지	-10.859
▁이미	-10.8591
▁확	-10.8595
▁매트	-10.8596
▁발생되었음	-10.8604
출입	-10.8606
▁떠	-10.8607
측면	-10.8607
▁엄	-10.8608
▁0.8	-10.8612
▁출	-10.8613
▁와중	-10.8613
▁작업신호	-10.8613
▁하려다	-10.8616
지름	-10.8618
▁대기하던	-10.8621
▁발생하였다고	-10.8621
▁실시하고	-10.8622
레일	-10.8625
오다가	-10.8631
운반중	-10.8634
▁입고	-10.8634
▁2020.08.	-10.8634
▁PP	-10.8637
하나	-10.8639
▁세대에서	-10.8639
인지못하고	-10.864
▁끝에	-10.8642
▁풀기	-10.8646
▁띠장에	-10.865
▁디스크	-10.8652
▁버팀목	-10.8656
종합병원	-10.866
▁전기공	-10.866
▁행	-10.8661
인천	-10.8664
▁아래층	-10.8666
.2021	-10.867
▁문화	-10.8673
▁소방서	-10.8674
▁모터	-10.8674
▁절단하다	-10.8679
▁일과	-10.8687
▁허리부위	-10.8688
▁동료작업자와	-10.8696
여서	-10.8697
▁하역작업중	-10.8698
▁준	-10.8707
려다가	-10.8708
▁자르던	-10.871
▁정강이뼈	-10.8724
▁꺼내던	-10.8724
▁묶여	-10.8756
:25	-10.8756
▁시동	-10.8765
▁양중하던	-10.8766
해체작업	-10.8769
야하나	-10.877
▁포크를	-10.8782
하다고	-10.8786
(***	-10.879
공구현장	-10.8801
로인한	-10.8814
▁창틀에	-10.8827
설치작업중	-10.8829
▁남아	-10.883
▁네	-10.8838
기전	-10.8848
▁소견으로	-10.885
▁인지한	-10.8857
▁한장	-10.886
▁2020.04.	-10.8866
▁반대	-10.8871
▁부족하여	-10.8873
단순	-10.8887
당함	-10.8899
▁오른손등	-10.891
▁써포트에	-10.893
일명	-10.8933
※	-10.8935
▁도시	-10.8935
지면	-10.8939
였으나	-10.8954
▁다짐작업	-10.8957
▁도로에	-10.8957
9-1	-10.8963
▁사고조사	-10.8963
(13	-10.8965
관리자에게	-10.8971
미숙	-10.8975
▁묶여있	-10.8981
▁해체작업시	-10.8987
▁상차작업	-10.8995
le	-10.8996
사무실	-10.8997
▁둥근	-10.9002
▁마을	-10.901
▁이동한	-10.9015
일자	-10.9022
▁정형외과에	-10.9028
공간에서	-10.9036
독	-10.9038
반경	-10.9038
▁결속작업	-10.9039
오른	-10.904
▁'21.	-10.9046
▁장비작업	-10.9047
귀	-10.9048
총	-10.9048
아시바	-10.9048
윤	-10.905
몰탈	-10.9051
접합	-10.9051
갱폼	-10.9051
지게차	-10.9052
목요일	-10.9053
너트	-10.9055
반생	-10.9056
1.6	-10.9059
사고당일	-10.9059
요인	-10.9062
▁제작중	-10.9063
마감재	-10.9065
개인	-10.9066
피해자	-10.9067
▁완료한	-10.9069
2-1	-10.907
85	-10.9073
다짐	-10.9073
입음	-10.9074
2019.10.	-10.9075
▁상황으로	-10.9076
형틀공	-10.9076
부상자	-10.908
기준	-10.9081
증후군	-10.9093
외상	-10.9095
▁원청	-10.9099
혈관	-10.9101
▁손가락과	-10.9103
▁소단	-10.9104
고개	-10.9108
▁아산	-10.9108
63	-10.9113
▁하차중	-10.9124
300)	-10.9125
관리자	-10.9126
기사와	-10.9131
▁잡아주	-10.9135
▁떨어뜨	-10.9141
▁날씨	-10.9143
미숙으로	-10.9144
신축공사현장	-10.9154
▁힘에	-10.9161
작업도중	-10.9162
▁작업시작	-10.9168
어야	-10.9181
혈	-10.9199
▁터빈	-10.9213
▁원인으로	-10.9217
▁나오	-10.9218
▁미는	-10.9218
▁정상작업	-10.9219
▁와이어로프에	-10.922
2.6	-10.9231
▁올려주	-10.9236
▁포크에	-10.9243
▁필요하다	-10.9245
슴	-10.9245
▁방호	-10.9246
▁접근하여	-10.9248
트리	-10.9251
▁2020.02.	-10.9253
떨	-10.9255
▁발목골절	-10.9255
▁튕김	-10.9256
객	-10.9256
힐	-10.9256
▁PRD	-10.9256
▁plate	-10.9256
▁걸레받이	-10.9256
▁글라인더	-10.9256
▁노무사	-10.9256
▁도시형생활주택	-10.9256
▁뚫는	-10.9256
▁리어커	-10.9256
▁먹매김	-10.9256
▁발걸림	-10.9256
▁짊어지	-10.9256
▁찔리	-10.9256
▁호박돌	-10.9256
낸	-10.9256
웠	-10.9256
율	-10.9256
▁PBD	-10.9256
▁용수개거	-10.9256
▁미끌리	-10.9256
▁숙박시설	-10.9256
▁RCS	-10.9256
로울러	-10.9256
▁끝내고	-10.9256
▁발주청	-10.9256
▁수장공사	-10.9256
▁생겨	-10.9256
저류조	-10.9256
▁벽이음	-10.9256
▁한손에	-10.9256
▁크게	-10.9257
▁건설용리프트	-10.9257
Kg	-10.9257
▁기인물	-10.9257
▁문짝	-10.9257
▁미숙련	-10.9257
▁승강통로	-10.9258
▁전동톱	-10.9258
▁새벽	-10.9258
=1.8	-10.9258
▁방호시설	-10.9258
▁떨어뜨림	-10.9258
▁TTP	-10.9258
▁상단부에	-10.9259
▁SK	-10.9259
▁기초철근배근	-10.9259
▁철구조물	-10.9259
▁꽂아	-10.9259
▁잔토	-10.926
▁작동시켜	-10.926
as	-10.926
▁조적벽	-10.9261
▁부분파열	-10.9261
▁배출	-10.9262
▁가능성	-10.9263
단띠장	-10.9263
▁재료	-10.9263
▁좌안	-10.9264
▁변형	-10.9265
▁화재발생	-10.9265
▁접속	-10.9266
▁띠장이	-10.9267
▁물탱크실	-10.9267
▁지조립	-10.9268
▁로비	-10.9269
▁공구류	-10.9269
▁주변주차장	-10.9269
▁발끝	-10.927
▁작용	-10.927
▁동행	-10.9271
▁지반상태	-10.9271
분쯤	-10.9272
▁쇠파이프	-10.9273
▁병원방문	-10.9273
▁승강사다리	-10.9275
▁목포	-10.9275
▁다발성	-10.9275
▁밀차	-10.9276
▁관리적	-10.9276
적벽돌	-10.9276
▁대신	-10.9276
▁정위치	-10.9276
▁EV	-10.9279
▁감안	-10.9279
▁동반한	-10.928
=2.	-10.928
▁고양	-10.9281
▁근무하였으나	-10.9281
▁전환	-10.9281
▁발급	-10.9282
▁곧	-10.9282
▁가설울타리	-10.9282
나온	-10.9282
▁중장비	-10.9283
▁잡으려고	-10.9284
▁일산	-10.9288
▁합판절단	-10.9288
▁골절상해	-10.9288
▁빼지	-10.9288
▁심사	-10.9289
▁헛디디면서	-10.9291
▁산소절단기	-10.9292
▁가능한	-10.9293
▁도어	-10.9294
EA	-10.9295
▁토공사	-10.9296
▁왼손중지	-10.9297
▁우선	-10.9297
▁디디	-10.9297
▁주변정리	-10.9298
▁주유	-10.9299
▁기숙사	-10.9299
평동	-10.9299
▁조성사업	-10.9301
외곽	-10.9304
채움	-10.9305
▁강원	-10.9306
▁경비	-10.9307
▁배면부	-10.9309
▁설치시	-10.931
▁바닥슬라브	-10.9312
▁누르	-10.9313
▁슬개골	-10.9317
▁관로공	-10.9319
▁함석	-10.9322
▁신청함	-10.9322
▁사망사고	-10.9323
▁승용차	-10.9323
▁차수	-10.9324
▁각도	-10.9327
▁동료근로자와	-10.9328
▁압박골절	-10.9329
▁음성	-10.933
▁안성	-10.9331
▁전석	-10.9337
▁낙하되면서	-10.9338
)2.	-10.9341
▁일용	-10.9342
▁’2	-10.9343
▁상병	-10.9347
부지내	-10.9349
▁진단됨	-10.935
▁NO	-10.9352
▁수조	-10.9355
▁알폼핀	-10.9358
▁돌출부에	-10.9361
▁작업전선	-10.9364
▁수정을	-10.9365
▁상처부위	-10.9366
▁인지하게	-10.9369
▁신고함	-10.9371
▁미장공사	-10.9382
▁제어	-10.939
▁넘어졌	-10.9391
▁조립하기	-10.9392
▁잔여물	-10.9395
▁올라서다	-10.9398
▁현장내부	-10.9402
▁맞추	-10.9412
▁당진	-10.9416
할려고	-10.9418
▁이동하여야	-10.9419
▁부착되어	-10.9421
▁******	-10.9423
▁빠져나오	-10.9434
▁규격	-10.9438
▁중이었음	-10.9439
시작전	-10.9439
하였던	-10.9441
▁현장사무실로	-10.9441
(0.6	-10.9441
북면	-10.9451
▁손톱부분	-10.9453
▁다친사고	-10.9454
공영	-10.9455
시키려	-10.9458
▁보조공	-10.9458
▁이동하려	-10.9459
▁제거하지	-10.9461
▁이루어지	-10.9466
▁혈관	-10.9469
▁사고발생함	-10.947
▁실시함	-10.947
▁독	-10.9473
▁회사에	-10.9478
▁설비작업	-10.9483
▁이천	-10.9486
▁올라와	-10.9489
▁사고신고	-10.9492
▁소리가	-10.9495
들고	-10.9497
▁3.2	-10.9499
▁배관설치	-10.9513
▁형틀공이	-10.9525
▁집수정에	-10.9527
▁집에서	-10.9529
.○	-10.9536
▁진행하는	-10.9536
▁제거작업중	-10.9537
▁부위에서	-10.9545
▁시공사에서	-10.9548
재질	-10.9553
▁향	-10.9558
▁사고내용	-10.9558
작업장에서	-10.956
▁한쪽발	-10.9575
▁114	-10.9579
▁옥상층에서	-10.9583
▁무릎부위	-10.9588
으려	-10.9594
치면서	-10.9606
▁피로	-10.9611
▁페인트가	-10.9624
▁들어오	-10.9632
▁내려오는중	-10.9634
공단	-10.9657
▁관리자가	-10.9657
하는데	-10.9658
▁발생하였으며	-10.9663
▁제주	-10.9692
▁시간에	-10.9693
▁살수작업	-10.9698
▁안전작업	-10.9718
▁확인중	-10.9725
▁슬링벨트에	-10.9733
▁목자재	-10.9742
▁확인함	-10.9759
정리중	-10.9765
▁뒤집	-10.9767
▁낙하된	-10.977
▁타현장	-10.9779
하단	-10.9782
▁열려	-10.9792
▁p	-10.9793
▁체결작업	-10.9796
왔으며	-10.9797
의료	-10.9803
나간	-10.9817
끼	-10.9822
열에서	-10.984
밴딩	-10.9857
바에	-10.9868
리스	-10.9872
고르기	-10.9874
간격	-10.9876
휘	-10.9877
끈	-10.9878
덩어리	-10.9878
BOX	-10.9879
패널	-10.9881
생활	-10.9882
모터	-10.9882
사망자	-10.9883
걸려	-10.9884
중량물	-10.9884
고소작업대	-10.9884
손톱	-10.9885
최초	-10.9886
시스템비계	-10.9887
사고내용	-10.9887
새끼손가락	-10.9888
하니	-10.9891
머리	-10.9894
▁닫는	-10.9895
담당자	-10.9896
배수지	-10.9902
변경	-10.9905
▁체결되어	-10.9915
잡고	-10.9916
▁보고하여	-10.9927
-11	-10.9932
▁하역하던	-10.995
▁사인	-10.995
고정용	-10.9963
▁파편	-10.9972
▁e	-10.9974
▁박혀	-10.9976
기업	-10.9977
▁가까	-10.9977
▁조립하던	-10.9981
련	-10.9983
▁추진구	-10.9992
설치된	-10.9992
(300	-10.9994
▁정밀	-11.0001
`	-11.002
중이었으며	-11.0022
▁빼다	-11.0024
▁다리부분	-11.0038
4.5	-11.0039
▁밀던	-11.0046
▁막기	-11.005
▁늦어	-11.005
택	-11.0051
▁인입	-11.0052
▁현장사무실에	-11.006
까	-11.0061
▁견출공	-11.0061
▁나왔	-11.0068
▁느끼	-11.0069
▁내밀	-11.0071
람	-11.0072
▁끊어지	-11.0073
이탈	-11.0076
▁종점	-11.0083
꺽	-11.0084
▁작업구역	-11.0084
윈	-11.0086
쳤	-11.0087
▁건립	-11.0087
▁핸들	-11.0087
▁동반	-11.0088
▁버림	-11.0088
밸	-11.0088
▁스터드	-11.0088
사무소	-11.0089
▁미끄	-11.0089
겹	-11.0089
뛰	-11.0089
▁끌어	-11.0089
▁비산먼지	-11.0089
▁쇠지레	-11.0089
▁장비반입구	-11.0089
Span	-11.0089
▁Girder	-11.0089
▁Rack	-11.0089
▁가장자리	-11.0089
▁긁히	-11.0089
▁끌려	-11.0089
▁눕히	-11.0089
▁몰탈혼합기	-11.0089
▁바깥쪽	-11.0089
▁배풍기	-11.0089
▁벽돌쌓기	-11.0089
▁비스듬	-11.0089
▁빗자루	-11.0089
▁선홈통	-11.0089
▁어스앵커	-11.0089
▁엘레베이터	-11.0089
▁열수송관	-11.0089
▁올라갔다가	-11.0089
▁웅덩이	-11.0089
▁전석쌓기	-11.0089
▁죔줄	-11.0089
▁찢김	-11.0089
▁커튼	-11.0089
▁케노피	-11.0089
▁흔들어	-11.0089
되어있지	-11.0089
밥	-11.0089
빛	-11.0089
이중벽관	-11.0089
하겠습니다	-11.0089
▁과부하	-11.0089
▁랜탈	-11.0089
▁안전조회	-11.0089
▁인과관계	-11.0089
탄약고	-11.0089
테이프	-11.0089
▁면갈이	-11.0089
▁간이흙막이	-11.0089
▁익산	-11.0089
▁일방적	-11.0089
▁테라스	-11.0089
▁꺽여	-11.0089
▁깔아	-11.0089
▁습식	-11.0089
▁지중보	-11.0089
엠이씨	-11.0089
위지골	-11.0089
하우스	-11.0089
▁특성	-11.0089
▁접이식	-11.0089
▁불명확	-11.0089
▁왼쪽가슴	-11.009
▁정렬	-11.009
▁화물칸	-11.009
▁왼손가락	-11.009
▁정돈	-11.009
▁노동부	-11.009
▁않았음	-11.009
▁겹질림	-11.0091
▁우레탄폼	-11.0091
▁횡단	-11.0091
▁토사붕괴	-11.0091
▁낙동	-11.0091
▁강관틀비계	-11.0091
▁벽타일	-11.0091
▁옹이	-11.0091
▁다쳤음	-11.0091
▁직영인부	-11.0091
▁앵커볼트	-11.0091
▁않았으나	-11.0091
▁아직	-11.0092
▁아님	-11.0093
▁폼타이	-11.0093
▁묻	-11.0093
▁앞바퀴	-11.0094
▁기울어짐	-11.0094
▁밀리	-11.0094
▁주저앉음	-11.0094
▁디딤판	-11.0094
개발사업	-11.0094
▁넘어지게	-11.0095
▁크기	-11.0095
▁찍히	-11.0095
▁귀가조치	-11.0095
▁고관절	-11.0096
▁실신	-11.0096
▁안전커버	-11.0096
▁도출	-11.0097
▁작업동선	-11.0097
하였나	-11.0097
▁원청사	-11.0098
▁열린	-11.0098
▁급격	-11.0099
▁하루	-11.0099
▁안전덮개	-11.0099
▁설명	-11.0099
▁볼트체결	-11.0101
▁장선재	-11.0101
▁지그	-11.0101
▁주말	-11.0101
(22	-11.0101
▁고속	-11.0104
▁담아	-11.0104
▁유무	-11.0104
:55	-11.0105
▁타일자재	-11.0105
▁수립	-11.0106
▁퇴근하기	-11.0107
▁신속	-11.0107
원건설	-11.0108
▁PD	-11.0108
▁단관	-11.0108
▁성산	-11.0108
▁일체	-11.0109
▁마산	-11.0109
중수골	-11.011
▁집어	-11.0111
▁따르	-11.0112
범위	-11.0116
▁사석	-11.0117
▁전기배관	-11.0117
앞에서	-11.012
▁후송하였으나	-11.0121
▁미정리	-11.0121
▁일정	-11.0121
▁고여	-11.0124
부두	-11.0125
▁이송하였음	-11.0125
▁석재판	-11.0126
▁보온재	-11.0126
▁사망하였음	-11.0126
▁말단	-11.0126
▁불명	-11.0126
▁안방	-11.0126
▁양중하기	-11.0127
▁터널공	-11.0127
▁베어	-11.0127
▁밟은	-11.0128
▁밀바	-11.0129
▁오른쪽팔	-11.0129
▁검지사이	-11.0131
곡면	-11.0131
▁시흥	-11.0132
▁지붕판	-11.0132
▁담당의사	-11.0137
▁간섭되어	-11.0138
▁파지	-11.0141
on	-11.0143
▁노출된	-11.0144
▁접촉되면서	-11.0145
▁기초거푸집	-11.0145
▁실시하였으나	-11.0147
▁터지	-11.015
▁이때	-11.0151
▁강당동	-11.0152
▁ᆞ	-11.0155
▁단면	-11.0162
▁판단하고	-11.0162
▁장화	-11.0164
----------------	-11.0164
CC	-11.0168
▁수도	-11.0175
▁10:40	-11.0175
▁표시	-11.0184
▁상수관로	-11.0184
▁던지	-11.0184
▁박히	-11.0188
▁가져	-11.0189
▁보조작업자	-11.0189
▁늑골골절	-11.0192
▁퇴근함	-11.0193
▁서구	-11.0195
▁박다가	-11.0196
분경어디서	-11.0199
▁낙하사고	-11.0209
▁치는	-11.021
▁신고하고	-11.0212
▁김포	-11.0218
끼리	-11.022
▁제작장에서	-11.0224
2-2	-11.0226
▁보여	-11.0228
고소	-11.0229
자리	-11.0232
보건설	-11.0236
▁그러	-11.0238
▁공사현장내	-11.024
▁지면과	-11.0245
▁거치된	-11.0248
▁문주	-11.025
▁이하	-11.0255
▁일시적	-11.0256
▁철근절단	-11.0258
▁해야하나	-11.0271
▁심한	-11.0287
=1	-11.0297
▁가구	-11.0306
신도	-11.0309
▁탑승한	-11.0314
드는	-11.0321
▁건설자재	-11.0328
▁지적	-11.0352
▁인계	-11.036
발생장소	-11.036
았다고	-11.0361
작업용	-11.0372
▁이내	-11.0372
작업자와	-11.0385
▁절단하고	-11.0385
▁0.5	-11.0397
▁옥상바닥	-11.0401
▁준비하던	-11.0414
▁(1	-11.0428
해둔	-11.0429
▁멈추기	-11.0441
▁확인하는	-11.045
▁근거	-11.0453
▁설치하였으나	-11.0462
▁관로공사	-11.0467
▁철근다발을	-11.0477
▁옮기려	-11.0479
▁치우던	-11.0489
시키는	-11.049
▁한마디	-11.0492
▁단계	-11.0493
▁지원	-11.0496
막이	-11.0504
▁나오다	-11.051
▁안과	-11.0525
▁넘어지려	-11.0538
▁적재되어있	-11.0542
(2020	-11.0543
제일병원	-11.0546
처리장	-11.0551
나오면서	-11.0551
▁분리하기	-11.0571
매설	-11.0602
▁먹메김	-11.0612
200)	-11.0612
▁설치해	-11.0615
▁제거하려	-11.0624
EN	-11.0632
9.11.	-11.0642
중국	-11.0644
중이며	-11.0645
진건설	-11.0646
▁파일공사	-11.0662
▁건너다	-11.0681
5.5	-11.0694
구역에서	-11.0695
▁501	-11.0704
an	-11.0739
저장	-11.0747
확	-11.0748
벽돌	-11.0759
3.6	-11.0773
웅	-11.0783
규격	-11.0788
벌	-11.0789
심근경색	-11.0789
디뎌	-11.079
디스크	-11.079
케이지	-11.0791
알폼	-11.0791
브라켓	-11.0792
미세골절	-11.0792
밖	-11.0792
몸	-11.0793
버팀대	-11.0793
호이스트	-11.0793
옆구리	-11.0793
정리정돈	-11.0793
롤러	-11.0796
연골	-11.0799
수요일	-11.0799
전문	-11.0801
근육	-11.0803
▁램프에서	-11.0806
틀비계	-11.0807
에의해	-11.0809
식당	-11.0813
전달	-11.0815
▁빼던	-11.0819
옥상	-11.0824
BT	-11.0828
~6	-11.0829
▁입었다	-11.0835
행위	-11.085
추락방지용	-11.0851
열상	-11.0856
▁판넬자재	-11.0862
토목	-11.0863
▁튕겨나	-11.0864
광주	-11.0882
철근공	-11.0883
다음	-11.0888
▁거푸집자재	-11.0893
업체인	-11.0895
▁철골빔	-11.0898
석재	-11.0905
▁고소작업시	-11.0912
▁후미에	-11.0915
▁운전미숙	-11.0927
망치로	-11.0929
어지면서	-11.0938
▁늘어	-11.0939
곽	-11.0941
▁실외기	-11.0944
▁밀림	-11.0947
솔	-11.0947
▁벤딩	-11.0958
▁철골공사	-11.0967
어지는	-11.0968
▁탑	-11.0978
▁현장근로자	-11.0993
▁흘러	-11.0994
uct	-11.0995
킹	-11.0996
둘	-11.0996
럼	-11.0996
릉	-11.0996
▁세종	-11.0997
뎌	-11.0997
▁생명	-11.0997
얼	-11.0998
징	-11.0998
▁근로복지	-11.0998
훈	-11.0998
틸	-11.0998
엇	-11.0998
왕	-11.0998
겼	-11.0998
▁불규칙	-11.0998
▁불균형	-11.0998
▁빨리	-11.0998
▁산업재해보상보험	-11.0998
드라이버	-11.0998
릭	-11.0998
▁끊어치기	-11.0998
▁냉각수	-11.0998
▁다목적강당	-11.0998
▁딸려	-11.0998
▁멈춤	-11.0998
▁미끌어지면	-11.0998
▁바브켓	-11.0998
▁스프레이	-11.0998
▁조적쌓기	-11.0998
▁탱크	-11.0998
▁현기증	-11.0998
▁휀룸	-11.0998
▁흉추	-11.0998
쌍줄비계	-11.0998
Pile	-11.0998
▁계단식옹벽	-11.0998
▁덩굴	-11.0998
▁고성하이화력	-11.0998
▁안정가료	-11.0998
▁지수판	-11.0998
▁하청업체	-11.0998
▁구덩이	-11.0998
▁징크	-11.0998
Sta	-11.0998
▁크램프	-11.0998
▁2019.11.1	-11.0998
▁충청	-11.0998
▁안전장구	-11.0998
▁끄고	-11.0999
▁띠철근	-11.0999
▁미이행	-11.0999
▁탄성	-11.0999
▁바라보	-11.0999
▁뒤틀리	-11.0999
▁분진망	-11.0999
▁다쳤습니다	-11.0999
▁터져	-11.0999
▁분쇄골절	-11.0999
▁경미하다	-11.0999
본인주장	-11.0999
▁제이드	-11.0999
▁활용	-11.0999
▁근골격계질환	-11.0999
▁수로암거	-11.0999
▁올라오는	-11.1
▁흘러내려	-11.1
▁관부설	-11.1
▁면보수	-11.1
▁결합	-11.1001
▁마찰	-11.1001
▁자재반입구	-11.1001
▁레버블럭	-11.1001
▁평촌	-11.1001
▁토출	-11.1002
▁요양승인	-11.1002
▁단독주택	-11.1002
▁적절	-11.1002
▁에어건	-11.1002
▁자키	-11.1002
▁순천	-11.1003
▁암반	-11.1004
▁엄지말뚝	-11.1004
▁벗어	-11.1004
▁파편에	-11.1005
▁미작동	-11.1005
▁사보강재	-11.1005
▁개구부덮개	-11.1006
▁높이조절	-11.1006
▁내려와야	-11.1006
▁기계톱	-11.1006
▁안전점검	-11.1007
▁타카	-11.1007
▁송파	-11.1008
▁유격	-11.1008
▁덤프차량	-11.1008
▁미결속	-11.1008
▁구두	-11.1009
▁주관절	-11.1009
▁두손	-11.1009
▁깨진	-11.1009
▁부품	-11.1012
▁넘어질	-11.1012
▁확보되지	-11.1013
▁비골	-11.1014
▁기름	-11.1015
▁불러	-11.1015
▁장비점검	-11.1016
▁구체	-11.1016
▁비계자재	-11.1017
▁로드	-11.1017
▁이송하였습니다	-11.1019
▁근무하였으며	-11.1021
▁발견됨	-11.1021
▁못질	-11.1021
▁마음	-11.1022
▁내려온	-11.1023
▁방음	-11.1025
▁고려대	-11.1026
▁자재하차	-11.1027
▁가압	-11.103
▁공기압축기	-11.103
▁주거	-11.1031
▁좌측무릎	-11.1031
▁왼손약지	-11.1032
▁당하였습니다	-11.1032
▁치수	-11.1033
▁무관	-11.1035
▁무전기	-11.1038
개요	-11.1039
▁4~5	-11.1039
▁줄자	-11.1041
요일	-11.1042
▁공상	-11.1044
연합	-11.1044
▁운전수	-11.1047
ct	-11.1047
▁현장점검	-11.1047
▁구내	-11.1048
▁상치	-11.1048
▁착지하면서	-11.105
▁한다고	-11.105
골절상을	-11.1051
▁인함	-11.1051
▁완료되지	-11.1052
▁내부벽체	-11.1054
▁신천	-11.1055
il	-11.1062
▁작동중	-11.1063
▁같	-11.1063
▁당하였음	-11.1064
▁철근인양	-11.1064
▁벌리	-11.1067
▁혹	-11.1071
▁코로나	-11.1071
▁이음부	-11.1072
OOO	-11.1074
적요인	-11.1076
▁보양재	-11.1076
▁모르	-11.1077
▁오르다가	-11.1081
▁골절되어	-11.1082
▁부산물	-11.1083
▁Plate	-11.1092
▁pit	-11.1092
스터	-11.1092
0.15	-11.1092
FC	-11.1093
▁후송함	-11.1097
씨에게	-11.1098
▁자기	-11.1099
▁설치되어있는	-11.11
▁진입하던	-11.1102
▁보강재	-11.1104
▁가해자	-11.1109
▁패	-11.1109
▁슈	-11.1109
▁하였지만	-11.1113
▁내려와서	-11.1113
▁비산물	-11.1115
▁요동	-11.1116
▁지나가	-11.1121
▁전기공사	-11.1122
▁사고일시	-11.1125
▁해지	-11.113
.※	-11.113
▁작업팀장	-11.1133
▁물통	-11.1135
남도	-11.1136
▁***(**	-11.1138
▁조도	-11.1141
0.6	-11.1142
▁안전교육장	-11.1144
생수	-11.115
▁노상	-11.1151
▁정비공사	-11.1156
▁할석작업	-11.1158
▁용역공	-11.1163
▁떨어뜨리	-11.1164
항타	-11.1167
▁간단	-11.1172
CO	-11.1175
▁했으며	-11.1178
▁한전	-11.1178
▁농로	-11.1179
▁대림	-11.1181
▁측정	-11.1189
▁아산병원	-11.1194
▁가설자재	-11.1198
▁1-2	-11.1204
▁나서	-11.1206
▁방수공사	-11.1211
▁강판	-11.1212
▁오른손목	-11.1215
▁조작하여	-11.1219
번호	-11.1221
금강	-11.1222
▁정리하던중	-11.1224
▁작업대차	-11.1237
▁입선작업	-11.1244
▁하니	-11.1253
▁4.5	-11.1254
▁신청서	-11.1264
▁통보하여	-11.1269
▁빼내던	-11.127
▁1.9	-11.1272
▁가격당	-11.1275
▁준비작업중	-11.1281
▁공중	-11.1286
두부	-11.1301
▁손목골절	-11.1302
▁틈사이	-11.1308
Cm	-11.1325
▁포설작업	-11.1335
▁요추의	-11.1343
600*1200)	-11.1348
▁56	-11.1356
그린	-11.1359
▁좌우	-11.1384
=3.	-11.1398
환경적	-11.1402
▁방수공	-11.141
▁잡으	-11.1412
▁차선	-11.1415
▁경사구간	-11.1416
타공	-11.1417
평리	-11.1418
▁되었다고	-11.1429
▁함마	-11.1442
믹서기	-11.1444
끼고	-11.1457
▁N	-11.1459
▁가공기	-11.1459
▁근육통	-11.1476
▁간섭이	-11.1515
함으로써	-11.1515
▁내부계단	-11.1523
장씩	-11.1549
▁얼굴부위	-11.1573
▁이수	-11.1574
▁2021.08.	-11.1625
▁무릎뼈	-11.1629
▁야간	-11.1639
▁거주	-11.1642
▁터파기구간	-11.1663
▁콘크리트면	-11.1676
▁시공작업	-11.1682
남구	-11.1682
▁쏟아지	-11.1685
철도	-11.1689
~4	-11.17
▁터널내	-11.1704
실수로	-11.1705
▁놓지	-11.1712
강재	-11.1724
서울	-11.1727
르며	-11.1734
순서	-11.1747
▁풍	-11.1748
소홀	-11.1765
신축	-11.1768
.0+	-11.1769
▁친	-11.1769
자세	-11.1772
▁401	-11.1783
같	-11.1784
감독	-11.1787
결정통지	-11.1788
잠	-11.1788
뿜칠	-11.179
뒷	-11.179
성모병원	-11.179
먹	-11.1791
패드	-11.1791
▁최상부	-11.1791
PVC	-11.1792
케이블	-11.1792
▁증상	-11.1793
덤프	-11.1793
단열재	-11.1793
해야하나	-11.1793
토요일	-11.1795
협력사	-11.1796
휴식	-11.18
밴딩기	-11.18
협소	-11.1801
안전발판	-11.1802
▁지붕위	-11.1804
경사면	-11.1806
▁공회전	-11.1807
조절	-11.1818
철재	-11.1819
앉으면서	-11.1833
당사	-11.1833
안전대	-11.1837
▁연결되어	-11.1844
식재	-11.1848
오던중	-11.1849
판정	-11.185
철수	-11.185
▁장약	-11.1855
문화	-11.1858
▁다목적	-11.1869
▁건물내	-11.1877
일요일	-11.188
호안	-11.1883
깊	-11.1884
▁304	-11.1887
---------------	-11.1908
▁조정작업	-11.1908
후크	-11.1918
림건설	-11.1918
▁않기	-11.1938
▁찢어지	-11.1943
▁근로자간	-11.1945
사각	-11.1945
소리	-11.1948
▁우회	-11.1956
▁오는	-11.1957
.1+	-11.1967
▁현장조사	-11.1968
▁전파	-11.1971
▁실시하여야	-11.1974
▁계단부	-11.1975
▁팀원	-11.1978
▁받치	-11.1978
▁헛딪	-11.198
깔	-11.1983
▁버티	-11.1984
섬유	-11.1986
▁압박	-11.1986
▁둘째	-11.1991
▁첫째	-11.1994
▁젖어있	-11.1994
엘	-11.1994
흘	-11.1997
덤	-11.1997
갱	-11.1997
욕	-11.1998
싱	-11.1998
&	-11.1998
지역주택조합	-11.1998
GATE	-11.1998
Z	-11.1998
▁GIRDER	-11.1998
▁pvc	-11.1998
▁갔다	-11.1998
▁걷다	-11.1998
▁넣던	-11.1998
▁다락방	-11.1998
▁대아이앤씨	-11.1998
▁도르래	-11.1998
▁도르레	-11.1998
▁떨어트려	-11.1998
▁뚫고	-11.1998
▁뜨거운	-11.1998
▁마그네틱	-11.1998
▁먼지	-11.1998
▁받았음	-11.1998
▁블록쌓기	-11.1998
▁빨려들어가	-11.1998
▁스프링	-11.1998
▁엠베드	-11.1998
▁있고	-11.1998
▁제연덕트	-11.1998
▁좁아	-11.1998
▁지반침하	-11.1998
▁짧은	-11.1998
▁판매시설	-11.1998
▁팔레트	-11.1998
▁하반신	-11.1998
▁합성버팀보	-11.1998
▁핸드글라인더	-11.1998
▁횡돌기	-11.1998
▁흐트러	-11.1998
껴	-11.1998
덧	-11.1998
륜	-11.1998
릿	-11.1998
쿵	-11.1998
▁스트럽	-11.1998
큐	-11.1998
휘발유	-11.1998
▁물양장	-11.1998
▁투척	-11.1998
▁중현테크	-11.1998
▁통증호소	-11.1998
▁복사뼈	-11.1998
▁소나기	-11.1998
▁발주처	-11.1998
▁웨이트	-11.1998
화강석	-11.1998
▁너무	-11.1998
▁부디치	-11.1998
▁찰나	-11.1998
▁잭베이스	-11.1998
▁처짐	-11.1999
추간판탈출증	-11.1999
sta	-11.1999
▁유압잭	-11.1999
▁부대토목	-11.1999
▁구급대원	-11.1999
▁햄머드릴	-11.1999
▁선큰	-11.1999
▁존재	-11.1999
▁con	-11.1999
▁방호덮개	-11.1999
▁일으키	-11.1999
▁최상층	-11.1999
▁순찰	-11.1999
▁에어리스	-11.1999
▁마대자루	-11.1999
▁인적사항	-11.1999
▁도색작업	-11.1999
owe	-11.1999
센티	-11.1999
▁공상처리	-11.1999
물류센터	-11.1999
▁원주시	-11.2
▁한의원	-11.2
▁Pit	-11.2
▁Deck	-11.2
▁완충	-11.2
▁관로부설	-11.2
▁버림콘크리트	-11.2
▁족장	-11.2
▁임시야적장	-11.2
▁뒷편	-11.2001
사고당사자	-11.2001
▁행거	-11.2001
▁분류	-11.2001
▁접질름	-11.2001
▁편심	-11.2001
▁생산	-11.2001
▁적합	-11.2002
▁막혀	-11.2002
▁일주일	-11.2002
▁가벼	-11.2002
▁자연석	-11.2002
▁초과	-11.2002
▁함몰	-11.2002
▁폐목	-11.2002
▁젖어	-11.2002
▁차량적재함	-11.2003
▁가스배관	-11.2003
▁소요	-11.2003
▁마루판	-11.2003
▁자동바	-11.2003
▁비포장	-11.2004
▁합벽폼	-11.2004
▁첫째마디	-11.2004
▁무모	-11.2004
▁지보공	-11.2004
▁도로변	-11.2005
▁고체연료통	-11.2005
▁참석	-11.2005
▁최상단	-11.2005
▁모양	-11.2006
▁통신선	-11.2006
▁레미콘타설	-11.2006
▁2021.06.	-11.2006
▁일으	-11.2006
했어야	-11.2006
일반산업단지	-11.2007
▁구조체	-11.2007
▁잠수사	-11.2007
▁상황입니다	-11.2008
▁있었던	-11.2008
▁거터	-11.2008
▁대응하였으나	-11.2009
▁변화	-11.2009
▁건설공구	-11.201
▁ALC	-11.2011
▁노후화	-11.2011
▁5~6	-11.2011
▁작업개시	-11.2011
▁결선	-11.2012
▁데크슬라브	-11.2012
▁과거	-11.2012
▁앉았다	-11.2013
▁소각	-11.2013
▁2.8	-11.2014
폐쇄	-11.2015
▁화물차량	-11.2015
▁강봉	-11.2016
▁임시고정	-11.2016
▁07:30	-11.2017
▁진위	-11.2018
▁열다가	-11.2019
▁돕기	-11.2021
▁무안	-11.2021
▁무릎통증	-11.2022
▁복구	-11.2022
▁거제	-11.2023
▁느끼고	-11.2023
▁실어	-11.2025
▁움직이며	-11.2025
▁이슬	-11.2025
▁위험물	-11.2025
▁연결볼트	-11.2025
▁수청	-11.2025
▁기본	-11.2026
▁지주목	-11.2027
▁미추	-11.2027
▁커터기	-11.2027
▁오창	-11.2028
▁진술함	-11.2028
▁손가락끼임	-11.2029
7-3	-11.2029
▁하남	-11.203
아킬레스건	-11.203
▁온수	-11.2031
▁이동시키는	-11.2031
▁광차	-11.2031
▁물려	-11.2032
▁기시공	-11.2032
슬링	-11.2033
▁상세불명	-11.2033
▁맹	-11.2033
▁좌측발목	-11.2035
▁배선	-11.2036
바가지	-11.2037
▁온도	-11.2038
▁연구	-11.2038
▁돌려	-11.2039
▁가용접	-11.2039
▁기계식	-11.204
▁전원선	-11.2044
▁행정	-11.2045
▁선임	-11.2046
▁강제	-11.2049
▁수정작업을	-11.2052
▁목수반장	-11.2056
▁스티로폼	-11.2056
▁현수막	-11.2056
▁스리브	-11.2056
▁실외기실	-11.2058
▁안전장비	-11.206
▁필요함	-11.2063
▁가격하였음	-11.2063
▁고정장치	-11.2063
▁추락위험	-11.2066
▁알지	-11.2069
▁접촉됨	-11.2069
▁당기던중	-11.2071
▁진행하였고	-11.2074
▁EGI	-11.2079
▁CSI	-11.2079
▁PIPE	-11.2079
▁드레인	-11.2079
▁느슨해	-11.2079
▁넘어오다	-11.2079
▁공용	-11.208
▁36	-11.2082
▁파고	-11.2084
▁톱다이	-11.2087
mp	-11.2088
▁속대	-11.2089
▁의심되	-11.2101
▁콘테이너	-11.2102
▁Cable	-11.2103
▁올려주던	-11.2103
▁착용중이	-11.2104
▁진입하는	-11.2104
▁사용하다가	-11.2104
▁운반차량	-11.2108
▁대상	-11.2108
▁HD	-11.2111
▁내화	-11.2116
▁하차작업	-11.2117
철근배근	-11.2119
▁투바이	-11.2125
▁고속도로	-11.2127
▁주장하고	-11.2128
▁적치되어	-11.2128
층세대	-11.2129
로써	-11.2132
직접원인	-11.2136
▁화기	-11.2143
▁가까이	-11.2143
▁샌드위치	-11.2146
화재	-11.2154
▁4,5	-11.2155
▁자루	-11.2155
▁두개	-11.2156
▁양주	-11.2162
▁펌프실	-11.2166
▁잘못되어	-11.2167
체조	-11.2173
현관문	-11.2174
수급	-11.2175
ER	-11.2176
▁준비하는	-11.218
▁실리	-11.2183
▁2019.10.1	-11.2185
▁부상사고	-11.2186
레스	-11.2191
▁고용	-11.2191
▁낙석이	-11.2193
▁후속작업	-11.2198
▁UT	-11.2201
▁이송되어	-11.2201
▁체결하던	-11.2201
▁부설작업	-11.2202
▁목부위	-11.2203
▁성명	-11.2205
▁바닥판	-11.2208
▁철근팀	-11.2214
▁치우다	-11.2214
▁원청에	-11.2215
▁보아	-11.2217
▁밀어내	-11.2232
▁보고하고	-11.2233
RC	-11.2235
▁주행중	-11.2235
▁웅	-11.2242
▁김천	-11.2249
▁손톱부위	-11.2252
▁퇴근후	-11.2257
▁한번	-11.2263
▁고르기	-11.2265
▁절단사고	-11.2266
(1.0	-11.2275
▁진행하다가	-11.2284
▁설치할	-11.2288
▁'21	-11.2293
▁이동하는중	-11.2302
▁바지에	-11.2303
▁될	-11.2312
▁신고후	-11.2313
▁사항으로	-11.2314
▁충돌되어	-11.2331
▁해체구간에서	-11.2332
▁확인해	-11.2343
취부	-11.2356
▁내관	-11.2357
150)	-11.2359
▁야간작업	-11.2373
▁타격되어	-11.2374
▁503	-11.2375
▁당하는	-11.2383
▁배수지	-11.2394
▁준설	-11.2403
▁건설사고	-11.2416
사관	-11.2434
광장	-11.2436
▁머	-11.2444
nd	-11.2446
예정입니다	-11.2447
앉아	-11.2453
깨기	-11.246
▁403	-11.2463
걸음	-11.2463
용기	-11.2464
▁설비공	-11.247
▁자르	-11.2476
▁데크자재	-11.2481
▁알폼해체	-11.2499
▁중앙계단	-11.2505
연결부	-11.2508
(400	-11.2516
구조대	-11.2526
선반	-11.2536
▁보드	-11.2537
▁움직임에	-11.2538
평탄화	-11.2542
▁몸쪽	-11.2555
▁신호불량	-11.2564
환경	-11.2564
고온	-11.2574
▁하차하던	-11.2579
▁고정작업중	-11.2587
이었으나	-11.2592
▁2019.12.2	-11.2595
▁신축공사장	-11.2596
▁쓰러	-11.2602
▁자재사이에	-11.2603
성군	-11.2616
▁인양함	-11.2621
▁상기현장	-11.2622
양생용	-11.2633
▁철근조립작업	-11.2646
▁세우던	-11.2653
▁코너부	-11.2687
nt	-11.2692
▁합벽구간	-11.2702
▁전달하던	-11.2708
▁2020.10.1	-11.2714
문틀	-11.2746
수관로	-11.2778
공업	-11.2778
1.9	-11.2804
▁컷팅작업	-11.281
▁임대	-11.2823
▁항타작업	-11.284
강판	-11.284
in	-11.2841
수사	-11.2841
~7	-11.2842
▁짚었	-11.2849
되나	-11.2851
▁사전작업	-11.2861
▁비계계단	-11.2864
엄	-11.2883
천공기	-11.2884
담당	-11.2888
▁철근반장	-11.2888
새	-11.2889
▁이로인	-11.2895
~8	-11.2896
승강로	-11.2898
브레싱	-11.2898
칸막이	-11.29
알	-11.29
닫	-11.2901
띠장	-11.2901
J	-11.2901
프레임	-11.2902
필요	-11.2902
근골격계	-11.2902
관리감독자	-11.2902
파렛트	-11.2903
코킹	-11.2904
화물차	-11.2904
했으며	-11.2904
복공판	-11.2904
종아리	-11.2904
슈트	-11.2904
엘리베이터	-11.2904
발코니	-11.2904
레버	-11.2906
안전교육	-11.2907
물질	-11.2908
돌출	-11.2908
화요일	-11.291
안전고리	-11.291
PP	-11.2921
소방서	-11.2922
사고당시	-11.2923
포설	-11.2924
소방	-11.2925
전선관	-11.2925
적재함	-11.2925
▁열리	-11.2926
5-1	-11.2929
측정	-11.293
▁회전하던	-11.2933
보행	-11.2934
판넬설치	-11.2941
작업반장	-11.2955
연장	-11.2975
▁'19	-11.299
상판	-11.3006
▁왼손등	-11.3012
성병원	-11.3026
▁굴착작업	-11.3031
4-2	-11.3033
▁강남	-11.3045
▁있는것	-11.3057
▁목재가공	-11.3061
▁등부위	-11.3067
늘	-11.3089
▁물탱크	-11.3093
둥	-11.3093
▁멍애	-11.3094
▁기다리	-11.3096
▁미끄러지면	-11.3099
▁우각	-11.3101
짜	-11.3102
센	-11.3103
▁2019.09.	-11.3105
옹	-11.3106
좋	-11.3106
짝	-11.3108
촉	-11.3108
▁있었다	-11.3109
럽	-11.3109
▁십자	-11.3109
▁2020.01.	-11.3109
폴	-11.3109
득	-11.3109
궁	-11.3109
%	-11.3109
lock	-11.3109
▁Line	-11.3109
▁MDF	-11.3109
▁쇠지랫대	-11.3109
▁컨트롤	-11.3109
▁테두리	-11.3109
▁하이드로	-11.3109
곤	-11.3109
셀	-11.3109
▁2019.07.0	-11.3109
▁Drum	-11.3109
▁개설공사	-11.3109
▁긁혀	-11.3109
▁눈꺼풀	-11.3109
▁대수롭	-11.3109
▁멈춘	-11.3109
▁반깁스	-11.3109
▁방향전환	-11.3109
▁빠르	-11.3109
▁세륜장	-11.3109
▁쌓던	-11.3109
▁쐐기목	-11.3109
▁쓸리	-11.3109
▁어긋나	-11.3109
▁어지럼증	-11.3109
▁용마루	-11.3109
▁위험물저장소	-11.3109
▁일용노무자	-11.3109
▁전선거치대	-11.3109
▁절토부	-11.3109
▁찌름	-11.3109
▁콤프레셔	-11.3109
▁크랙	-11.3109
▁튕긴	-11.3109
▁프레타이	-11.3109
▁플륨관	-11.3109
▁헛딧어	-11.3109
▁홈메우기	-11.3109
▁휴게시간	-11.3109
▁흡입	-11.3109
內	-11.3109
녹생토	-11.3109
하므로	-11.3109
▁관급자재	-11.3109
▁근고블록	-11.3109
▁변압기	-11.3109
▁지키지	-11.3109
pile	-11.311
▁유한기술	-11.311
▁조형물	-11.311
▁크롤러	-11.311
▁고사목	-11.311
▁조수석	-11.311
▁지표면	-11.311
▁넘어뜨리	-11.311
▁수영장	-11.311
▁희망	-11.311
▁검측	-11.311
▁병원내원	-11.311
▁믹스트럭	-11.311
▁가설수도	-11.311
▁공조실	-11.311
▁올바	-11.311
▁쥐고	-11.311
▁부딪치고	-11.311
쟈키	-11.311
▁다녀	-11.311
▁예초기	-11.311
▁좋지	-11.311
서원토건	-11.311
▁피스브라켓	-11.311
유치원	-11.311
▁의뢰	-11.311
만들기	-11.311
▁깔고	-11.311
▁톤백마대	-11.311
▁고압전선	-11.311
▁운영	-11.311
eck	-11.311
▁CPR	-11.311
아파트건설공사	-11.311
▁보조기층	-11.311
▁병사	-11.3111
▁족부	-11.3111
▁보조붐대	-11.3111
▁포천	-11.3111
▁운동장	-11.3111
▁공기압	-11.3111
▁보호커버	-11.3111
이엔지	-11.3111
▁보도블록	-11.3111
▁샌드위치판넬	-11.3112
▁영향	-11.3112
▁굴착사면	-11.3112
▁오늘	-11.3112
방지장갑	-11.3112
▁방음판	-11.3113
▁너울성	-11.3113
▁면담	-11.3113
▁벌어져	-11.3113
▁호출	-11.3113
▁미그러	-11.3113
▁삼척	-11.3113
▁나옴	-11.3113
▁슬라	-11.3113
▁같아	-11.3114
엘보	-11.3114
▁언급	-11.3114
▁하향	-11.3114
▁건강상태	-11.3114
▁피난	-11.3114
▁뒤집히	-11.3115
▁타이볼트	-11.3115
▁확정	-11.3115
▁달려	-11.3115
▁배수설비	-11.3115
▁밀크	-11.3116
▁산재요청	-11.3116
▁끝난	-11.3116
▁올라온	-11.3117
▁수평부재	-11.3117
▁소변	-11.3117
▁기둥밴드	-11.3117
텍스	-11.3117
▁아닌곳	-11.3117
▁인지부족	-11.3117
▁감리단	-11.3118
▁Ch	-11.3118
▁가설작업대	-11.3118
▁요통	-11.3118
건업	-11.3119
▁데크철판	-11.312
▁공터	-11.312
▁넘어감	-11.3121
▁항타장비	-11.3121
▁멍애재	-11.3121
▁스카이장비	-11.3122
▁우수배관	-11.3122
▁처지면서	-11.3122
▁조적벽체	-11.3123
▁추락방지대	-11.3123
▁BN	-11.3123
▁당황	-11.3124
▁핸드카트	-11.3124
▁만나	-11.3124
▁대표	-11.3125
▁접안	-11.3125
▁양측	-11.3125
▁종사	-11.3126
▁조종원	-11.3126
▁승차	-11.3127
▁SP	-11.3127
▁교실	-11.3127
▁연석	-11.3127
▁자동차	-11.3127
▁지보	-11.3127
▁걸쳐져	-11.3127
▁2.7	-11.3128
▁경험	-11.3128
▁복원	-11.3128
▁렌탈장비	-11.3128
네오	-11.3128
▁실제	-11.3128
▁조종사	-11.3129
▁장비조작	-11.3129
▁정착	-11.3129
▁그러지	-11.313
▁CD	-11.313
▁철재거푸집	-11.3131
▁통로박스	-11.3132
▁뒷면	-11.3132
▁가져오	-11.3133
▁연결철물	-11.3133
▁앞니	-11.3134
▁석재시공	-11.3134
▁입력	-11.3135
▁상해발생	-11.3135
▁백호장비	-11.3135
▁지시하였으나	-11.3136
▁16:20	-11.3136
▁우각부	-11.3136
▁않은채	-11.3136
▁잘라	-11.3136
▁DA	-11.3138
▁정읍	-11.3138
▁접히며	-11.3139
▁남양주	-11.3139
▁넘어졌고	-11.3139
Ton	-11.3139
▁상태입니다	-11.314
▁고정미흡	-11.314
▁전기판넬	-11.3141
▁떨어지지	-11.3142
▁피하던	-11.3142
▁강관배관	-11.3143
연휴	-11.3143
▁무릎인대	-11.3144
▁기다리는	-11.3146
▁근거하여	-11.3147
▁금전	-11.3147
▁점화	-11.3147
▁올라오다	-11.3148
▁보수공사	-11.3148
▁양산	-11.3148
▁Gate	-11.3149
▁사타구니	-11.3149
▁플랫폼	-11.3149
▁현장직원	-11.3149
▁보호공	-11.315
▁운전사	-11.315
▁걸고리	-11.3152
▁감아	-11.3152
▁행인	-11.3153
번손가락	-11.3153
천군	-11.3153
▁주변상황	-11.3156
▁탈락하며	-11.3157
차례	-11.3158
▁비치	-11.316
▁회전력	-11.3161
▁공공	-11.3162
▁부석정리	-11.3162
▁소단부	-11.3164
족지	-11.3164
▁천정판넬	-11.3164
▁반도	-11.3165
▁11:20	-11.3169
▁요동치	-11.317
▁불상	-11.3172
▁올리고	-11.3174
▁쌍	-11.3174
▁배전반	-11.3174
하거나	-11.3175
▁내려가면서	-11.3176
▁BP	-11.3177
▁오산	-11.3177
▁외관	-11.3179
▁용단	-11.3183
▁등록	-11.3184
▁11:10	-11.3186
▁전류	-11.3187
▁석자재	-11.3189
▁발견되어	-11.3193
▁점검차	-11.3196
▁도장공사	-11.3197
▁여러개	-11.3199
▁산승각	-11.32
▁배근작업	-11.3203
▁운전하는	-11.3204
사망진단서	-11.3204
*2.	-11.3204
시킴	-11.3206
▁매달기	-11.3206
▁구간내	-11.3208
갈바	-11.3208
중이었고	-11.3208
▁일용직근로자	-11.3212
▁용역근로자	-11.3219
▁상세	-11.3219
▁강진	-11.3219
▁전력	-11.322
▁진술서	-11.3222
▁제관	-11.3223
▁가배관	-11.3224
▁추간판	-11.3224
▁치어	-11.3224
▁당김	-11.3225
▁마스크	-11.3226
▁솔져	-11.3226
▁No	-11.3227
▁현황	-11.3228
▁제거하다가	-11.3228
트레	-11.3231
토막	-11.3231
▁대기중인	-11.3233
▁성주	-11.3234
▁땅바닥	-11.3234
▁맞추던	-11.3236
▁화분	-11.3236
▁전문의	-11.3242
▁부딪쳤	-11.3243
▁현장외부	-11.3247
▁추락하였습니다	-11.3248
▁팬	-11.325
▁거푸집제작	-11.325
▁표지판	-11.3252
▁커터	-11.3255
발등	-11.326
▁슬라브거푸집	-11.3261
스트레스	-11.3262
▁대리	-11.3265
▁잔해	-11.3267
코드	-11.3271
▁투입된	-11.3272
▁연결하기	-11.3273
▁작동되어	-11.3278
▁하겠다	-11.328
▁소견서	-11.3301
지방도	-11.3303
▁매설작업	-11.3305
▁진행하면서	-11.3306
▁지하철	-11.3308
▁둥근톱날	-11.331
20.11.	-11.3313
▁안전핀	-11.3319
▁오르려	-11.3323
미만	-11.3324
▁비상계단	-11.3338
동측	-11.3348
보호장비	-11.3376
연성	-11.3376
▁양중작업중	-11.3384
▁117	-11.3398
▁인중	-11.3404
▁차고	-11.3406
▁코어기	-11.3417
▁바닥재	-11.342
지골	-11.343
▁다른작업자	-11.3448
▁전공	-11.345
하기전	-11.3463
겠다	-11.3467
▁가슴쪽	-11.3468
았으며	-11.3473
▁동파이프	-11.3475
▁시도하다	-11.3478
▁타설공사	-11.348
수면	-11.3489
▁교통신호	-11.3489
▁장철근	-11.3489
▁연결관	-11.3502
▁입었	-11.3537
▁보조작업	-11.3543
하차도	-11.3557
▁크레인기사	-11.3562
▁보조원	-11.3567
▁휘어지	-11.36
미장작업	-11.3611
▁식재작업	-11.3617
따라	-11.3626
▁거주지	-11.366
사유	-11.3662
오르면서	-11.3675
▁교차	-11.3678
▁연마작업	-11.3699
▁꺼내다	-11.3701
▁이탈방지	-11.3705
당초	-11.3706
UT	-11.3719
▁인상작업	-11.3732
5-2	-11.3735
책	-11.3735
▁피트층	-11.3742
배근	-11.3747
0.8	-11.3759
진단서	-11.3763
▁타공작업	-11.3771
▁운행중	-11.3777
▁풀다	-11.3785
조사결과	-11.3792
▁고정시키	-11.384
▁회전부	-11.3872
▁빼려	-11.3891
▁아프	-11.3918
▁쉬는	-11.3929
▁밟았	-11.3941
▁인적	-11.3946
할수	-11.3963
el	-11.3964
없	-11.3974
▁넘다	-11.3983
▁때리	-11.3996
▁고정부	-11.4002
▁형틀거푸집	-11.4003
단발판	-11.4025
▁이루어	-11.4026
남자	-11.403
간선	-11.4041
파편이	-11.4064
~20	-11.4069
▁손목뼈	-11.4075
▁수술예정	-11.4085
추락높이	-11.4092
든	-11.4099
▁배수펌프	-11.4108
관계	-11.4126
야적장	-11.4128
쉬	-11.4132
스트러트	-11.4135
▁가대	-11.414
절곡기	-11.4141
슬래브	-11.4142
떠	-11.4148
하도급	-11.4148
냉	-11.4149
플레이트	-11.4149
낀	-11.4149
파레트	-11.415
펴	-11.415
빈	-11.415
커터	-11.415
철근콘크리트공사	-11.4151
틈	-11.4151
조성공사	-11.4151
파악	-11.4151
찬넬	-11.4152
생명줄	-11.4153
저수조	-11.4153
스라브	-11.4153
유공발판	-11.4153
▁임의적	-11.4153
커팅	-11.4153
틈새	-11.4154
멍에재	-11.4154
일용직	-11.4154
버팀보	-11.4154
케이싱	-11.4154
석고보드	-11.4154
접촉	-11.4155
숙소	-11.4157
▁외부판넬	-11.4158
윈치	-11.4158
타격	-11.4161
타이어	-11.4169
수평재	-11.4169
/26	-11.4171
▁겹질	-11.4176
코아	-11.4177
▁11/2	-11.4179
개착	-11.418
중심	-11.4187
끼어	-11.4188
▁적재해	-11.419
▁스트레	-11.4191
굴착기	-11.4192
▁도배작업	-11.4193
▁확보하기	-11.4195
았음	-11.4203
▁동남	-11.4204
치고	-11.4205
각관	-11.4206
SC	-11.4206
띠	-11.4207
부착	-11.4207
▁무전	-11.4216
통원	-11.4218
▁내외	-11.4221
상태임	-11.4221
닥	-11.4225
웨	-11.4241
부설	-11.4242
▁연결부분	-11.4245
:1.2	-11.4248
▁오르다	-11.4252
oi	-11.4285
칙	-11.4286
하는도중	-11.4295
3,4	-11.4301
▁충돌사고	-11.4305
튀	-11.4313
▁들어올	-11.4322
▁21.03.	-11.4326
▁찾아	-11.4329
>	-11.4335
▁튀어오르	-11.4343
▁살피	-11.4346
성명	-11.4349
협력	-11.4351
몰	-11.4353
즈	-11.4356
춤	-11.4356
▁말단부	-11.4356
주머니	-11.4356
론	-11.4357
▁빙판	-11.4357
익	-11.4358
꽃	-11.4358
폰	-11.4358
릅	-11.4358
꿈	-11.4359
잉	-11.4359
▁테트라	-11.4359
▁건네주	-11.4359
▁덮게	-11.4359
▁블루폼	-11.4359
▁스크린	-11.4359
▁장례식장	-11.4359
▁크래인	-11.4359
▁휘니셔	-11.4359
겁	-11.4359
냄	-11.4359
훅	-11.4359
slab	-11.4359
▁Grating	-11.4359
▁Hole	-11.4359
▁겨울철	-11.4359
▁고압살수기	-11.4359
▁공조덕트	-11.4359
▁그라우트	-11.4359
▁낮아	-11.4359
▁라쳇바	-11.4359
▁리바운드	-11.4359
▁메인지브	-11.4359
▁모노레일	-11.4359
▁미끄려져	-11.4359
▁미끌림	-11.4359
▁미배치	-11.4359
▁밧줄	-11.4359
▁수평조절목	-11.4359
▁스프링클러	-11.4359
▁안전불감증	-11.4359
▁암버럭	-11.4359
▁얘기하	-11.4359
▁연료탱크	-11.4359
▁웨빙띠	-11.4359
▁있도	-11.4359
▁전기배선	-11.4359
▁젠다이	-11.4359
▁짧아	-11.4359
▁텔레스	-11.4359
▁핀구멍	-11.4359
▁흡연	-11.4359
간접원인	-11.4359
넓	-11.4359
딘	-11.4359
복선전철	-11.4359
잇	-11.4359
행정복지센터	-11.4359
후방십자인대	-11.4359
▁가림막	-11.4359
▁내진보강	-11.4359
▁느낀	-11.4359
▁이의제기	-11.4359
▁익숙	-11.4359
▁작동스위치	-11.4359
▁헤머	-11.4359
라바콘	-11.4359
손까락	-11.4359
숲	-11.4359
▁샤워	-11.436
▁싱크	-11.436
▁외장판넬	-11.436
▁침사지	-11.436
▁급수배관	-11.436
▁억제	-11.436
▁토사유실	-11.436
▁회전근계	-11.436
▁휠라	-11.436
케이피	-11.436
▁닥트	-11.436
광평건설	-11.436
위원회	-11.436
▁게이지	-11.436
베이어	-11.436
▁논산	-11.436
▁전신주	-11.436
▁병행	-11.436
▁2021.07.	-11.436
훈련	-11.436
도달구	-11.436
▁아랫	-11.436
▁규정	-11.436
▁병영	-11.436
▁순천향	-11.436
▁그리고	-11.436
▁빠져나가	-11.436
▁모든	-11.436
▁센서	-11.436
▁각도절단기	-11.436
보호장구	-11.436
▁품질관리	-11.436
▁자재창고에서	-11.436
▁생겼다고	-11.436
▁창원기전	-11.436
▁벗겨짐	-11.436
▁제설작업	-11.436
▁작업유형	-11.436
▁버림타설	-11.436
전완부	-11.4361
▁모습	-11.4361
▁초진	-11.4361
▁턱끈	-11.4361
▁화물트럭	-11.4361
ail	-11.4361
유공관	-11.4361
▁장애인	-11.4361
▁리퍼	-11.4361
▁놓아둔	-11.4361
▁마스터	-11.4361
▁마킹	-11.4361
▁찍힌	-11.4361
▁오인하여	-11.4361
▁국립	-11.4361
았습니다	-11.4361
▁휘청	-11.4361
▁타카건	-11.4361
▁압송배관	-11.4361
▁사진촬영	-11.4362
▁세끼	-11.4362
▁메디	-11.4362
▁말려들어감	-11.4362
▁생기	-11.4362
▁깨짐	-11.4362
=1.0	-11.4362
읍니다	-11.4362
▁심폐	-11.4363
▁진통제	-11.4363
▁해머드릴	-11.4363
▁반대방향	-11.4363
▁특이	-11.4363
▁다세대	-11.4363
▁속초	-11.4364
▁완벽	-11.4364
▁역할	-11.4364
▁안구손상	-11.4364
▁용수로	-11.4365
▁연마석	-11.4365
▁동출입구	-11.4365
▁결박	-11.4365
▁번선	-11.4365
▁준설선	-11.4365
▁배척	-11.4365
▁알렸	-11.4365
▁단열	-11.4366
책상	-11.4366
▁세척	-11.4366
II	-11.4366
▁올라타	-11.4366
▁오조작	-11.4366
테라	-11.4367
▁경비원	-11.4367
▁각종	-11.4367
▁국제	-11.4367
▁깨져	-11.4367
▁운용	-11.4367
▁결근	-11.4367
▁주변환경	-11.4367
~1.5	-11.4368
▁내장목공	-11.4368
▁눈주위	-11.4368
▁향해	-11.4369
▁구조틀	-11.4369
▁반발	-11.4369
▁풀린	-11.4369
▁부서지면서	-11.437
▁페인트통	-11.437
프라임	-11.437
▁왼손검지손가락	-11.437
▁영무	-11.437
▁산소통	-11.437
▁병명	-11.4371
▁수령	-11.4372
▁2020.10.2	-11.4372
▁확장공사	-11.4372
▁바닥슬래브	-11.4372
▁토석	-11.4372
▁출구	-11.4372
▁예상치	-11.4372
▁재하자	-11.4373
▁작업대기중	-11.4373
▁완성	-11.4373
군데	-11.4373
▁북구	-11.4373
▁예상됨	-11.4373
▁한사람	-11.4374
▁소화조	-11.4374
▁대각	-11.4374
▁덕진	-11.4374
▁제출하였습니다	-11.4374
▁시스템서포트	-11.4375
▁반력	-11.4375
택지	-11.4376
▁떼	-11.4376
깔기	-11.4376
▁참조	-11.4376
▁가설통로	-11.4377
▁안전부주의	-11.4377
▁과열	-11.4378
▁후송조치	-11.4379
▁붙어있는	-11.4379
세종병원	-11.4379
▁조경공사	-11.438
▁소량	-11.438
졌다	-11.4381
▁인하	-11.4381
▁원위치	-11.4381
▁일부승인	-11.4382
▁가공기계	-11.4383
질러	-11.4383
▁2,3	-11.4384
▁장비운전자	-11.4384
▁내습	-11.4385
▁수직승강로	-11.4386
▁가족	-11.4386
▁별관	-11.4386
▁가설발판	-11.4387
▁선해체	-11.4387
▁건임	-11.4389
▁업무시설	-11.4389
▁치료중임	-11.4393
▁병원치료	-11.4393
시키기	-11.4394
▁피하려고	-11.4395
▁다소	-11.4396
▁위생	-11.4397
▁밟다	-11.4399
▁14:50	-11.4401
▁16:40	-11.4401
▁13:40	-11.4401
▁우안	-11.4401
▁14:10	-11.4401
▁취수	-11.4402
▁철골구조물	-11.4404
▁연세	-11.4404
▁현재까지	-11.4408
▁요도	-11.4408
▁데크판	-11.4408
▁이송하였으며	-11.4409
▁못하였음	-11.4409
▁떨어지고	-11.441
▁급여	-11.441
▁쉬고	-11.441
피부	-11.4412
▁현장인근	-11.4412
▁작업구간내	-11.4414
▁치며	-11.4415
▁쓰고	-11.4415
▁저장소	-11.4415
▁삼성	-11.4416
▁복용	-11.4417
▁우측손목	-11.4417
▁철골조립	-11.4418
▁부여	-11.4419
▁입사	-11.4422
▁간식	-11.4425
▁실시하였으며	-11.4426
중국인	-11.4426
▁신우	-11.4426
▁고임	-11.443
▁뒷걸음치다	-11.4431
▁참고	-11.4434
▁거부	-11.4436
감지기	-11.4438
▁고정볼트	-11.4438
▁고정조치	-11.444
▁진행하였으며	-11.444
▁좌측다리	-11.444
▁가공철근	-11.4442
▁등박스	-11.4443
스판	-11.4444
▁덕트공	-11.4445
▁다수	-11.4446
▁도면	-11.4446
물관	-11.4447
▁막고	-11.4448
▁통보하지	-11.4452
삼거리	-11.4453
파워	-11.4457
전기원형톱	-11.4457
▁부상재해	-11.4458
▁일자	-11.446
▁나가는	-11.4461
▁상부슬라브	-11.4468
▁진행하였으나	-11.447
톱날	-11.4472
▁뒷쪽	-11.4476
▁들어올리	-11.4479
웨이	-11.4479
옥정	-11.448
▁대형	-11.4483
▁장비기사와	-11.4491
한테	-11.4493
▁맞추려	-11.4505
▁주사	-11.4509
▁교체작업중	-11.4514
▁의식은	-11.4516
기능공	-11.4517
▁감지	-11.4519
암면	-11.4527
21.02.	-11.453
▁전라	-11.4531
▁미사	-11.4533
▁척추뼈	-11.4534
26-1	-11.4536
상수도	-11.4539
▁추정함	-11.454
렸다	-11.454
▁이틀	-11.4542
지연사유	-11.4545
NG	-11.4549
기계실	-11.4549
▁작업준비중	-11.4552
두었던	-11.4562
근무기간	-11.4567
▁코너부위	-11.4567
▁굴착부	-11.4579
▁잡아당기던	-11.4583
▁지내	-11.4587
▁휘어	-11.4591
▁주다	-11.4592
핀제거	-11.4614
회전근	-11.4623
▁작업장내	-11.4626
▁미끄럼방지	-11.4628
양수장	-11.4649
4.0	-11.4652
▁좌회전	-11.466
▁헛딛으	-11.4664
본부	-11.4669
▁관사	-11.4669
저수지	-11.4682
▁결속상태	-11.469
▁피하려	-11.4717
0*3	-11.4764
▁드릴날	-11.4795
나감	-11.4808
조사중	-11.4808
▁CU	-11.4814
▁끝부위	-11.482
▁눈부위	-11.4826
▁2.9	-11.4832
백병원	-11.4836
았는데	-11.4837
▁일어서다	-11.484
사리	-11.4841
▁여성	-11.487
▁뒤집어	-11.4883
▁3.8	-11.4926
보온공	-11.4927
▁철판자재	-11.4927
▁도포작업	-11.4935
보관소	-11.4948
▁2020.07.2	-11.4957
▁잡자재	-11.4964
요구	-11.4965
골절상	-11.4974
▁걸치	-11.498
관리자와	-11.4984
▁질식	-11.5006
▁상대	-11.5009
▁벌어	-11.5012
▁성형	-11.5029
▁벌어지	-11.5035
▁2021.12.	-11.5038
제품	-11.5043
부표	-11.5072
보호대	-11.5108
▁놓던	-11.5109
▁고정시키기	-11.5117
▁돌리다	-11.5123
앤씨	-11.5137
▁들어올리려	-11.5144
▁용이하	-11.5163
3-3	-11.5177
설공사현장	-11.5182
▁벽사이	-11.5209
▁2.3	-11.5219
▁형틀해체	-11.5241
엄지손가락	-11.5249
6-1	-11.5271
차적	-11.5279
기록	-11.5283
▁연결구간	-11.5313
▁701	-11.5316
쇄골	-11.5318
▁운전중	-11.5349
미래	-11.5356
▁당겨지면	-11.5373
제작장에서	-11.5383
▁건설업	-11.5386
▁감리	-11.5389
사고발생장소	-11.5405
=6	-11.5415
모서리	-11.5424
진단결과	-11.5426
전문병원	-11.5429
중앙	-11.5459
▁하였다	-11.547
5-6	-11.5516
르던	-11.5544
한국병원	-11.5561
▁개방되어	-11.5564
샌드위치	-11.5573
하겠다	-11.5575
4,5	-11.5576
플랜지	-11.5578
찍	-11.5578
쓰	-11.5579
ᄃ	-11.5579
앵커	-11.5579
트렌치	-11.558
CIP	-11.558
레벨	-11.5581
비닐	-11.5581
운전석	-11.5582
▁지방	-11.5582
들어감	-11.5582
MRI	-11.5582
따	-11.5582
마무리	-11.5582
이동식틀비계	-11.5583
작업종료	-11.5583
일용근로자	-11.5583
핸드그라인더	-11.5583
데크플레이트	-11.5583
미끄러져	-11.5584
집수정	-11.5584
모래	-11.5588
확장	-11.5588
탈락	-11.5588
노출	-11.5589
안전망	-11.5589
사고경위	-11.5592
그러	-11.5592
연락	-11.5593
보호구	-11.5594
종골	-11.5595
횡대	-11.5597
매트	-11.5599
13:30	-11.5602
잡고있는	-11.5604
수직재	-11.561
유발	-11.5619
▁취하기	-11.5623
없는	-11.5626
철거작업중	-11.5628
▁개선	-11.5631
접수	-11.5632
▁잡았	-11.5636
수레	-11.564
▁거푸집해체작업	-11.5645
상병명	-11.5645
자루	-11.5646
▁지켜	-11.5648
ll	-11.5671
사고이후	-11.5672
사고인지	-11.5679
추진공사	-11.5686
▁목공사	-11.5704
애	-11.5725
혈압	-11.5729
▁방화	-11.5746
▁막으려	-11.5757
끝부분	-11.5757
▁지열	-11.5762
배수관	-11.5763
▁떨어질	-11.5766
▁교반	-11.5768
사고입니다	-11.5771
▁시트판	-11.5773
▁넘어지면	-11.5783
납	-11.5783
▁압송	-11.5784
▁갈비	-11.5784
구명줄	-11.5786
밀어	-11.5787
▁뛰어내렸	-11.5787
렛	-11.5788
흉	-11.5788
▁오르막	-11.5788
딪혀	-11.5788
봐	-11.5788
펀	-11.5788
휠	-11.5788
쉘	-11.5788
챙	-11.5788
Pulley	-11.5788
▁슬레이트	-11.5788
깥	-11.5788
닝	-11.5788
스포츠	-11.5788
웃	-11.5788
츠	-11.5788
▁AREA	-11.5788
▁Base	-11.5788
▁Cool	-11.5788
▁갔음	-11.5788
▁개보수사업	-11.5788
▁걷어내	-11.5788
▁게비온	-11.5788
▁곤도라	-11.5788
▁공용욕실	-11.5788
▁기왕증	-11.5788
▁기저질환	-11.5788
▁냉각탑	-11.5788
▁뇌진탕	-11.5788
▁느꼈다	-11.5788
▁발빠짐	-11.5788
▁배기휀	-11.5788
▁부딛침	-11.5788
▁붙이기	-11.5788
▁뻗다	-11.5788
▁뻗어	-11.5788
▁뿌려	-11.5788
▁사모래통	-11.5788
▁상태였음	-11.5788
▁세일이엔에스	-11.5788
▁수리시설개보수사업	-11.5788
▁스토퍼	-11.5788
▁슬래그	-11.5788
▁신호불일치	-11.5788
▁안전순찰	-11.5788
▁앉아있다	-11.5788
▁원상복구	-11.5788
▁인명피해	-11.5788
▁자가운전	-11.5788
▁접질렀다	-11.5788
▁정상퇴근	-11.5788
▁주택재개발	-11.5788
▁콘트리트	-11.5788
▁털어내	-11.5788
▁테이핑	-11.5788
▁튀어오름	-11.5788
▁트롤리	-11.5788
▁파주운정	-11.5788
▁팽팽하	-11.5788
▁포디움	-11.5788
▁폴딩도어	-11.5788
▁풋스위치	-11.5788
▁합성목재	-11.5788
▁호흡곤란	-11.5788
굵	-11.5788
노루발못뽑이	-11.5788
놀이터	-11.5788
닉	-11.5788
벡	-11.5788
뻘	-11.5788
샤프트	-11.5788
슈퍼데크	-11.5788
캔	-11.5788
컬	-11.5788
콤	-11.5788
콤프레샤	-11.5788
턴	-11.5788
톨	-11.5788
편한세상	-11.5788
햇	-11.5788
Zone	-11.5788
Φ	-11.5788
▁갓길	-11.5788
▁떼어내	-11.5788
▁뛰어내린	-11.5788
▁밑둥잡이	-11.5788
▁부딛히	-11.5788
▁사디리	-11.5788
▁서포터	-11.5788
▁세트앙카	-11.5788
▁안전하카	-11.5788
▁유리운반대	-11.5788
▁청탑지	-11.5788
▁커뮤니	-11.5788
▁탈출증	-11.5788
돼	-11.5788
휴대폰	-11.5788
▁살포기	-11.5788
▁아차사고	-11.5788
▁인허가	-11.5788
▁케이블트레이	-11.5788
▁턴테이블	-11.5788
됩니다	-11.5788
LINE	-11.5788
▁2019.12.1	-11.5788
▁겹침	-11.5788
▁아침이슬	-11.5788
▁구부러	-11.5788
▁출입금지	-11.5788
네모도	-11.5788
연구원	-11.5788
▁구부려	-11.5788
▁잉여	-11.5788
▁최소화	-11.5788
▁물호수	-11.5788
▁0.3	-11.5788
▁생태	-11.5788
▁시운전	-11.5788
▁테마	-11.5788
▁후유증	-11.5788
~2.0	-11.5788
▁가지치기	-11.5788
▁액체	-11.5788
▁진동로라	-11.5788
▁커피	-11.5788
▁공공하수처리시설	-11.5788
▁염증	-11.5788
▁검토	-11.5788
▁장도리	-11.5788
▁해체정리공	-11.5788
▁환봉	-11.5788
▁펜스	-11.5788
▁ooo	-11.5788
▁쳐다보	-11.5788
▁방수시트	-11.5788
▁아픔	-11.5788
▁끄지	-11.5788
▁탄력	-11.5788
▁미차단	-11.5788
▁배관조공	-11.5788
▁활석	-11.5788
▁Column	-11.5788
안전보건	-11.5788
소하천	-11.5788
▁며칠	-11.5788
▁순차적	-11.5788
▁잔가지	-11.5788
▁기관실	-11.5789
마이삭	-11.5789
▁파주시	-11.5789
▁부천시	-11.5789
도화상	-11.5789
스치로폼	-11.5789
정상출근하	-11.5789
▁튕김현상	-11.5789
▁짐칸	-11.5789
벨브	-11.5789
▁뒷채움	-11.5789
▁있었지만	-11.5789
▁절개	-11.5789
▁굴취	-11.5789
▁돕던	-11.5789
▁방호울	-11.5789
▁진동롤러	-11.5789
▁성애	-11.5789
▁산소용기	-11.5789
▁뒤집어지면서	-11.5789
농협	-11.5789
▁바꾸	-11.5789
▁카리프트	-11.5789
▁준공청소	-11.5789
▁쓰러졌	-11.579
도로건설공사	-11.579
▁나르던	-11.579
▁앵글브레싱	-11.579
▁천단부	-11.579
▁풍속	-11.579
▁버리	-11.579
▁아스콘포장	-11.579
ar	-11.579
▁광역상수	-11.579
▁벌어짐	-11.579
▁요추염좌	-11.579
했음에도	-11.579
▁소흘	-11.579
▁출입통제	-11.579
ur	-11.5791
▁민락	-11.5791
RE	-11.5791
▁만들어	-11.5791
▁막힘	-11.5791
▁청사동	-11.5791
▁못주머니	-11.5791
▁2022.1.	-11.5791
▁소독	-11.5791
▁선택	-11.5792
▁늘어나	-11.5792
▁사면보호	-11.5792
▁유압호스	-11.5792
ter	-11.5792
▁둘이	-11.5792
▁응급치료	-11.5792
▁사전점검	-11.5792
▁안좋	-11.5792
▁받침철물	-11.5792
▁추진기지	-11.5792
▁잘못디뎌	-11.5792
▁풀링	-11.5792
▁산소호스	-11.5792
필터	-11.5793
▁수로박스	-11.5793
▁본건물	-11.5794
▁덕양	-11.5794
it	-11.5794
▁양팔	-11.5794
▁북쪽	-11.5794
▁폭염	-11.5794
▁소화전함	-11.5794
~2.5	-11.5795
▁PKG	-11.5795
▁철망	-11.5795
bar	-11.5795
▁짚었음	-11.5795
▁안전대걸이	-11.5795
▁종류	-11.5795
▁분산	-11.5796
▁부딪혔음	-11.5796
개선사업	-11.5796
빌라	-11.5797
▁동향	-11.5797
▁먹줄	-11.5797
▁후관동	-11.5797
▁거품	-11.5797
▁확실	-11.5797
▁민간	-11.5798
▁불가피	-11.5798
▁토사반출	-11.5798
▁오거장비	-11.5798
▁보조업무	-11.5799
▁판명됨	-11.5799
▁상태였으며	-11.5799
▁정황	-11.58
▁해채	-11.58
▁반경내	-11.58
▁위치조정	-11.58
다듬	-11.58
요추간판	-11.5801
▁여건	-11.5801
▁합의	-11.5801
▁건설장비	-11.5802
메쉬	-11.5803
▁동탄	-11.5803
▁가슴통증	-11.5803
▁몰탈통	-11.5803
▁안전걸이	-11.5803
▁침목	-11.5804
▁2.0	-11.5804
▁사실여부	-11.5804
희건설	-11.5805
▁차량운전자	-11.5805
▁17:30	-11.5805
▁피재근로자	-11.5805
▁크로	-11.5806
▁지연됨	-11.5807
요원	-11.5808
코너스트러트	-11.5808
▁시설공사	-11.5809
▁몸통	-11.581
▁잡석	-11.5811
▁영남	-11.5811
▁아니하고	-11.5811
▁석면	-11.5813
▁두통	-11.5814
▁추진관	-11.5814
▁07:20	-11.5814
▁분리작업	-11.5815
▁몸상태	-11.5815
▁채우	-11.5815
레라	-11.5815
▁굴착장비	-11.5816
▁회전축	-11.5816
순환	-11.5816
형옹벽	-11.5816
▁알폼슬라브	-11.5819
▁기존도로	-11.5819
▁부착시설	-11.5819
▁철근밴딩기	-11.582
▁강설	-11.5821
▁잡음	-11.5821
계통	-11.5821
▁직접적	-11.5821
▁해남	-11.5821
▁해체순서	-11.5822
▁기압	-11.5822
▁퇴원함	-11.5822
질병성	-11.5822
▁상황이며	-11.5822
▁처리됨	-11.5822
▁이동시키기	-11.5823
▁배토	-11.5823
▁절단톱	-11.5823
▁08:20	-11.5824
▁좌측눈	-11.5825
▁조종수	-11.5826
▁철근간격	-11.5826
NK	-11.5827
▁지체	-11.5828
조끼	-11.5828
▁신설공사	-11.5829
▁잡아주고	-11.583
▁처지	-11.583
▁필요하다고	-11.583
▁산성	-11.5831
▁할석공	-11.5831
▁넘기	-11.5832
▁정신	-11.5833
▁덕트설치	-11.5833
▁집게손가락	-11.5833
▁16:10	-11.5833
▁이완	-11.5836
▁서류	-11.5836
▁지지력	-11.5836
▁지금	-11.5837
▁기온	-11.5838
▁바닥타일	-11.5838
▁통증발생	-11.5838
성토건	-11.5838
▁노출되어	-11.5838
▁취함	-11.5839
▁넘어지고	-11.5839
대학	-11.5842
▁자재양중	-11.5842
▁자른	-11.5842
▁경비실	-11.5843
▁퇴근하였음	-11.5843
○○	-11.5844
▁상승중	-11.5845
▁향하여	-11.5845
▁발행한	-11.5847
▁본체와	-11.5848
▁위반	-11.5851
▁안양	-11.5852
▁우마위에서	-11.5854
▁골절되었습니다	-11.5855
▁피재	-11.5855
▁퇴근하였으나	-11.5855
▁하부지지대	-11.5856
▁늦어졌	-11.5857
▁사천	-11.5859
▁말려들어가며	-11.5859
▁부식	-11.5859
▁요구함	-11.586
▁주입기	-11.586
▁치료비	-11.5861
▁목재거푸집	-11.5864
▁오른발목	-11.5865
▁취하는	-11.5865
솔리	-11.5866
▁인공	-11.5869
▁해체물	-11.5869
▁무대	-11.5869
▁가설보	-11.5879
▁목재가공장	-11.5883
▁옆에있던	-11.5883
▁유성	-11.5886
▁단단	-11.5887
▁민원	-11.5888
보호망	-11.589
▁침실	-11.589
▁안되는	-11.5894
▁제관공	-11.5895
▁사상	-11.591
접힘	-11.5916
배수암거	-11.5921
▁4.2	-11.5922
공법	-11.5924
▁송수관	-11.5929
▁골반부위	-11.593
재해발생원인	-11.5932
)****	-11.594
공항	-11.5943
▁골반뼈	-11.5945
▁안전바	-11.5946
전도방지용	-11.5984
화학	-11.599
▁취하다	-11.5994
▁물속	-11.5997
▁직영근로자	-11.5997
▁겹질리	-11.5999
마당	-11.6011
▁오르	-11.6051
▁끼우던	-11.6061
▁법면부	-11.6084
▁장약작업	-11.609
조합	-11.6103
현장사무실	-11.6115
알폼설치	-11.6145
▁부대시설	-11.6155
▁퍼티작업	-11.621
물류	-11.6221
▁머리위	-11.6223
▁잡아당기다	-11.6236
발생일시	-11.6237
870	-11.6241
리모델링공사	-11.6251
편의성	-11.6277
없어	-11.6304
하수급인	-11.6308
8-1	-11.6322
▁데크설치	-11.6324
쳤으나	-11.6347
사고발생경위	-11.6356
받침보	-11.6372
▁천막설치	-11.6385
▁아트	-11.6386
▁2022.01.	-11.6417
▁홍성	-11.6443
▁도로구간	-11.6448
소음성	-11.6451
▁모서리부분	-11.6467
▁발등뼈	-11.6476
▁다쳤	-11.6492
건식	-11.6512
▁파도	-11.653
광역	-11.6547
▁2020.04.0	-11.6582
▁놓으면	-11.6588
절취	-11.6593
▁굴착공사	-11.6604
▁취하던	-11.6612
▁토사물	-11.6673
▁잡던	-11.6674
fo	-11.6675
▁고정불량	-11.6696
승강장	-11.671
소식	-11.6716
노선	-11.6728
습관	-11.674
▁넘어지던	-11.6752
▁스테	-11.6775
▁근무하다	-11.6785
하는순간	-11.6798
▁가능하	-11.6799
정비사업	-11.6812
▁8/2	-11.6833
ro	-11.6849
겠	-11.6921
▁구부리	-11.6973
▁계속적	-11.6974
▁가료중	-11.7001
▁하수도	-11.702
▁어깨부분	-11.7061
▁14:2	-11.7066
철근대차	-11.7127
▁영하	-11.7144
인대파열	-11.7151
▁호전	-11.7153
서울병원	-11.7153
써	-11.7156
노조	-11.7162
의견서	-11.717
▁베인사고	-11.7193
대청	-11.7194
▁접근하다	-11.722
나우	-11.723
믹서	-11.7232
▁닫던	-11.7232
표지판	-11.7234
슈	-11.7237
투바이	-11.724
패	-11.724
고속도로	-11.724
앉	-11.7241
새끼	-11.7241
팬	-11.7242
브레이커	-11.7243
하였지만	-11.7244
뒤꿈치	-11.7244
베이스	-11.7245
뇌	-11.7245
세우기	-11.7246
NO	-11.7246
휴대용	-11.7246
특별	-11.7247
조인트	-11.7247
복도에서	-11.7248
경계석	-11.7248
페인트	-11.7248
쓰레기	-11.7248
건립공사	-11.7248
대퇴부	-11.7248
코핑	-11.7248
컨테이너	-11.7249
토류판	-11.7249
응급실	-11.7249
레미콘	-11.725
펌프카	-11.725
고임목	-11.725
미끄러지면서	-11.725
부딪힘	-11.725
안전난간	-11.725
흄관	-11.725
코너	-11.7251
붐대	-11.7252
짚어	-11.7253
출입문	-11.7253
바람	-11.7253
미착용	-11.7255
발견	-11.7255
현장소장	-11.7256
당겨	-11.7257
잡아	-11.726
안전난간대	-11.7264
▁기능	-11.7266
밟고	-11.7268
골반	-11.7269
철골빔	-11.7269
본체	-11.7269
체크	-11.7276
통신	-11.7276
요추부	-11.7277
물통	-11.7284
▁자차	-11.7286
사망	-11.7296
▁느슨	-11.7317
방수공사	-11.7339
넬	-11.734
디디면서	-11.7365
▁들다	-11.7387
z	-11.7398
▁아킬레스	-11.7401
▁달대	-11.7403
▁고정하려	-11.7419
2019.08.	-11.7421
▁재발	-11.7428
▁분배	-11.7429
붕	-11.7438
▁숙련	-11.7439
하수처리시설	-11.7443
▁복숭아	-11.7445
벼	-11.7448
▁트랜치	-11.745
▁너울	-11.745
킬	-11.745
able	-11.7451
널	-11.7453
꾸	-11.7453
램	-11.7454
찬	-11.7455
헌	-11.7455
솟	-11.7455
심폐소생	-11.7455
<	-11.7455
Q	-11.7455
▁바이브레	-11.7455
▁배터리	-11.7455
▁소규모	-11.7455
▁어두운	-11.7455
▁초음파	-11.7455
▁치장벽돌	-11.7455
▁큐브앤	-11.7455
셋	-11.7455
퀘	-11.7455
햄	-11.7455
atch	-11.7455
lashing	-11.7455
▁Slab	-11.7455
▁WWT	-11.7455
▁견갑골	-11.7455
▁경과관찰	-11.7455
▁골재분리기	-11.7455
▁그라이더	-11.7455
▁금풍건설	-11.7455
▁급작스런	-11.7455
▁넘여져	-11.7455
▁다섯번째	-11.7455
▁대퇴골	-11.7455
▁도막방수	-11.7455
▁도시환경정비사업	-11.7455
▁랩핑	-11.7455
▁메탈라스	-11.7455
▁무근콘크리트	-11.7455
▁발디딤	-11.7455
▁부딛친	-11.7455
▁부딧힘	-11.7455
▁빗맞아	-11.7455
▁세파볼트	-11.7455
▁셧포트	-11.7455
▁쇳조각	-11.7455
▁스판크리트	-11.7455
▁신축이음부	-11.7455
▁아웃리거	-11.7455
▁업지손가락	-11.7455
▁영통자이	-11.7455
▁오수중계펌프장	-11.7455
▁오엔건설	-11.7455
▁왼족	-11.7455
▁유러폼	-11.7455
▁잔손보기	-11.7455
▁전동핸드카	-11.7455
▁절토사면	-11.7455
▁집중호우	-11.7455
▁추락방호망	-11.7455
▁취사식당	-11.7455
▁코팅합판	-11.7455
▁토류벽	-11.7455
▁핸드그라인드	-11.7455
▁화스너	-11.7455
▁화이트금속	-11.7455
▁흔들거리	-11.7455
□	-11.7455
▶	-11.7455
깐	-11.7455
껏	-11.7455
낼	-11.7455
드라이비트	-11.7455
땀	-11.7455
략	-11.7455
맥	-11.7455
뻔	-11.7455
알류미늄	-11.7455
욱	-11.7455
졸음쉼터	-11.7455
체육센터	-11.7455
출퇴근	-11.7455
퀵	-11.7455
▁RAMP	-11.7455
▁곤란	-11.7455
▁그물망	-11.7455
▁기계설비공사	-11.7455
▁날인거부	-11.7455
▁도급사	-11.7455
▁돌맹이	-11.7455
▁뒤틀림	-11.7455
▁셋째	-11.7455
▁연삭날	-11.7455
▁파트너	-11.7455
▁한국전력	-11.7455
▁횡배수관	-11.7455
끔	-11.7455
밭	-11.7455
샘	-11.7455
졸	-11.7455
피니셔	-11.7455
▁21.05.	-11.7455
▁물러나	-11.7455
▁부딛치	-11.7455
▁붕락	-11.7455
▁주차트레이	-11.7455
▁지하매설물	-11.7455
다가구주택	-11.7455
부자연스	-11.7455
서까래	-11.7455
피로누적	-11.7455
호매실	-11.7455
ᅵ	-11.7455
▁거푸	-11.7455
▁분리수거	-11.7455
▁스마트	-11.7455
▁올릴	-11.7455
▁제수변	-11.7455
▁출렁	-11.7455
코리아	-11.7455
▁시다볼트	-11.7455
▁원위부	-11.7455
▁초벌	-11.7455
형개거	-11.7455
▁사보강	-11.7455
GRP	-11.7455
▁꼽아	-11.7455
▁크람	-11.7455
▁테이블폼	-11.7455
파상풍	-11.7455
▁갱문	-11.7455
▁솟아	-11.7455
▁펀치	-11.7455
화성비봉	-11.7455
▁혈종	-11.7455
▁인접대지	-11.7455
라운드	-11.7455
▁ᄀ자	-11.7455
▁내렸고	-11.7455
▁전원차단	-11.7455
▁낙반	-11.7455
▁전형적	-11.7455
▁석션작업	-11.7455
▁물고임	-11.7455
▁헤라	-11.7455
상업시설	-11.7455
'19.9.	-11.7455
▁사토장	-11.7455
▁자재적치	-11.7455
택지개발사업	-11.7455
▁골정	-11.7455
▁장비운용	-11.7455
원도급	-11.7455
▁꼬임	-11.7455
▁죽전	-11.7455
▁좌측가슴	-11.7455
침전지	-11.7455
▁미시행	-11.7455
▁북서측	-11.7455
▁여과지	-11.7455
▁오르내리	-11.7455
농촌중심지활성화	-11.7455
▁해운대	-11.7455
▁음료	-11.7455
▁연약지반	-11.7455
▁성소병원에	-11.7455
▁외주부	-11.7455
▁평택성모병원	-11.7455
▁이음새	-11.7455
대신기공	-11.7455
▁운송	-11.7455
▁모래주머니	-11.7455
▁휘청거리	-11.7455
▁가스용기	-11.7455
nter	-11.7455
▁조경식재	-11.7456
▁강재토류판	-11.7456
▁데임	-11.7456
(30*4	-11.7456
▁일용인부	-11.7456
▁명확	-11.7456
▁접질렸다	-11.7456
▁주치의	-11.7456
됐으나	-11.7456
냉장고	-11.7456
▁침투	-11.7456
▁전단철근	-11.7456
▁오수맨홀	-11.7456
▁오르막길	-11.7456
▁카고트럭	-11.7456
ook	-11.7456
▁뛰어내렸으나	-11.7456
▁기울어지는	-11.7456
▁베어링	-11.7456
▁있었는데	-11.7456
▁도로경계석	-11.7456
▁핸드폰	-11.7456
▁복공철판	-11.7456
▁서리로	-11.7457
▁LNG	-11.7457
▁팅기	-11.7457
▁공용홀	-11.7457
▁폐콘	-11.7457
▁넘어졌습니다	-11.7457
▁두개골	-11.7457
▁맞았음	-11.7457
▁충전드릴	-11.7457
▁업무상질병	-11.7457
▁가설안전난간대	-11.7457
▁석탄	-11.7457
▁CRC	-11.7457
▁충주	-11.7457
▁알수없	-11.7457
▁어지러움증	-11.7457
▁패널옹벽	-11.7458
▁겹질러	-11.7458
▁벗겨져	-11.7458
▁닫힘	-11.7458
▁대차바퀴	-11.7458
▁기댄	-11.7458
▁기억	-11.7458
▁도괴되	-11.7458
▁턱밑	-11.7458
혁신	-11.7458
▁인접건물	-11.7458
▁고려대학교	-11.7459
▁메달	-11.7459
▁분당	-11.7459
▁한림대	-11.7459
▁경사지붕	-11.7459
▁지연되었음	-11.7459
말아야	-11.7459
▁양극	-11.7459
추간판장애	-11.7459
▁흙더미	-11.7459
▁밑받침	-11.7459
▁오거드릴	-11.7459
▁불가능	-11.7459
▁영동병원	-11.7459
▁추정되나	-11.7459
▁큰돌	-11.7459
▁상가주택	-11.7459
▁홀더선	-11.7459
▁평활	-11.7459
▁그늘	-11.746
▁부산대학교	-11.746
▁수도배관	-11.746
▁트랜치관	-11.746
▁바로잡	-11.746
센치	-11.746
▁헌치부	-11.746
▁구룡	-11.746
숙박	-11.746
▁휘어져	-11.746
▁희석	-11.746
▁통보받아	-11.746
▁통보받음	-11.746
▁안전감시단	-11.746
▁요한다	-11.7461
▁취급부주의	-11.7461
▁형성	-11.7461
▁이상소견	-11.7461
▁측압	-11.7461
▁미파악	-11.7461
▁이동동선	-11.7461
▁주장하나	-11.7461
▁뒷정리	-11.7461
▁산재요양	-11.7462
▁쪽망	-11.7462
▁숙련공	-11.7462
▁유압장치	-11.7462
▁치료중입니다	-11.7462
▁파절	-11.7462
▁항문	-11.7462
▁천막보양	-11.7463
▁있었음에도	-11.7463
바이오	-11.7463
▁누락	-11.7463
▁영덕	-11.7463
▁보호조치	-11.7464
▁산소병	-11.7464
▁진접	-11.7464
▁방지조치	-11.7464
▁상향	-11.7465
▁철심	-11.7465
▁앉음	-11.7466
다마가	-11.7466
▁수리시설	-11.7466
▁재건축	-11.7466
▁접질러짐	-11.7466
▁물기제거	-11.7467
트랩	-11.7467
▁재해발생사실	-11.7467
짜리	-11.7467
▁업무상재해	-11.7467
▁홀더	-11.7468
▁부착설비	-11.7468
▁아래팔	-11.7468
▁출혈발생	-11.7468
▁제어하지	-11.7468
▁손끼임	-11.7468
▁스파	-11.7469
▁높아	-11.7469
▁소화전	-11.7469
▁7~8	-11.7469
▁연골판	-11.7469
▁말림	-11.747
▁재검사	-11.747
▁이동식대차	-11.747
▁대나무	-11.747
▁접지선	-11.747
▁압착됨	-11.7471
▁적하	-11.7471
▁타이바	-11.7471
▁삽교	-11.7471
▁분진	-11.7472
▁입게됨	-11.7472
▁외부시스템비계	-11.7472
특수	-11.7473
▁북진	-11.7473
▁차도가	-11.7473
▁목재가공용	-11.7474
▁지보재	-11.7474
방호조치	-11.7474
▁외벽도장	-11.7474
▁연계	-11.7475
▁압착사고	-11.7475
▁뒤돌아서	-11.7475
▁막음	-11.7475
▁다른곳	-11.7475
▁모아	-11.7476
▁지축	-11.7476
▁살피지	-11.7476
▁열배관	-11.7476
▁기타공사	-11.7476
▁사망원인	-11.7477
▁커터날	-11.7477
▁추정되며	-11.7477
▁엉덩이뼈	-11.7477
▁마비	-11.7478
▁신발장	-11.7478
▁외래	-11.7478
▁계약	-11.7479
.0+5	-11.748
▁뒷걸음치	-11.748
▁공구박스	-11.748
▁의무	-11.748
▁Tray	-11.7481
▁감당	-11.7483
▁예초작업	-11.7483
▁튀어오르면서	-11.7483
▁아니함	-11.7483
▁안정성	-11.7484
▁CP	-11.7484
▁올려져	-11.7484
(600*	-11.7485
*80	-11.7485
▁연결호스	-11.7485
▁입원조치	-11.7485
확포장	-11.7485
▁상하차	-11.7485
재발방지	-11.7486
▁지보설치	-11.7486
▁지켜보자	-11.7486
▁멍에제	-11.7486
▁대처	-11.7487
▁가구자재	-11.7488
(19**	-11.7488
▁조급	-11.7488
▁귀가하였으나	-11.7488
▁옹벽블록	-11.7489
금액	-11.7489
▁온실	-11.7489
▁CV	-11.749
▁고철	-11.749
▁본드	-11.749
▁쓰러져있는	-11.749
ET	-11.7491
▁이송조치	-11.7491
▁공구통	-11.7491
▁용산	-11.7492
▁소할	-11.7493
▁조경수	-11.7493
▁07:50	-11.7495
▁태화	-11.7495
▁보걸이	-11.7495
▁대각재	-11.7495
▁용접봉	-11.7496
▁원통	-11.7496
▁통영	-11.7497
▁13:20	-11.7497
▁안전기둥	-11.7498
▁구미	-11.7498
▁좌대	-11.7501
▁화목	-11.7502
▁밟자	-11.7502
▁14:20	-11.7503
건축직영	-11.7506
▁거스	-11.7507
▁승강발판	-11.7508
▁감식	-11.7509
▁09:40	-11.751
▁옆쪽에	-11.7512
하든	-11.7522
예초	-11.7535
방호장치	-11.7535
연골파열	-11.7538
▁디딤발	-11.754
▁방수재	-11.754
▁침수	-11.7552
측부인대	-11.7556
야하는데	-11.7562
▁1/2	-11.7564
▁밀림방지	-11.757
▁빼려다	-11.757
예방조치	-11.7576
al	-11.7603
농업	-11.7605
불이행	-11.7611
울산방향	-11.7618
2019.7.	-11.7633
▁정밀진단	-11.765
각반	-11.7652
안전띠	-11.7654
개선공사	-11.767
▁흘러내리	-11.7671
▁견출작업자	-11.7674
양동이	-11.769
▁공급하	-11.7716
▁아주대	-11.7738
쉬트	-11.7744
남기업	-11.7795
▁목뼈	-11.7803
손잡이	-11.781
▁쓰려	-11.7823
충돌증후군	-11.7835
▁코부위	-11.7841
▁돌아오	-11.7845
가해차량	-11.7858
5,6	-11.7871
▁2021.11.2	-11.7898
▁잡아주다	-11.7905
▁돌출부위	-11.7915
신항	-11.7947
▁길어	-11.797
▁정비작업	-11.797
가해물	-11.7973
▁당사현장	-11.7981
▁풀어지	-11.8015
터널내부	-11.8028
▁그로인	-11.8032
ip	-11.8071
▁찔린사고	-11.8079
감리자	-11.8096
삼보	-11.8131
▁엉덩이부분	-11.8134
▁돌아왔	-11.8149
약품	-11.816
었다고	-11.8169
놓여있는	-11.8183
스테이	-11.8188
새재	-11.8194
폐수	-11.8202
▁내리치	-11.8205
▁지나다	-11.8242
▁주요	-11.8292
▁나가던	-11.8381
▁받으려	-11.8408
▁2021.12.2	-11.842
감시자	-11.8481
재해조사	-11.8524
아무도	-11.8582
성토작업	-11.8623
▁7,8	-11.869
▁스페이	-11.8694
ri	-11.8701
▁하수급	-11.8753
▁무너	-11.8935
았지만	-11.8938
▁벗겨	-11.8956
▁사용미숙	-11.896
거푸집해체	-11.8972
▁벽쪽	-11.908
철근절단	-11.908
ch	-11.9086
ding	-11.9099
▁2,3,4	-11.9135
중앙병원	-11.9139
▁종아리부분	-11.9158
잔해물	-11.9184
▁힘들	-11.9201
▁흘러내	-11.9202
lin	-11.9204
▁오배수	-11.9217
수평비계	-11.9217
현황	-11.9217
추간판	-11.9222
밟	-11.9224
5-5	-11.9227
마스크	-11.9239
콘테이너	-11.924
Plate	-11.9241
빼	-11.9241
살	-11.9241
pit	-11.9242
Cable	-11.9242
브레이싱	-11.9243
묶	-11.9243
No	-11.9244
지연보고	-11.9244
납품	-11.9244
삽	-11.9245
Pipe	-11.9245
붕괴	-11.9246
외국인	-11.9246
플라스틱	-11.9246
솔져	-11.9246
통행로	-11.9246
받아치기	-11.9247
클립	-11.9247
복숭아뼈	-11.9247
바지선	-11.9247
몰딩	-11.9248
스크류	-11.9248
고소작업차	-11.9248
알루미늄	-11.9248
슬리브	-11.9248
그레이팅	-11.9249
옷	-11.9249
슬러지	-11.9249
절곡	-11.925
검진결과	-11.9251
환기구	-11.9252
늑골골절	-11.9252
시스템동바리	-11.9253
하도급사	-11.9256
와이어로프	-11.9256
네번째	-11.9258
킴	-11.9275
▁작업편의	-11.9362
▁베이스판	-11.9371
복지관	-11.9389
#5	-11.9415
)*****	-11.9424
▁뒤돌아	-11.943
덜	-11.943
▁2020.9.	-11.943
21.06.2	-11.9439
첨	-11.9443
푸	-11.9444
▁자재반입	-11.9449
산업단지	-11.9449
끄	-11.9449
억	-11.945
댄	-11.945
▁콘크리	-11.9451
섬	-11.9452
▁근린생활	-11.9453
됐	-11.9453
▁버럭	-11.9454
▁품질	-11.9454
꼽	-11.9455
*0.4	-11.9455
Sheet	-11.9455
▁SHOP	-11.9455
롭	-11.9455
컵	-11.9455
훼	-11.9455
SPAN	-11.9455
▁Purge	-11.9455
▁산마루측구	-11.9455
▁산청군	-11.9455
▁여수토방수로	-11.9455
▁펌푸카	-11.9455
ace	-11.9455
olt	-11.9455
span	-11.9455
▁1041,1042	-11.9455
▁Crane	-11.9455
▁TANK	-11.9455
▁support	-11.9455
▁갈아입	-11.9455
▁강릉아산병원	-11.9455
▁격자지보	-11.9455
▁과상승	-11.9455
▁규준틀	-11.9455
▁까치발	-11.9455
▁끌어올리	-11.9455
▁내리막길	-11.9455
▁던졌는데	-11.9455
▁돌망태	-11.9455
▁돌쌓기	-11.9455
▁되메움	-11.9455
▁레바블럭	-11.9455
▁못견디	-11.9455
▁무한궤도	-11.9455
▁미끌어짐	-11.9455
▁밀어올리	-11.9455
▁발헛디딤	-11.9455
▁밧데리	-11.9455
▁방염포	-11.9455
▁베란다	-11.9455
▁불티비산방지포	-11.9455
▁빗나가	-11.9455
▁삐긋함	-11.9455
▁서두르다	-11.9455
▁성도이엔지	-11.9455
▁수압시험	-11.9455
▁스톤매트리스	-11.9455
▁실링벨트	-11.9455
▁아산충무병원	-11.9455
▁어두워	-11.9455
▁엔진양수기	-11.9455
▁여자화장실	-11.9455
▁움직일	-11.9455
▁유압유닛	-11.9455
▁유압펌프	-11.9455
▁인공호흡	-11.9455
▁있으니	-11.9455
▁잠금장치	-11.9455
▁절토면	-11.9455
▁젖혀지	-11.9455
▁주제어동	-11.9455
▁지도감독	-11.9455
▁진료받은	-11.9455
▁질병판정위원회	-11.9455
▁짓눌	-11.9455
▁차량통행	-11.9455
▁컨베이어	-11.9455
▁컷터칼	-11.9455
▁코너비드	-11.9455
▁콘크리트믹서트럭	-11.9455
▁쿠션재	-11.9455
▁클럽하우스	-11.9455
▁파이프서포터	-11.9455
▁하이랜더	-11.9455
▁합성보	-11.9455
▁휴먼에러	-11.9455
▁흡음판	-11.9455
경질우레탄	-11.9455
공기정화시설	-11.9455
글로벌	-11.9455
늬	-11.9455
반코팅장갑	-11.9455
발뒷굼치	-11.9455
크롤라드릴	-11.9455
파출소	-11.9455
▁LIFT	-11.9455
▁Lift	-11.9455
▁강관조립말비계	-11.9455
▁꿰맴	-11.9455
▁보조역할	-11.9455
▁본인진술	-11.9455
▁인성개발	-11.9455
▁임목폐기물	-11.9455
▁재해복구사업	-11.9455
▁지압판	-11.9455
▁횡갱	-11.9455
감각신경	-11.9455
아웃코너	-11.9455
SGR	-11.9455
▁강연선	-11.9455
▁놓쳤고	-11.9455
▁몰랐	-11.9455
▁보육시설	-11.9455
▁불충분	-11.9455
▁상반신	-11.9455
▁약물치료	-11.9455
▁이상징후	-11.9455
▁침사조	-11.9455
**(**.**.**)	-11.9455
▁겹친	-11.9455
▁부스러	-11.9455
▁서비스	-11.9455
▁선풍기	-11.9455
▁재료분리	-11.9455
▁항발기	-11.9455
프리미엄	-11.9455
▁40~50	-11.9455
▁CON	-11.9455
▁무수축	-11.9455
▁신세계	-11.9455
20.03.02	-11.9455
▁2021.05.2	-11.9455
▁2021.09.0	-11.9455
▁동해안	-11.9455
▁드롭	-11.9455
▁뻐근	-11.9455
▁흙덩이	-11.9455
LPG	-11.9455
▁하부오거	-11.9455
휴게소	-11.9455
▁동우건설	-11.9455
고속국도	-11.9455
▁그리드	-11.9455
처리분구	-11.9455
▁`21	-11.9455
메모도	-11.9455
▁위치선정	-11.9455
▁팅겨	-11.9455
코브라	-11.9455
▁2019.11.0	-11.9455
▁병원후송	-11.9455
▁외장재	-11.9455
▁유가족	-11.9455
▁갑판	-11.9455
투기장	-11.9455
▁무더위	-11.9455
▁파견나	-11.9455
열사병	-11.9455
▁2019.11.2	-11.9455
▁이동시키다	-11.9455
▁필러	-11.9455
▁현장정문	-11.9455
야기리	-11.9455
▁객실	-11.9455
▁괴산	-11.9455
▁보안면	-11.9455
불순물	-11.9455
▁튀며	-11.9455
▁부서져	-11.9455
해야하지만	-11.9455
▁기저부	-11.9455
선수촌	-11.9455
양원초	-11.9455
산책로	-11.9455
틸레버	-11.9455
▁산재요양신청	-11.9455
▁형특	-11.9455
▁공사부장	-11.9455
▁인지시점	-11.9455
▁검단	-11.9455
▁이의신청	-11.9455
하행선	-11.9455
▁우측안구	-11.9455
▁연고지	-11.9455
▁어렵	-11.9455
▁차선변경	-11.9455
▁불안전한행동	-11.9455
▁무인타워크레인	-11.9455
▁일상적	-11.9455
▁존치	-11.9455
▁데크로드	-11.9455
▁절반	-11.9455
▁급성심근경색	-11.9455
▁루바	-11.9455
▁피뢰	-11.9455
▁mri	-11.9455
▁레이스	-11.9455
▁이메일	-11.9455
▁장비수리	-11.9455
카터기	-11.9455
개량공사	-11.9456
▁애기	-11.9456
▁맞물리	-11.9456
▁건드리	-11.9456
▁버력	-11.9456
신전건	-11.9456
▁판독	-11.9456
▁Shoe	-11.9456
▁강재집수정	-11.9456
.5+	-11.9456
쉴드	-11.9456
▁교통통제	-11.9456
내륙	-11.9456
▁누워있	-11.9456
▁하도업체	-11.9456
▁보양비닐	-11.9456
▁묻힘	-11.9456
▁Fan	-11.9456
라이트	-11.9457
▁붙잡으려다	-11.9457
하였슴	-11.9457
▁편하중	-11.9457
▁좌굴	-11.9457
에너지	-11.9457
센타	-11.9457
ING	-11.9457
▁잔존	-11.9457
▁경북대학교	-11.9457
▁해머캡	-11.9457
운동기구	-11.9457
▁인력사무소	-11.9457
▁면끼	-11.9457
▁흘러내림	-11.9457
▁우물통	-11.9457
▁페인트칠	-11.9457
▁측량보조	-11.9457
▁문틈	-11.9457
▁집근처	-11.9457
동승자	-11.9457
▁탈의실	-11.9457
▁스터드볼트	-11.9457
▁맞춤	-11.9457
▁교대보호	-11.9457
▁했는데	-11.9457
▁까뮤이	-11.9458
▁쳐지며	-11.9458
▁실험	-11.9458
▁신경손상	-11.9458
▁철콘	-11.9458
▁건립사업	-11.9458
▁보여짐	-11.9458
▁비트함마	-11.9458
▁수직구명줄	-11.9458
▁2019.8.	-11.9458
▁산재접수	-11.9458
▁넘겨	-11.9458
▁택시	-11.9458
▁넘어졌으나	-11.9458
▁응급수술	-11.9458
▁보건관리자	-11.9458
▁은평	-11.9458
▁상대방	-11.9458
▁pt	-11.9459
▁상층부	-11.9459
▁방수액	-11.9459
▁쏟아짐	-11.9459
▁굴절	-11.9459
▁잠그	-11.9459
▁소방설비	-11.9459
▁오론	-11.9459
지연보고사유	-11.9459
▁소통부재	-11.946
▁잡았으나	-11.946
▁남동측	-11.946
▁평상시	-11.946
▁돌아감	-11.946
▁다칠	-11.946
▁핸들러	-11.946
▁원형맨홀	-11.946
▁떨어졌으며	-11.946
▁결착	-11.946
▁모으	-11.9461
▁환기창	-11.9461
의료시설	-11.9461
▁수납	-11.9461
▁미주시	-11.9461
▁멍애제	-11.9461
▁역류	-11.9461
▁본선터널	-11.9461
▁사이즈	-11.9461
▁열려있는	-11.9461
▁잔열	-11.9461
ox	-11.9461
▁퇴원조치	-11.9462
▁성능	-11.9462
▁안전표지판	-11.9462
▁못머리	-11.9462
▁기준틀	-11.9462
=1.2	-11.9462
▁창호교체	-11.9462
▁차폐	-11.9462
▁주의부족	-11.9462
▁받쳐놓은	-11.9463
▁실리콘건	-11.9463
▁활동	-11.9463
▁믹서통	-11.9463
▁미부착	-11.9463
▁의령	-11.9463
▁압입	-11.9463
▁신호전달	-11.9463
▁요망	-11.9463
▁자족	-11.9463
▁부출입구	-11.9464
▁제관사	-11.9464
▁예측	-11.9464
▁매달림	-11.9465
▁직종	-11.9465
▁중간마디	-11.9465
▁단순타박상	-11.9465
▁지반보강	-11.9465
▁벽채	-11.9465
▁다짐봉	-11.9465
▁오랜	-11.9465
▁소부재	-11.9466
점지지	-11.9466
▁고향	-11.9466
▁감긴	-11.9467
▁접혀	-11.9467
▁채결	-11.9467
▁조적벽돌	-11.9467
▁계측	-11.9467
▁천창	-11.9467
▁진압	-11.9468
▁판석	-11.9469
▁미끄러졌	-11.9471
*1.0	-11.9472
▁공병	-11.9473
▁요철부위에	-11.9473
▁살수차량	-11.9474
반월상	-11.9474
주방상판	-11.9474
▁Pu	-11.9475
▁파워볼	-11.9476
▁덜어	-11.948
▁화기감시자	-11.9481
▁부서지	-11.9484
▁2021.03.2	-11.9485
▁팀원들	-11.9499
▁발꿈치뼈	-11.9508
▁예상되	-11.951
▁강관비계파이프	-11.9515
▁고인물	-11.9519
▁경찰조사	-11.9521
ize	-11.9525
티앤	-11.9526
▁튀었	-11.953
▁승강계단	-11.9533
.·20	-11.9547
▁날개부분	-11.9556
SU	-11.9557
에스앤	-11.9559
▁외국인근로자	-11.9576
▁움직이던	-11.9576
하지않은	-11.9589
▁덤프기사	-11.9593
▁후미부	-11.9601
방주시	-11.9604
▁넘어진것	-11.9617
백암	-11.9627
▁통과하던	-11.9628
▁`20.	-11.9632
▁다쳤다	-11.9636
▁작동시키	-11.9663
▁2019.08.0	-11.9672
개폐문	-11.9695
안전모착용	-11.9703
▁전기톱날	-11.9726
▁블록제작장	-11.9744
혹	-12.1741
붐	-12.1742
ᆞ	-12.1742
잭	-12.1743
짚	-12.1743
中	-12.1746
“	-12.1747
첫	-12.1748
앙	-12.1784
얹	-12.1949
벨	-12.1949
흐	-12.1954
쟈	-12.1954
쥐	-12.1954
슨	-12.1954
ᄀ	-12.1955
뻐	-12.1955
럴	-12.1955
썬	-12.1955
뉴	-12.1955
쌍	-12.5073
‘	-12.5077
벗	-12.5077
줌	-12.5078
킨	-12.5144
돕	-12.5201
듬	-12.5256
랩	-12.5262
믹	-12.5263
뮤	-12.5283
럭	-12.5284
닐	-12.5284
돈	-12.5285
뢰	-12.5285
쉴	-12.5286
즐	-12.5287
랫	-12.5287
렵	-12.5287
닌	-12.5287
앵	-12.5287
딴	-12.5288
딸	-12.5288
섯	-12.5288
쿠	-12.5288
쪼	-12.5288
펠	-12.5288
깨	-12.994
높	-12.9971
맹	-13.0076
묻	-13.0078
곧	-13.0079
큰	-13.0079
굽	-13.0079
딜	-13.0283
흄	-13.0283
륙	-13.0284
렬	-13.0285
녀	-13.0287
픔	-13.0287
딤	-13.0287
닛	-13.0288
젠	-13.0288
짓	-13.0288
델	-13.0288
떼	-14.0086
꽂	-14.0091
찾	-14.0093
땅	-14.0097
엿	-14.0123
슁	-14.0124
쉽	-14.0125
셧	-14.0126
멀	-14.0127
깜	-14.0128
갖	-14.0129
탐	-14.013
잦	-14.0131
엎	-14.0132
샷	-14.0133
럿	-14.0134
닺	-14.0135
뀌	-14.0136
깡	-14.0137
굿	-14.0138
헐	-14.0139
쉼	-14.014
숨	-14.0141
뇨	-14.0142
튜	-14.0143
쇳	-14.0144
똥	-14.0145
굳	-14.0146
컴	-14.0147
얘	-14.0148
씌	-14.0149
밞	-14.015
륨	-14.0151
풋	-14.0152
찜	-14.0153
굼	-14.0154
켰	-14.0155
밧	-14.0156
읽	-14.0157
짊	-14.0158
줍	-14.0159
죔	-14.016
쇼	-14.0161
쳇	-14.0162
죄	-14.0163
융	-14.0164
뭉	-14.0165
띄	-14.0166
녁	-14.0167
썹	-14.0168
뜯	-14.0169
꼈	-14.017
렀	-14.0171
팽	-14.0172
털	-14.0173
듭	-14.0174
쿨	-14.0175
짧	-14.0176
윙	-14.0177
닦	-14.0178
꿰	-14.0179
콧	-14.018
붓	-14.0181
탁	-14.0182
쐐	-14.0183
롯	-14.0184
듣	-14.0185
눕	-14.0186
쓸	-14.0187
숏	-14.0188
뻗	-14.0189
뭇	-14.019
몇	-14.0191
춰	-14.0192
픈	-14.0193
밝	-14.0194
딧	-14.0195
긋	-14.0196
튐	-14.0197
샌	-14.0198
깁	-14.0199
펼	-14.02
쏟	-14.0201
튼	-14.0202
뿌	-14.0203
팩	-14.0204
걷	-14.0205
윗	-14.0206
뿜	-14.0207
찌	-14.0208
많	-14.0209
뚫	-14.021
놀	-14.0211
뽑	-14.0212
괜	-14.0213
틱	-14.0214
엑	-14.0215
낮	-14.0216
좁	-14.0217
므	-14.0218
긁	-14.0219
펫	-14.022
숭	-14.0221
혔	-14.0222
늄	-14.0223
궤	-14.0224
십	-14.0225
빨	-14.0226
랙	-14.0227
획	-14.0228
늦	-14.0229
젖	-14.023
녹	-14.0231
꺾	-14.0232
갔	-14.0233
또	-14.0234
낌	-14.0235
쏠	-14.0236
텔	-14.0237
킷	-14.0238
탱	-14.0239
멈	-14.024
끊	-14.0241
싣	-14.0242
찧	-14.0243
끗	-14.0244
섭	-14.0245
껑	-14.0246
먼	-14.0247
닿	-14.0248
뚜	-14.0249
컷	-14.025
빗	-14.0251
떻	-14.0252
눌	-14.0253
혼	-14.0254
혁	-14.0255
멘	-14.0255
삐	-14.0256
늑	-14.0257
넣	-14.0258
끌	-14.0259
찔	-14.026
붙	-14.0261
즉	-14.0262
촬	-14.0263
찢	-14.0264
쌓	-14.0265
흔	-14.0266
펌	-14.0267
잘	-14.0268
튕	-14.0269
멍	-14.027
옮	-14.0271
덮	-14.0272
핸	-14.0273
퇴	-14.0274
딛	-14.0275
빠	-14.0276
릎	-14.0277
맞	-14.0278
흡	-14.0279
놓	-14.028
템	-14.0281
헛	-14.0282
잃	-14.0283
받	-14.0284
퀴	-14.0285
않	-14.0285
였	-14.0286
왼	-14.0287
랐	-14.0288
됩	-14.0288
렁	-14.0288
갓	-14.0288
맴	-14.0288
벅	-14.0288
있	-14.0288
찮	-14.0288
