[PAD]	0
[UNK]	0
[BOS]	0
[EOS]	0
[SEP]	0
[CLS]	0
[MASK]	0
을	-3.90535
.	-4.00113
를	-4.02616
의	-4.19305
,	-4.27795
에	-4.35539
)	-4.37067
▁중	-4.4467
▁	-4.54302
(	-4.57314
가	-4.61307
이	-4.71296
▁한다	-4.81239
▁작업	-5.00373
는	-5.04203
▁및	-5.12359
일	-5.12377
으로	-5.16472
월	-5.25017
로	-5.31284
에서	-5.36029
년	-5.439
시	-5.45339
▁후	-5.50935
층	-5.51091
▁위해	-5.52213
하여야	-5.61831
▁1	-5.62498
▁발생	-5.73108
은	-5.73331
▁등	-5.74272
▁2	-5.75167
▁사고	-5.77508
▁거푸집	-5.85199
과	-5.87674
동	-5.89062
분경	-5.93047
▁설치	-5.93744
▁작업을	-6.00747
와	-6.02503
한	-6.0538
▁작업중	-6.0614
▁재해자	-6.09435
m	-6.10455
▁이동	-6.13306
▁근로자	-6.15398
**	-6.21387
된	-6.22466
인	-6.2605
하여	-6.26699
▁작업자	-6.27094
▁현장	-6.28995
▁있는	-6.29882
서	-6.30751
1	-6.32024
▁넘어짐	-6.34522
▁콘크리트	-6.36874
▁해체	-6.3693
▁자재	-6.37156
▁10	-6.37929
▁3	-6.38371
▁시	-6.39197
▁하여야	-6.42175
▁철근	-6.44313
▁인한	-6.46123
▁지하	-6.46189
▁걸려	-6.47023
고	-6.47525
▁2020	-6.48454
▁왼쪽	-6.51104
▁미끄러져	-6.5309
▁2021	-6.58068
▁위하여	-6.58485
▁오른쪽	-6.59302
▁:	-6.60234
▁발을	-6.60267
면서	-6.638
▁있던	-6.64166
▁바닥에	-6.65163
▁추락	-6.65466
씨가	-6.65506
▁4	-6.65929
▁사고임	-6.65996
하는	-6.66328
▁재해자가	-6.66377
▁손가락	-6.67014
▁골절	-6.68367
2	-6.6918
▁넘어지면서	-6.69652
▁수	-6.71318
▁작업자가	-6.74888
▁이동중	-6.75399
시경	-6.76247
▁과정에서	-6.76483
▁(	-6.775
하게	-6.77699
▁위한	-6.78351
▁오전	-6.79151
▁비계	-6.7924
▁우측	-6.79649
▁않도록	-6.79897
00	-6.80118
지	-6.80214
▁잃고	-6.8206
중	-6.82173
▁11	-6.83733
▁하며	-6.84252
▁장비	-6.84576
할	-6.8487
▁상부	-6.87568
▁등을	-6.89054
-	-6.89384
후	-6.92365
▁벽체	-6.92924
▁또는	-6.93161
▁중심을	-6.93492
▁작업자의	-6.95205
▁크레인	-6.96102
▁좌측	-6.97056
▁30	-6.97377
▁재해	-7.0019
▁바닥	-7.01026
▁내	-7.01386
▁이	-7.0149
▁떨어짐	-7.01784
▁경우	-7.01841
▁발이	-7.0185
▁경우에는	-7.01975
▁확인	-7.03264
▁운반	-7.0367
▁의한	-7.04161
▁5	-7.0568
용	-7.05737
▁부딪힘	-7.0617
▁12	-7.07442
층에서	-7.0773
▁부주의	-7.08157
▁이용하여	-7.08902
▁2019	-7.08909
cm	-7.08998
주	-7.09116
▁하던	-7.1018
▁절단	-7.10701
▁다음	-7.10901
▁지상	-7.11507
도록	-7.11815
▁타설	-7.11935
▁약	-7.1289
▁자재를	-7.13211
▁사용	-7.13218
▁높이	-7.13757
▁하부	-7.13768
▁왼손	-7.15452
▁설치하여야	-7.17089
▁고정	-7.17117
▁손가락이	-7.1777
▁8	-7.18276
▁부주의로	-7.18646
▁발생한	-7.18874
▁이상	-7.1918
히	-7.20856
분	-7.20998
▁미흡	-7.21326
▁사이에	-7.21465
▁김	-7.22094
▁인양	-7.22576
▁근로자가	-7.2296
M	-7.23903
▁헛디뎌	-7.23927
▁넘어져	-7.25263
▁현장에서	-7.25292
▁유로폼	-7.26821
▁따라	-7.2723
3	-7.27981
▁H	-7.28309
/	-7.28625
▁조립	-7.28945
▁재해자의	-7.29113
▁15	-7.29481
▁하고	-7.29948
▁작업발판	-7.3021
▁전	-7.30524
▁대한	-7.31025
▁소속	-7.31082
▁상태에서	-7.32355
▁인해	-7.3237
▁오후	-7.32604
▁끼임	-7.33337
한다	-7.34233
▁발판	-7.34263
▁안전	-7.34921
되어	-7.35481
▁20	-7.36159
▁배관	-7.36315
▁보	-7.36999
▁주변	-7.37151
▁상태	-7.37219
▁7	-7.37388
▁미끄러지면서	-7.3747
▁떨어져	-7.37602
▁도중	-7.37736
하지	-7.37863
하고	-7.38638
▁전도	-7.38669
며	-7.3918
▁부상	-7.39189
▁오른손	-7.40879
▁그	-7.4102
▁경	-7.42126
단	-7.42416
▁슬라브	-7.42507
▁9	-7.42833
▁협착	-7.4314
·	-7.44381
▁입음	-7.44608
▁6	-7.44752
▁바닥으로	-7.44966
▁내부	-7.46134
▁이동식	-7.46173
▁못하고	-7.46204
▁사다리	-7.47021
▁공사	-7.47359
▁제거	-7.49107
▁함께	-7.49154
▁재해임	-7.49381
▁사고가	-7.49772
▁시스템	-7.50256
▁그라인더	-7.50424
▁동바리	-7.50666
▁조치	-7.5075
▁정리	-7.52236
▁설치된	-7.52628
:	-7.53942
▁외부	-7.54363
▁때에는	-7.54423
▁미끄러짐	-7.55091
▁밟고	-7.55256
도	-7.55796
게	-7.55831
30	-7.56025
▁점검	-7.56101
▁사항	-7.57082
▁확인하여야	-7.57157
▁무릎	-7.57639
▁인하여	-7.57667
▁14	-7.5829
▁순간	-7.58317
▁사용하여	-7.58335
▁불안전한	-7.59615
▁로프	-7.6004
▁부딪혀	-7.60112
▁상부에서	-7.61111
▁부재	-7.61528
▁말비계	-7.61556
에는	-7.62309
▁08	-7.62526
▁16	-7.6258
▁않고	-7.62914
4	-7.63101
▁시공	-7.63751
▁제	-7.6384
시에는	-7.63969
▁따른	-7.64491
▁합판	-7.65987
▁발생함	-7.66346
이던	-7.68117
▁차량	-7.68144
▁위치	-7.68198
▁09	-7.68392
번	-7.68558
▁구조물	-7.68578
▁계단	-7.68714
▁13	-7.68927
▁위에서	-7.69741
▁들고	-7.69827
▁가시설	-7.702
▁낙하	-7.71722
기	-7.71754
▁굴삭기	-7.71942
▁철근에	-7.72334
▁높이에서	-7.7234
▁의해	-7.72737
▁잡고	-7.73166
▁중지	-7.73383
▁철근을	-7.74986
경	-7.75094
하기	-7.75478
▁어깨	-7.76271
▁허리	-7.76818
mm	-7.77965
▁여부	-7.78355
▁내려오던	-7.78382
▁해체작업	-7.78772
▁손상	-7.7914
▁볼트	-7.79501
▁기초	-7.79586
던	-7.7984
▁사고발생	-7.80034
작업을	-7.8039
▁같이	-7.80453
▁않아	-7.80894
▁완료	-7.80899
▁신축공사	-7.80935
▁사전	-7.81041
▁발목	-7.81174
▁하는	-7.81225
▁동료	-7.81541
되는	-7.81615
▁한	-7.81725
▁용접	-7.81905
▁즉시	-7.82189
▁것을	-7.82424
야	-7.82592
▁위험	-7.8308
되지	-7.83792
▁실시	-7.84085
높이	-7.84102
10	-7.84173
▁현장내	-7.84383
▁병원	-7.84418
▁등에	-7.84443
작업중	-7.84843
▁타워크레인	-7.84995
▁함	-7.85304
▁***	-7.85561
▁아래로	-7.86411
▁충돌	-7.86524
▁진단	-7.86554
▁119	-7.86967
▁행동	-7.87052
▁부위	-7.87202
▁파이프	-7.87279
▁-	-7.87441
▁체결	-7.87956
나	-7.8802
▁넘어지며	-7.88235
▁시스템비계	-7.88558
▁흙막이	-7.88985
▁타격	-7.89531
▁와이어로프	-7.89594
▁철골	-7.89992
▁설치를	-7.90358
▁해당	-7.90639
▁전에	-7.91067
▁신호수	-7.91493
▁때	-7.91827
▁굴착	-7.91942
▁엄지손가락	-7.92057
▁각재	-7.92102
▁베임	-7.92209
세	-7.92349
▁뒤로	-7.92669
▁하던중	-7.92761
구간	-7.92977
에게	-7.93541
▁있도록	-7.93805
▁지반	-7.93903
5	-7.9398
▁충격	-7.94012
▁결과	-7.94363
▁07	-7.94429
▁실시하여야	-7.94768
▁발등	-7.95363
▁준수	-7.95423
▁진행	-7.95513
하면서	-7.96056
**)	-7.96626
▁보고	-7.96661
▁않은	-7.9677
▁B	-7.97557
▁작업시	-7.97751
▁기계	-7.97752
▁반	-7.97798
▁일부	-7.98293
▁당	-7.98343
▁필요한	-7.98423
▁기둥	-7.98506
▁다침	-7.9869
▁안전모	-7.98707
자	-7.98723
▁추락하여	-7.98733
진	-7.98761
건설	-7.99061
▁골절됨	-7.99082
차	-7.99452
▁작업장	-8.00219
▁사다리를	-8.00375
▁인지하지	-8.00745
명이	-8.01068
▁하여	-8.01562
조	-8.01737
▁토사	-8.02243
면	-8.02406
▁형틀	-8.02767
▁발	-8.02922
있던	-8.02975
▁적재	-8.0371
▁설치하고	-8.0382
▁하기	-8.03849
형	-8.03913
▁할	-8.03914
▁철거	-8.04242
▁가격	-8.04556
▁발목을	-8.04903
▁계단실	-8.05106
▁사이	-8.05137
▁안전대	-8.05381
▁A	-8.05608
▁손	-8.05728
▁골절된	-8.06004
▁안전난간	-8.06089
▁손목	-8.06116
▁손을	-8.06167
▁**	-8.06416
▁다리	-8.06651
▁검지	-8.06925
▁것	-8.07242
▁박	-8.07845
호	-8.07946
드시	-8.0822
층으로	-8.08345
▁떨어지면서	-8.08508
▁부상을	-8.08788
▁운전자	-8.08822
▁위	-8.09966
▁하부로	-8.10087
▁지게차	-8.10271
▁확인하고	-8.10355
▁맞음	-8.10377
▁방지하기	-8.11264
▁각	-8.11791
▁끼어	-8.11831
H	-8.1292
▁고려하여	-8.13007
▁옹벽	-8.13733
▁수립	-8.13751
▁추락한	-8.13976
▁착용	-8.14474
▁피재자	-8.14646
▁정	-8.15721
▁불량	-8.15806
▁하나	-8.15934
▁시스템동바리	-8.16212
▁접촉	-8.1628
▁연결	-8.16331
명	-8.16596
▁판넬	-8.16903
▁발목이	-8.17417
▁작업대	-8.17481
이나	-8.17715
상	-8.17864
▁머리	-8.18034
작업	-8.18043
▁같은	-8.18183
▁상태로	-8.1855
▁자재가	-8.18563
▁등으로	-8.18613
▁다른	-8.18723
▁40	-8.18889
▁21	-8.18918
▁방지	-8.1915
▁상부에	-8.19221
▁치료	-8.19333
▁추락함	-8.19487
▁갱폼	-8.20053
▁충분한	-8.20231
▁재해자는	-8.2027
▁임의	-8.2031
▁청소	-8.206
▁개구부	-8.20752
▁50	-8.20781
▁띠장	-8.2141
▁위에	-8.21594
▁관리감독자	-8.21641
▁검토	-8.21757
▁아래	-8.21827
▁주의	-8.21844
빔	-8.21872
만	-8.21939
▁망치로	-8.22609
▁하역	-8.23068
조로	-8.23124
▁됨	-8.23178
하며	-8.23227
▁신호	-8.23418
▁슬래브	-8.23651
▁중에	-8.2371
▁확보	-8.23831
까지	-8.24284
▁구간	-8.24419
▁<	-8.24551
▁방법	-8.24687
▁틀비계	-8.2495
▁계획	-8.25167
▁사고자	-8.25325
▁배치	-8.25366
미터	-8.25467
▁견고	-8.25627
▁밟아	-8.25836
▁출입	-8.25865
▁당일	-8.26335
▁통로	-8.26781
▁내려오다	-8.26976
▁가설	-8.27036
▁지붕	-8.27092
▁미	-8.27098
▁와이어	-8.27149
▁사용하여야	-8.27253
▁것으로	-8.27372
▁튀어	-8.27815
▁기	-8.27853
▁몸의	-8.28029
▁안	-8.28282
▁1.5	-8.28509
▁주차장	-8.28575
▁부착	-8.2872
▁구조	-8.2891
개	-8.28998
▁19	-8.29004
▁손등	-8.29113
▁적재함	-8.29179
▁25	-8.29756
다	-8.30119
하던	-8.30222
▁통증을	-8.30338
리	-8.30388
▁길이	-8.30525
씨	-8.30591
▁임	-8.30718
▁덮개	-8.31041
▁제작	-8.31195
▁하중	-8.31305
▁하부에	-8.31515
번지	-8.31701
▁천정	-8.31737
수	-8.32253
▁통해	-8.32305
▁유지	-8.32554
▁서포트	-8.32759
▁낙하하여	-8.33355
▁설치하는	-8.33781
▁펌프카	-8.33917
▁설비	-8.3402
▁양중	-8.34161
▁가슴	-8.3417
▁통증이	-8.34203
▁마치고	-8.34433
▁유무	-8.34886
▁알폼	-8.3505
▁작업방법	-8.3563
▁화재	-8.35636
▁터파기	-8.35795
▁06	-8.3591
▁관리	-8.35995
▁수평	-8.36243
▁안전고리	-8.36409
6	-8.36722
▁가	-8.36849
▁안전한	-8.36859
▁핸드그라인더	-8.3688
▁관련	-8.36945
▁중량물	-8.37226
▁없는	-8.37592
▁석재	-8.3773
▁항타기	-8.37932
▁운반중	-8.38077
▁받음	-8.3839
▁하다가	-8.38518
▁간	-8.38699
▁병원으로	-8.38957
약	-8.38966
▁이동하던	-8.39136
▁갑자기	-8.3933
▁당함	-8.39388
▁자재에	-8.39474
▁있어	-8.39773
▁이상이	-8.4004
▁데크플레이트	-8.4019
사이에	-8.40387
▁강관	-8.40664
▁결속	-8.40699
kg	-8.40827
▁파손	-8.4121
▁내려	-8.41276
▁등이	-8.41304
▁인근	-8.41401
▁무리한	-8.41459
▁근로자에게	-8.41695
▁눈	-8.41792
▁안전벨트	-8.41815
▁맞아	-8.41895
▁17	-8.41948
균형을	-8.41972
▁04	-8.41978
▁이후	-8.42349
▁지지대	-8.42367
▁접질림	-8.42371
▁금지	-8.42418
거나	-8.4271
▁빠지면서	-8.42904
▁부분	-8.43247
함	-8.43304
▁안전성	-8.43455
▁빔	-8.43549
▁외벽	-8.4356
▁손이	-8.43686
톤	-8.43879
▁입은	-8.444
▁운전원	-8.44448
그림	-8.44482
▁약지	-8.44511
▁갈비뼈	-8.44577
▁18	-8.44689
▁사다리에서	-8.44723
▁전선	-8.44782
교	-8.45161
8	-8.45185
▁건물	-8.45188
▁되어	-8.45583
▁진료	-8.45611
▁고리	-8.45703
▁상	-8.45749
▁없	-8.45757
▁타격하여	-8.45782
▁천공	-8.46067
▁미끄러지며	-8.46068
▁떨어진	-8.46078
▁타일	-8.4612
▁정도	-8.4616
▁목재	-8.46177
▁추정	-8.46315
▁충분	-8.46356
▁102	-8.46496
어야	-8.46741
▁사망	-8.46769
하거나	-8.4692
▁설치작업	-8.46941
▁준비	-8.46996
▁헛딛어	-8.47167
▁단열재	-8.47198
▁부족	-8.47275
▁타박상	-8.47296
▁우려	-8.47503
재해자	-8.47556
▁붕괴	-8.47587
▁바닥에서	-8.47713
▁인지	-8.47772
▁호스	-8.47848
▁탈락	-8.47851
▁설치하여	-8.48295
▁03	-8.48762
▁엄지	-8.4902
▁블록	-8.49058
▁보강	-8.49125
11	-8.49166
▁고소작업대	-8.4996
▁C	-8.50139
되도록	-8.50387
▁사용하는	-8.505
▁대하여	-8.50536
▁된	-8.5081
▁본인	-8.51003
▁장소	-8.51024
T	-8.51145
▁24	-8.5116
7	-8.51567
장	-8.51582
공사	-8.5168
▁전도되어	-8.5179
▁이송	-8.52493
▁05	-8.52501
▁내려오다가	-8.52844
▁손으로	-8.53058
김	-8.53345
사고	-8.5356
▁이탈	-8.5364
▁통	-8.53655
▁수직	-8.53827
▁세대	-8.53857
▁이용	-8.53874
되면서	-8.54241
▁들어	-8.54453
▁하차	-8.54483
▁전기	-8.54522
▁취급	-8.54783
▁주	-8.54819
▁무게	-8.55642
▁수직재	-8.55647
▁1.	-8.55768
▁파열	-8.56028
▁안전조치	-8.56318
▁회전	-8.56451
▁최	-8.56453
▁얼굴	-8.56522
20	-8.56677
간	-8.56941
▁02	-8.57212
구	-8.57538
▁굴착기	-8.57625
▁어깨에	-8.57736
▁배근	-8.57877
▁정리정돈	-8.57893
▁임시	-8.57946
▁파이프를	-8.57995
▁덤프트럭	-8.58285
▁상황	-8.58727
▁가공	-8.58753
▁작동	-8.58786
▁잘못	-8.59206
▁통증	-8.59447
실	-8.59693
하던중	-8.59773
▁반입	-8.59837
▁팔꿈치	-8.59887
▁기존	-8.5991
▁101	-8.59944
▁철판	-8.60124
▁단순과실	-8.60277
▁옆	-8.60604
▁교체	-8.60618
다가	-8.60869
▁01	-8.61206
▁작업에	-8.61207
운	-8.61514
▁순서	-8.61657
▁승인	-8.61726
▁관한	-8.61865
상태	-8.62299
▁토류판	-8.62349
될	-8.62413
부	-8.62537
▁종료	-8.62701
▁엘리베이터	-8.62952
▁23	-8.63062
▁하지	-8.63132
▁같다	-8.63145
▁장소에	-8.63359
▁주장	-8.63601
▁골절이	-8.63618
▁허벅지	-8.63626
▁공구	-8.63671
00)	-8.63717
▁맨홀	-8.63736
▁못	-8.63743
▁구간에서	-8.63853
▁휴식	-8.63977
F	-8.6424
▁못을	-8.64297
▁교육	-8.64298
▁염좌	-8.6431
▁상부로	-8.64481
▁벽돌	-8.64671
▁균형	-8.6468
▁28	-8.64753
▁자재정리	-8.64775
▁있으므로	-8.64877
▁한쪽	-8.64941
▁X	-8.6525
어	-8.65345
정도	-8.65442
▁넘어진	-8.65505
▁새끼손가락	-8.65582
▁계단에서	-8.65585
▁없음	-8.6569
화	-8.66525
▁결정	-8.66638
▁리프트	-8.6695
▁받고	-8.67007
공구	-8.67052
▁하였으나	-8.67151
▁발생된	-8.67193
▁적재된	-8.67197
▁지면에	-8.67268
9	-8.67289
▁재해가	-8.67416
▁재료	-8.67563
목	-8.67643
▁힘을	-8.67675
▁못하여	-8.67725
▁내용	-8.67918
▁앞	-8.67976
▁조사	-8.68061
▁22	-8.68435
▁철근이	-8.68577
▁조정	-8.68656
관	-8.68841
▁사실	-8.68962
▁빠져	-8.69055
▁지지	-8.69093
▁다리가	-8.69175
▁내부에서	-8.69313
▁지하주차장	-8.6959
▁미착용	-8.69657
▁의하여	-8.69659
▁우마	-8.6973
2.	-8.70012
해	-8.70231
▁낙상	-8.70264
▁낙하물	-8.70461
▁조작	-8.70799
▁E	-8.7089
▁무리	-8.70893
▁넘어지는	-8.70922
▁발가락	-8.71044
▁판단	-8.71387
▁분리	-8.71453
▁드릴	-8.71789
▁미설치	-8.71793
▁00	-8.71848
▁아니	-8.72259
▁위로	-8.72339
▁팔	-8.72426
▁예방	-8.72493
▁설치한	-8.72603
▁실수로	-8.72688
현장	-8.72699
▁골절상을	-8.72715
▁포함	-8.73023
▁설치되어	-8.73264
▁목격자	-8.73419
▁거푸집이	-8.73492
▁가설계단	-8.735
▁단순	-8.73557
▁앞으로	-8.73577
▁전원	-8.73666
▁사고로	-8.73685
▁형틀목공	-8.73725
▁도로	-8.73737
(2	-8.73854
▁올라가	-8.73862
▁협착되어	-8.73911
▁발생하지	-8.74129
▁보호구	-8.74448
▁내려오는	-8.74568
▁안전난간대	-8.74577
위에서	-8.74631
▁장갑이	-8.74764
▁기타	-8.74778
▁정강이	-8.74845
▁파일	-8.74996
▁적정	-8.75019
▁근로복지공단	-8.75175
▁설계	-8.75352
▁폐기물	-8.75522
▁신고	-8.75571
▁트럭	-8.75629
▁발판에서	-8.75758
▁사고입니다	-8.75944
▁외	-8.75969
▁선정	-8.76007
▁잃어	-8.76543
▁상차	-8.76547
▁아웃트리거	-8.76593
대로	-8.76653
▁난간대	-8.76769
▁원인	-8.76789
▁돌	-8.76954
▁방향	-8.77109
▁수평재	-8.77168
▁개인보호구	-8.77297
▁수술	-8.77404
▁된다	-8.77457
▁바람	-8.77467
▁103	-8.77576
등	-8.77848
▁변형	-8.77862
지구	-8.78009
▁가능한	-8.78068
▁현재	-8.78223
▁허리에	-8.78392
▁옆으로	-8.78692
▁받아	-8.78705
▁장	-8.78707
▁잘	-8.78899
▁붐대	-8.79191
▁각파이프	-8.79207
▁사이로	-8.79229
▁협소	-8.7943
▁26	-8.79483
▁옆구리	-8.79519
▁104	-8.79534
▁시멘트	-8.79748
▁난간	-8.79843
▁입원	-8.79846
▁고정용	-8.8002
▁놓쳐	-8.8005
▁본	-8.80276
▁퇴근	-8.80304
▁따른다	-8.80322
▁27	-8.80401
▁발생하여	-8.80542
▁현장에	-8.80821
▁데크	-8.81031
▁후진	-8.81208
져	-8.81229
▁접근	-8.81339
부터	-8.81573
▁레미콘	-8.81774
▁불안정	-8.81789
▁강도	-8.81917
▁부위에	-8.82192
▁하부에서	-8.82327
▁지시	-8.82358
▁못이	-8.8236
▁상해를	-8.82396
조치를	-8.82409
▁실족	-8.82519
▁GUIDE	-8.82552
▁이동하여	-8.82962
▁시행	-8.83007
▁하기위해	-8.83297
12	-8.83327
V	-8.83413
▁측면	-8.8349
▁통제	-8.83761
▁작성	-8.83984
▁협력업체	-8.84009
▁직접	-8.84417
▁망치	-8.84477
▁끝부분	-8.846
▁후송	-8.84643
▁PC	-8.84702
▁밖	-8.84808
▁아닌	-8.84848
▁해체된	-8.84875
▁교량	-8.85004
▁물	-8.85102
▁부분이	-8.8516
▁지정	-8.85248
▁천장	-8.85321
▁거치	-8.8536
▁이동통로	-8.85565
▁추락사고	-8.85735
▁아파트	-8.85919
▁모서리에	-8.85924
▁이동시	-8.86002
▁골절되는	-8.86008
▁인대	-8.86055
▁미장	-8.86107
▁추진	-8.86184
▁붐	-8.86266
▁침하	-8.86567
▁계속	-8.86572
내	-8.86601
▁점검하고	-8.86699
▁설치중	-8.86835
▁장소에서	-8.86887
▁상단	-8.87042
▁케이싱	-8.87066
해야	-8.87079
구간에서	-8.87122
금	-8.87241
▁급	-8.87317
▁타격함	-8.87329
▁케이블	-8.87364
번째	-8.87503
▁공간	-8.87587
▁촬영	-8.87656
▁손잡이	-8.87711
▁폭	-8.87858
▁개인	-8.87939
40	-8.88256
▁작업하던	-8.88283
서는	-8.88294
▁유도	-8.88303
C	-8.88336
▁소재	-8.8835
되어야	-8.88422
▁조	-8.88499
▁실시하고	-8.88506
▁검사	-8.88521
▁동료작업자	-8.88538
▁안전대를	-8.88854
▁완전	-8.88906
▁핀	-8.8902
▁수행	-8.89033
▁29	-8.89043
▁검지손가락	-8.8905
▁보안경	-8.89102
▁화상	-8.89107
▁본인이	-8.8941
▁미흡으로	-8.89468
▁버팀대	-8.89601
▁폼	-8.89673
▁또한	-8.89786
▁무게중심	-8.89822
▁신	-8.89933
▁파이프가	-8.90003
▁호소	-8.90023
▁무릎이	-8.90026
▁강	-8.90135
▁다친	-8.90247
결과	-8.9034
▁사용할	-8.90352
▁옆에	-8.90372
▁경계석	-8.90413
▁옥상	-8.90462
▁날이	-8.90586
▁짚어	-8.90632
▁떨어지는	-8.90702
▁이용한	-8.90711
▁반출	-8.90901
▁발견	-8.9098
▁긴장	-8.90994
▁작업하여야	-8.91228
과정에서	-8.91562
▁다시	-8.91633
▁위치를	-8.91676
▁안전화	-8.917
부위	-8.91723
▁화장실	-8.91764
▁크레인으로	-8.91964
▁이내	-8.92212
▁램프	-8.92786
▁유	-8.92814
▁산재	-8.92849
▁건설기계	-8.9309
▁내에서	-8.93231
하였으나	-8.93317
▁가지	-8.93389
▁관	-8.93446
▁슬링벨트	-8.93579
▁바로	-8.93652
▁톱날에	-8.93696
▁본인의	-8.93725
토	-8.9385
선	-8.93982
▁간격	-8.94034
▁내려오던중	-8.94343
▁버팀보	-8.94418
▁2022	-8.9466
▁업무	-8.94688
▁확보하여야	-8.947
▁관로	-8.94845
설치	-8.94922
▁설치할	-8.95026
▁단부	-8.95153
으로부터	-8.95464
▁절단기	-8.95536
전	-8.95579
▁부딪힌	-8.95721
로부터	-8.95737
식	-8.95744
▁적절한	-8.95778
▁앵커	-8.95779
▁타	-8.95858
원	-8.95884
▁형틀공	-8.95938
▁부분을	-8.96092
씨는	-8.9626
▁운전	-8.96461
▁종아리	-8.96472
▁작업발판을	-8.9658
▁나무	-8.96585
▁못한	-8.96733
임	-8.9685
높이에서	-8.97025
A	-8.97052
▁부딪쳐	-8.97307
▁위치에	-8.97328
▁일어난	-8.97492
▁미준수	-8.97515
▁운반하던	-8.97583
▁터널	-8.97599
▁절곡기	-8.97633
▁않는	-8.97754
▁처리	-8.97851
▁신청	-8.98164
▁석고보드	-8.98394
▁찰과상	-8.98411
▁레일	-8.98427
▁계단을	-8.98612
▁상승	-8.98695
▁인양작업	-8.98704
▁공사현장	-8.98803
▁설치하기	-8.98858
에도	-8.98971
▁바닥을	-8.99051
▁적합한	-8.99052
▁운전원이	-8.99077
▁이동하는	-8.99117
▁배수	-8.99231
린	-8.9941
▁줄걸이	-8.99582
▁105	-8.99962
▁주변에	-9.00076
▁앞에서	-9.00093
대	-9.00116
적	-9.00119
▁열상	-9.00206
▁뒤	-9.00252
▁늑골	-9.00253
▁손목이	-9.00322
▁시작	-9.00673
터널	-9.00741
▁당시	-9.00828
▁수시	-9.00837
▁과실	-9.00892
▁눈에	-9.01136
▁떨어지며	-9.01156
▁놓은	-9.01258
▁오른발	-9.01469
▁철근공	-9.01478
▁L	-9.01494
▁장애물	-9.01577
▁병원에서	-9.01686
▁통보	-9.01701
▁보수	-9.01727
B	-9.01729
하려고	-9.01896
▁끼여	-9.02037
▁끝	-9.02119
P	-9.0224
▁하	-9.02478
▁기계실	-9.02818
▁해체중	-9.03015
▁부분에	-9.03016
▁미확인	-9.03073
▁협착됨	-9.03079
▁재해발생	-9.03147
▁물질	-9.03162
▁작업구간	-9.03315
▁백호	-9.03349
▁KOSHA	-9.03458
도중	-9.03559
▁하다	-9.03748
▁있다	-9.03783
적으로	-9.0387
▁사다리가	-9.03898
병원으로	-9.03956
▁받침목	-9.0402
▁잔재물	-9.04023
▁유리	-9.04034
▁피해	-9.04092
▁순간적	-9.04154
▁비	-9.04254
▁T	-9.04313
▁중량	-9.04873
기구	-9.04875
▁철저히	-9.04955
시켜야	-9.05092
▁거푸집에	-9.05125
▁제출	-9.05232
▁방향으로	-9.05243
50	-9.05264
**(	-9.05387
?	-9.05538
▁서	-9.05686
▁들어가	-9.05832
▁되메우기	-9.05916
▁호이스트	-9.05988
하다가	-9.06113
됨	-9.0613
▁실시하여	-9.06299
▁바지선	-9.06333
▁확인하지	-9.06453
시간	-9.06528
▁해체작업중	-9.06781
0	-9.06791
▁샤클	-9.06908
호기	-9.07055
▁2.5	-9.07105
▁적치	-9.07131
▁정리작업	-9.07291
▁지하층	-9.07311
▁위해서	-9.07372
▁피해자	-9.07489
▁카고크레인	-9.07556
해서	-9.07677
당	-9.0768
▁찔림	-9.07824
▁철근배근	-9.07912
▁재	-9.08028
▁영향	-9.0815
▁상해	-9.08165
(1	-9.08234
▁항	-9.08237
▁병원에	-9.08313
▁착지	-9.08334
▁후크	-9.08514
▁질병	-9.08559
▁없이	-9.08698
▁남	-9.08748
▁작업도중	-9.08768
▁P	-9.08774
▁작업전	-9.09051
▁응급실	-9.09217
▁파이프에	-9.09375
▁넘어	-9.09442
▁충돌하여	-9.09523
▁방지를	-9.09702
▁모든	-9.09897
▁미체결	-9.09913
▁예방하기	-9.0995
▁브라켓	-9.09974
▁연결부	-9.10051
있는	-9.10154
▁보관	-9.10194
▁마무리	-9.10479
쪽으로	-9.10702
▁없어	-9.10736
▁지침	-9.10759
▁도착	-9.10951
▁브레이크	-9.10956
▁복공판	-9.11015
▁종류	-9.11094
▁타고	-9.11165
▁곳에	-9.11196
▁진입	-9.11386
▁내리는	-9.11407
▁날	-9.11463
▁취	-9.11809
▁고임목	-9.11817
▁확인한	-9.1183
▁하강	-9.11837
▁작업이	-9.12041
▁발판이	-9.12047
▁출입구	-9.12055
▁소운반	-9.12082
▁1.2	-9.12135
▁PIT	-9.12148
▁유도자	-9.12238
▁구멍	-9.12408
▁조립작업	-9.12658
▁근무	-9.12953
BL	-9.12992
▁클램프	-9.13055
▁튕겨	-9.13069
▁필요	-9.13245
▁작업순서	-9.13268
▁동시	-9.13278
▁대책	-9.13391
▁앵글	-9.13447
▁자재운반	-9.13464
시설	-9.13529
위험이	-9.13729
▁작업계획	-9.13926
▁작업으로	-9.13926
▁작업자세	-9.1403
▁별도	-9.14168
]	-9.14258
3.	-9.14378
▁받은	-9.1447
▁부근	-9.14585
장비	-9.14623
▁대	-9.1479
▁협력사	-9.14872
▁오	-9.15046
비계	-9.1505
▁000	-9.15114
15	-9.15176
공	-9.15383
▁목재를	-9.15404
라	-9.15434
별	-9.1557
▁사고자가	-9.15582
중인	-9.15638
▁내부로	-9.15737
D	-9.1608
▁집수정	-9.16188
▁돌출된	-9.16264
▁지주	-9.16429
콘크리트	-9.16478
▁공법	-9.16482
수지	-9.16532
성	-9.16577
▁있을	-9.16694
명과	-9.16699
▁자세로	-9.16991
▁삽입	-9.17035
▁보조	-9.17052
작업자	-9.17119
▁착용하여야	-9.17177
▁먼저	-9.17261
▁부딪침	-9.17261
▁강재	-9.17268
▁미확보	-9.17286
없이	-9.17462
▁덕트	-9.17554
▁전달	-9.17603
▁인양물	-9.17646
▁투입	-9.17743
▁안전장치	-9.17787
▁이에	-9.17971
배관	-9.18031
▁충격으로	-9.18122
▁과정에	-9.18141
▁끝마디	-9.18355
▁보호	-9.18359
▁흔들리	-9.18469
▁하였고	-9.18497
▁운행	-9.18594
▁엉덩이	-9.18788
▁인부	-9.1889
▁비산	-9.19101
▁모서리	-9.19124
▁부	-9.19141
▁탑승	-9.19189
하였고	-9.19219
▁파악	-9.19295
▁목공	-9.19554
▁/	-9.1958
▁접지	-9.19664
보	-9.19727
블럭	-9.19821
동시에	-9.20081
▁공사중	-9.20101
▁D	-9.20165
회	-9.20206
제	-9.20357
▁안전교육	-9.20382
▁강풍	-9.20684
▁시간	-9.20709
▁건설공사	-9.20779
▁발생됨	-9.2101
발생	-9.21026
▁사면	-9.21055
▁보지	-9.21063
▁다짐	-9.21222
▁손에	-9.21247
▁신체	-9.21253
남	-9.21398
위해	-9.21426
▁설치작업을	-9.21519
▁천공기	-9.21554
▁내리던	-9.21681
▁주탑	-9.2172
▁쓰러짐	-9.21731
▁흔들림	-9.21756
▁스위치	-9.21942
▁인접	-9.21973
▁무너짐	-9.22016
▁인대가	-9.22054
▁위험요인	-9.22143
13	-9.22161
16	-9.22213
▁흙	-9.22264
▁계측	-9.22287
▁심	-9.22331
▁홀	-9.22417
▁충격이	-9.22476
▁타박상을	-9.22486
여부	-9.22663
▁찢어짐	-9.22962
군	-9.23044
”	-9.23063
차로	-9.23082
▁발파	-9.23096
▁되지	-9.2318
▁천막	-9.23481
층바닥	-9.23704
'	-9.23912
▁옮기던	-9.23939
▁작업용	-9.24106
▁강타	-9.24143
▁옮기는	-9.24177
▁자상	-9.24206
▁피부	-9.243
▁착용하고	-9.24301
▁깊이	-9.24349
자재	-9.24372
▁마감	-9.24474
▁진동	-9.24612
▁절단작업	-9.24695
▁지상으로	-9.24803
▁지면으로	-9.2509
유로폼	-9.25135
▁경사면	-9.25217
▁이물질	-9.25248
▁소화기	-9.25249
▁미비	-9.25351
▁자	-9.25374
▁특성	-9.25427
▁현장의	-9.25517
▁두	-9.25786
▁쪽으로	-9.25843
▁미장작업	-9.25976
▁반영	-9.26165
▁이동하다가	-9.26309
해체	-9.26436
▁놓치면서	-9.26436
▁질환	-9.26558
L	-9.26653
▁하단	-9.26691
▁맞	-9.26957
▁안전작업	-9.26965
하다	-9.26991
▁측정	-9.2714
▁전방	-9.27343
"	-9.27521
▁작업계획서	-9.27602
▁받침대	-9.27762
외	-9.27854
▁곳	-9.2787
미리	-9.27984
▁규격	-9.28123
▁바퀴	-9.28486
▁기사	-9.28543
▁지면	-9.28638
판넬	-9.28771
*	-9.28772
▁사업주	-9.28808
▁윈치	-9.28809
던중	-9.28821
▁주입	-9.28861
▁안전시설	-9.28865
▁사용하고	-9.28887
▁잡고있던	-9.28985
▁검토하여	-9.29087
▁근처	-9.29108
▁발생하였음	-9.29121
▁신호를	-9.29132
▁수목	-9.29495
▁작업종료	-9.29607
▁부재를	-9.29775
▁날에	-9.2987
▁쓰러져	-9.30058
▁요양급여	-9.30092
▁의식	-9.30129
▁있음	-9.30154
▁MRI	-9.30173
▁안전발판	-9.30175
▁기준	-9.30185
▁부러지	-9.30227
▁건축물	-9.30485
▁있는지	-9.305
▁발생할	-9.30657
여	-9.30707
▁부딪히	-9.30987
▁자세	-9.31035
▁최초	-9.31067
▁헛디딤	-9.31319
▁접수	-9.31389
▁천공작업	-9.31416
▁반동	-9.31482
병원	-9.31527
▁45	-9.316
▁추가	-9.31917
▁뛰어	-9.32098
▁고정된	-9.32183
▁선	-9.32265
▁흄관	-9.32267
▁성능	-9.32279
▁경사로	-9.32282
▁31	-9.32343
▁정지	-9.32456
▁왼손으로	-9.32508
▁적용	-9.32557
▁기대어	-9.32583
▁작업발판에서	-9.32623
▁OOO	-9.3269
▁“	-9.32691
▁멍에재	-9.32778
▁고	-9.32806
▁1.8	-9.32898
▁교각	-9.32962
▁확인하여	-9.33131
▁가스	-9.33248
▁되는	-9.33319
18	-9.33367
▁작업장에서	-9.33444
▁환기	-9.33548
▁굴러	-9.33552
▁벽체거푸집	-9.33749
▁신속	-9.33871
▁특히	-9.33878
▁왼발	-9.34216
▁통행	-9.34248
▁방법으로	-9.34255
▁작업은	-9.34264
▁[	-9.34324
▁지상에서	-9.34413
려	-9.3459
▁쉬	-9.34755
▁후면	-9.34767
▁작업자에게	-9.34813
▁뒤꿈치	-9.35036
▁골절상	-9.35061
▁작업후	-9.3507
ray	-9.35126
하기위해	-9.35176
▁미실시	-9.35184
▁과도	-9.35186
▁철근망	-9.35213
▁중인	-9.35254
열	-9.35271
▁월요일	-9.35427
▁호소하여	-9.35463
▁"	-9.35475
▁법면	-9.35493
▁작업자와	-9.35511
▁인력으로	-9.35588
▁버킷	-9.35626
하부	-9.35696
▁단독	-9.35793
▁비계파이프	-9.35803
▁유해	-9.35834
14	-9.35869
▁화물차	-9.36022
▁양	-9.36102
▁거더	-9.36152
▁요청	-9.3628
▁동일	-9.36346
▁주변에서	-9.36402
BEAM	-9.36451
▁몸	-9.36469
거푸집	-9.36495
▁철재	-9.36512
▁양수기	-9.36532
▁지장물	-9.36563
▁팔목	-9.36582
▁믹서기	-9.36632
▁당해	-9.36856
▁손가락에	-9.37138
장치	-9.37603
▁주위	-9.37662
▁대피	-9.37684
▁공구를	-9.37691
▁시설	-9.37721
▁무릎에	-9.37747
▁문	-9.37748
마다	-9.3782
▁철탑	-9.3796
▁전도되면서	-9.37985
하였으며	-9.37989
07	-9.38045
▁창호	-9.38076
▁화약류	-9.38215
으며	-9.38228
▁상기	-9.38262
▁이하	-9.38481
▁108	-9.38539
(4	-9.3854
음	-9.38641
▁변경	-9.39056
▁방수	-9.39067
▁기록	-9.39077
▁최종	-9.39186
▁작업장소	-9.39189
▁안전수칙	-9.39212
▁가격함	-9.39249
▁보양	-9.3928
▁지지력	-9.39282
읍	-9.39324
▁우천으로	-9.39349
▁그라우팅	-9.39508
▁있어야	-9.39515
W	-9.39602
재	-9.39639
▁사용하지	-9.3971
▁이외	-9.39749
▁내부에	-9.39849
4.	-9.39891
▁미숙	-9.39986
09	-9.40118
▁인양용	-9.402
▁하면서	-9.40257
▁엉덩방아	-9.40563
▁않음	-9.40572
▁고속절단기	-9.40581
이상	-9.40581
▁멍에	-9.40644
▁작업반경	-9.40681
▁요구	-9.40879
▁공정	-9.40955
▁왜	-9.41235
자재를	-9.41345
▁중앙	-9.41371
▁파단	-9.41429
▁항타	-9.41501
▁과정	-9.41525
▁하역작업	-9.41526
박	-9.41733
▁하였음	-9.41756
▁새끼	-9.41857
▁안면부	-9.41914
▁출근	-9.41924
▁손수레	-9.41958
▁다음날	-9.4201
▁안전시설물	-9.42035
▁맞지	-9.42074
▁벽	-9.42138
사	-9.42184
▁이음	-9.42234
▁큰	-9.42339
▁차	-9.42418
▁수직보호망	-9.42446
▁손바닥	-9.42518
▁놓	-9.42589
▁연결된	-9.42616
▁예정	-9.42646
▁핸드	-9.42725
▁목	-9.42857
▁불량으로	-9.42874
근로자	-9.42943
골절	-9.42981
▁것이	-9.4301
▁안쪽	-9.43071
▁감	-9.43223
▁최대	-9.43337
▁지하매설물	-9.4335
▁구조물에	-9.43371
▁압송관	-9.4339
▁방호선반	-9.43461
▁응급조치	-9.43471
▁우	-9.43562
▁목요일	-9.43563
▁틈	-9.43701
하였음	-9.43755
▁배수로	-9.43768
S	-9.43946
▁야적	-9.43947
▁근로복지공단에	-9.44048
우측	-9.44159
▁107	-9.44175
▁버켓	-9.44315
▁못함	-9.44371
▁양생	-9.44466
▁타설중	-9.44566
▁수정	-9.44571
▁철근조립	-9.44597
▁딛	-9.44754
▁운반하는	-9.44773
▁전도됨	-9.44853
▁부딪히면서	-9.44911
▁중간	-9.44933
바	-9.44934
▁토요일	-9.44938
하였습니다	-9.44952
▁산업재해	-9.45053
▁금요일	-9.45126
▁벽체에	-9.45357
▁철근가공	-9.45397
▁균열	-9.45435
▁U	-9.45456
▁펌프	-9.4547
▁철선	-9.45494
▁이동하다	-9.45513
▁매설물	-9.4564
▁발판에	-9.45688
정	-9.457
▁잡아	-9.4573
00(	-9.46024
▁원칙	-9.4619
▁장치	-9.46191
▁올라가던	-9.462
▁느껴	-9.46211
▁운전석	-9.46256
▁밀려	-9.46271
▁앉아	-9.46342
▁크기	-9.46344
▁채	-9.46345
▁안구	-9.46353
▁변위	-9.46399
려고	-9.4654
▁어디서	-9.46605
25	-9.46627
▁설치작업중	-9.46919
길이	-9.46943
놓은	-9.46976
▁관계	-9.47038
▁106	-9.47065
▁기구	-9.47097
▁왼쪽발	-9.47157
▁렌탈	-9.47234
02	-9.47423
질	-9.47435
기위해	-9.47653
토록	-9.47668
작업자가	-9.47689
▁근린생활시설	-9.47693
▁튀면서	-9.47696
▁이동식틀비계	-9.47814
▁화요일	-9.47845
▁차단	-9.47908
▁'	-9.47951
▁사	-9.47991
▁비래	-9.47998
▁이송하여	-9.48185
19	-9.48211
▁동작	-9.48217
▁주차	-9.48244
▁박스	-9.48332
▁슬라브에서	-9.48376
[	-9.48382
쪽	-9.48499
▁고소작업	-9.48612
▁대차	-9.48672
▁대기	-9.48698
▁놓여	-9.48707
치	-9.48982
~	-9.49043
표	-9.49191
▁밀리면서	-9.492
▁옥탑	-9.49203
▁전동드릴	-9.49204
▁결함	-9.49273
▁끼이면서	-9.49283
▁변화	-9.49388
▁화기	-9.49421
▁주요	-9.49444
▁넘어져서	-9.49447
▁지점	-9.49493
위	-9.49675
▁표시	-9.49737
▁단차	-9.49867
▁발생하는	-9.49903
개소	-9.49924
ing	-9.50081
▁이동하기	-9.50127
▁정상적	-9.50196
▁당현장	-9.50371
▁상황에서	-9.50445
▁씨가	-9.50478
▁받침	-9.50491
▁가지러	-9.507
▁대응	-9.50706
▁유도로프	-9.50741
▁사망함	-9.50762
▁도장	-9.50911
▁자중	-9.51034
▁감전	-9.5134
▁굴착면	-9.51464
▁작업대차	-9.51556
▁포장	-9.51738
▁전체	-9.51738
▁단부에	-9.51746
▁짚으	-9.51872
▁미고정	-9.51897
▁추락방지	-9.51898
▁정리중	-9.51981
▁등과	-9.51986
▁안면	-9.52049
목격자	-9.52079
▁작업하는	-9.52117
▁대상	-9.5215
▁일용직	-9.5224
▁안전통로	-9.52262
▁메고	-9.52266
▁혼자	-9.5228
▁걸리면서	-9.52332
▁요양	-9.52334
▁내원하여	-9.52368
▁규정	-9.52406
▁상단에	-9.52439
▁인화성	-9.52459
▁때문	-9.52557
(3	-9.52639
박스	-9.5283
방향	-9.52876
08	-9.5289
구역	-9.52962
17	-9.52978
▁힘이	-9.53017
방문하여	-9.53034
▁설치한다	-9.53096
▁경과	-9.53144
▁유로폼에	-9.53153
▁공사현장에서	-9.53183
▁작업중인	-9.53208
▁매	-9.53276
호세대	-9.53323
▁나	-9.53389
▁방문	-9.53743
▁최소화	-9.53748
▁누수	-9.53771
본	-9.53784
▁접지름	-9.53805
▁이상유무	-9.53813
▁보강토	-9.53838
▁끼	-9.53892
▁진행중	-9.53929
▁확실	-9.54066
소속	-9.54083
▁위험성	-9.5414
▁귀가	-9.54148
▁놓고	-9.54218
방법	-9.54463
▁전동	-9.54478
▁정비	-9.54497
▁미끄러	-9.54548
▁산소	-9.55091
▁해상	-9.55289
센터	-9.5538
▁의사소통	-9.55389
▁오른손으로	-9.55398
▁불일치	-9.55409
▁낙하물방지망	-9.55435
▁비닐	-9.55485
▁컨테이너	-9.55491
▁CT	-9.55513
▁정확한	-9.55562
및	-9.55587
▁보강재	-9.5563
▁양중작업	-9.5565
▁PE	-9.55709
줄	-9.55712
▁낙하로	-9.55733
▁보행	-9.55813
▁간섭	-9.55813
CM	-9.55816
▁기설치	-9.55939
▁벽에	-9.56023
위로	-9.56036
▁후방	-9.56081
▁철거작업	-9.56135
▁어떻게	-9.56273
판	-9.56287
▁무엇을	-9.56293
항	-9.56293
것으로	-9.5633
▁차량이	-9.56562
▁배	-9.56568
▁해체하여	-9.56588
26	-9.5662
▁보통인부	-9.56627
▁틈새	-9.56689
▁않	-9.56884
▁원형톱	-9.57018
▁다치는	-9.57018
▁레미탈	-9.57022
▁심폐소생술	-9.57022
▁지보공	-9.57046
▁세워	-9.57075
▁걸고	-9.57103
▁수신호	-9.57226
▁끼인	-9.57272
하므로	-9.57285
▁다	-9.57319
▁원	-9.5741
▁배치하여	-9.57428
▁많	-9.57519
▁차량에	-9.57743
▁마디	-9.57763
하	-9.57967
▁물기	-9.57982
▁작업자간	-9.58135
▁F	-9.58243
▁입	-9.58273
▁받	-9.58325
▁하천	-9.58393
▁필요시	-9.58421
▁걸어	-9.58487
▁부식	-9.5856
▁재단	-9.58609
▁장기간	-9.58641
▁마지막	-9.58642
▁인양하여	-9.58755
▁기울기	-9.58768
▁발에	-9.58817
▁두어야	-9.58837
▁걸쳐	-9.58983
▁조절	-9.58991
▁적재되어	-9.59072
▁언제	-9.59074
▁단순과실로	-9.59088
▁윤	-9.59253
▁반복	-9.59452
인이	-9.59507
▁불	-9.59609
▁만	-9.59631
▁용접작업	-9.59704
▁자재와	-9.59769
▁충돌한	-9.59958
설비	-9.59988
▁작업공간	-9.60045
▁일반적	-9.60129
▁블럭	-9.60185
▁사무실	-9.60193
▁높은	-9.60312
▁신호체계	-9.6033
▁불티	-9.60349
▁발견하지	-9.60425
▁밴드	-9.60482
▁각목	-9.60509
▁장갑	-9.60543
보다	-9.60577
철근	-9.60616
▁경사	-9.60673
형강	-9.60807
▁동선	-9.60821
▁전방주시	-9.60962
▁협착사고	-9.61007
▁해체한	-9.61134
▁손목을	-9.61186
▁거리	-9.61221
▁반대편	-9.61263
▁현장소장	-9.61296
▁압력	-9.61299
▁줄	-9.613
▁황	-9.61373
▁미끄러짐으로	-9.6148
▁강선	-9.6164
▁60	-9.61646
아	-9.61687
▁조적	-9.6177
▁타설작업	-9.61857
▁깔림	-9.61954
▁미사용	-9.61962
▁각종	-9.61992
▁있었으나	-9.61993
▁방망	-9.61995
▁거푸집과	-9.62002
▁설계변경	-9.6203
▁부적절	-9.62032
▁초과	-9.62039
▁작업반장	-9.62063
▁세그먼트	-9.62069
▁싣고	-9.62087
▁옷	-9.6209
▁연결핀	-9.62158
▁트러스	-9.62163
04	-9.62192
▁내에	-9.62312
▁고정핀	-9.62329
06	-9.62348
▁이동식비계	-9.62439
▁수리	-9.62448
▁탈락되어	-9.62483
▁장비가	-9.62541
빔을	-9.62605
21	-9.62628
력	-9.62815
▁화물	-9.62836
▁일반	-9.62896
▁밑	-9.63055
▁금일	-9.63068
▁체인	-9.63118
▁인발	-9.63317
▁몸이	-9.63356
▁연락	-9.63638
▁절차	-9.63708
▁매설	-9.63709
▁뛰어내려	-9.63712
▁누전차단기	-9.63715
▁공기	-9.63749
▁다만	-9.638
▁횡대	-9.63806
▁비계공	-9.63934
▁못해	-9.6406
▁풀려	-9.64073
▁더	-9.6418
▁이탈하여	-9.64186
▁힘	-9.64341
로프	-9.64377
아래로	-9.64439
▁설계도서	-9.64453
▁서로	-9.64454
▁교대	-9.64461
계획	-9.6452
▁형상	-9.64599
▁안전사고	-9.64602
거더	-9.64667
▁출입금지	-9.64718
▁롤러	-9.64734
▁부근에서	-9.64886
▁출입문	-9.64974
▁동	-9.65014
▁비치	-9.65147
▁넘어가	-9.65167
→	-9.6517
▁#	-9.653
▁붙어	-9.65319
▁말뚝	-9.6538
▁내려가던	-9.65381
(6	-9.6539
▁근육	-9.65402
▁유해가스	-9.65472
▁올려	-9.65473
▁각각	-9.65485
▁말려들어가	-9.65493
▁안전대책	-9.65509
▁가이드	-9.65548
단에서	-9.65621
▁입구	-9.65625
▁잭	-9.6565
▁용기	-9.6566
▁토사를	-9.65679
▁송	-9.65725
▁수요일	-9.6575
▁밸브	-9.65842
상부에서	-9.65862
▁소	-9.65886
▁슈	-9.65999
종	-9.66099
▁정한	-9.66119
▁정리하던	-9.66257
▁낙상사고	-9.66275
병원에서	-9.66337
산	-9.66399
▁몸을	-9.66404
▁일어나	-9.66526
▁인력	-9.66726
▁우수	-9.66801
▁타격한	-9.66828
▁유압	-9.66891
▁바	-9.67001
▁금이	-9.67092
▁자신	-9.67263
▁찍힘	-9.67269
▁빗물	-9.67285
▁아침	-9.67314
▁주장함	-9.67317
▁판정	-9.67327
▁M	-9.67369
▁주차장에서	-9.67372
년생	-9.67376
▁목수	-9.67545
▁서서	-9.67619
beam	-9.67646
▁후에	-9.67691
추정	-9.67775
내려오면서	-9.6782
▁소견	-9.67869
▁이상인	-9.67947
▁굴착작업	-9.68011
▁끼이	-9.6807
▁조명	-9.68106
▁설치하던	-9.68152
▁뒷꿈치	-9.68431
것을	-9.68604
▁덤프	-9.68626
▁케이지	-9.68712
▁바닥면	-9.68809
▁마스트	-9.68868
▁비계에서	-9.68875
▁대해	-9.68963
▁의견서	-9.68974
▁이상으로	-9.69041
▁인근에서	-9.69054
▁작업지휘자	-9.69099
▁지렛대	-9.6911
▁지	-9.69154
▁방지망	-9.6917
▁허리통증	-9.69215
▁사람	-9.69236
▁가로보	-9.69333
▁백	-9.69337
24	-9.69426
▁안전로프	-9.69441
▁정상	-9.69528
Beam	-9.69571
▁플레이트	-9.69641
▁고소	-9.69708
▁지속적	-9.70145
▁이동하던중	-9.70154
드	-9.70226
▁세우기	-9.706
▁최소	-9.70742
▁대구	-9.70791
▁하였으며	-9.70842
▁압출	-9.70887
▁정확히	-9.70974
▁90	-9.70976
▁옮겨	-9.7098
▁작업시작	-9.70994
▁강구	-9.71002
▁외부로	-9.7101
▁병원진료	-9.71015
▁뒷걸음질	-9.71016
▁창상	-9.71024
▁대퇴부	-9.71062
▁어	-9.71082
▁대해서	-9.71089
주간	-9.71091
▁형틀작업	-9.7114
▁수직도	-9.71153
▁수립하고	-9.71214
▁해제	-9.71319
▁엄지발가락	-9.7138
▁외부비계	-9.71381
촬영	-9.71387
▁설계에	-9.71447
▁삐끗	-9.71607
▁비계파이프를	-9.71611
▁하도급업체	-9.71661
▁뚜껑	-9.71692
▁철물	-9.71774
▁전도로	-9.71778
길	-9.7179
▁접질러	-9.7183
▁이동중에	-9.71843
▁협의	-9.71919
러	-9.71976
홀	-9.72118
▁35	-9.72152
▁증가	-9.72213
▁시야	-9.72218
▁불안전	-9.72268
▁해체하는	-9.72363
▁도중에	-9.72398
▁발코니	-9.72448
기초	-9.72477
▁재해자와	-9.72478
현장에서	-9.72593
▁판단하여	-9.72682
23	-9.72741
01	-9.72803
▁불구하고	-9.72813
▁시설물	-9.72813
▁부주위	-9.72816
▁경험	-9.72823
▁추락방지망	-9.72838
▁치수	-9.72999
▁인상	-9.73031
역	-9.73088
인치	-9.7311
▁앙카	-9.73114
▁이동식크레인	-9.73214
▁장소로	-9.73268
▁유공발판	-9.73303
▁대비하여	-9.73451
▁일을	-9.73451
▁포설	-9.73487
▁고정작업	-9.73535
▁강관파이프	-9.7354
▁소음	-9.73677
ᆞ	-9.73915
▁승강	-9.73965
▁접	-9.74027
른	-9.74051
▁금	-9.74079
트	-9.74087
▁지급	-9.74147
▁부터	-9.74207
▁착용한	-9.74209
▁이용해	-9.74219
사이	-9.74245
▁방수작업	-9.74283
▁고려한	-9.7431
▁원형	-9.74312
▁인장	-9.74345
▁쌓기	-9.74394
▁방치	-9.74409
▁불꽃	-9.74499
▁양쪽	-9.74604
▁인양할	-9.74606
▁작업진행	-9.74631
▁식사	-9.7474
▁실린더	-9.74751
▁빠지며	-9.7476
▁부착설비	-9.74772
▁느낌	-9.74774
▁망치질	-9.74845
▁검사결과	-9.74883
▁두번째	-9.74886
▁보고함	-9.74903
▁지하수	-9.74967
▁직원	-9.74969
라고	-9.74976
▁배치하고	-9.75011
▁벽면	-9.75011
▁이때	-9.75125
▁석공사	-9.75198
부위가	-9.75283
▁달비계	-9.75323
개가	-9.75403
▁문틀	-9.75445
▁인양고리	-9.75458
▁걸리	-9.75561
▁인양중	-9.75576
▁사용시	-9.75661
▁공종	-9.75791
파이프	-9.75809
▁구	-9.75829
토건	-9.7585
▁적재함에	-9.75947
▁내려놓	-9.75971
▁골절사고	-9.76003
▁곳에서	-9.76018
▁튕기	-9.76053
▁상부의	-9.76132
▁건	-9.76136
▁절단중	-9.76174
▁코어	-9.76189
▁훅	-9.76341
▁지면서	-9.76381
▁점	-9.76407
▁제거하기	-9.7642
05	-9.76449
▁상처	-9.76507
R	-9.76532
▁제거하고	-9.76545
▁직영	-9.76545
▁말려	-9.76664
▁건드려	-9.76697
부분이	-9.76697
▁흔들려	-9.76699
NA	-9.76702
▁갑작스	-9.76709
▁걸	-9.76741
▁업무상	-9.76744
▁경기도	-9.76747
▁안정성	-9.7676
빔에	-9.76771
▁굴착공사	-9.76777
▁기능	-9.76812
▁해머	-9.76836
▁미끄러운	-9.76884
▁1>	-9.76893
▁소형	-9.76921
▁오수관로	-9.76931
▁컷팅	-9.77086
▁멈추	-9.77133
이며	-9.77137
다고	-9.77177
▁STA	-9.77277
▁의사	-9.7729
안	-9.77299
h	-9.77306
▁추진관	-9.77334
▁○	-9.77438
▁내린	-9.77505
▁그레이팅	-9.77523
▁전면	-9.77568
▁근로자와	-9.77719
▁옥상에서	-9.77828
▁수립하여	-9.77881
▁잔여	-9.78038
폼	-9.78114
▁답단	-9.7817
▁둥근톱	-9.78353
▁접합	-9.78486
부분	-9.7864
22	-9.78686
▁부득이	-9.78721
ME	-9.78733
▁평가	-9.78743
▁산재처리	-9.78748
▁경사진	-9.78755
▁PS	-9.78789
▁베이	-9.78921
▁사고원인	-9.78935
석	-9.79104
▁무리가	-9.79141
(***)	-9.7918
▁위치에서	-9.79188
▁사망한	-9.79389
▁걸린	-9.79469
▁미끄럼	-9.7948
▁담	-9.79484
▁해	-9.79492
라인	-9.79511
▁부설	-9.7959
량	-9.79598
▁조립중	-9.79604
▁물건	-9.7966
▁벌목	-9.79688
▁사다리에	-9.79695
▁사항에	-9.79841
▁프레임	-9.80044
▁고장	-9.80058
▁양손	-9.80215
-1	-9.80326
▁타공	-9.8043
▁진단서	-9.80486
▁생각	-9.80595
▁부석	-9.80635
힌	-9.807
▁방음벽	-9.80751
벽체	-9.80757
▁넘어지지	-9.80758
▁추정됨	-9.80797
▁빠짐	-9.80802
▁부딪히며	-9.80838
▁경미한	-9.80859
▁철근사이	-9.80859
▁작동상태	-9.80895
점	-9.80896
▁미처	-9.80915
▁준비중	-9.80941
▁상호	-9.80995
▁시점	-9.81008
▁정기적	-9.81045
▁분전반	-9.81087
▁상단부	-9.81093
▁담당자	-9.81156
▁작업발판이	-9.81225
▁매립	-9.8142
▁두부	-9.81499
▁설치상태	-9.81644
▁절단작업중	-9.81701
킬	-9.8171
27	-9.81782
▁S	-9.8181
▁바닥이	-9.8202
▁가격한	-9.82119
▁불가	-9.82148
▁스라브	-9.82166
하고자	-9.82193
▁마대	-9.82211
▁비계에	-9.8223
▁당한	-9.82234
▁누가	-9.8228
▁전문가	-9.82321
▁설치공사	-9.82365
▁보일러	-9.82541
▁공급	-9.82696
▁불승인	-9.82818
▁방호	-9.82823
▁주지시켜야	-9.82831
▁진찰	-9.82836
▁위험성평가	-9.82836
▁커터칼	-9.82837
▁캐노피	-9.82862
▁합벽지지대	-9.82864
▁포크레인	-9.82867
▁접질려	-9.82871
▁힘줄	-9.82873
▁풀리면서	-9.82892
▁슬리브	-9.82942
▁모래	-9.82961
간의	-9.83026
▁받아야	-9.83043
▁PVC	-9.8308
▁비트	-9.83169
▁정격하중	-9.83172
▁밴딩기	-9.83216
▁파편이	-9.83267
▁절단하던	-9.83276
▁빼내	-9.83283
▁오른	-9.83428
▁운반하여	-9.83453
▁포함한	-9.83493
▁관리자	-9.83553
▁시공사	-9.83584
▁구조적	-9.83626
▁작업하다	-9.83649
▁추락하는	-9.83658
▁범위	-9.83693
스	-9.83768
▁각도	-9.83781
▁집중	-9.83853
▁바퀴에	-9.83864
▁철근자재	-9.83909
▁벽체철근	-9.83941
▁개구부에	-9.84029
28	-9.84039
▁기둥에	-9.84079
▁풍속	-9.84097
부분을	-9.84108
▁뼈가	-9.84229
▁안정	-9.84232
▁손톱	-9.84321
▁조건	-9.84404
▁80	-9.8453
▁타설시	-9.84532
▁점심식사	-9.84594
▁폭발	-9.84715
▁화기작업	-9.84808
▁안전관리자	-9.84812
▁응급처치	-9.84921
▁무	-9.84929
▁이물질이	-9.84941
▁강널말뚝	-9.84948
▁모두	-9.84965
▁체인블럭	-9.85033
▁15:00	-9.85085
▁근골격계	-9.85101
▁쓰레기	-9.85101
▁골조	-9.85107
▁원활	-9.8513
▁턱	-9.85152
▁단계별	-9.85155
▁작용	-9.85211
▁디뎌	-9.85214
▁튕기면	-9.85329
▁철근콘크리트	-9.85366
▁현장으로	-9.85403
X	-9.85416
부분에	-9.85437
▁내려가다	-9.85468
▁뛰어내리다	-9.85475
▁미세골절	-9.85499
상부	-9.85573
▁되었음	-9.85604
▁관계자	-9.85627
▁x	-9.85637
정거장	-9.85666
5.	-9.85895
▁시공중	-9.85933
▁용접기	-9.85955
▁반경	-9.8602
협착된	-9.86071
▁해체하고	-9.86206
▁계측기	-9.86259
▁지지하	-9.86291
▁게이트	-9.8631
▁휀스	-9.86315
▁내원	-9.86325
▁수중	-9.86398
구조물	-9.86451
▁부상자	-9.86507
▁권	-9.86529
어떻게	-9.86584
▁지점에서	-9.86623
▁근접	-9.86848
님	-9.86879
▁배합	-9.86991
▁신호에	-9.8702
▁철수	-9.87068
센티미터	-9.87164
▁차량계	-9.8717
▁해치발판	-9.87247
▁될	-9.87272
▁실내	-9.87293
▁타워	-9.87301
▁잠시	-9.87348
파일	-9.8741
▁용역	-9.87491
▁탈형	-9.8751
▁지장이	-9.87529
▁도장작업	-9.87555
▁소지	-9.87588
▁발생하였습니다	-9.87642
소	-9.87743
▁직후	-9.8776
▁주어	-9.87769
▁14:00	-9.87773
▁피	-9.8781
▁고려	-9.87818
자가	-9.87831
▁곳으로	-9.87944
▁내려와	-9.88
▁서울	-9.88142
좌측	-9.88252
▁몰탈	-9.88287
폭	-9.88314
▁고압	-9.88374
▁분진	-9.88379
실에서	-9.88428
물	-9.88441
▁의견	-9.88486
채	-9.88524
▁건립공사	-9.88552
▁현장내에서	-9.8863
▁관리감독	-9.88651
▁장착	-9.88722
▁도	-9.88751
므로	-9.88815
혀	-9.88863
▁작용하	-9.89044
▁주행	-9.89071
▁다발	-9.89102
▁이마	-9.89137
▁구조검토	-9.89166
▁타박	-9.89171
▁헛	-9.89198
무엇을	-9.8931
▁보도블럭	-9.89347
▁자바라	-9.8936
▁창문	-9.89381
▁판단됨	-9.89382
▁증축공사	-9.8942
▁시행하여야	-9.89422
▁새끼발가락	-9.8943
▁저수조	-9.89449
▁옆에서	-9.89472
▁가능성	-9.89477
▁작성하고	-9.89516
천	-9.89563
▁올라	-9.89593
▁자리	-9.89668
▁지게차로	-9.89674
▁실	-9.89716
▁조립된	-9.89773
▁가슴부위	-9.89972
류	-9.90171
▁설치하거나	-9.90443
▁치료중	-9.90577
▁이설	-9.90789
▁내려가는	-9.90839
▁잡은	-9.90884
합판	-9.91056
▁배면	-9.9125
▁알려	-9.9126
지점	-9.9137
▁수직으로	-9.9159
▁곤란	-9.91617
▁비계발판	-9.91633
▁유압잭	-9.91635
▁진행하던	-9.91679
▁탈락되면서	-9.91723
▁일용근로자	-9.91763
장에서	-9.91816
▁지내력	-9.91842
해진	-9.91871
고정	-9.91911
슬라브	-9.91921
▁노출	-9.91955
차량	-9.91964
▁야적장에서	-9.91987
▁스킬	-9.92026
▁공장	-9.92049
▁갖추어	-9.92121
▁맞은	-9.92264
이라	-9.92309
▁유입	-9.92374
▁파라펫	-9.92407
▁외상	-9.9241
▁리더	-9.92432
▁해체하던	-9.92506
틀	-9.92535
▁OO	-9.92621
▁내측	-9.92681
온	-9.92723
c	-9.92744
▁페인트	-9.92752
29	-9.92757
▁합벽	-9.92784
▁내리다	-9.92802
▁이하로	-9.92812
▁밟으면	-9.92833
▁물이	-9.92843
▁이용하지	-9.92851
▁유의	-9.92869
▁팔에	-9.92986
▁예상	-9.93012
▁용량	-9.93069
▁강관비계	-9.93106
▁암반	-9.93292
니	-9.93556
▁여러	-9.93586
▁광주	-9.93599
▁전기톱	-9.93629
▁배관이	-9.93634
▁1,2	-9.93682
▁엔진	-9.93687
▁운반작업	-9.93727
▁지정하여	-9.93727
런	-9.93758
▁쉽	-9.93773
▁외측	-9.93791
▁끝이	-9.93834
▁순서에	-9.93868
▁별	-9.93877
▁Area	-9.93942
▁파렛트	-9.93953
▁연장	-9.93958
▁문제	-9.93985
도로	-9.94022
▁총	-9.94028
▁착용하였으나	-9.9403
▁기둥철근	-9.94037
으나	-9.94058
▁여건	-9.94065
▁유발	-9.94078
▁면	-9.94155
당시	-9.94163
▁야간작업	-9.94175
▁암	-9.94239
▁파손되어	-9.94251
▁소통	-9.94281
▁적	-9.94347
▁고정하기	-9.94434
▁작업완료	-9.94532
물을	-9.94546
▁부재에	-9.94627
▁전일	-9.94662
보니	-9.9467
사항	-9.94675
공법	-9.94783
▁고정되어	-9.94783
▁변형이	-9.94812
▁세륜기	-9.9493
▁손상이	-9.94988
▁지붕판넬	-9.95018
▁요추	-9.9502
▁올리는	-9.95085
▁계단참	-9.95109
▁선회	-9.95111
▁입니다	-9.95145
(5	-9.95158
▁해체시	-9.9521
▁올라가다	-9.95211
▁두께	-9.95214
▁단	-9.95448
▁당사	-9.95482
▁경우에	-9.95534
▁커버	-9.95596
저	-9.95599
▁생명줄	-9.95661
방향으로	-9.95708
▁난간대에	-9.95766
▁주지	-9.95796
▁근로자들	-9.95855
t	-9.9588
▁점심식사를	-9.95903
유	-9.96033
▁작업준비	-9.96108
▁지나	-9.9613
▁본체	-9.96205
▁짚	-9.9622
오	-9.96221
신고	-9.96251
▁견딜	-9.96291
▁있었음	-9.96329
▁생긴	-9.96341
칠	-9.96349
▁안전보건작업	-9.96352
▁있으며	-9.96353
▁무릅	-9.96358
▁가설구조물	-9.96369
▁산	-9.96387
▁있어서	-9.96388
▁오피스텔	-9.96391
▁골재	-9.96392
▁인식	-9.96394
우	-9.96405
▁구체적	-9.96447
▁작업발판에	-9.96455
▁뼈	-9.96456
▁쏠리	-9.96493
▁위험요소	-9.96498
재해	-9.965
▁가연성	-9.96559
▁확보하고	-9.96714
상태에서	-9.96756
강	-9.9679
▁필로티	-9.96915
▁벨트	-9.96942
▁표지판	-9.96985
▁클	-9.97062
▁고정되지	-9.97127
▁타이	-9.97128
▁건설현장	-9.97218
▁기초철근	-9.97269
▁안전관리	-9.97357
▁옥상층	-9.97374
사업	-9.97384
▁성	-9.97441
말비계	-9.97471
왜	-9.97476
▁운반구	-9.97511
▁잡는	-9.97541
▁가량	-9.97569
▁발판과	-9.97628
▁동안	-9.97635
▁미숙으로	-9.97643
▁구성	-9.97686
▁충격에	-9.97686
▁맞는	-9.97695
조치	-9.97856
▁신축공사현장	-9.97878
입니다	-9.97917
▁않을	-9.98045
I	-9.98078
▁망	-9.98096
▁사용을	-9.98129
▁처짐	-9.98138
▁단면	-9.98139
볼트	-9.98151
▁사용되	-9.98197
▁주시	-9.98219
되며	-9.98278
▁동료와	-9.98423
방지를	-9.98433
▁정형외과	-9.98465
위에	-9.9851
▁슈트	-9.9857
▁올라가는	-9.98591
▁철근과	-9.9862
▁우레탄폼	-9.9878
▁박리제	-9.98783
▁다쳤다고	-9.98786
▁소방배관	-9.98787
▁스쳐	-9.98857
▁금속	-9.98857
▁하여금	-9.98869
▁상수도	-9.98882
▁근로	-9.98891
▁트렌치	-9.98939
▁주출입구	-9.99069
지역	-9.99091
▁잡으려다	-9.99098
기둥	-9.99109
▁덮개가	-9.99154
▁정확	-9.99158
▁도구	-9.99425
▁창틀	-9.99467
▁상가	-9.99532
▁일원	-9.99742
▁북측	-9.99857
氏	-9.99915
▁사용한	-10.0001
일까지	-10.0003
공장	-10.0003
▁중심	-10.0007
▁고정하고	-10.0019
▁요인	-10.0019
▁척추	-10.0027
▁***(	-10.0028
▁준수하여	-10.0031
▁뒤쪽	-10.0031
▁스카이	-10.0041
▁배선	-10.0041
▁경로	-10.0042
부위에	-10.0049
▁지속	-10.0051
신	-10.0054
▁살수	-10.0057
▁땅	-10.0087
▁긴급	-10.0099
▁안된다	-10.01
▁궤도	-10.0101
▁지반침하	-10.0104
포	-10.0116
▁점검하여	-10.0122
▁100	-10.0123
▁지휘하	-10.0124
▁견디	-10.0126
ton	-10.0126
▁건설	-10.0127
▁보험가입자	-10.0127
라이	-10.0127
▁기울어져	-10.0131
▁금지시켜야	-10.0132
▁우레탄	-10.0133
▁사용중	-10.0134
▁없으며	-10.0136
▁백호우	-10.0136
▁전날	-10.0137
▁식재	-10.0137
▁풀고	-10.0138
▁구분	-10.0139
▁측구	-10.0144
▁제거하던	-10.0145
단으로	-10.0147
▁추락하였음	-10.0149
▁추후	-10.0154
▁측량	-10.0157
▁연락을	-10.0163
▁붙잡	-10.0163
▁3.5	-10.0164
▁할석	-10.0164
▁출근하여	-10.0171
▁고정상태	-10.0175
▁팔이	-10.018
▁동료근로자	-10.0188
▁피트	-10.0208
▁쪽	-10.0209
▁대비	-10.0209
▁돌출	-10.0211
▁연결하는	-10.0215
▁있지	-10.0217
▁매몰	-10.0219
▁작은	-10.0228
시켜	-10.0231
▁반장	-10.0236
▁빠루	-10.0241
▁구급차	-10.0248
우마	-10.0254
안전모	-10.0255
▁소요	-10.0258
▁회전근개	-10.026
▁호	-10.0266
▁로프에	-10.0268
▁토질	-10.0268
▁확인할	-10.027
가해져	-10.0272
▁코킹	-10.0278
사용	-10.0292
▁알	-10.0301
▁올려놓	-10.033
초	-10.0334
▁뒷걸음	-10.0342
때	-10.0354
▁목재가	-10.0356
▁슬라이딩	-10.0361
▁전도사고	-10.0372
하였다고	-10.0374
가량	-10.0377
RAY	-10.0381
▁슬립폼	-10.0383
▁내리	-10.0384
▁15:30	-10.0384
▁튕겨져	-10.0387
▁칼날	-10.0389
▁장선	-10.0393
▁TBM	-10.0394
▁해야	-10.0395
▁지브	-10.0395
▁회전체	-10.0395
▁시트파일	-10.0396
▁브레이커	-10.0398
▁하도급사	-10.0402
▁2>	-10.0403
바닥	-10.0403
▁거푸집해체	-10.0404
▁온	-10.0408
▁있다가	-10.0411
▁머리에	-10.0413
되어있던	-10.0414
업체	-10.0425
▁밴딩	-10.0426
▁BT	-10.0428
▁주장하는	-10.0433
▁****	-10.0433
▁너트	-10.0435
▁되었습니다	-10.0438
▁완료하고	-10.0443
▁보거푸집	-10.0449
▁과정중	-10.0453
▁없고	-10.0462
산업	-10.047
▁내려놓는	-10.047
▁초	-10.0477
▁걸림	-10.0477
2)	-10.0479
▁70	-10.0486
▁소장	-10.0486
개월	-10.049
▁퇴사	-10.0495
▁비상	-10.0497
▁숙지	-10.0499
▁스트러트	-10.051
▁써포트	-10.0518
▁신호방법	-10.0519
▁작성하여	-10.0541
▁안전보건	-10.0543
▁깔려	-10.0546
▁묶어	-10.0547
하려다	-10.055
▁재질	-10.0564
▁코	-10.0566
블록	-10.0569
▁건축공사	-10.0579
▁작업통로	-10.058
▁뼈에	-10.0585
밑으로	-10.0586
▁주위에	-10.0586
▁55	-10.0589
▁레벨	-10.0599
단지	-10.0614
▁밀	-10.0615
s	-10.0617
▁하였습니다	-10.0618
▁집	-10.0619
▁인근에	-10.0626
▁노후	-10.0628
소재	-10.0629
▁강관파이프를	-10.0631
▁조적작업	-10.0631
▁편심	-10.0637
▁보완	-10.0638
▁왼팔	-10.0645
밍	-10.0646
▁살짝	-10.0646
▁잔디	-10.0646
▁짚음	-10.0647
▁과다	-10.0648
▁닿아	-10.0648
▁충전전로	-10.0651
▁건설용	-10.0655
▁묻은	-10.0657
▁탈락으로	-10.0659
▁세워져	-10.066
▁승강용	-10.0663
▁작업지시	-10.0664
▁특별	-10.0664
▁하수관로	-10.0667
▁맨홀뚜껑	-10.0667
▁당기는	-10.0672
▁현황	-10.0677
▁작업중에	-10.0683
▁밀어	-10.0684
하러	-10.0691
▁전용	-10.0693
▁들어올리는	-10.0699
▁이루어지	-10.07
▁체결상태	-10.0709
▁운반시	-10.0712
▁작업대에서	-10.0712
▁방지조치	-10.0713
▁구간에	-10.072
된다	-10.0723
▁조립도	-10.0724
▁했으나	-10.0728
▁이동할	-10.0736
▁112	-10.0736
▁인천	-10.0745
-2	-10.0748
▁자동	-10.075
▁물체	-10.0753
▁방호조치	-10.0753
▁구역	-10.076
▁전주	-10.0762
▁배관공	-10.0785
▁빔을	-10.0788
▁공사용	-10.0795
▁무너지	-10.0801
공사중	-10.0804
▁환경	-10.081
▁번째	-10.0813
▁유출	-10.0817
근	-10.0823
▁막장	-10.0842
▁리어카	-10.0843
▁넣어	-10.0851
마	-10.0869
호선	-10.0871
▁밀폐공간	-10.0877
체	-10.0881
봉	-10.0881
▁형태	-10.0881
▁감독	-10.0884
▁근처에	-10.0891
조립	-10.0891
▁발판으로	-10.0896
▁110	-10.0897
▁견출	-10.0907
기준	-10.0908
▁정차	-10.091
▁스크류	-10.091
▁일정	-10.0913
▁장비에	-10.0914
▁알루미늄	-10.0915
▁스스로	-10.0916
▁잭서포트	-10.0916
▁가운데	-10.0916
▁부딛혀	-10.0918
▁급격	-10.0918
▁흉부	-10.0922
▁쌓아	-10.0922
▁치아	-10.0926
▁전도되며	-10.0928
▁퇴행성	-10.0928
▁2~3	-10.0929
▁작업선	-10.0932
▁골조공사	-10.0937
▁방호장치	-10.0937
▁교통	-10.0939
정리	-10.094
▁타이어	-10.0951
▁상태임	-10.0955
2020	-10.0959
▁안전점검	-10.0961
난	-10.0961
▁가해	-10.0962
▁정하여	-10.0965
▁하단부	-10.0965
하자	-10.0966
▁있다고	-10.0967
▁노	-10.097
▁요	-10.0979
▁지정병원	-10.0985
▁용접공	-10.0998
종합건설	-10.0999
▁수평재에	-10.1002
개의	-10.1006
▁홈	-10.101
▁올라가서	-10.1016
▁규칙	-10.1044
▁감시	-10.105
▁우측발목	-10.1058
사다리	-10.1058
제거	-10.1062
KOSHA	-10.1066
▁운전원과	-10.1066
▁저하	-10.1067
▁패드	-10.1074
핀	-10.1076
▁업체	-10.1087
▁속	-10.1091
▁이동하면서	-10.1091
▁상하	-10.1092
6.	-10.1092
▁시공자	-10.11
들이	-10.1101
▁밑에	-10.1108
▁좌	-10.1111
팀	-10.1114
▁왼쪽다리	-10.1119
운반	-10.112
▁수술을	-10.1124
▁개방	-10.1126
▁굴삭기로	-10.1144
▁움직이	-10.1147
▁회전하	-10.1148
▁자격	-10.1149
▁식별	-10.1152
▁대기중	-10.1157
▁건축	-10.1177
▁하중에	-10.1178
▁간섭되	-10.1181
▁제한	-10.1185
▁도포	-10.1188
▁기술지침	-10.1194
▁지하수위	-10.1195
▁우물통	-10.1195
▁소정	-10.1196
▁불필요	-10.1196
▁쐐기	-10.1196
▁10:30	-10.1197
▁삐끗함	-10.1199
▁날카로운	-10.1199
▁절단하는	-10.1201
▁식당	-10.1201
▁모르타르	-10.1203
▁생기	-10.1204
그	-10.1205
▁네번째	-10.1207
▁낮은	-10.1208
▁방화문	-10.1215
▁강우	-10.1216
▁피복	-10.1219
▁재해예방	-10.1222
▁때까지	-10.1228
▁왼쪽발목	-10.1232
비	-10.1234
▁운반하기	-10.124
▁양수작업	-10.1241
근로자가	-10.1247
▁초기	-10.1249
▁서측	-10.1259
걸	-10.126
배	-10.126
▁복도	-10.1261
▁수량	-10.1269
▁플랜트	-10.1269
▁고려하여야	-10.1273
▁종아리에	-10.1279
▁작업내용	-10.1285
▁작업간	-10.1289
상의	-10.129
내부	-10.1294
▁누	-10.1304
▁나와	-10.1308
▁창	-10.1308
형측구	-10.1319
▁예상되	-10.1322
등을	-10.1323
▁기준으로	-10.1325
▁현장사무실	-10.1325
통	-10.1326
▁작업발판으로	-10.1335
▁덮	-10.1335
▁상판	-10.134
▁해체후	-10.1348
빠루	-10.135
▁형식	-10.1355
▁근입	-10.1367
기사가	-10.1368
지하	-10.1373
위치	-10.1374
각재	-10.1382
▁아래에	-10.1387
▁마모	-10.1396
▁추락방호망	-10.1402
▁속도	-10.1402
절	-10.1403
▁고리에	-10.1404
▁신청인	-10.1409
짐	-10.1419
▁부산	-10.1422
▁현장정리	-10.1422
▁악천후	-10.1422
▁절곡	-10.1425
▁탑승하여	-10.143
▁홍	-10.1432
03	-10.1434
▁쌓	-10.1435
▁상수도관	-10.1442
▁*	-10.1442
▁첫	-10.1447
y	-10.1463
▁발뒤꿈치	-10.1469
▁고체연료	-10.1472
▁작업반경내	-10.1473
▁묶음	-10.1473
▁제거한	-10.1473
▁접합부	-10.1475
탑재형	-10.1478
▁깔린	-10.148
▁믹서	-10.148
▁미끄러워	-10.1481
▁화재예방	-10.1481
▁발이걸려	-10.1482
▁줄파기	-10.1482
▁흙막이가시설	-10.1483
▁트레일러	-10.1485
▁기울어지면서	-10.1485
▁엄지말뚝	-10.1486
▁산업안전보건법	-10.1487
▁공도구	-10.1488
▁아스콘	-10.1489
▁주철관	-10.149
▁화재발생	-10.149
▁뛰어내리	-10.1492
▁공동구	-10.1494
▁교사동	-10.1499
▁신호수가	-10.1502
▁작업구역	-10.1503
▁돌풍으로	-10.1504
▁올라가던중	-10.1506
▁돌에	-10.1506
지점에서	-10.1508
▁빼는	-10.1514
▁내리던중	-10.1514
▁결빙	-10.1515
▁양중기	-10.1516
▁가던	-10.1518
▁일정한	-10.1524
▁사용하	-10.1529
▁건설현장에서	-10.1538
▁체결하고	-10.1538
▁세대내	-10.1542
▁연결작업	-10.1544
▁작동하여	-10.1547
▁중지하고	-10.1549
▁해체하기	-10.1573
▁?	-10.1581
문	-10.1585
부에	-10.1585
▁장비기사	-10.1589
▁용접작업을	-10.159
친	-10.1598
▁이격	-10.16
이므로	-10.1605
▁중심이	-10.1606
▁지형	-10.1608
OO	-10.1625
▁부담	-10.1625
▁굴착사면	-10.1625
로서	-10.163
▁이음부	-10.1641
습니다	-10.1643
했다고	-10.1677
상황	-10.1681
▁공사장	-10.1683
▁오거	-10.171
▁없다	-10.1716
▁부착하여야	-10.1719
▁고소작업차	-10.1731
▁측면에	-10.1742
지지용	-10.1748
▁토압	-10.1751
▁신축현장	-10.176
▁감전재해	-10.1764
▁인테리어	-10.1771
▁추락재해	-10.1772
▁명확	-10.1774
▁의거	-10.1775
▁함마드릴	-10.1776
▁있으나	-10.1776
▁풀림	-10.1777
▁도급인	-10.1777
▁쇄골	-10.1779
▁휴업	-10.178
▁나무가	-10.178
▁받지	-10.178
▁찧음	-10.1781
▁넣고	-10.1783
▁쓰러지면서	-10.1784
▁재설치	-10.1787
▁절단작업을	-10.1788
▁파손되면서	-10.1789
시공	-10.1791
지면서	-10.1792
▁들다가	-10.1794
▁헛딛여	-10.1798
▁휴대용	-10.18
▁가설벤트	-10.18
▁조도	-10.1806
▁크레인이	-10.1809
▁조립식	-10.181
▁지반에	-10.1811
시킨	-10.1813
▁까지	-10.1814
▁보행중	-10.1825
▁초과하는	-10.1827
▁눌러	-10.1832
▁조립하여야	-10.1834
기계	-10.1838
▁핸드카	-10.1838
▁]	-10.1841
일간	-10.1843
▁사고당일	-10.1847
▁한국	-10.185
▁운반하던중	-10.1853
▁톱날이	-10.1853
과실로	-10.1862
▁맞추어	-10.1863
▁타설공	-10.1879
▁바닥판	-10.189
▁지연	-10.191
▁분배기	-10.1917
▁R	-10.1925
▁걸이	-10.1926
▁노면	-10.1934
▁온도	-10.1935
▁동시작업	-10.1938
▁통과	-10.194
▁109	-10.1941
▁응급	-10.1968
▁거	-10.1971
▁지반이	-10.1971
▁자가	-10.1973
▁인대파열	-10.1983
▁소화	-10.1987
▁가해지	-10.1989
▁낙석	-10.1994
▁재해자에게	-10.1994
▁착용하	-10.1996
▁신축	-10.1997
E	-10.2006
▁추돌	-10.2007
▁골절을	-10.2009
▁구조로	-10.2009
▁인원	-10.2032
○	-10.2046
▁작업원	-10.2052
▁베인	-10.2065
▁당기던	-10.2071
검사	-10.2074
▁어려	-10.2077
▁안전표지판	-10.2079
▁피해자가	-10.208
▁받치고	-10.2082
▁피하려다	-10.2083
▁로우프	-10.2083
▁잠금장치	-10.2083
▁내리기	-10.2083
▁수평연결재	-10.2083
▁상황임	-10.2085
▁항발기	-10.2087
▁작업환경	-10.2087
▁슬러지	-10.2087
▁미인지	-10.2088
▁16:00	-10.2089
▁떨어져서	-10.2093
▁묶	-10.2093
▁휴식중	-10.2095
빔이	-10.2099
▁미세	-10.2101
절단	-10.2102
▁옮기던중	-10.2107
▁찬넬	-10.2107
▁아스팔트	-10.211
▁용이	-10.2114
▁파열됨	-10.2116
▁공장동	-10.2117
▁배관에	-10.2121
▁패널	-10.2127
▁자재인양	-10.2128
▁연결부위	-10.2129
▁표면	-10.2129
▁점화	-10.2138
▁토공	-10.2146
▁협착되는	-10.2149
작업시	-10.2152
▁이완	-10.2153
▁신고하여	-10.2156
▁보강작업	-10.2156
▁감리자	-10.2157
▁외부에서	-10.2157
▁움직여	-10.2158
▁배출	-10.2159
▁있	-10.2161
림	-10.2161
확인	-10.2166
▁없는지	-10.2167
▁여	-10.217
▁긴	-10.2172
▁작업자들	-10.2172
개발	-10.2174
▁파열된	-10.2181
▁비계설치	-10.2189
▁진입로	-10.219
▁실금이	-10.2194
분에	-10.2203
▁2021.	-10.2204
가닥	-10.2223
▁불이	-10.224
▁ᄋᄋᄋ	-10.2245
▁톤마대	-10.2245
▁많이	-10.2246
2021	-10.2252
으므로	-10.2252
관리	-10.2258
▁치우	-10.2262
▁광	-10.227
시키고	-10.227
완료	-10.2278
▁설치위치	-10.2282
▁작업계획서에	-10.2289
▁설계서	-10.2293
▁놓침	-10.232
▁파쇄	-10.2328
▁고압선	-10.2335
설치를	-10.2338
▁낙하물에	-10.234
(10	-10.234
▁벤트	-10.2343
▁줄눈	-10.2343
er	-10.2343
▁승하강	-10.2366
▁봉합	-10.2377
3)	-10.2383
▁자택	-10.2389
▁부딛힘	-10.2389
▁PHC	-10.2389
▁지병	-10.239
▁떨어뜨려	-10.239
▁튀어올라	-10.239
▁유의사항	-10.239
▁미끄러저	-10.239
▁미쳐	-10.2391
▁수로관	-10.2392
계	-10.2393
▁가설휀스	-10.2395
▁젖은	-10.2395
▁물청소	-10.2395
▁진술	-10.2397
다른	-10.2398
▁철골기둥	-10.24
▁운영	-10.24
▁가스관	-10.2402
▁연골	-10.2405
▁휴식시간	-10.2406
중에	-10.2407
▁지나가던	-10.2408
▁있었고	-10.2408
▁불어	-10.2412
▁강성	-10.2412
▁접히	-10.2413
▁깔리	-10.2415
▁노출된	-10.2416
▁1.7	-10.2429
▁제품	-10.243
▁발판의	-10.2431
▁구명줄	-10.2432
▁맞추기	-10.2436
▁가설재	-10.2451
▁해체공	-10.2454
▁록	-10.2457
▁옮기다	-10.246
형사다리	-10.2462
▁안내	-10.2466
대책	-10.2467
▁혼합	-10.2471
▁동바리에	-10.2474
▁비계해체	-10.2476
▁확인하기	-10.2476
▁오르던	-10.2477
▁박는	-10.248
둔	-10.2482
▁잡	-10.2495
▁좌측발	-10.2498
▁움직이지	-10.25
보고	-10.2504
▁비탈면	-10.2511
▁자체	-10.2522
▁설계자	-10.2525
▁잡지	-10.253
▁지붕층	-10.2544
▁톱	-10.2556
▁예	-10.2558
▁접질리	-10.2559
▁적합	-10.2564
오른쪽	-10.2564
▁볼	-10.2565
▁가시설공	-10.257
#2	-10.2587
▁제거하여야	-10.2589
▁작업도구	-10.2604
▁현관	-10.2609
양	-10.262
▁인	-10.2626
▁팀장	-10.2628
와서	-10.2632
기지	-10.2639
▁끝단	-10.264
-3	-10.2641
벽	-10.2654
▁출혈	-10.2656
▁복귀	-10.2657
▁보수작업	-10.2658
장소	-10.2665
▁닫	-10.2667
무	-10.2671
▁후진하던	-10.2674
▁연속	-10.2683
누가	-10.2689
중지	-10.269
▁설치시	-10.27
▁오른팔	-10.2708
▁가급적	-10.2712
▁현수교	-10.2712
▁천천히	-10.2712
▁쉬트파일	-10.2712
▁미끌려	-10.2712
▁없었으며	-10.2712
▁안전밸트	-10.2712
▁세워둔	-10.2712
▁무너져	-10.2713
▁조임	-10.2713
▁가설방음벽	-10.2714
▁꺽임	-10.2718
▁정화조	-10.2718
▁안전의식	-10.272
▁몸체	-10.2721
▁안전거리	-10.2724
▁재해사실	-10.2725
▁강봉	-10.2726
▁이격거리	-10.2727
▁열고	-10.2728
▁횡방향	-10.2728
▁재해입니다	-10.2733
▁설계도면	-10.2734
▁좌우	-10.2736
▁소홀	-10.2737
날	-10.2738
▁CIP	-10.274
▁가함	-10.2741
▁횡단	-10.2741
▁빔이	-10.2747
건	-10.2749
▁꺽이	-10.2751
▁낙하하며	-10.2753
▁금지하고	-10.2753
▁진단결과	-10.2755
▁운반도중	-10.2762
▁들어가면서	-10.2764
▁밖에	-10.2766
▁앞쪽	-10.2767
▁이동간	-10.2768
▁앵커볼트	-10.2768
▁작업하중	-10.2775
▁적당	-10.2801
▁올리던	-10.2826
▁세	-10.2828
▁운전기사	-10.2831
점검	-10.2833
▁추락하면서	-10.2835
▁설치후	-10.2837
▁대형	-10.2862
▁제작장	-10.2863
▁약간의	-10.2864
씩	-10.287
무릎을	-10.2874
분경에	-10.2879
▁시험	-10.2887
▁무리하	-10.2894
▁전도방지	-10.2899
▁비상시	-10.291
▁능력	-10.2914
▁조인트	-10.2915
초등학교	-10.2918
▁돌풍에	-10.292
▁지층	-10.2921
▁수직철근	-10.293
▁철골부재	-10.2932
▁부품	-10.2932
▁작업발판과	-10.2933
병원에	-10.2936
▁공간에서	-10.2941
가서	-10.2944
▁단관파이프	-10.2948
▁높이에	-10.2954
▁열	-10.2979
▁오작동	-10.2989
▁소단	-10.2999
▁상세	-10.3009
▁인력운반	-10.3012
방호벽	-10.3015
▁전기실	-10.3018
▁강풍에	-10.3023
▁싣	-10.303
▁통증으로	-10.3033
광역시	-10.3034
▁턱에	-10.3035
▁잔재	-10.3037
브	-10.3038
▁철근공이	-10.3039
▁수상	-10.304
▁벽이음	-10.3042
▁통행로	-10.3043
▁말아야	-10.3045
▁입었음	-10.3046
▁무거운	-10.3046
▁잃음	-10.3046
▁건강상태	-10.3046
▁베이스	-10.3047
▁권과방지장치	-10.3048
▁뛰어내림	-10.3048
▁스침	-10.3048
▁받침철물	-10.3048
▁에어	-10.3052
▁양호한	-10.3053
▁입게	-10.3056
▁지반상태	-10.3057
▁유지하여	-10.3058
▁농도	-10.3059
▁행위	-10.3062
▁들어감	-10.3066
▁운반하다	-10.3066
▁복숭아뼈	-10.3066
▁본관동	-10.3073
▁분석	-10.3083
▁놓는	-10.3088
▁작업장소로	-10.3088
▁아시바	-10.3092
현	-10.3092
▁출력	-10.3094
▁슬링벨트가	-10.3097
▁통원치료	-10.3104
▁구조체	-10.3122
▁중지손가락	-10.3128
▁개	-10.3141
▁연결하여	-10.3151
차도	-10.316
▁일시	-10.3163
▁연약지반	-10.3174
아래	-10.3175
추락	-10.3182
▁절삭	-10.3194
철거	-10.3197
기를	-10.3199
▁설비배관	-10.3218
▁이행	-10.3219
▁이유	-10.322
▁강관파이프가	-10.3225
▁시공하는	-10.3226
▁귀	-10.3227
▁반장이	-10.323
▁화물차에	-10.3234
▁올리	-10.3238
▁천공장비	-10.3242
▁토사에	-10.3244
▁개거	-10.325
▁넘	-10.3257
▁계산	-10.3262
형틀목공	-10.3262
▁쌓여	-10.3263
▁측정하여	-10.327
▁11:00	-10.3281
▁호스가	-10.3292
▁설정	-10.3299
)-	-10.3307
▁곤돌라	-10.3315
▁동절기	-10.333
방지용	-10.3332
이엔씨	-10.3336
▁책임자	-10.3344
▁사유	-10.3347
▁박던	-10.3347
▁뒤에	-10.3352
▁대전	-10.3356
레벨	-10.3356
▁계획서	-10.3358
▁기울어	-10.337
▁회수	-10.3372
▁청소작업	-10.338
▁호흡	-10.3382
▁엑스레이	-10.3382
▁밝	-10.3384
▁본관	-10.3385
▁감겨	-10.3385
▁기준에	-10.3387
▁눌려	-10.3387
▁아파	-10.339
▁열풍기	-10.339
▁지식산업센터	-10.339
▁방진마스크	-10.339
▁안전방망	-10.339
▁부러짐	-10.3391
▁형틀목수	-10.3391
▁지난	-10.3392
▁의정부	-10.3393
▁습기	-10.3393
▁가설전기	-10.3393
▁웨지핀	-10.3393
▁교반기	-10.3394
▁조금	-10.3396
▁누적	-10.3397
▁태풍	-10.3401
▁지질	-10.3403
▁호소함	-10.3403
▁원인미상	-10.3403
▁손상됨	-10.3405
▁난간에	-10.3408
강도	-10.341
▁담장	-10.3415
▁사업장	-10.3416
▁가능하	-10.3416
▁인양하던	-10.3418
▁충전	-10.3429
▁용수	-10.3433
▁언	-10.3434
▁단단	-10.3438
▁구조물과	-10.3439
덮개	-10.3448
▁정하고	-10.3451
▁오작동으로	-10.3452
▁약지손가락	-10.3457
▁현상	-10.3465
▁발견하여	-10.347
▁토목공사	-10.3471
▁복도에서	-10.3478
▁~	-10.3487
▁철	-10.3488
용단	-10.3488
▁성토	-10.3488
▁매뉴얼	-10.349
▁거푸집동바리	-10.3491
(1.2	-10.3492
(25	-10.3496
▁풀	-10.3498
함에	-10.3504
▁벌목작업	-10.351
▁인지하여	-10.3516
▁적재함을	-10.3517
완료된	-10.3532
▁마감작업	-10.3534
▁압착	-10.3536
었던	-10.3536
▁벽면에	-10.3554
년간	-10.3567
승인	-10.3568
▁시도	-10.3576
쪽에	-10.358
▁사람이	-10.358
▁바지	-10.3585
▁중단	-10.3598
교육	-10.3598
▁경위	-10.3601
▁비가	-10.3605
각	-10.3606
▁주의하여	-10.3614
백호	-10.3621
▁이동용	-10.3625
▁짐	-10.3627
▁도면	-10.3633
송	-10.3636
▁타설용	-10.3642
▁작업장으로	-10.3649
▁버팀	-10.3651
▁안전망	-10.3653
▁정리하는	-10.3663
▁접질	-10.3665
▁수직구	-10.367
미	-10.3672
위험요인	-10.3672
G	-10.3679
약지	-10.3685
▁실시한	-10.3687
▁단위	-10.3693
관련	-10.3699
되고	-10.37
▁제반	-10.3702
▁가동	-10.3706
▁조적공	-10.3718
▁목격	-10.3724
▁계단에	-10.3729
하되	-10.373
▁외국인	-10.3735
칭	-10.374
바늘	-10.3747
▁부적합	-10.3747
▁안전보건관리책임자	-10.3748
▁16:30	-10.3748
▁추진코	-10.3749
▁들어올려	-10.3749
▁미끌어져	-10.375
▁안전조치사항	-10.375
▁모르고	-10.3751
▁타이핀	-10.3753
▁클립	-10.3753
대교	-10.3754
▁스치	-10.3754
▁캡	-10.3757
▁스치면서	-10.3761
외부	-10.3761
▁방호시설	-10.3762
▁기초콘크리트	-10.3763
▁분류	-10.3763
▁라이닝	-10.3768
▁인양로프	-10.3768
▁규모	-10.3769
▁가설비계	-10.3769
▁진	-10.3772
▁보행자	-10.3775
▁충돌함	-10.3776
▁왼손이	-10.3777
▁우수관로	-10.3781
▁없다고	-10.3782
▁가진	-10.3785
▁이동하지	-10.3785
▁경사지	-10.3796
더	-10.3798
▁사용하기	-10.3802
방지	-10.3802
▁커플러	-10.3802
▁종료후	-10.3804
코	-10.3807
▁내려가	-10.3812
▁준수하고	-10.3821
▁조각	-10.3828
▁관리자에게	-10.383
▁받는	-10.3832
**(**	-10.3841
▁연	-10.3846
(1.5	-10.3857
▁양손으로	-10.3861
▁수직사다리	-10.3862
아파트	-10.3863
▁설치하지	-10.3876
▁정보	-10.3883
▁작업공구	-10.3884
▁복부	-10.3885
▁결속된	-10.3888
▁사고당시	-10.389
▁반복적	-10.3899
▁적재물	-10.3901
▁용접부	-10.3906
시키는	-10.3906
▁견출작업을	-10.3913
▁체결한	-10.3914
하중	-10.3919
상단에서	-10.3922
지반	-10.3928
▁뇌출혈	-10.3934
▁예인선	-10.394
kgf	-10.3956
▁사고경위	-10.3964
으면서	-10.3968
암	-10.397
▁물기가	-10.3971
▁보온	-10.3979
▁밟는	-10.3981
▁G	-10.3983
용접	-10.3986
현재	-10.3988
▁사용하던	-10.399
▁사용하여서	-10.3994
철판	-10.3997
집	-10.4001
단부	-10.4003
▁옥탑층	-10.4003
▁V	-10.4014
▁약간	-10.4015
▁절연	-10.4022
▁가까	-10.4026
▁추	-10.4042
는데	-10.4053
▁소리	-10.4053
▁운반용	-10.4055
▁부속	-10.4064
기간	-10.4068
▁인코너	-10.409
▁코너	-10.409
영	-10.4092
발판	-10.4093
▁페이로더	-10.4102
▁가능	-10.4102
35	-10.4103
▁승강로	-10.4105
▁후진하는	-10.4108
▁이야기	-10.4115
▁가새	-10.4118
▁잃으면서	-10.4118
▁우수맨홀	-10.4118
▁가해짐	-10.4118
▁살점	-10.4119
▁카운터	-10.412
▁부딪친	-10.412
▁퇴원	-10.4122
▁안전보호구	-10.4122
▁벗어나	-10.4122
▁환기설비	-10.4122
▁말한다	-10.4124
▁주의사항	-10.4125
▁구획	-10.4125
▁팔뚝	-10.4125
▁않자	-10.4126
▁파이프서포트	-10.4126
▁이송하였으나	-10.4126
▁08:00	-10.4127
▁휴게실	-10.4127
▁떨어지지	-10.4129
▁유선	-10.413
매	-10.413
▁잡기	-10.4132
▁작업인부	-10.4133
▁3>	-10.4133
▁매듭	-10.4133
▁현장대리인	-10.4135
▁맞게	-10.4135
▁유실	-10.4136
▁닫히	-10.4138
▁저항	-10.4138
▁부상발생	-10.4139
▁거푸집설치	-10.4139
▁3,4	-10.4139
▁가장	-10.4141
▁땅에	-10.4143
▁입어	-10.4143
▁높	-10.4143
▁찢어지는	-10.4146
▁사고사실	-10.4146
▁지붕에서	-10.4148
▁둔	-10.4149
▁플랜지	-10.415
▁기울	-10.4151
▁램프구간	-10.4154
▁폐기	-10.4158
▁창고	-10.4163
▁시트	-10.4167
▁부지	-10.4168
▁저장	-10.417
▁검토하고	-10.4172
▁인양장비	-10.4175
▁시점부	-10.4177
동에서	-10.4178
이다	-10.4184
▁톱날	-10.419
▁최하단	-10.4199
▁배수관	-10.4206
▁못하	-10.4236
▁가로	-10.4237
국	-10.4241
▁낙하하	-10.4246
▁당기	-10.4247
▁작업차량	-10.4251
▁근거	-10.4255
▁동측	-10.4265
크레인	-10.4265
▁세대내부	-10.4269
▁부착하여	-10.4273
▁상부를	-10.428
▁2020.	-10.4285
엔	-10.4301
▁묻어	-10.4307
▁표	-10.4312
▁기대	-10.433
▁길	-10.4331
▁복합	-10.4342
비래	-10.4346
▁충격하여	-10.4347
회전하는	-10.435
철골	-10.4351
뼈	-10.4356
▁말	-10.4357
60	-10.4358
▁오류	-10.4361
인지	-10.4381
법	-10.4385
려다	-10.4393
링	-10.4395
거	-10.4396
복	-10.4397
▁실족으로	-10.44
▁인양시	-10.4407
거리	-10.4411
청	-10.4413
▁탈골	-10.4424
▁밟	-10.4428
▁신호수와	-10.443
▁토목	-10.4437
▁선형	-10.4462
▁골반	-10.4475
▁미장공	-10.4476
존	-10.4477
▁적절	-10.4479
그라인더	-10.4482
당일	-10.4483
▁진행하여야	-10.4486
옆	-10.4494
▁청소중	-10.4494
▁끝단부	-10.4502
▁부직포	-10.4502
▁갖춘	-10.4502
▁반력벽	-10.4502
▁쏠려	-10.4502
▁헛딛음	-10.4503
▁보에	-10.4504
▁면정리	-10.4504
▁건설장비	-10.4504
▁부상당한	-10.4505
▁불완전	-10.4505
▁어스앙카	-10.4505
▁누출	-10.4505
러운	-10.4506
▁좁은	-10.4506
▁하지철물	-10.4506
▁따르	-10.4506
▁수급인	-10.4507
심	-10.4509
발	-10.4509
▁누전	-10.451
▁과부하방지장치	-10.451
▁조경석	-10.4511
▁조사중	-10.4512
▁강제	-10.4512
▁AL	-10.4514
▁발전기	-10.4514
▁감전사고	-10.4514
▁Support	-10.4515
▁울타리	-10.4515
▁쇠	-10.4515
km	-10.4515
▁한손으로	-10.4516
▁전동공구	-10.4516
▁실제	-10.4517
▁4>	-10.452
▁받았으며	-10.452
▁발주자	-10.4521
▁러그	-10.4523
▁받아치기	-10.4526
▁알고	-10.4526
▁뒷부분	-10.4529
▁개구부로	-10.4533
▁합판에	-10.4536
▁쓰러지	-10.4538
▁취부	-10.4541
▁시스템폼	-10.4542
▁자재야적장	-10.4545
▁철근콘크리트공사	-10.455
▁표지	-10.4558
▁혹	-10.456
▁자재운반중	-10.456
▁이탈되	-10.4563
▁변	-10.4567
▁철거중	-10.4571
▁끼임사고	-10.4578
▁미치	-10.4586
▁산재승인	-10.4588
릴	-10.4593
▁왼쪽팔	-10.4594
계단	-10.4599
▁철거작업중	-10.4603
▁수평대	-10.4611
발을	-10.4612
▁밟으	-10.4615
▁설계도서에	-10.4626
▁입구에서	-10.4631
▁최근	-10.4642
▁하역중	-10.4645
▁기존에	-10.4646
▁방	-10.4652
.2.	-10.4659
한쪽으로	-10.4665
▁현	-10.4678
인양	-10.4679
엄지손가락이	-10.468
▁111	-10.4681
목재	-10.4683
▁녹	-10.4684
터	-10.4697
▁승강기	-10.4699
▁체결을	-10.4704
▁담당	-10.4705
▁일어서	-10.4709
▁접지르	-10.4709
▁볼팅	-10.4709
▁하자	-10.4713
사고자	-10.4726
하면	-10.4733
▁들던	-10.4733
x	-10.4739
▁사이에서	-10.4751
▁딛는	-10.4753
▁하도급	-10.4758
긴	-10.4765
▁야적장	-10.4766
▁공구가	-10.4767
▁차수	-10.4778
하려던	-10.4778
**,	-10.4778
▁앞서	-10.4801
▁포크	-10.4806
▁세우	-10.4809
▁깨끗	-10.481
▁도로에서	-10.4813
▁고정하던	-10.482
증	-10.4832
▁부딪치면	-10.4835
>	-10.4836
▁석공	-10.4837
▁튐	-10.4838
티	-10.4848
▁닿지	-10.4858
단계	-10.4859
▁창원	-10.486
▁조사하여	-10.4862
▁이동작업	-10.4867
▁조성공사	-10.487
방	-10.488
▁헛디디	-10.4884
돌	-10.4896
▁철저	-10.4898
▁경찰	-10.4899
▁가는	-10.4899
▁안전인증	-10.4899
▁근로복지공단에서	-10.49
부의	-10.49
▁윗부분	-10.4901
▁슬링	-10.4901
되면	-10.4902
▁나머지	-10.4902
▁눌림	-10.4902
▁주민공동시설	-10.4902
▁착오	-10.4902
▁찢어진	-10.4902
되므로	-10.4902
▁비산방지	-10.4902
▁뒷바퀴	-10.4904
▁권상	-10.4904
했습니다	-10.4905
▁산소농도	-10.4905
▁기울어지며	-10.4905
▁안정액	-10.4905
▁지반보강	-10.4906
▁굴착토사	-10.4907
▁제출하였으나	-10.4908
▁보조로프	-10.4911
▁PSC	-10.4913
▁산정	-10.4914
▁있었으며	-10.4914
▁산업안전보건기준에	-10.4916
▁인대손상	-10.4916
▁10:00	-10.4918
▁파악하여	-10.4918
▁주장하며	-10.4919
▁재사용	-10.492
▁다음사항	-10.492
▁점심시간	-10.4924
▁수직부재	-10.4925
▁사항임	-10.4926
▁탈락하면서	-10.4927
▁14:30	-10.4928
▁플라스틱	-10.4931
▁카고	-10.4936
▁적재하중	-10.4937
▁칸막이	-10.4937
▁종료하고	-10.4941
▁미끄러지는	-10.4945
▁정밀	-10.4946
▁결속선	-10.4946
▁찔리	-10.495
▁콘	-10.495
▁비산되어	-10.4953
▁예방조치	-10.4955
▁나오는	-10.4957
▁거치대	-10.4959
▁만들어	-10.4959
▁2.4	-10.4961
철근에	-10.4961
▁20**	-10.4963
▁직경	-10.4969
▁딛어	-10.4971
▁재해로	-10.4976
헤드	-10.4981
▁보양천막	-10.4988
▁움직임	-10.4991
▁외부벽체	-10.4995
▁디	-10.4996
▁검사를	-10.5004
▁개구부를	-10.5011
r	-10.5012
▁고무	-10.5013
▁보기	-10.5015
보수	-10.5017
▁지상층	-10.5023
▁차량으로	-10.5024
▁가공작업	-10.5026
반	-10.5026
▁관찰	-10.5032
▁유동	-10.5033
동구	-10.5041
▁남은	-10.5047
▁장비와	-10.5049
▁운반기계	-10.5051
▁계단발판	-10.5057
▁버켓에	-10.5061
▁공법에	-10.5063
이기	-10.507
처리	-10.5073
정형외과	-10.508
▁승	-10.5084
겨	-10.5091
▁엄지와	-10.5098
▁피난	-10.5098
▁바닥재	-10.51
▁건조	-10.5103
▁충돌로	-10.5103
▁깨지	-10.5115
목적으로	-10.5119
▁1.0	-10.5127
작업발판	-10.5128
▁비계보	-10.514
▁컷팅기	-10.5149
▁수레	-10.5168
▁철근가공장	-10.5169
되었음	-10.5172
▁허	-10.5184
▁집게	-10.5186
불승인	-10.5188
▁청소작업을	-10.5189
굴삭기	-10.5191
했으나	-10.5191
립	-10.5191
▁편	-10.5197
▁실리콘	-10.5199
▁긴장작업	-10.52
▁시기	-10.5209
었으나	-10.5214
하강	-10.5226
▁(1)	-10.5228
▁칠	-10.5243
▁풀리	-10.5243
▁이동경로	-10.5246
▁부상이	-10.5247
▁이동함	-10.5258
▁잠	-10.5262
원인	-10.5263
▁이동하여야	-10.5266
▁배면에	-10.5266
▁들	-10.5268
N	-10.5277
▁몰딩	-10.528
▁용이하	-10.5291
타	-10.5294
▁차이	-10.5296
▁201	-10.5304
을때	-10.5307
▁비교	-10.5314
▁입술	-10.5316
▁산재신청	-10.5316
KG	-10.5318
▁쇠지렛대	-10.5319
▁도괴	-10.5319
▁달줄	-10.5319
▁17:00	-10.532
▁리프트카	-10.532
▁부상당함	-10.5321
▁없었으나	-10.5321
▁도르래	-10.5322
▁발포	-10.5322
▁에폭시	-10.5322
▁놀라	-10.5322
▁깔판	-10.5322
부록	-10.5323
▁크게	-10.5323
▁09:30	-10.5323
▁관통	-10.5325
▁끊어지면서	-10.5326
▁메인	-10.5329
▁역할	-10.5329
▁평택	-10.5332
▁공구류	-10.5333
▁조적벽체	-10.5333
▁잔류	-10.5335
▁광대뼈	-10.5339
기에	-10.5342
▁감기	-10.5345
▁상호간	-10.5347
▁가압	-10.5349
▁새끼손가락을	-10.5349
▁발견하고	-10.535
▁있고	-10.535
천정	-10.5353
▁붙이기	-10.5356
주택	-10.5357
▁내용이	-10.5358
▁넣는	-10.5359
측정	-10.5359
라는	-10.536
▁끈	-10.5361
▁검진	-10.5363
▁포함한다	-10.5364
▁자재하역	-10.5366
▁마	-10.5366
▁심근경색	-10.5372
▁잠수	-10.5372
▁키	-10.5372
▁이음철근	-10.5375
▁시공순서는	-10.5376
▁대처	-10.5376
▁조립하여	-10.5381
▁구르	-10.539
▁제공	-10.5397
▁조작미숙	-10.5401
창	-10.5404
▁합판거푸집	-10.5404
▁베임사고	-10.5408
▁화	-10.5409
▁부딪쳐서	-10.541
▁수압	-10.5417
▁각관	-10.5418
매우	-10.5422
▁부자재	-10.5423
▁의심	-10.5424
▁사고보고	-10.543
▁피하지	-10.5431
▁하는데	-10.5432
▁발생하였고	-10.5446
▁회전하여	-10.5447
조건	-10.545
부근	-10.5458
위험	-10.5463
▁천	-10.5466
조각이	-10.5472
▁양중하여	-10.5484
▁모	-10.5485
▁#1	-10.5496
▁믹서트럭	-10.5497
w	-10.55
주변	-10.5506
▁아래쪽	-10.5509
▁피하다	-10.5509
▁비계파이프에	-10.5511
▁유지하	-10.5512
▁수행하	-10.5514
▁주저	-10.5517
MM	-10.5521
달	-10.5526
▁용접부위	-10.5526
▁코킹작업	-10.5527
이후	-10.5527
▁소방	-10.5535
▁받쳐	-10.5536
느	-10.5537
깊이	-10.5539
이동	-10.5541
▁커팅	-10.5542
▁c	-10.5551
버	-10.5556
▁판	-10.5556
바닥에	-10.557
▁상이	-10.5585
▁형틀자재	-10.5588
▁버켓이	-10.5588
▁빠지지	-10.559
▁왼쪽눈	-10.5601
Y	-10.5604
▁h	-10.5604
▁자재인양구	-10.5605
▁시에	-10.5611
통로	-10.5611
않아	-10.5613
STA	-10.5625
게이트	-10.5625
▁입선	-10.5626
불안전한	-10.5627
▁전선관	-10.5628
▁막장면	-10.5629
검지	-10.563
폭발	-10.563
▁후미	-10.5634
▁반대쪽	-10.5646
교량	-10.5646
▁준설	-10.5648
▁아	-10.5653
▁말리	-10.5658
▁경고	-10.5661
▁끝부분에	-10.5668
▁뿜칠	-10.5669
▁계측관리	-10.5671
▁남측	-10.5675
호스	-10.5678
장을	-10.5679
31	-10.5686
데	-10.5687
망	-10.5691
▁못에	-10.5692
대가	-10.5694
▁조종	-10.5705
▁앞에	-10.5707
▁철판이	-10.5718
▁배관작업	-10.5719
▁우천	-10.5725
재를	-10.5725
▁끼워	-10.5734
▁크레인에	-10.5734
자의	-10.5735
▁가드레일	-10.5742
▁사이를	-10.5747
바로	-10.575
등학교	-10.5753
▁plate	-10.5754
▁슬립업	-10.5754
▁사실관계	-10.5754
▁않았으며	-10.5754
현상	-10.5754
▁주방	-10.5754
▁튀어나온	-10.5755
▁첫번째	-10.5756
▁좌굴	-10.5756
▁맞지않아	-10.5756
▁사무동	-10.5756
▁가설통로	-10.5756
▁주차타워	-10.5757
▁요철	-10.5757
▁놓치며	-10.5758
▁동력	-10.5758
▁조성	-10.5761
▁슬관절	-10.5762
▁보던	-10.5762
▁무한궤도	-10.5762
▁미제거	-10.5763
▁공동주택	-10.5763
▁날개벽	-10.5763
▁전복	-10.5763
속	-10.5763
▁체인블록	-10.5764
▁기름	-10.5764
▁안전장화	-10.5764
▁강재거푸집	-10.5764
▁종점부	-10.5765
▁PCT	-10.5765
▁연결고리	-10.5765
▁제출함	-10.5766
▁후두부	-10.5769
▁비치하고	-10.5769
▁화약	-10.577
▁실금	-10.577
▁충격하중	-10.5772
▁아니라	-10.5774
▁콘판넬	-10.5775
▁빈	-10.5777
▁조립도에	-10.5778
▁스	-10.5781
▁설치하되	-10.5786
▁정밀검사	-10.5791
▁레버	-10.5795
▁장력	-10.5797
▁초과하여	-10.5801
▁인지하고	-10.5805
광	-10.5806
▁신경	-10.5808
이동중	-10.581
▁점검구	-10.5811
▁골	-10.5818
▁먹	-10.582
▁보고하지	-10.5821
▁벽체와	-10.5822
▁발생일시	-10.5822
으로써	-10.5828
45	-10.583
내용	-10.5831
▁질식	-10.5833
▁경계	-10.5836
철	-10.5839
▁유도원	-10.5842
▁전화	-10.5844
▁위험물	-10.5845
▁표준	-10.5848
▁사용해서	-10.5854
▁정돈	-10.5854
힘	-10.5856
▁준	-10.586
맨홀	-10.5861
▁판넬이	-10.5864
교회	-10.5866
+	-10.5868
되기	-10.5869
사고발생	-10.5869
업무	-10.587
휀스	-10.5875
▁심한	-10.5878
손상	-10.5884
▁철근다발	-10.5888
호세대에서	-10.5889
나무	-10.5893
▁되므로	-10.5893
▁수공구	-10.5897
▁접속	-10.5909
▁생명줄에	-10.591
▁옮기기	-10.5911
▁주는	-10.5916
▁공	-10.5917
▁헬기	-10.592
▁콘크리트못	-10.5927
#1	-10.594
▁콘크리트타설	-10.5951
래	-10.5962
▁하거나	-10.5966
▁나가	-10.5967
▁오류로	-10.5968
한국	-10.5968
1.5	-10.5973
▁연락이	-10.5985
▁넘어가다	-10.5988
▁밀착	-10.5992
사실	-10.5995
▁헛딛	-10.6001
용역	-10.6005
▁내려오	-10.6008
▁따라서	-10.6009
▁고용노동부	-10.6012
쳐서	-10.6014
▁정전	-10.6016
하나	-10.6025
▁경사면에	-10.6027
장이	-10.603
▁반생	-10.6031
▁지역	-10.6032
구조	-10.6034
시킨다	-10.6039
▁지상에	-10.604
▁방지하고	-10.6044
민	-10.6044
▁보이	-10.6052
쳐	-10.6056
▁실려	-10.6056
▁통신	-10.6064
▁볼트가	-10.607
▁소나무	-10.6073
즉시	-10.6081
▁신설	-10.6083
▁뒤편	-10.6087
설	-10.6101
리면서	-10.6102
▁와이어에	-10.6102
▁보호조치	-10.6105
▁작업하	-10.6109
사이로	-10.6113
▁뿜어붙	-10.6117
펌프장	-10.612
▁용	-10.6121
작업자의	-10.6122
▁수평목	-10.6126
반장	-10.6135
▁턴버클	-10.6139
▁발화	-10.6139
부상	-10.6147
▁주로	-10.6153
▁W	-10.6159
▁동료들	-10.6162
▁작업실시	-10.6162
▁바깥쪽	-10.6164
▁순	-10.6165
이하	-10.6171
▁인양하기	-10.6175
▁요양신청	-10.6178
▁핸드레일	-10.6178
▁선행	-10.6187
▁코핑	-10.619
지붕	-10.6195
▁말비계에	-10.6202
▁낙하한	-10.6202
▁테두리	-10.6205
▁근육이	-10.6206
▁연료	-10.6208
▁조경	-10.6208
▁후레싱	-10.6208
▁부등침하	-10.6208
▁아우트리거	-10.6208
」	-10.6208
엔지니어링	-10.6208
▁슬링밸트	-10.6208
▁협력회사	-10.6208
▁피하는	-10.6208
▁락볼트	-10.6208
▁발끝막이판	-10.6209
▁지압판	-10.6209
▁끊어져	-10.6209
▁전기기계	-10.621
▁걸이시설	-10.6211
▁철제	-10.6211
▁경광등	-10.6212
▁십자인대	-10.6212
▁반발력	-10.6212
▁도보	-10.6213
▁인방	-10.6215
체육관	-10.6215
▁고정하여	-10.6216
▁틈새로	-10.6217
▁흙막이지보공	-10.6218
▁기간	-10.6221
▁스킬톱	-10.6223
▁확장	-10.6226
▁제작사	-10.6227
▁참조	-10.6227
▁부속자재	-10.6227
▁中	-10.623
▁천안	-10.6236
▁헤드	-10.6237
▁연결통로	-10.6238
▁체크	-10.6242
▁환기구	-10.6244
▁지나가다	-10.6246
▁찧	-10.6248
▁끝나	-10.625
▁갖는	-10.625
▁조사하고	-10.6251
▁제단	-10.6251
▁상실	-10.6255
▁부딪치는	-10.6255
▁가다가	-10.6258
▁#2	-10.626
▁조치함	-10.6262
▁모터	-10.6266
▁현장조건	-10.627
▁발생시	-10.6273
속도	-10.6274
▁당기다가	-10.6275
▁불가능	-10.6275
▁트럭에	-10.6275
▁응력	-10.6284
▁방화	-10.6284
▁지지하고	-10.6285
▁넘어졌다	-10.6286
1.8	-10.6291
▁회전날	-10.6293
호의	-10.6294
▁보고하고	-10.6297
▁꺾이	-10.6301
▁예방할	-10.6304
여야	-10.6307
1.2	-10.6311
▁장갑을	-10.6314
▁그러	-10.6317
▁당겨	-10.6319
▁낙하되어	-10.6322
▁입원하여	-10.6328
▁복구	-10.6328
▁제거작업	-10.6341
▁갱폼이	-10.6343
▁방식	-10.6347
▁Y	-10.6348
▁배관파이프	-10.6351
▁오차	-10.636
▁파열로	-10.6361
재해발생	-10.6364
▁명시	-10.6369
▁절단하여	-10.6371
▁건축자재	-10.6375
▁사항이	-10.6378
▁205	-10.6381
▁조립작업중	-10.6388
어디서	-10.639
▁판개	-10.6397
창호	-10.6398
지상	-10.6403
▁고시	-10.6404
▁인도	-10.6406
▁확보하여	-10.6413
(20	-10.642
▁빠지	-10.6429
_	-10.6446
▁구동	-10.6453
해체작업	-10.646
산업개발	-10.6461
▁간섭이	-10.6464
▁전도방지를	-10.6471
▁낙하방지	-10.6472
순서	-10.6473
▁시스템비계에서	-10.6495
▁막	-10.6495
▁선박	-10.6505
턱	-10.6515
▁위쪽	-10.652
최	-10.6522
직후	-10.6527
▁풀던	-10.6542
▁목적	-10.6544
▁절단한	-10.6548
두	-10.6549
플랜트	-10.6552
<	-10.6557
언제	-10.6559
▁구간의	-10.6569
지지	-10.657
▁작업과	-10.6572
▁평탄	-10.6581
▁없어야	-10.6582
▁시술	-10.6604
▁가설도로	-10.6606
▁안착	-10.6615
(40	-10.6618
울	-10.6619
▁외부에	-10.6619
동안	-10.6624
▁지장	-10.6625
▁최상단	-10.6629
▁배관자재	-10.6631
▁허리부분	-10.6631
▁움직이는	-10.6637
타설	-10.6641
▁감소	-10.6657
▁해체물	-10.6668
▁욕실	-10.667
▁필요하다	-10.6671
▁철판에	-10.6675
자재가	-10.6677
▁다치게	-10.668
▁숏크리트	-10.6684
▁착각	-10.6684
▁마친	-10.6685
▁방호울	-10.6685
▁가교각	-10.6685
▁잃으며	-10.6685
▁출입통제	-10.6686
▁출역	-10.6687
▁고르지	-10.6688
▁세보	-10.6689
▁보호덮개	-10.6689
▁판명	-10.6689
▁안전작업계획서	-10.669
▁발꿈치	-10.669
▁박힌	-10.6692
▁보강거더	-10.6692
▁신규	-10.6694
▁전기뇌관	-10.6694
▁구명	-10.6694
▁강연선	-10.6694
▁물리치료	-10.6695
▁삽	-10.6696
▁절연용	-10.6697
▁접속부	-10.6697
▁EL	-10.6698
▁석재가	-10.6699
▁받기	-10.67
▁날개	-10.6702
▁강관파일	-10.6704
▁기둥거푸집	-10.6706
▁정면	-10.6706
▁부실	-10.6707
▁면처리	-10.6708
▁자갈	-10.671
▁해서	-10.6711
▁상황에	-10.6713
▁청주	-10.6714
▁회전하며	-10.6716
▁앉은	-10.6716
▁폐자재	-10.6717
▁지나가는	-10.6717
▁통화	-10.6718
▁인지함	-10.6719
▁정비사업	-10.672
▁포스트	-10.672
▁내려가던중	-10.672
▁점심	-10.672
▁점검중	-10.6721
▁요청하여	-10.6723
▁때려	-10.6724
▁절단됨	-10.6726
▁철도	-10.6728
역사	-10.6729
▁Pipe	-10.6733
▁75	-10.6734
▁왼쪽무릎	-10.6738
▁내벽	-10.6739
▁매달기	-10.6741
되었고	-10.6741
하기위하여	-10.6744
공간	-10.6744
▁낙하함	-10.6745
▁일요일	-10.6745
▁명일	-10.6748
▁거동	-10.6751
관로	-10.6755
▁포대	-10.6761
▁설치계획	-10.6762
수평	-10.6765
▁부딪혔다	-10.6765
▁b	-10.6768
▁사고이며	-10.677
사다리를	-10.677
▁드는	-10.6771
▁주기적	-10.6771
마을	-10.6771
▁적재중	-10.6776
조사	-10.6778
▁훈련	-10.6778
바닥으로	-10.678
▁옴	-10.6785
▁이송후	-10.6789
▁불편	-10.6806
▁직	-10.6812
▁불시	-10.6818
▁조치하고	-10.6821
판을	-10.6823
▁***-*	-10.6826
파	-10.683
▁축	-10.683
▁미상	-10.6832
▁내장	-10.6834
▁정리작업중	-10.684
▁오픈	-10.6842
▁밑에서	-10.6857
▁알리지	-10.6869
▁방호벽	-10.6876
▁왼쪽손	-10.6883
▁폭은	-10.6888
▁용접작업중	-10.6894
▁나오던	-10.6895
▁난	-10.6897
▁로울러	-10.6913
▁골절발생	-10.6915
이내	-10.6918
부재	-10.6919
▁감전방지	-10.6921
규격	-10.6929
▁되며	-10.6929
카	-10.693
▁드럼	-10.693
치료	-10.6932
부에서	-10.6932
형틀	-10.6935
▁관을	-10.6936
▁가공중	-10.6937
▁폐쇄성	-10.6938
▁진행하여	-10.694
▁침	-10.6943
▁활용	-10.6946
구멍	-10.6955
편	-10.6963
▁찔린	-10.6965
▁보양작업	-10.6967
▁견출작업	-10.6974
▁준비작업	-10.6978
▁왼	-10.698
▁바닥면에	-10.699
▁대차에	-10.6993
▁설치하며	-10.6997
▁이전	-10.6997
▁착용상태	-10.7004
난간대	-10.7012
▁단부에서	-10.7015
황	-10.7019
▁조적공사	-10.7019
▁들어가는	-10.7027
▁작업대에	-10.7032
하는데	-10.7034
▁Con	-10.7034
내릴	-10.7046
▁빠른	-10.705
금요일	-10.7057
안전화	-10.7058
▁세워놓	-10.706
=	-10.707
▁후크에	-10.7076
도구	-10.7081
▁살수차	-10.7084
▁발생되어	-10.709
▁용도	-10.7095
▁콘센트	-10.71
▁개폐	-10.7116
▁운반차량	-10.712
측	-10.7121
▁시공순서	-10.7123
인과	-10.7125
▁버력	-10.7126
으로서	-10.7126
어서	-10.7133
▁태	-10.7138
▁작	-10.7139
▁확보하기	-10.7142
▁막기	-10.7142
의료원	-10.7147
▁실수	-10.7156
재해자는	-10.7157
▁접근금지	-10.7165
▁기재	-10.7179
▁휨	-10.7184
▁웨이트	-10.7184
▁부적정	-10.7184
▁꺾임	-10.7185
▁끊어짐	-10.7185
▁피복석	-10.7186
▁평탄성	-10.7186
▁완성	-10.7187
▁요골	-10.7188
▁보험가입자의견서	-10.7188
▁풍압	-10.7189
▁예정임	-10.7189
▁고압호스	-10.7189
▁정문	-10.7189
▁부딪치며	-10.7189
▁발현	-10.7189
▁부딛쳐	-10.719
▁11:30	-10.7192
▁사전조사	-10.7192
주진단	-10.7193
▁벤딩기	-10.7195
▁난청	-10.7195
▁가설울타리	-10.7195
.*	-10.7195
▁절상	-10.7196
▁09:00	-10.7197
▁먼지	-10.7197
▁측압	-10.7198
▁환자	-10.7199
▁요함	-10.7199
▁올라서서	-10.7199
▁가설사무실	-10.7199
▁맞추는	-10.7199
▁식	-10.72
▁견인	-10.7201
▁우선	-10.7203
▁여수	-10.7203
▁통지서	-10.7205
▁요양신청서	-10.7206
▁맞으	-10.7206
자는	-10.7206
▁유로품	-10.7208
▁금이감	-10.7209
▁남아있	-10.7209
▁GS	-10.7209
▁측정하고	-10.721
▁철망	-10.7214
▁공사구간	-10.7215
▁적정성	-10.7218
▁주두부	-10.7219
▁통원	-10.722
▁처음	-10.7223
▁도장공	-10.7228
▁왼쪽발등	-10.7228
▁탱크	-10.7228
▁이루어져야	-10.7229
▁결합	-10.7234
▁단차부	-10.7235
▁값	-10.7235
▁위치로	-10.7236
예방	-10.724
▁진행함	-10.724
▁부착되어	-10.7244
▁이해	-10.7248
▁올라오던	-10.7248
▁작업위치	-10.7254
▁치면서	-10.7255
▁선임	-10.7255
▁설계도서와	-10.7256
▁짚은	-10.7256
▁작업반	-10.7259
함으로써	-10.7259
앞	-10.7263
▁인양하중	-10.7264
요추	-10.7265
▁설치장소	-10.7265
▁합니다	-10.7269
사고임	-10.7269
되었다고	-10.7271
▁부분에서	-10.7271
▁유지하고	-10.7272
▁되었으며	-10.7273
▁쓰러지는	-10.7273
▁시동	-10.7278
▁당사자	-10.7278
▁우측발이	-10.7281
▁철거공사	-10.729
▁보건	-10.7292
▁치	-10.7293
▁신발	-10.7298
순간	-10.7313
▁버팀목	-10.7314
인한	-10.7317
클램프	-10.7317
▁작업하던중	-10.7317
▁경화	-10.7318
▁막아	-10.7324
▁두고	-10.7326
▁되었고	-10.7326
▁절단하기	-10.734
▁기계적	-10.7343
단하고	-10.7344
▁원인이	-10.7347
백	-10.7352
▁전환	-10.7354
▁용단	-10.7355
▁양수	-10.7359
방수	-10.7363
▁덮어	-10.7371
▁돌출부	-10.7373
▁돌아가	-10.7377
▁하부의	-10.7385
▁38	-10.7391
쪽에서	-10.7394
뼈가	-10.7401
▁쪼그려	-10.7402
▁허용	-10.7409
시키기	-10.7415
▁당사에	-10.7426
▁검토한	-10.7426
▁300	-10.7426
▁줄이	-10.7428
▁측	-10.7429
두께	-10.7432
▁발파기	-10.7433
▁볼트에	-10.7437
▁쌓여있	-10.7444
▁관절	-10.7454
▁문을	-10.7456
▁확인하던	-10.7457
빌딩	-10.7463
불량	-10.7464
▁전면부	-10.7472
▁가공장	-10.7488
▁자재이동	-10.749
▁가하여	-10.7491
▁저	-10.7492
▁훼손	-10.7508
지지대	-10.751
유무	-10.7517
▁무의식	-10.7518
▁브레싱	-10.7518
재해를	-10.7524
시스템	-10.7532
▁가설계단에서	-10.7537
▁시공된	-10.7537
▁매달	-10.7543
▁횡대에	-10.7548
▁지하층에서	-10.7548
.-	-10.755
▁지휘	-10.7553
▁포터	-10.7561
탑	-10.7571
▁매달려	-10.7573
▁입원치료	-10.7573
인대	-10.7575
필	-10.7575
▁고온	-10.7577
변경	-10.7577
스카이	-10.7579
앵글	-10.7581
▁결	-10.7581
▁발파작업	-10.7581
렌탈	-10.7582
보안경	-10.7583
▁다짐작업	-10.7594
▁분전함	-10.7594
성이	-10.7596
되거나	-10.7612
▁맨홀에	-10.7619
▁증기	-10.762
령	-10.7638
▁등쪽	-10.7641
▁구름	-10.7643
▁호수	-10.7646
▁단계	-10.7646
▁거푸집조립	-10.7646
▁못으로	-10.765
▁출발	-10.7651
골	-10.7656
▁타박상이	-10.7678
▁끌	-10.7682
▁철골공	-10.7684
▁침수	-10.7685
▁작업장소에	-10.7689
▁남아	-10.7693
▁기술	-10.7695
걸이	-10.7695
▁않는다	-10.7695
▁전치	-10.7699
▁관내	-10.7703
▁그라인드	-10.7704
불량으로	-10.7705
교체	-10.7709
▁Crane	-10.7711
▁낙뢰	-10.7711
▁스토퍼	-10.7711
▁의거하여	-10.7711
▁일어남	-10.7711
▁밀크	-10.7711
▁분산	-10.7711
▁구조이	-10.7712
▁넘어지거나	-10.7712
▁유압호스	-10.7712
▁부러져	-10.7712
▁트러스거더	-10.7713
▁불량품	-10.7713
▁13:00	-10.7714
▁돌부리	-10.7715
▁노즐	-10.7715
▁원인불명	-10.7715
▁어스앵커	-10.7715
▁화물자동차	-10.7715
▁폐목재	-10.7715
▁피로티	-10.7715
▁입었습니다	-10.7715
▁빠진	-10.7715
▁도수로	-10.7716
▁봉합수술	-10.7716
▁도와주	-10.7716
▁마찰	-10.7717
▁유압장치	-10.7717
▁동등	-10.7719
▁승인됨	-10.7721
▁곧	-10.7721
▁알게	-10.7721
▁석축	-10.7722
▁통보하여	-10.7722
▁승강통로	-10.7722
▁헛딪어	-10.7722
▁좌상	-10.7723
▁화성시	-10.7724
▁세번째	-10.7724
▁연결철물	-10.7725
▁5>	-10.7726
▁숙련도	-10.7726
재해자가	-10.7727
▁무전기	-10.7727
▁관계기관	-10.7728
▁어께	-10.7729
▁순차적	-10.7729
▁도시가스	-10.773
▁승강설비	-10.773
▁이송함	-10.7732
▁사석	-10.7732
▁TT	-10.7732
▁자동차	-10.7733
▁근골격계질환	-10.7736
▁테이블리프트	-10.7736
▁말고	-10.7739
▁돌출되어	-10.7742
▁던지	-10.7742
▁브레이싱	-10.7743
▁작업절차	-10.7743
▁살수기	-10.7744
▁피하기	-10.7747
%	-10.7747
▁왼쪽손목	-10.7748
▁들어올리던	-10.7749
▁기술자	-10.7749
▁매트	-10.775
▁향후	-10.7755
▁선정하고	-10.7757
00(00	-10.776
▁결정하고	-10.7772
-4	-10.7772
▁불꽃이	-10.778
▁최소한	-10.7781
▁푸는	-10.7783
▁우측발	-10.7786
대를	-10.7786
공사를	-10.7788
▁주의하고	-10.7791
▁교체작업	-10.7793
▁첫마디가	-10.7797
▁띠장에	-10.78
▁중이었으며	-10.78
▁업체인	-10.7805
▁합판과	-10.7809
▁분리하여	-10.7815
▁리	-10.782
간격	-10.782
▁사각	-10.7821
▁통영지사에	-10.7825
면에	-10.7827
▁전까지	-10.783
▁들려	-10.7844
▁띠장이	-10.7854
▁우측손	-10.7859
▁내림	-10.7868
▁지원	-10.7873
▁보강용	-10.7875
▁둥근톱으로	-10.7883
▁떨어지	-10.7891
▁무의식적	-10.7894
▁운송	-10.7895
▁사춤	-10.7896
▁디딤	-10.791
▁알폼자재	-10.7924
▁풀기	-10.7927
▁거실	-10.7931
▁조립한	-10.7933
발판에서	-10.7934
▁종합	-10.7957
했고	-10.7959
▁손목부위	-10.7961
▁삼	-10.7964
▁설치구간에서	-10.7964
▁굴착구간	-10.7978
▁사각파이프	-10.798
실금	-10.7981
▁손잡이에	-10.7983
▁성모병원	-10.7991
▁보고하여	-10.7997
▁옥외	-10.8005
▁주민	-10.802
바닥에서	-10.802
▁와이어로프에	-10.8025
▁비계기둥	-10.8026
전도	-10.8026
▁찔	-10.8032
▁밀다	-10.8037
▁사용에	-10.804
▁203	-10.8041
▁제공하는	-10.8043
▁전문	-10.8048
(06	-10.8049
▁작업공간이	-10.8049
▁지게발	-10.8052
▁시공시	-10.8062
70	-10.8063
▁라인	-10.8064
▁잡아당기	-10.8068
▁뇌관	-10.8072
80	-10.8073
▁자의	-10.8077
▁잃	-10.8085
▁밟아서	-10.8089
▁측벽	-10.8089
재해가	-10.8108
▁협의하여	-10.811
갈비뼈	-10.8113
밸브	-10.8127
커버	-10.8128
▁안되어	-10.8134
무게	-10.8137
▁누름	-10.8141
▁원인으로	-10.8147
▁인정	-10.8157
▁앉	-10.8159
일부터	-10.8162
는순간	-10.8168
▁악화	-10.8171
->	-10.8179
▁내려오기	-10.8179
▁보이지	-10.818
붙은	-10.8183
고리	-10.8183
▁진행하다	-10.8183
▁빗겨	-10.8184
▁준공	-10.8187
▁경남	-10.8188
▁양측	-10.8192
▁202	-10.8198
▁개인의	-10.8204
▁풀어	-10.8206
루	-10.8208
▁직각	-10.8215
▁수직형	-10.8217
지고	-10.8218
었는데	-10.8228
▁저면	-10.8228
▁오수관	-10.8231
손	-10.8239
▁스윙	-10.8246
화장실	-10.8252
▁건립	-10.8261
▁일으	-10.8261
▁과부하	-10.8265
▁정격	-10.8266
▁겐츄리크레인	-10.8266
▁너무	-10.8266
▁긁힘	-10.8266
▁런칭거더	-10.8266
▁SCW	-10.8266
▁대리석	-10.8267
▁안내벽	-10.8267
▁경보장치	-10.8267
▁철사	-10.8267
▁심정지	-10.8267
▁결여	-10.8267
▁폼타이	-10.8267
▁쓰러진	-10.8268
▁진동다짐기	-10.8268
▁왼손검지	-10.8268
▁수부	-10.8268
방파제	-10.8269
▁엔진톱	-10.827
▁현장여건	-10.827
▁불인정	-10.827
▁에어컨	-10.827
▁갈고리	-10.827
▁넘어질	-10.8271
▁도움	-10.8271
▁추락방망	-10.8271
▁에어호스	-10.8271
▁없었고	-10.8271
▁주지시키고	-10.8271
▁PL	-10.8272
▁수평거리	-10.8272
▁볼트체결	-10.8272
▁안전율	-10.8272
▁배열	-10.8273
▁깔고	-10.8273
▁철근절곡기	-10.8275
▁지지점	-10.8275
▁다수	-10.8275
▁설정하고	-10.8276
Bar	-10.8277
▁임의해체	-10.8278
▁항공마대	-10.8278
▁화학물질	-10.8278
▁진흙	-10.8278
▁실링바	-10.8278
▁안전장갑	-10.8279
▁미끄러진	-10.8279
▁폐콘크리트	-10.8279
▁특이사항	-10.8279
▁하카	-10.8279
▁옹이	-10.828
▁의사소견	-10.8281
▁골절되었음	-10.8284
▁인정할	-10.8284
▁보조기구	-10.8284
▁기온	-10.8284
▁호흡용	-10.8285
▁낙상함	-10.8285
▁해지장치	-10.8286
▁1~2	-10.8287
▁마다	-10.8288
▁요동	-10.829
▁잡다가	-10.829
▁해체순서	-10.8292
▁연락하여	-10.8292
▁출동	-10.8293
▁올린	-10.8293
▁작업동료	-10.8294
▁네일	-10.8294
노	-10.8294
▁문턱	-10.8296
▁파악하지	-10.8297
▁눌리	-10.8299
▁철근절단기	-10.83
▁시공사에	-10.83
▁시공방법	-10.8301
▁13:30	-10.8302
▁석고	-10.8308
▁오던	-10.8309
주의	-10.831
▁선반	-10.8311
▁미장공사	-10.8311
▁덩어리	-10.8313
▁코아	-10.8317
▁감시인	-10.8318
▁연결되어	-10.8322
▁낀	-10.8323
▁전락	-10.8326
▁진행하던중	-10.8327
▁전력	-10.8333
하다고	-10.8333
▁착용하지	-10.8338
▁터널내부	-10.8343
▁늦게	-10.8346
▁단차구간	-10.8346
▁보양지	-10.8347
▁기상	-10.8349
▁방지장치	-10.835
▁BOX	-10.8354
▁어깨통증	-10.8362
▁아프다	-10.8363
▁무시	-10.8363
▁전진	-10.8371
▁양질	-10.8378
▁치다가	-10.8378
▁싣는	-10.8379
▁게시	-10.8379
축	-10.838
물이	-10.8384
놓았던	-10.8388
용으로	-10.8391
▁옆면	-10.8394
▁전등	-10.8399
변	-10.8401
손가락	-10.8405
▁민	-10.8406
조의	-10.8409
▁명	-10.8409
▁발코니에서	-10.8414
▁협력업체인	-10.8428
대차	-10.843
▁작업복	-10.843
▁시방서	-10.8436
데크	-10.8437
▁병원이송	-10.8438
타박상	-10.8439
지만	-10.8442
▁유리창	-10.8453
하지않고	-10.8468
▁철선에	-10.848
7.	-10.848
▁502	-10.8481
▁설치구간	-10.8484
감	-10.8485
▁편의	-10.8488
▁간단	-10.85
▁강관파이프에	-10.8508
▁일일	-10.8513
▁야간	-10.8514
▁후진시	-10.8526
상태로	-10.8526
▁ᄋᄋᄋ씨	-10.8526
건축	-10.8527
▁필요로	-10.8536
▁영	-10.8543
▁장비운전원	-10.8543
▁고정한	-10.8546
▁공간에	-10.8548
구간에	-10.8555
▁발판사이	-10.8556
▁높이로	-10.8558
▁후속	-10.8561
▁병행	-10.8562
▁켜	-10.8564
날에	-10.857
일명	-10.858
넘어짐	-10.8589
옥	-10.859
▁돌아	-10.859
▁주변상황	-10.8599
▁우측다리	-10.86
-7	-10.8607
(15	-10.8609
▁박혀있	-10.8611
▁장애물이	-10.8612
▁가시설공사	-10.8612
▁역	-10.8616
▁아래층	-10.8617
▁서포트에	-10.8622
▁어깨부위	-10.8628
범위	-10.8629
▁꼬임	-10.8632
▁넓	-10.8635
▁드럼에	-10.8635
▁진술에	-10.8645
없음	-10.8647
창고	-10.865
▁결빙구간	-10.8651
▁짚는	-10.8654
55	-10.8655
▁우각부	-10.866
▁철골자재	-10.8666
▁근무를	-10.8671
▁경상	-10.8672
▁쳐	-10.8673
▁버킷에	-10.8678
오후	-10.8684
▁세부	-10.8687
▁날아	-10.8696
▁상황이	-10.8698
▁초래	-10.87
MSDS	-10.87
▁가도	-10.8702
▁유로폼과	-10.8703
▁인입	-10.8712
름	-10.8715
▁내려놓다	-10.8718
▁동바리가	-10.8722
볼	-10.8723
타워	-10.8723
▁뒷	-10.8723
계단을	-10.8743
▁저장소	-10.8747
협착	-10.8752
▁위험구역	-10.8752
▁크	-10.8759
▁타격으로	-10.8765
대학교	-10.877
▁상하부	-10.8771
▁횡	-10.8771
되었습니다	-10.8793
▁긴결	-10.8796
율	-10.8798
▁덤프트럭에	-10.8802
▁상체	-10.8807
▁진입도로	-10.8808
▁확보되지	-10.8809
▁엄	-10.8811
받은	-10.8811
▁구비	-10.8815
▁취약	-10.8816
▁건물의	-10.8822
▁자재적재	-10.8823
(60	-10.8829
***	-10.883
▁굴곡	-10.8836
▁커터	-10.884
▁완료한	-10.8841
▁파괴	-10.8843
▁견관절	-10.8843
▁운용	-10.8845
타이	-10.8846
▁예측	-10.8848
▁도출	-10.8849
▁크롤러	-10.8854
▁격리	-10.8854
▁낌	-10.8854
▁산소결핍	-10.8854
▁교환	-10.8854
▁케이슨	-10.8854
▁빗물받이	-10.8855
▁사료됨	-10.8855
▁가스용기	-10.8855
▁운행경로	-10.8855
▁정상근무	-10.8855
▁안전계수	-10.8855
▁입힘	-10.8855
▁밟음	-10.8856
▁꺾여	-10.8856
▁기상상태	-10.8856
▁슬링바	-10.8856
▁관계근로자	-10.8857
품	-10.8857
▁심해져	-10.8857
▁고속	-10.8857
▁없었음	-10.8859
▁도배	-10.8859
▁생계형	-10.8859
▁습식	-10.8859
▁비산먼지	-10.8859
▁뒤틀림	-10.8859
▁평소	-10.8859
▁순간풍속	-10.886
▁베여	-10.886
▁걸어가다	-10.886
▁불편함	-10.8861
▁문제점	-10.8861
▁짧은	-10.8861
▁타이볼트	-10.8862
▁받았고	-10.8862
▁남양	-10.8863
하수처리장	-10.8864
▁있음에도	-10.8864
▁공법으로	-10.8864
▁밀폐	-10.8864
▁받았습니다	-10.8866
▁공기압축기	-10.8867
▁찧어	-10.8867
▁앙카볼트	-10.8867
▁EPS	-10.8867
▁기종	-10.8868
▁BEAM	-10.8868
▁통보함	-10.8869
▁발뒷꿈치	-10.8869
▁소화배관	-10.8869
▁핸드드릴	-10.887
▁있기	-10.887
▁긴결재	-10.8871
▁걸어가던	-10.8871
▁커튼월	-10.8872
▁텐션	-10.8873
▁양중장비	-10.8874
▁정리하기	-10.8874
▁어린이집	-10.8875
▁대형거푸집	-10.8875
▁탈구	-10.8875
▁돌출물	-10.8877
▁요양급여신청서	-10.8877
▁폐	-10.8878
▁발끝	-10.8878
▁검측	-10.888
▁작업차	-10.8881
▁제방	-10.8881
▁뿌리	-10.8883
▁개인질병	-10.8884
▁버림	-10.8887
▁덮쳐	-10.8889
▁오르는	-10.8891
▁「	-10.8891
▁마스크	-10.8891
▁사진	-10.8891
▁추락방지대	-10.8891
▁방안	-10.8891
안전	-10.8892
▁직영반장	-10.8892
▁제원	-10.8893
▁취하고	-10.8894
▁가던중	-10.8897
▁시설물에	-10.8897
▁지연보고	-10.8897
▁외부계단	-10.8897
▁달포대	-10.8899
▁붙임	-10.8901
▁공구함	-10.8901
▁포함하여	-10.8902
▁보임	-10.8903
▁들어올리다	-10.8904
▁작업함	-10.8905
운전자	-10.8905
▁비로	-10.8907
▁마감재	-10.8907
▁지름	-10.8907
발판을	-10.8908
▁호안	-10.8909
▁미숙지	-10.8909
▁계	-10.891
▁원형톱날	-10.891
▁작업전선	-10.8924
▁경사도	-10.8926
▁결속하고	-10.8929
▁자르다	-10.893
▁마련	-10.893
▁발병	-10.8931
▁1.6	-10.8932
▁부딪히고	-10.8933
▁정착	-10.8938
▁※	-10.8942
▁자료	-10.8948
▁작동시켜	-10.8952
▁일어서는	-10.8955
▁신축현장에서	-10.8957
막	-10.896
예	-10.896
▁놓치	-10.8971
▁올바	-10.8973
연결	-10.8973
▁조립하기	-10.8976
▁접질리는	-10.8976
망치	-10.8979
▁형틀작업자	-10.8984
▁이력	-10.8992
학	-10.8996
낙하	-10.9
▁닿으	-10.9
▁AM	-10.9002
▁->	-10.9002
▁우마발판	-10.9003
▁제작장에서	-10.9007
▁놓쳐서	-10.9012
▁제거하지	-10.9013
▁기사와	-10.9017
▁걸어서	-10.9024
▁1.3	-10.9032
왼쪽	-10.9037
▁리어카에	-10.9046
▁증상이	-10.9051
▁작동이	-10.9053
(1.8	-10.9057
▁하되	-10.9067
▁옮기	-10.9077
▁형틀작업중	-10.9081
▁동결	-10.9082
마디가	-10.9097
▁일시적	-10.9099
덕	-10.9106
▁보와	-10.9106
▁우측팔	-10.9106
▁실시하던	-10.9109
▁무너	-10.9111
▁품질	-10.9118
면에서	-10.9119
암거	-10.9121
▁내려올	-10.9123
▁발판위	-10.9126
지며	-10.9129
▁보철근	-10.9129
▁연결한	-10.9132
니다	-10.9156
▁포장공사	-10.9159
▁존재	-10.9171
▁체결하여	-10.9176
▁메	-10.9182
▁미끄러지	-10.9184
-6	-10.9192
▁요추부	-10.9192
파손	-10.9193
▁거주	-10.9197
▁단독작업	-10.9202
움	-10.9202
▁비틀림	-10.9204
옴	-10.9204
파크	-10.9213
▁후속작업	-10.9216
▁끝에	-10.9222
▁지면을	-10.9228
▁이기	-10.9229
다리를	-10.9231
▁아래의	-10.9234
락	-10.9238
▁발급	-10.9241
▁방해	-10.9243
▁입고	-10.9255
▁301	-10.9256
TG	-10.926
▁실측	-10.9263
▁엄지손가락에	-10.9265
▁해체공사	-10.9268
에이치	-10.9278
▁내려치	-10.9286
▁않아서	-10.9288
각파이프	-10.9292
▁먹메김	-10.93
▁낙하에	-10.9304
▁넘어가던	-10.9308
▁의식이	-10.931
▁평	-10.9311
시험	-10.9315
지를	-10.932
▁충남	-10.9322
▁일부분	-10.9325
▁리모델링	-10.9328
전에	-10.9329
▁보통	-10.9332
(50	-10.9332
▁기지	-10.9333
▁갖추	-10.9339
▁후진중	-10.9343
코어	-10.9349
너트	-10.935
p	-10.9351
PIT	-10.9351
골조	-10.9352
▁청	-10.9352
▁이탈하	-10.9357
▁후면에	-10.9359
▁협착재해	-10.936
▁사망자	-10.9363
▁용접봉	-10.9365
▁통합	-10.9368
▁이탈로	-10.9369
▁N	-10.937
▁토	-10.9371
▁옹벽거푸집	-10.9372
▁작업계획에	-10.9372
▁어려움	-10.9379
▁금이간	-10.9381
록	-10.9381
▁함몰	-10.9382
▁보다	-10.9382
▁첫마디	-10.9383
▁상시	-10.9385
월요일	-10.9388
▁기둥과	-10.9393
▁잡으려	-10.9396
▁인근병원	-10.9397
▁수로	-10.9399
▁불가피	-10.9402
▁집어넣	-10.9402
▁깊	-10.9404
▁굴착부	-10.9415
타일	-10.9419
▁참	-10.942
▁스파크	-10.9426
▁근	-10.9438
인원	-10.9442
▁구체	-10.9445
▁돌아서	-10.9447
▁상수관	-10.945
▁호퍼	-10.9454
▁있으	-10.9455
▁인계	-10.9458
▁요양급여신청	-10.946
▁떨어질	-10.9461
▁발행	-10.9461
▁터널내	-10.9468
▁압송	-10.9473
텍	-10.9474
▁경사각	-10.9476
▁태만	-10.9477
▁톤백	-10.9479
▁행복주택	-10.9479
▁타카	-10.9479
▁석탄취급설비	-10.9479
▁트롤리	-10.9479
▁특징	-10.9479
▁죄측	-10.9479
▁불안전행동	-10.9479
▁노끈	-10.948
▁빨리	-10.948
▁공벽	-10.948
▁연계	-10.948
▁알림	-10.948
▁이빨	-10.948
계단실	-10.948
▁경추	-10.9481
▁하루	-10.9481
▁괜찮다고	-10.9481
▁익일	-10.9481
▁창문틀	-10.9482
▁의하면	-10.9482
▁하자보수	-10.9482
▁진단받음	-10.9483
▁얼음	-10.9483
▁주상복합	-10.9484
▁보안면	-10.9484
▁노무자	-10.9484
▁그라인딩	-10.9484
▁폭설	-10.9484
▁강관동바리	-10.9485
▁실족방지망	-10.9485
▁넣	-10.9485
▁근육파열	-10.9485
▁탈락되며	-10.9486
▁08:30	-10.9486
▁광차	-10.9487
▁계측결과	-10.9487
▁허리부상	-10.9488
▁울산	-10.9488
▁고통	-10.9488
▁역순	-10.9488
▁적정여부	-10.9489
▁6>	-10.9489
▁가조립	-10.949
▁찢어지고	-10.949
▁3~4	-10.949
▁트레이	-10.9492
▁못하였고	-10.9493
▁당초	-10.9493
▁생김	-10.9493
진단	-10.9494
▁억제	-10.9494
▁본선	-10.9494
번길	-10.9496
▁안전덮개	-10.9496
▁않았고	-10.9497
▁모양	-10.9498
파이프를	-10.95
▁받았으나	-10.95
▁기중기	-10.9501
▁긴장력	-10.9502
▁실시하였고	-10.9502
▁주변지반	-10.9502
▁폭약	-10.9503
▁발바닥	-10.9504
▁교통사고	-10.9506
▁안산	-10.9507
▁샌드위치	-10.9508
▁종골	-10.9508
▁물품	-10.9511
▁철근작업자	-10.9512
▁요청함	-10.9512
▁서류	-10.9512
▁평탄한	-10.9514
▁작업배치	-10.9515
▁기계기구	-10.9518
▁최상부	-10.9519
▁국도	-10.9519
▁진동기	-10.9521
▁전기선	-10.9522
▁개인부주의	-10.9523
▁PT	-10.9523
▁투입되어	-10.9524
▁간격이	-10.9524
▁0.5	-10.9524
▁철근운반	-10.9525
▁사전점검	-10.953
▁수원	-10.9533
▁하지만	-10.9536
▁투입하여	-10.9538
▁렌치	-10.9552
▁침하방지	-10.9553
▁DH	-10.9553
▁연결재	-10.9558
자재에	-10.9565
사거리	-10.9566
▁적은	-10.9574
▁근무중	-10.9577
▁기기	-10.9578
▁연결하고	-10.9581
▁고인	-10.9583
▁강판	-10.9588
▁다쳐	-10.9589
▁사업	-10.9592
▁막장에서	-10.9594
▁좌측어깨	-10.9597
켜	-10.96
▁일어나는	-10.96
▁굴착장비	-10.9603
팅	-10.9604
▁낙하사고	-10.9607
▁누르	-10.9611
실시	-10.9611
▁본사	-10.9613
▁올리다	-10.9615
시설물	-10.9618
작업으로	-10.9623
▁현장에서는	-10.9627
(2.5	-10.9629
준	-10.9638
신호	-10.9641
▁가시설물	-10.9642
▁조작하여	-10.9644
강재	-10.9651
▁경비	-10.9652
▁낙상하여	-10.9669
▁부근에	-10.9675
▁하러	-10.9677
방식	-10.9678
공종	-10.9678
들	-10.9682
▁움직이다	-10.9689
▁113	-10.9703
받아	-10.9706
▁빼	-10.9706
▁올라서	-10.9706
램프	-10.9708
덕트	-10.9718
▁양중물	-10.973
생	-10.9731
▁안된	-10.974
119	-10.9742
▁작업신호	-10.9743
▁진행하는	-10.9743
▁계획에	-10.9751
▁당사에서	-10.9753
▁수레에	-10.9753
▁쏟아	-10.9761
▁본동	-10.9763
▁심해	-10.9769
▁항시	-10.9772
들에게	-10.9778
태	-10.9783
▁부검	-10.9785
▁현장관리자	-10.9791
▁가료	-10.9794
굴착	-10.9795
▁작업현장	-10.9795
▁전선이	-10.9797
예정	-10.9801
모서리에	-10.9804
레이	-10.9805
관리자에게	-10.9807
▁파	-10.9807
▁설치하던중	-10.9808
▁작업구간에	-10.9813
▁오른손에	-10.9816
▁관리자가	-10.9819
구간의	-10.9827
▁금이가	-10.9834
중학교	-10.9836
▁작업구간으로	-10.9841
▁오후에	-10.9847
▁놓아	-10.9852
▁건강	-10.9852
통보	-10.9852
▁잔	-10.9854
정보	-10.9867
▁분사	-10.9869
▁200	-10.9869
▁아치	-10.9877
▁무선	-10.9884
▁낮	-10.9886
압력	-10.9888
려던	-10.9888
▁작업하고	-10.9893
구급차	-10.9893
시티	-10.9896
k	-10.9901
변형	-10.9904
탄	-10.9908
천교	-10.9908
▁관절염	-10.9908
▁작업중지	-10.9917
▁체결된	-10.9921
▁분	-10.9923
요청	-10.9929
하였던	-10.9929
▁입원중	-10.993
▁동료인	-10.9935
▁우측어깨	-10.9935
▁하단에	-10.9943
▁정확하	-10.9949
▁열어	-10.9951
도장	-10.9961
▁Beam	-10.9962
▁그라인더날	-10.9964
▁참고	-10.9964
4)	-10.9964
처	-10.9966
르	-10.997
▁부재로	-10.9971
▁가려	-10.9971
▁마루	-10.9975
▁장애	-10.9981
▁충전부	-10.9983
▁있던중	-10.9992
▁성남	-10.9996
▁경골	-10.9998
▁배면부	-10.9999
▁퍼티	-11.0001
▁제거시	-11.0004
본인	-11.0011
떠	-11.0012
훈련	-11.0013
부근에서	-11.0016
스킬	-11.0016
시멘트	-11.0018
안전대	-11.002
PE	-11.0021
▁부주의하게	-11.003
자형	-11.0038
▁말려들어	-11.0038
▁감아	-11.0041
▁상차작업	-11.0043
PC	-11.0061
▁경부	-11.0062
▁종류에	-11.0064
▁체계	-11.0069
▁원지반	-11.0077
▁전파	-11.0078
중심을	-11.008
▁노동부	-11.0081
톤트럭	-11.0082
▁미만	-11.0088
침	-11.0097
금지	-11.0097
▁절단하다	-11.0102
▁닿	-11.0108
▁폭우	-11.0108
▁우수관	-11.0111
넘어지면서	-11.0119
▁도입	-11.012
▁작업장에	-11.0122
▁찍혀	-11.0125
처리시설	-11.0126
▁탈거	-11.0126
▁이루어	-11.0127
▁칼	-11.0128
기관	-11.0128
대기	-11.0132
▁숙련	-11.0132
▁이중	-11.0134
▁투입되	-11.0137
▁복공	-11.014
개구부	-11.0141
어져	-11.0143
내에서	-11.0144
▁빨려	-11.0145
▁흡연	-11.0145
▁휴무	-11.0146
▁멈춤	-11.0146
▁생물반응조	-11.0146
▁프리스트레스	-11.0146
▁선도관	-11.0146
▁태우이엔지	-11.0146
▁물질안전보건자료	-11.0146
발전소	-11.0146
▁슬라임	-11.0146
▁갑작스럽	-11.0146
▁어려워	-11.0146
TON	-11.0146
▁허용하중	-11.0146
▁찢어져	-11.0146
▁대좌	-11.0147
▁평탄하	-11.0147
▁오른속	-11.0147
▁주형보	-11.0147
=1.5	-11.0147
▁미끄러움	-11.0148
▁안전기울기	-11.0148
▁공조기	-11.0148
▁풍하중	-11.0148
▁끝난	-11.0149
▁기울어짐	-11.015
▁과거	-11.0151
▁공기압	-11.0151
▁굽	-11.0151
▁그물코	-11.0151
▁압입	-11.0151
▁나뭇가지	-11.0151
▁RCS	-11.0151
▁침설	-11.0152
▁버티지	-11.0152
▁밀리며	-11.0152
▁오른손가락	-11.0152
▁올라간	-11.0152
▁일체	-11.0152
▁매입	-11.0153
▁강당	-11.0153
▁미조치	-11.0154
▁목장갑	-11.0154
▁부축	-11.0154
▁해치	-11.0156
▁센서	-11.0156
▁코뼈	-11.0157
호라인	-11.0157
▁깁스	-11.0157
▁파레트	-11.0157
▁없으나	-11.0158
▁가로수	-11.0158
▁강타함	-11.0159
36	-11.016
▁CCTV	-11.016
▁꼬리뼈	-11.016
▁바이브레이터	-11.016
▁CPB	-11.016
▁파형강관	-11.016
▁부속품	-11.016
▁미보고	-11.0161
▁내방	-11.0162
▁생산	-11.0162
▁파손되며	-11.0162
▁보온재	-11.0163
▁상단부에	-11.0163
▁확인하는	-11.0164
▁생활	-11.0165
▁앵커체	-11.0166
▁운반대차	-11.0168
지침	-11.0168
▁승강사다리	-11.0169
▁족관절	-11.0169
▁스티로폼	-11.0169
▁전남	-11.0169
▁유격	-11.0169
▁터빈동	-11.0171
▁방수턱	-11.0171
▁작업책임자	-11.0171
▁골절부상	-11.0173
▁면장갑	-11.0176
▁올리고	-11.0178
▁수벽	-11.0178
▁포항	-11.0179
▁보호공	-11.0179
내부에서	-11.0179
▁매단	-11.018
▁문짝	-11.018
▁수평부재	-11.0183
셔	-11.0185
▁흔들리며	-11.0185
▁사용법	-11.0187
▁용인	-11.0187
▁진주	-11.0188
▁밀고	-11.0189
▁경량	-11.0189
▁설계도	-11.0189
▁파편	-11.0189
▁미끄러지지	-11.0189
설치공사	-11.019
▁공종별	-11.0191
건물	-11.0192
▁예인	-11.0197
▁TS	-11.0202
벨트	-11.0208
▁안전계단	-11.0209
▁확인됨	-11.021
▁장비작업	-11.021
▁경사발판	-11.0212
▁내딛	-11.0212
▁판단하고	-11.0212
있습니다	-11.0212
▁지반조건	-11.0214
▁걸이로	-11.0215
▁짚고	-11.0218
▁작업범위	-11.0218
▁부딪치	-11.0222
▁적재하던	-11.0224
▁조공	-11.0224
▁활동	-11.0224
▁충북	-11.0225
▁건설자재	-11.023
▁용접사	-11.0236
▁벗겨지	-11.0243
▁산소절단	-11.0245
▁방수공사	-11.0245
▁제거하던중	-11.0247
▁머리부분	-11.0251
▁숙이	-11.0279
발이	-11.028
▁떠	-11.0288
속에	-11.029
▁1.4	-11.0292
▁좌수	-11.0293
▁확인하며	-11.0294
▁카	-11.0294
▁걸려있는	-11.0297
▁이수	-11.0301
▁보온작업	-11.0307
동바리	-11.0307
▁전도되	-11.0308
▁비치하여	-11.0309
바에	-11.0312
▁감독자	-11.0314
▁제거하	-11.0316
▁안전장구	-11.032
6)	-11.0323
▁추락위험이	-11.0331
▁돌풍	-11.0332
▁지지하여	-11.034
▁운반하고	-11.0346
허리	-11.035
▁정리하고	-11.035
▁강한	-11.0351
▁골절진단	-11.0352
al	-11.0355
38	-11.0363
▁가능하다	-11.0366
▁중장비	-11.0368
▁개소	-11.037
천공	-11.0371
▁겨드랑이	-11.0372
▁발목부위	-11.0376
홍	-11.0379
▁호스에	-11.0388
▁비상구	-11.039
2.5	-11.0395
▁하물	-11.0395
▁당현장에서	-11.0399
부가	-11.0402
▁선별	-11.0402
▁달라	-11.0403
▁중앙부	-11.0403
▁입구에	-11.0403
들은	-11.0406
▁지지대에	-11.0415
▁방향에	-11.0417
▁안에	-11.0421
▁종	-11.0422
▁매일	-11.0423
▁종합적	-11.0426
토사	-11.0426
▁설치방법	-11.0432
위한	-11.0443
▁구조물이	-11.0444
▁끌어	-11.0454
▁잠수작업	-11.0454
▁걸기	-11.0456
▁부족한	-11.046
신호수	-11.046
▁앞부분	-11.046
메	-11.0474
▁묶여있	-11.0474
▁계약	-11.0476
▁사고조사	-11.0479
▁중임	-11.048
유리	-11.0481
못하고	-11.0484
▁확인되어	-11.0505
항에	-11.0505
위치를	-11.0514
▁법령에	-11.0518
▁철골공사	-11.0519
▁氏	-11.0523
▁롤러에	-11.0524
▁적재되어있	-11.0527
인해	-11.0534
상부에	-11.0537
▁굴착기의	-11.0537
▁가장자리	-11.0539
K	-11.0545
▁확인함	-11.0545
▁철물에	-11.0556
▁힘에	-11.0561
▁발받침	-11.0567
▁배관과	-11.0574
칼	-11.0576
▁간이	-11.0582
▁하부작업자	-11.0585
부주의	-11.0587
입구	-11.0593
(17	-11.0594
▁오일	-11.0595
▁인양능력	-11.0595
절단기	-11.0596
끼임	-11.0602
제작	-11.0602
▁설치기준	-11.0603
▁주택	-11.0614
▁하려다	-11.0617
▁좌측팔	-11.0617
▁실시하는	-11.0626
e	-11.0632
지게차	-11.0644
대상	-11.0653
▁나오	-11.0659
▁깔아	-11.066
했	-11.0661
▁연마	-11.0664
고개	-11.0665
하려	-11.0668
미흡	-11.0671
스위치	-11.0673
▁연소	-11.0673
▁공동	-11.0683
든	-11.0685
구급대	-11.0689
댐	-11.0694
▁위치하여	-11.0695
PILE	-11.0695
▁일직선	-11.0696
▁틀	-11.0699
갈	-11.0701
테크	-11.0701
et	-11.0703
▁시공계획서	-11.0704
확보	-11.0705
쌓기	-11.0705
특성	-11.0707
▁도로에	-11.0712
앙카	-11.0712
▁0	-11.0716
피	-11.0716
회사	-11.0719
ᄋᄋᄋ	-11.0722
보건	-11.0723
▁부위에서	-11.0724
도달	-11.0727
윤	-11.0732
피재자	-11.0733
도착	-11.0733
베임	-11.0733
▁수평이	-11.0734
▁결속작업	-11.0734
▁장비신호수	-11.0751
▁세대에서	-11.0755
▁치다	-11.0762
▁당기다	-11.0765
▁압롤박스	-11.0765
이동식	-11.0768
▁갖	-11.0772
단에	-11.0776
북도	-11.0776
▁작업시간	-11.0778
장소에서	-11.0783
였으나	-11.079
▁*****	-11.0796
작업구간에서	-11.08
▁완벽	-11.0804
▁울	-11.0807
▁들리	-11.0808
하려는	-11.081
파열	-11.081
▁지켜보	-11.082
▁굴진	-11.0826
▁원위지골	-11.0829
▁평면	-11.0836
▁암석	-11.0842
▁들어오	-11.0844
▁착수	-11.0853
중량	-11.0853
▁내려오지	-11.0856
▁오수	-11.0857
el	-11.0858
▁자재인	-11.0859
▁삐	-11.0859
룡	-11.086
▁어지러움	-11.086
▁둥근	-11.086
▁Tank	-11.086
▁압쇄기	-11.086
▁읽	-11.086
▁턴테이블	-11.086
▁팔레트	-11.086
Ray	-11.086
▁산업재해조사표	-11.086
▁안전보건총괄책임자	-11.086
Out	-11.086
▁방향전환	-11.086
Kg	-11.086
▁생겨	-11.086
▁오랜기간	-11.086
▁면밀	-11.086
▁pc	-11.0861
▁유압펌프	-11.0861
▁건설용리프트	-11.0861
▁화학설비	-11.0861
▁덮침	-11.0861
▁보호캡	-11.0861
▁시야확보	-11.0861
▁피복손상	-11.0861
▁인력굴착	-11.0861
▁콧등	-11.0861
▁찍음	-11.0861
▁소요강도	-11.0861
▁라이닝폼	-11.0862
▁풍부	-11.0862
▁절	-11.0862
▁철구조물	-11.0862
▁담아	-11.0863
▁토사붕괴	-11.0863
▁열린	-11.0863
▁냉각수	-11.0864
▁피하고자	-11.0864
▁골정상	-11.0864
▁회전톱	-11.0864
▁실린	-11.0864
▁강릉	-11.0865
▁성질	-11.0865
▁드럼통	-11.0865
▁레미콘차량	-11.0865
▁정도로	-11.0866
▁비디아이	-11.0866
▁호박돌	-11.0866
▁귀마개	-11.0866
번코어	-11.0866
▁자재반입	-11.0866
▁아침조회	-11.0866
▁전기배선	-11.0866
▁축력	-11.0866
▁액체	-11.0866
▁전산볼트	-11.0866
▁물호스	-11.0867
▁탈착	-11.0868
▁깨진	-11.0869
▁구덩이	-11.087
▁이상없음	-11.087
▁차체	-11.087
▁귀가함	-11.0871
▁불발	-11.0871
▁강우량	-11.0871
▁부디쳐	-11.0872
▁작동여부	-11.0873
▁홀더	-11.0873
▁공구사용	-11.0874
▁뒤틀리	-11.0874
▁굴착기로	-11.0875
▁단차부위	-11.0875
▁Ramp	-11.0875
▁디스크	-11.0875
▁펼치	-11.0876
▁찾아와	-11.0876
▁찍어	-11.0876
▁반복작업	-11.0877
▁지그	-11.0877
▁방심	-11.0877
▁사보강재	-11.0878
▁작아	-11.0879
▁토사반출	-11.088
▁진료결과	-11.088
▁이미	-11.0881
▁지급하고	-11.0885
▁때림	-11.0885
▁꼬여	-11.0885
▁재차	-11.0887
▁지식	-11.0888
▁외상성	-11.0889
▁끼이며	-11.0889
▁둔부	-11.0889
▁기계식	-11.089
▁ALC	-11.0891
▁대화	-11.0892
▁설정하여	-11.0897
▁파악하고	-11.0898
▁경보	-11.0899
▁사용방법	-11.0899
▁모멘트	-11.09
▁추진력	-11.0901
▁검진결과	-11.0901
▁감안	-11.0904
▁보관하고	-11.0906
▁주입재	-11.0906
▁운전미숙으로	-11.0907
▁자르는	-11.0907
▁우측무릎	-11.0907
▁고정장치	-11.091
▁골조업체	-11.0914
▁고덕	-11.0916
▁지정하고	-11.0918
▁차단기	-11.0919
▁발생되었음	-11.092
추락방지용	-11.0924
▁작업반경내에	-11.0924
▁면적	-11.0928
▁사용전	-11.093
▁와중	-11.0932
90	-11.0936
▁관리적	-11.0937
▁권유	-11.0939
▁성명	-11.0944
작업도중	-11.0947
▁설	-11.0948
▁꺼내던	-11.0949
▁각막	-11.0949
▁상부작업자	-11.0952
▁잔여물	-11.0952
인근	-11.0955
▁돌출부에	-11.0958
57	-11.0958
▁발생하였다고	-11.0958
받았다고	-11.096
▁받던	-11.0966
분간	-11.0967
표시를	-11.0968
남구	-11.0971
▁허리부위	-11.0973
▁진입하여	-11.0975
▁KS	-11.0975
되었으며	-11.0976
▁작업구	-11.0977
작업에	-11.0978
▁정강이뼈	-11.0978
▁위험기계	-11.0979
▁34	-11.0984
▁제출하여	-11.0987
▁넓이	-11.0991
▁단계에서	-11.0991
)2.	-11.0992
▁경사지에서	-11.0993
▁든	-11.0996
설치된	-11.1
▁체결작업	-11.1002
▁일과	-11.1003
▁나서	-11.1003
▁좌측손	-11.1004
▁회전을	-11.1007
▁근로자로	-11.1007
▁하역작업중	-11.101
▁전류	-11.101
▁취한	-11.1013
▁가까이	-11.1016
인지못하고	-11.1017
▁지탱하	-11.1018
▁보도	-11.1022
▁올라와	-11.1027
개방성	-11.1029
부족	-11.103
파기	-11.1033
▁지면과	-11.1037
▁자연	-11.1037
▁접근하여	-11.1039
▁실시함	-11.1042
▁허가	-11.1045
정강이	-11.1057
▁피스	-11.106
▁세척	-11.1063
산동	-11.1067
▁소리가	-11.1068
▁사고내용	-11.1074
▁부어	-11.1075
오던	-11.1075
가스	-11.1086
▁동료작업자와	-11.109
▁자르던	-11.1096
▁소견으로	-11.1115
▁설치해야	-11.1115
59	-11.1116
▁불균형	-11.1121
▁형성	-11.1129
▁치는	-11.113
▁부족하여	-11.113
▁중식	-11.1131
▁대기하던	-11.1135
▁제작하여	-11.1136
공이	-11.1136
작	-11.1139
옹벽	-11.1142
▁조립하고	-11.1144
오전	-11.1157
충격	-11.1158
높이에	-11.116
▁적재하여	-11.1161
▁왼쪽어깨	-11.1161
▁기초바닥	-11.1167
▁2019.	-11.1173
였으며	-11.1182
반장이	-11.1185
▁정형외과에	-11.1197
▁놓지	-11.12
수가	-11.12
▁미터	-11.1206
등이	-11.1209
▁포크를	-11.1214
충돌	-11.1221
▁창틀에	-11.1225
▁써포트에	-11.1229
받고	-11.1233
▁인지한	-11.124
▁지탱	-11.1243
되어있는	-11.1244
▁아무	-11.1251
▁한장	-11.1254
▁철골작업	-11.1256
▁PP	-11.126
달라	-11.126
▁원도급사	-11.1263
▁증	-11.1264
지사	-11.1265
기존	-11.127
작업장	-11.1274
▁정해	-11.1276
▁운전중	-11.1283
주차장	-11.1286
▁차선	-11.1289
▁주저앉	-11.1293
다리	-11.1299
▁교차	-11.1302
▁수도	-11.1307
▁HO	-11.1309
부재를	-11.131
염	-11.1316
▁숙소	-11.1318
▁목을	-11.132
병	-11.1322
오른손	-11.1329
▁하차중	-11.1342
▁해체작업시	-11.1347
▁상태에	-11.1347
▁내려서	-11.1351
사고가	-11.1352
▁이외에	-11.1357
▁개인적	-11.1361
▁양중하던	-11.1364
청소	-11.1365
▁최상층	-11.1367
▁운행중	-11.1367
▁설치공	-11.137
색	-11.137
▁왼손에	-11.1372
▁제거중	-11.1375
▁찍	-11.1375
교차로	-11.1379
▁띠장과	-11.1381
.2021	-11.1385
▁수지	-11.1396
~3	-11.1399
▁워킹타워	-11.1401
▁정착부	-11.1402
▁착공	-11.1406
▁흘러	-11.1408
▁각부	-11.1411
▁고정시키	-11.1412
▁사건	-11.1414
▁붙	-11.1415
줄걸이	-11.1416
▁포설작업	-11.1417
▁교사	-11.1418
액	-11.1419
▁파일항타	-11.1419
▁정상작업	-11.1428
▁하여서	-11.1428
나온	-11.1428
f	-11.1434
▁책임	-11.1435
협력업체	-11.1435
자에게	-11.1437
▁되어야	-11.1439
멍에	-11.1446
▁광양	-11.1452
▁포크에	-11.1457
▁하단부에	-11.1458
▁바람으로	-11.1464
동료	-11.1468
쯤	-11.1469
되었는지	-11.1471
▁침투	-11.1473
▁철골설치	-11.1473
IC	-11.1473
▁형강	-11.1479
▁선단	-11.1479
디	-11.148
터파기	-11.1482
▁무릎부위	-11.1483
정수장	-11.1484
▁던져	-11.1484
합니다	-11.1486
조정	-11.1489
세대	-11.1492
케이블	-11.1492
Pile	-11.1492
▁탄성	-11.1499
패널	-11.1499
아시바	-11.15
측으로	-11.15
폐기물	-11.15
▁오른손등	-11.1501
고소작업대	-11.1502
입음	-11.1503
목요일	-11.1503
부상자	-11.1503
중량물	-11.1503
목공	-11.1508
작업방법	-11.1509
▁파편에	-11.1513
▁제작중	-11.1514
작업자와	-11.1515
안전벨트	-11.1515
건설기계	-11.1524
▁급성	-11.1524
사고당일	-11.1532
으려다	-11.1535
▁안쪽에	-11.1537
▁방통	-11.1537
형틀공	-11.1538
▁장약	-11.154
연	-11.1543
▁항타작업	-11.1544
대구	-11.1547
▁이동한	-11.1548
▁시공계획	-11.1548
비계에서	-11.1549
요인	-11.1552
▁늦어	-11.1554
무를	-11.1556
▁묻	-11.1559
▁몇	-11.1567
▁시스템동바리에	-11.157
d	-11.1575
▁펴	-11.159
▁상황으로	-11.159
▁결박	-11.1598
▁미니굴삭기	-11.1598
▁터빈	-11.1601
술	-11.1608
▁근생	-11.1609
▁안전보건규칙	-11.1613
▁뒤집	-11.1615
▁잡아주	-11.1616
▁날씨	-11.1618
▁주유	-11.1621
중공업	-11.1626
핑	-11.1626
주는	-11.1627
▁끼우	-11.1628
▁뒷채움	-11.1629
▁올릴	-11.1629
▁꿰	-11.1629
낸	-11.163
▁균등	-11.163
듣고	-11.163
▁도시형생활주택	-11.163
▁스프링	-11.163
▁가지치기	-11.163
▁웅덩이	-11.163
▁타정총	-11.163
▁용수개거	-11.163
▁걸레받이	-11.163
▁발주청	-11.163
▁발걸림	-11.163
▁방염포	-11.163
▁기상조건	-11.163
▁지하연속벽	-11.163
▁갑판	-11.163
▁암롤박스	-11.163
▁전동톱	-11.1631
▁방호덮개	-11.1631
▁상향	-11.1631
▁화재감시인	-11.1631
▁끝내고	-11.1631
▁쉬스관	-11.1631
▁이행여부	-11.1632
▁부분파열	-11.1632
gg	-11.1633
▁떨어뜨림	-11.1633
▁다발성	-11.1633
▁그리고	-11.1634
▁로비	-11.1634
▁인접건물	-11.1634
LC	-11.1634
▁조명시설	-11.1634
▁의뢰	-11.1635
▁공기호흡기	-11.1636
▁홈메우기	-11.1636
▁끊어치기	-11.1636
▁노무사	-11.1636
▁리어커	-11.1636
▁체크리스트	-11.1636
▁너비	-11.1636
▁튕김	-11.1636
▁PBD	-11.1636
▁숙박시설	-11.1636
▁크램프	-11.1636
▁과열	-11.1636
▁검수	-11.1636
▁수장공사	-11.1636
▁구두	-11.1637
▁잔토	-11.1637
▁강박스	-11.1637
▁꽂아	-11.1637
▁보호커버	-11.1637
▁TTP	-11.1637
분쯤	-11.1638
▁기존구조물	-11.1638
▁가용접	-11.1638
▁추락방지시설	-11.1639
▁올려주	-11.164
▁동행	-11.164
▁제조사	-11.164
▁함유	-11.1641
▁매달아	-11.1641
▁유지관리	-11.1642
▁먹매김	-11.1642
▁7>	-11.1642
▁타입	-11.1643
▁분배	-11.1643
▁폐쇄	-11.1644
▁열차	-11.1645
▁산소절단기	-11.1645
▁빼지	-11.1645
▁짊어지	-11.1646
▁조적벽	-11.1646
▁PRD	-11.1646
▁글라인더	-11.1646
▁송기마스크	-11.1646
▁근무하였으나	-11.1646
▁품질관리	-11.1646
▁새벽	-11.1646
적벽돌	-11.1647
▁쇠파이프	-11.1648
▁동반한	-11.1648
▁대신	-11.1649
▁방호구	-11.1649
▁점화원	-11.1649
▁인장력	-11.1649
▁착용여부	-11.165
▁파고	-11.1651
▁신청함	-11.1651
▁잡으려고	-11.1651
▁장선재	-11.1651
▁줌	-11.1652
▁물탱크실	-11.1653
▁미니	-11.1653
▁설계기준	-11.1653
▁EV	-11.1654
▁시운전	-11.1655
▁핸들	-11.1656
▁죔줄	-11.1656
▁활차	-11.1658
▁안전사항	-11.1658
▁관로공	-11.1658
300)	-11.1658
▁헛디디면서	-11.1659
▁필요하다고	-11.1659
▁형틀공이	-11.1659
▁말단	-11.1659
▁사망사고	-11.166
공구현장	-11.1661
▁정전기	-11.1662
▁진단됨	-11.1662
▁안전지침	-11.1663
▁채우	-11.1663
▁붙여	-11.1664
▁인양구	-11.1664
▁토공사	-11.1664
▁신고함	-11.1665
▁잠수부	-11.1665
▁로드	-11.1667
▁슬개골	-11.1667
▁함체	-11.167
▁고양	-11.1672
▁좌안	-11.1672
▁시작전	-11.1672
▁구간내	-11.1672
▁링	-11.1674
▁안성	-11.1675
▁중간에	-11.1675
▁왼손중지	-11.1676
▁안전커버	-11.1676
▁인출	-11.1677
▁병원방문	-11.1677
▁전석	-11.1678
▁득	-11.1678
▁끊어지	-11.1679
▁자루	-11.1679
▁알폼핀	-11.168
(13	-11.1681
▁압박골절	-11.1682
▁없는가	-11.1682
▁부산물	-11.1683
▁뚫는	-11.1684
▁단관	-11.1686
▁화단	-11.1686
▁집수정에	-11.1687
배수	-11.1688
▁붕괴되	-11.1688
▁Plate	-11.1689
▁NO	-11.1689
▁올라서다	-11.1689
▁입지	-11.169
▁낙하되면서	-11.169
▁설계조건	-11.1691
▁해지	-11.1693
번호	-11.1694
▁연결을	-11.1694
▁미끌리	-11.1696
▁사고발생함	-11.1697
▁도어	-11.1697
▁주변주차장	-11.17
끼리	-11.1701
▁고정식	-11.1702
▁손가락과	-11.1703
▁동료근로자와	-11.1707
▁밟은	-11.1707
▁작업지침	-11.171
▁방치하여	-11.1711
▁상처부위	-11.1715
▁붙이	-11.1716
BH	-11.1716
(7	-11.1718
▁제어	-11.172
▁지붕판	-11.1722
▁중이었음	-11.1724
▁부딪	-11.1726
▁한손에	-11.1727
▁회전부	-11.1728
▁조건이	-11.1735
▁비산물	-11.1738
▁당진	-11.1741
▁신중	-11.1747
▁e	-11.1758
▁되어있는	-11.1761
▁집에서	-11.1773
▁표면에	-11.178
▁밀폐공간에서	-11.1782
▁골절상해	-11.1787
▁현장사무실로	-11.1788
▁목자재	-11.1788
▁전도방지조치	-11.1795
▁필	-11.1798
▁다리부분	-11.1799
체중이	-11.1801
▁탑승한	-11.1802
료	-11.1804
▁손톱부분	-11.1804
▁함석	-11.1807
▁케이	-11.1808
▁안전핀	-11.1814
▁목재절단	-11.1818
▁수술이	-11.1819
어짐	-11.1822
(***	-11.1824
▁후진하여	-11.1829
▁세로	-11.183
▁발생하였으며	-11.1833
건설산업	-11.1836
▁한쪽발	-11.1837
▁탑승자	-11.1839
▁균열이	-11.1841
▁기초공사	-11.1847
▁달대비계	-11.1852
▁제거작업중	-11.1856
▁홀에	-11.1859
▁안전기준	-11.1864
000	-11.1871
▁배수지	-11.1871
▁옥상층에서	-11.1876
▁확인중	-11.1882
▁무단	-11.1882
▁관로공사	-11.1884
▁빼다	-11.1888
계단에서	-11.1889
▁강원	-11.1895
곳	-11.1899
작업은	-11.19
▁실려있	-11.19
날이	-11.1902
▁밀리	-11.1907
▁슬링벨트에	-11.1907
▁깨	-11.1909
▁얼어	-11.1911
▁지반조사	-11.1914
수술	-11.1916
보양	-11.1917
열에서	-11.1928
▁플	-11.1936
▁깔려있	-11.1938
강관파이프	-11.1939
사면	-11.1939
▁상주	-11.1946
놓고	-11.1947
▁시공사에서	-11.1951
▁간과	-11.1952
곡	-11.1953
▁외벽에	-11.1953
션	-11.1959
▁한번	-11.1967
▁수정을	-11.197
▁벌	-11.1973
추	-11.1978
▁페인트가	-11.1989
▁현장내부	-11.1997
▁이동시키는	-11.1998
왼손	-11.2001
▁작업현장에서	-11.2003
장씩	-11.2018
마디	-11.2031
▁시간에	-11.2047
▁빼내려	-11.2064
능력	-11.207
▁가설전선	-11.2072
▁계단참에	-11.2074
▁포	-11.2078
▁박혀	-11.2086
일경	-11.2091
현장내	-11.2093
▁묶여	-11.2108
▁눈이	-11.2111
▁작업장소에서	-11.2116
설치작업중	-11.2117
▁비계자재	-11.2117
해당	-11.2128
되었으나	-11.2129
43	-11.2129
▁직접적	-11.2131
▁사장	-11.2147
▁작업별	-11.2163
용량	-11.2164
▁했	-11.2165
기업	-11.2167
진동	-11.2171
▁타일자재	-11.218
▁물체를	-11.2186
어깨	-11.2187
▁되	-11.2191
▁보조작업자	-11.2191
▁하차시	-11.2193
▁작업장내	-11.2194
▁부러	-11.2202
▁노후화	-11.2206
▁현장조사	-11.2214
▁보강조치	-11.2218
인은	-11.2218
위치에	-11.2222
▁벗어	-11.2231
(22	-11.2233
▁수행하여	-11.2234
응력	-11.2236
o	-11.2239
단띠장	-11.2242
▁대비한	-11.2253
▁적재한	-11.2256
▁내려야	-11.2259
▁낙하된	-11.2261
▁현장근로자	-11.2271
▁개착	-11.2278
▁스터드	-11.2281
소장	-11.2281
자료	-11.2283
호텔	-11.2284
요양	-11.2284
산재	-11.2285
▁찧으	-11.2288
▁J	-11.2289
▁체결되어	-11.229
▁농	-11.2292
ri	-11.2294
▁등록	-11.2297
▁발휘	-11.2299
Lug	-11.23
▁마감공사	-11.2305
▁쓰	-11.2309
▁하역하던	-11.2309
▁초과하	-11.2314
Span	-11.2318
▁강관틀비계	-11.232
사망자	-11.2327
인천	-11.2329
띠장	-11.2329
흙	-11.233
KS	-11.2331
BOX	-11.2331
원형톱	-11.2332
직경	-11.2332
총	-11.2333
사고내용	-11.2334
공원	-11.2335
비트	-11.2335
출입구	-11.2336
최대	-11.2337
단순	-11.2337
인화성	-11.2341
홈	-11.2343
▁겹쳐	-11.2344
▁밀어내	-11.2347
▁연약	-11.2347
식재	-11.2348
▁사고후	-11.2348
▁거푸집자재	-11.2352
마감	-11.2353
▁판넬자재	-11.2359
▁바닥슬라브	-11.2364
야하나	-11.2368
란	-11.2371
▁밸트	-11.2374
(8	-11.2375
▁현장사무실에	-11.2382
배수지	-11.2383
▁닫는	-11.2383
▁제조	-11.2384
고르기	-11.239
▁개선	-11.2395
이앤씨	-11.2396
▁옮기려	-11.2399
▁육안	-11.2402
시공사	-11.2403
▁개인지병	-11.2406
▁조립하던	-11.2408
▁밀림	-11.2409
성능	-11.2412
받음	-11.2412
▁인하	-11.2422
▁대표	-11.2424
-8	-11.2427
▁퇴근하기	-11.2428
수량	-11.2431
▁작성한	-11.2438
▁견출공	-11.244
▁느끼	-11.2446
▁기본	-11.2447
▁연직	-11.2448
▁그라우트	-11.245
장소로	-11.245
▁3.2	-11.2451
▁불분명	-11.2455
=1.8	-11.2457
▁전담	-11.2457
▁불명확	-11.246
하부에	-11.2462
▁압축강도	-11.2463
▁비스듬	-11.2463
▁몰탈혼합기	-11.2463
▁배풍기	-11.2463
▁열수송관	-11.2463
▁일기예보	-11.2463
▁케노피	-11.2463
▁프로그램	-11.2463
쁜	-11.2463
엠이씨	-11.2463
▁비전기발파	-11.2463
▁System	-11.2463
▁즉각	-11.2463
▁아직	-11.2463
▁선홈통	-11.2463
▁Rack	-11.2463
▁겹질림	-11.2463
▁허용오차	-11.2463
▁트레미관	-11.2463
▁전석쌓기	-11.2463
Duct	-11.2463
▁꺽여	-11.2463
▁않았으나	-11.2463
▁채워	-11.2463
▁다쳤음	-11.2463
▁고관절	-11.2464
▁않았음	-11.2464
▁지중보	-11.2464
▁주저앉음	-11.2464
▁아님	-11.2464
▁올라타	-11.2464
▁벽타일	-11.2464
▁테라스	-11.2464
▁띠철근	-11.2464
▁일방적	-11.2464
▁버림콘크리트	-11.2464
▁소각	-11.2465
▁청결	-11.2465
▁경북	-11.2465
하우스	-11.2465
▁긁히	-11.2465
▁끄고	-11.2465
▁마음	-11.2467
만큼	-11.2467
▁전단력	-11.2467
▁집어	-11.2468
▁올라갔다가	-11.2469
▁위험물질	-11.2469
▁Girder	-11.2469
▁인과관계	-11.2469
▁랜탈	-11.2469
▁넘어지게	-11.247
▁풍향	-11.247
▁왼쪽가슴	-11.247
▁뒤채움	-11.247
▁직영인부	-11.247
▁찢김	-11.247
▁10:40	-11.247
▁실신	-11.2471
▁누유	-11.2471
▁찍히	-11.2472
▁안되며	-11.2472
▁PD	-11.2472
▁면갈이	-11.2474
▁동력선	-11.2474
▁주말	-11.2475
▁하중조건	-11.2475
▁이송하였음	-11.2475
▁사망하였음	-11.2476
▁정밀도	-11.2476
▁작업개시	-11.2478
▁후송하였으나	-11.2478
▁흔들어	-11.2479
▁불명	-11.2479
▁미정리	-11.2479
▁2.0	-11.248
▁파지	-11.248
▁검지사이	-11.248
▁분리하기	-11.2481
▁처방	-11.2481
▁마스터	-11.2481
▁내려와야	-11.2481
부두	-11.2481
▁채용	-11.2483
▁벽돌쌓기	-11.2483
▁베어	-11.2484
▁시흥	-11.2484
▁온수	-11.2485
▁양중하기	-11.2487
▁종점	-11.2488
▁굴착공	-11.2488
▁항타장비	-11.2488
▁작업동선	-11.2489
▁지표면	-11.2491
▁게이지	-11.2492
▁접이식	-11.2492
▁앞바퀴	-11.2493
▁편심하중	-11.2495
▁배수설비	-11.2495
▁퇴근함	-11.2495
▁나사	-11.2496
▁조명등	-11.2496
▁일체형	-11.2496
----------------	-11.2497
▁만나	-11.2498
▁세우고	-11.2498
▁일단	-11.2499
▁요통	-11.2499
▁하수도	-11.2501
▁위험상황	-11.2502
▁내려온	-11.2502
▁배관설치	-11.2503
▁주변정리	-11.2504
▁간섭되어	-11.2504
이하로	-11.2504
▁담당의사	-11.2504
▁철골구조물	-11.2504
▁실시하였으나	-11.2504
▁양단	-11.2506
▁서구	-11.2508
▁작업단계별	-11.2508
▁넘어서	-11.2508
▁중독	-11.2509
▁관계기관과	-11.2509
▁밀바	-11.2511
▁받침판	-11.2511
▁감시자	-11.2512
▁손상여부	-11.2513
염좌	-11.2513
▁비상용	-11.2513
▁접촉되면서	-11.2516
▁클러치	-11.2516
분경어디서	-11.2516
▁채움	-11.2517
▁보조공	-11.2518
▁보양재	-11.2518
▁고정부	-11.2518
▁고용	-11.2522
▁0.8	-11.2522
▁전기공사	-11.2523
▁자기	-11.2524
▁왼손가락	-11.2524
▁설치간격	-11.2525
▁문주	-11.2526
▁조치사항	-11.2527
▁성산	-11.2527
▁배전반	-11.2527
▁일으키	-11.253
▁필요함	-11.253
▁몇일	-11.2531
▁깔기	-11.2532
▁상수관로	-11.2532
들고	-11.2536
▁기초거푸집	-11.2538
▁늑골골절	-11.2539
▁보정	-11.2539
▁보여	-11.2542
▁지지물	-11.2543
▁박다가	-11.2544
▁분리하는	-11.2544
▁마산	-11.2545
▁기울어지	-11.2547
▁신고하고	-11.2557
▁간이흙막이	-11.2558
▁해체방법	-11.2561
나오면서	-11.2562
분야	-11.2563
▁2.7	-11.2568
▁엉켜	-11.2571
▁미는	-11.2574
▁해야하나	-11.2575
▁제품으로	-11.2576
▁운전실	-11.258
▁외관	-11.258
더라	-11.259
▁설비작업	-11.259
▁건너다	-11.2591
▁착용방법	-11.2601
▁반대	-11.2601
▁고르기	-11.2602
▁적치되어	-11.2604
▁돌려	-11.2606
▁넘어지려	-11.2614
▁가구	-11.2615
▁가설자재	-11.2615
▁오르내리	-11.2616
▁낙동	-11.2618
▁투입된	-11.2622
▁터지	-11.2636
드는	-11.2643
▁지점에	-11.266
▁열려	-11.2661
▁주행로	-11.2661
▁깨끗이	-11.2662
▁전면에	-11.267
자와	-11.2672
▁피로	-11.2674
▁석면	-11.2674
▁연결용	-11.2676
▁인증	-11.2682
부를	-11.2685
▁거치된	-11.2687
(100	-11.2687
시키	-11.2687
▁선단부에	-11.2694
▁나오다	-11.2697
▁전달하	-11.2701
▁결속하여	-11.2702
이상으로	-11.2703
올	-11.2706
퍼	-11.271
▁향	-11.2715
차장	-11.2728
▁운반물	-11.2732
▁불을	-11.2737
▁되고	-11.2744
▁설치하였으나	-11.2745
▁타설하여	-11.2751
행	-11.2755
▁분출	-11.2755
▁옥상바닥	-11.2755
▁전단	-11.2766
▁시공법	-11.2767
▁공사현장내	-11.2774
준비	-11.2775
▁입었다	-11.2781
▁절단하고	-11.2781
하니	-11.2787
손목	-11.2789
부지	-11.279
▁아니하	-11.2795
▁작업하지	-11.2799
▁박히	-11.2801
않으며	-11.2801
▁넘어짐으로	-11.2808
▁납품	-11.2812
▁선정하여	-11.2813
었음	-11.2816
▁틈사이	-11.2816
▁공정에서	-11.283
▁치우던	-11.2838
▁선로	-11.2838
(12	-11.2839
수로	-11.2842
▁마대에	-11.2844
▁식재작업	-11.2851
※	-11.2865
▁내부벽체	-11.2865
▁이탈방지	-11.2865
▁법	-11.2869
보강	-11.2877
시스템비계	-11.2881
▁철근다발을	-11.2882
▁높아	-11.2885
등에	-11.2895
▁150	-11.2895
랑	-11.2895
누	-11.2898
▁철근작업	-11.29
▁준비하던	-11.2909
▁정하	-11.2912
~5	-11.2913
지않고	-11.2917
▁이동하려	-11.2917
놓아야	-11.2919
.4.	-11.2925
▁도시	-11.2929
작업장에서	-11.2931
▁501	-11.2939
▁회사에	-11.2953
무릎	-11.2956
▁계단이	-11.2961
▁유입되	-11.2962
▁부대	-11.2972
바퀴	-11.2973
모	-11.2973
▁들어가서	-11.2977
▁거치작업	-11.2979
위치에서	-11.299
▁줍	-11.299
▁설치하	-11.2991
▁빼던	-11.2992
운전원	-11.2997
▁뒷면	-11.2999
▁건설업	-11.3004
▁연속적	-11.301
로인한	-11.301
▁이내에	-11.3013
▁램프에서	-11.3014
▁회사	-11.3015
▁근로복지공단으로	-11.3018
2019	-11.3021
▁않기	-11.3029
▁문화	-11.3031
▁안과	-11.3044
▁32	-11.3046
근로복지공단	-11.3048
구간으로	-11.3049
튜브	-11.3056
:00	-11.3061
▁이천	-11.3061
잡고	-11.3062
통제	-11.3065
▁상병	-11.3068
갱폼	-11.3075
차선	-11.3075
:05	-11.3075
=1	-11.3076
구역에서	-11.3081
법면	-11.3085
중국	-11.3086
.3.	-11.3094
글	-11.3097
▁하역을	-11.3097
▁44	-11.3099
▁ᆞ	-11.31
형태	-11.3101
▁골절되어	-11.3102
평	-11.3106
플레이트	-11.3116
▁베	-11.3118
5)	-11.3122
신축공사현장에서	-11.3126
핀을	-11.3132
▁수목이	-11.3132
▁철근절단	-11.3134
순	-11.3142
▁하려	-11.3145
기술	-11.3147
▁새	-11.3148
37	-11.3151
▁작업선에	-11.3153
▁마을	-11.3156
▁시스템비계에	-11.316
▁감리	-11.316
▁영향이	-11.3161
면과	-11.3161
▁기시공	-11.3164
▁가대	-11.3164
▁행거	-11.3169
▁작업안전	-11.3169
신도	-11.3172
확인사항	-11.3174
▁움직임에	-11.3175
▁헛디	-11.3179
현황	-11.318
▁시공이	-11.3181
▁곳이	-11.3184
▁한국산업표준	-11.3187
▁뽑	-11.3187
목수	-11.3187
▁후미에	-11.3188
▁추진구	-11.3188
작업대	-11.319
▁현대	-11.3192
조건에	-11.3195
▁6.	-11.3196
▁강당동	-11.3197
▁작동중	-11.32
▁교차부	-11.32
▁산소통	-11.3209
늑골	-11.3212
▁멈추기	-11.3213
시간이	-11.3215
슬래브	-11.322
언	-11.3221
b	-11.3227
웅	-11.3231
내국인	-11.3233
▁느슨해	-11.3234
▁떨어	-11.3235
도서관	-11.3237
커	-11.3237
#3	-11.3238
콘	-11.324
늦게	-11.324
▁공사에	-11.3244
프라	-11.3245
철재	-11.3246
타이어	-11.3246
수요일	-11.3246
저장	-11.3248
변화	-11.3249
철근공	-11.325
투입	-11.3265
공인	-11.327
▁요양승인	-11.327
▁구축	-11.3271
요일	-11.3272
다는	-11.3277
단위	-11.3278
▁둥근톱에	-11.3279
▁신호자	-11.328
▁풍	-11.328
▁공정에	-11.3286
보호	-11.3289
▁옥	-11.3292
▁원활하	-11.3292
포대	-11.3295
도가	-11.3302
입원	-11.3303
▁해체되어	-11.3303
▁제거하여	-11.3305
▁운전미숙	-11.3314
▁비계발판에	-11.3315
개층	-11.3316
▁조성사업	-11.3317
정리중	-11.3319
▁철골보	-11.3323
▁겹침	-11.3329
회전	-11.3334
▁실외기	-11.3335
▁갈	-11.3335
▁단축	-11.3335
▁면에	-11.3337
있어	-11.3343
▁내민	-11.3345
뎌	-11.3347
▁지보	-11.3349
▁지조립	-11.3354
▁트레일러에	-11.3354
▁붓	-11.3354
▁전기배관	-11.3357
▁작업조건	-11.3359
▁전력선	-11.336
on	-11.3363
▁고소작업시	-11.3364
▁찢어지	-11.3365
▁보지못하	-11.3366
▁교반	-11.3367
률	-11.3367
▁꽂	-11.3368
▁삐긋	-11.337
▁소화전	-11.3371
▁음성	-11.3371
▁근로복지	-11.3372
▁꼬리표	-11.3372
&	-11.3372
▁갓길	-11.3372
▁어긋나	-11.3372
▁침매함	-11.3372
▁탑다운	-11.3372
▁현기증	-11.3372
▁휘니샤	-11.3372
▁고성하이화력	-11.3372
▁급작스런	-11.3372
▁미이행	-11.3372
▁다목적강당	-11.3372
▁판독	-11.3372
▁씌워	-11.3372
▁피뢰	-11.3372
▁산업재해보상보험	-11.3372
▁안정가료	-11.3372
▁충청	-11.3372
Heav	-11.3372
▁다쳤습니다	-11.3372
▁정기점검	-11.3372
▁지지로우프	-11.3372
▁언급	-11.3372
▁반발	-11.3372
▁휴게시간	-11.3372
▁싣던	-11.3372
▁연락체계	-11.3372
▁제이드	-11.3372
▁시행규칙	-11.3372
▁짧아	-11.3372
▁제동장치	-11.3373
▁조적쌓기	-11.3373
▁관부설	-11.3373
▁구조형식	-11.3373
▁교량받침	-11.3373
▁계단식옹벽	-11.3373
▁현저	-11.3373
▁빠져나오	-11.3373
▁주관절	-11.3374
▁터져	-11.3374
▁비상조치	-11.3374
▁막혀	-11.3374
▁단독주택	-11.3374
▁압력계	-11.3374
▁소화설비	-11.3374
▁내구성	-11.3375
▁구조도면	-11.3375
▁에어건	-11.3375
▁발견되면	-11.3375
▁다소	-11.3375
▁다량	-11.3375
▁올라오는	-11.3376
▁손가락으로	-11.3377
▁스프레이	-11.3377
▁제외하고	-11.3377
▁레버블럭	-11.3377
▁치환	-11.3378
▁지지지반	-11.3378
▁면보수	-11.3379
▁배터리	-11.3379
▁저녁	-11.3379
▁토류벽	-11.3379
▁휀룸	-11.3379
▁흉추	-11.3379
▁벗겨짐	-11.3379
▁가벼	-11.338
▁인화성물질	-11.338
▁근무하였으며	-11.338
▁하향	-11.338
▁송파	-11.338
▁고려대	-11.3381
▁유니트	-11.3381
▁벌어짐	-11.3381
▁수평변위	-11.3381
본인주장	-11.3382
▁완충재	-11.3382
▁소량	-11.3382
▁개구부덮개	-11.3383
▁불러	-11.3383
▁심도	-11.3383
▁0.3	-11.3383
▁SK	-11.3383
▁인함	-11.3384
▁쐐기목	-11.3384
▁뇌	-11.3385
▁발견됨	-11.3386
▁이송하였습니다	-11.3386
▁기준틀	-11.3386
▁상치	-11.3386
▁있거나	-11.3387
▁뚫고	-11.3388
▁비포장	-11.3388
▁2.8	-11.339
▁뒤집히	-11.339
▁위치와	-11.339
▁가스배관	-11.3391
▁밀차	-11.3391
▁공상	-11.3391
▁수로암거	-11.3391
▁하청업체	-11.3392
▁불충분	-11.3392
▁Lifting	-11.3392
▁공사기간	-11.3392
▁4~5	-11.3393
▁많아	-11.3393
▁왼손약지	-11.3394
▁덤프차량	-11.3394
▁침하량	-11.3395
▁5~6	-11.3395
고정용	-11.3395
▁준설선	-11.3395
▁당하였습니다	-11.3396
▁작업여건	-11.3396
▁조종사	-11.3396
▁후송함	-11.3399
owe	-11.34
▁못질	-11.34
▁평촌	-11.3401
▁흡입	-11.3404
▁루프	-11.3404
▁착지하면서	-11.3404
▁석	-11.3405
▁굴착토	-11.3405
▁분할	-11.3405
▁미결속	-11.3406
▁소화기구	-11.3407
▁절리	-11.3408
지원	-11.341
▁빠르	-11.3411
▁3.6	-11.3413
▁당하였음	-11.3413
▁보아	-11.3416
▁코로나	-11.3417
▁경미하다	-11.3418
남도	-11.342
▁방지대책	-11.3421
물질	-11.3422
▁물량	-11.3424
▁조합	-11.3424
▁반대방향	-11.3426
▁약포	-11.3427
▁고속도로	-11.3428
▁보수공사	-11.3428
▁돌풍이	-11.3428
▁맨	-11.3429
▁농로	-11.3429
▁판재	-11.343
▁pit	-11.343
▁특수	-11.3431
▁벌리	-11.3431
▁보강형	-11.3431
▁발목골절	-11.3432
▁막고	-11.3432
포장	-11.3433
▁안전장비	-11.3434
▁완료되지	-11.3436
▁육안으로	-11.3437
▁설치되어있는	-11.3437
▁분쇄골절	-11.3438
▁지주목	-11.3438
▁다친사고	-11.3438
▁흘러내려	-11.3439
▁층고	-11.3443
▁하였지만	-11.3443
▁손실	-11.3443
▁이후에	-11.3443
▁줄자	-11.3444
이동시	-11.3445
▁절단면	-11.3448
▁부재와	-11.3449
시트	-11.3449
씨에게	-11.3449
▁살수작업	-11.345
▁연결볼트	-11.3453
▁분진망	-11.3455
▁운반장비	-11.3456
▁항목	-11.3456
▁작업팀장	-11.3457
▁링크	-11.3457
▁오르다가	-11.3458
▁균일	-11.3459
▁좌측무릎	-11.3462
▁내려와서	-11.3464
▁4.5	-11.3472
▁사고일시	-11.3475
기사	-11.3476
▁제거하려	-11.3478
▁부여	-11.3478
▁했으며	-11.348
100	-11.3481
▁종사	-11.3484
▁삽입하여	-11.3485
▁맞은편	-11.3485
▁함마	-11.3485
▁적치장소	-11.3488
▁연결하기	-11.3489
▁장화	-11.349
▁받치	-11.3493
▁가해자	-11.3494
▁물통	-11.3497
▁접촉방지	-11.3498
▁휘	-11.3498
▁운전수	-11.3501
▁정렬	-11.3505
62	-11.3508
▁시공작업	-11.3509
▁사유로	-11.3512
▁강관추진	-11.3514
63	-11.3514
▁결과에	-11.3514
▁하니	-11.3514
▁자재하차	-11.3515
▁작업공정	-11.3516
성심병원	-11.3516
▁정리하던중	-11.3518
▁배근작업	-11.3519
▁국	-11.3523
▁운전하는	-11.3523
▁1-2	-11.353
▁수평이동	-11.3534
▁작업근로자	-11.3539
▁진입하는	-11.3541
해체작업중	-11.3545
▁지붕작업	-11.3558
▁걸치	-11.3562
체결	-11.3564
▁노출되어	-11.3566
관을	-11.3566
-9	-11.357
▁302	-11.3571
▁인지하게	-11.3572
▁봉	-11.3573
.※	-11.3577
▁신청서	-11.3581
▁흙막이공사	-11.3582
▁진입하던	-11.3585
▁끝단에	-11.3587
▁계획된	-11.3601
▁통지	-11.3602
으려고	-11.3603
▁내부계단	-11.3607
▁이루어지는	-11.3616
▁되었다고	-11.3619
▁북	-11.3622
하기전	-11.3623
▁공회전	-11.3623
▁안전교육장	-11.3625
▁내력	-11.3627
▁정비공사	-11.3628
▁시공하고	-11.363
▁파일이	-11.3631
팔	-11.3639
▁준비작업중	-11.3645
re	-11.3645
Cm	-11.365
▁오른손목	-11.365
▁부합하	-11.3653
▁공장에서	-11.3657
▁형틀목공이	-11.3657
여서	-11.3657
▁슬라브에	-11.366
▁여유	-11.3667
▁급정지	-11.3668
되는데	-11.3668
▁승인한	-11.3674
▁무릎뼈	-11.3674
▁빼내던	-11.3675
▁제외한	-11.3676
▁지하에서	-11.3677
▁가공기	-11.3679
▁207	-11.3683
동과	-11.3686
▁1.9	-11.3687
▁충진	-11.369
운반중	-11.3695
공업	-11.3698
▁걸리는	-11.37
포트	-11.3701
▁산업	-11.3702
화재	-11.3705
▁공극이	-11.3705
급	-11.3716
흥	-11.3723
▁신천	-11.3735
압	-11.3738
▁골절재해	-11.3751
▁내화	-11.3755
족	-11.3762
하차도	-11.3764
200)	-11.3771
▁뚫	-11.3773
▁정위치	-11.3774
EA	-11.3775
▁신고가	-11.3778
▁제주	-11.3783
▁느슨	-11.3787
▁반대편에	-11.3787
▁작업위치에	-11.3791
▁벨트에	-11.3797
or	-11.3814
▁매설물이	-11.3815
▁304	-11.3816
번에	-11.3819
▁상승작업	-11.3821
▁양호	-11.3825
▁주행중	-11.3826
▁팀	-11.3827
▁회전중	-11.3827
▁파열되	-11.3833
작업이	-11.3837
▁경사구간	-11.3845
▁장비점검	-11.3846
▁얼굴부위	-11.3847
3.5	-11.385
▁상당	-11.3851
공정	-11.3852
선에	-11.3853
▁작업장비	-11.3853
▁비골	-11.3855
▁붕괴위험	-11.3858
▁풀리지	-11.386
▁한마디	-11.386
▁이루	-11.3862
▁김포	-11.3873
▁확정	-11.3876
▁착용하여	-11.3879
시키던	-11.389
변위	-11.3894
▁401	-11.3895
대원	-11.3898
▁미작동	-11.3899
▁방수공	-11.3911
▁미끄럼방지	-11.3914
았다고	-11.392
▁열리	-11.3923
상을	-11.3924
▁파손되	-11.3925
▁치우다	-11.3925
▁쏟아지	-11.3929
주위	-11.3937
키	-11.3941
묶음	-11.3944
▁제시	-11.3957
▁상단으로	-11.396
원이	-11.3966
▁사각지대	-11.397
▁안동	-11.397
▁휘어지	-11.3977
▁터파기구간	-11.3983
수정	-11.3984
▁류	-11.3985
되자	-11.3991
▁침하로	-11.3993
▁연결부분	-11.3994
손가락이	-11.3996
▁이용하	-11.4
반출	-11.4003
알폼	-11.4008
경찰서	-11.4017
등으로	-11.4017
▁굴삭기에	-11.4022
▁요추의	-11.4027
▁파일공사	-11.4027
▁떨어뜨	-11.4036
와이어	-11.405
▁보고서	-11.4061
출	-11.4067
화상을	-11.4069
▁전기공	-11.4077
▁증상	-11.4077
요원	-11.4083
▁조립용	-11.4085
▁건너	-11.4086
(9	-11.4094
보드	-11.4096
유도	-11.4099
재단	-11.4105
철선	-11.4107
▁보조작업	-11.411
▁***(**	-11.4111
조작	-11.4117
▁위험한	-11.4122
에의해	-11.4127
▁계측값	-11.4128
표면	-11.4131
▁근로자간	-11.4133
공구를	-11.4136
▁작업상황	-11.4138
▁114	-11.4143
권	-11.4144
▁벨트를	-11.4146
없어	-11.4151
피해	-11.4154
▁수직구명줄	-11.4157
▁120	-11.416
▁하차작업	-11.416
▁벤딩	-11.4167
▁인공호흡	-11.4169
▁낙	-11.4173
▁종사하	-11.4175
▁할석작업	-11.4179
이탈	-11.4191
정형외과의원	-11.4201
으면	-11.4205
진료	-11.4206
▁두어	-11.4207
▁부분으로	-11.4208
위치로	-11.4208
공급	-11.4209
외벽	-11.4209
호안	-11.421
칸	-11.4215
실수로	-11.4218
직영	-11.4218
트러스	-11.4219
하수도관	-11.4221
Jack	-11.4221
접합	-11.4225
롤러	-11.4227
33	-11.4228
▁기계톱	-11.4228
럭스	-11.4228
리프트	-11.4232
려다가	-11.4232
밴딩기	-11.4234
려는	-11.4237
심근경색	-11.4241
었습니다	-11.4242
PVC	-11.4243
최초	-11.4244
협력사	-11.4244
단열재	-11.4245
토요일	-11.4245
도면	-11.4246
강판	-11.4248
철근을	-11.4257
▁배수펌프	-11.4258
▁활선	-11.4259
디뎌	-11.4267
경사로	-11.4271
▁가져	-11.4273
모터	-11.4275
림건설	-11.4275
▁축조	-11.4278
▁붕락	-11.4278
1.3	-11.428
▁다목적	-11.4281
▁침목	-11.4281
▁수분	-11.4282
▁또	-11.4283
▁설명	-11.4285
▁절단톱	-11.4288
▁활용하여	-11.4293
안전발판	-11.4297
▁원청사	-11.4301
ge	-11.4302
측에서	-11.4302
▁행정	-11.4306
▁기숙사	-11.4307
▁소켓	-11.431
일요일	-11.431
▁전압	-11.4313
방지장치	-11.4314
▁감안하여	-11.4314
▁후방에	-11.432
과정중	-11.4324
▁떼	-11.433
▁교각에	-11.4331
---------------	-11.4331
▁덕	-11.4333
▁때에	-11.4338
대비	-11.4339
해야하나	-11.4339
선한	-11.4348
ᄋᄋ씨	-11.4349
▁압박	-11.4353
▁헛딪	-11.4357
앞에서	-11.436
▁완충	-11.4361
▁퇴	-11.4363
▁팀원	-11.4365
▁조속	-11.4366
▁회전반경	-11.4367
▁첫째	-11.4367
상에	-11.4367
▁동반	-11.4369
▁강설	-11.437
▁호송	-11.4371
ve	-11.4371
▁GIRDER	-11.4372
▁pvc	-11.4372
▁강아치지보공	-11.4372
▁멀	-11.4372
▁멈춘	-11.4372
▁밑둥잡이	-11.4372
▁밞	-11.4372
▁산업안전보건관리비	-11.4372
▁엠베드	-11.4372
▁집중호우	-11.4372
▁컨트롤	-11.4372
▁투척	-11.4372
▁합성버팀보	-11.4372
셀	-11.4372
Slime	-11.4372
▁슬래그	-11.4372
▁용출수	-11.4372
▁가림막	-11.4372
▁건강장해	-11.4372
▁아웃리거	-11.4372
▁찰나	-11.4372
▁헤드가드	-11.4372
▁중현테크	-11.4372
▁구명조끼	-11.4372
▁소나기	-11.4372
▁원상복구	-11.4372
▁판매시설	-11.4372
▁다락방	-11.4372
▁물양장	-11.4372
▁선단슈	-11.4372
▁핸드글라인더	-11.4372
▁하반신	-11.4372
▁평행	-11.4372
▁떨어트려	-11.4372
▁대아이앤씨	-11.4372
▁공상처리	-11.4372
▁지붕보호벽	-11.4372
▁RCD	-11.4372
▁가설기자재	-11.4372
▁인적사항	-11.4372
▁접질름	-11.4373
▁무모	-11.4373
▁둘째	-11.4373
▁방청	-11.4373
▁안전작업절차	-11.4373
▁원료	-11.4373
▁안전표지	-11.4373
▁족장	-11.4373
▁공통	-11.4373
▁급상승	-11.4373
▁높으므로	-11.4373
▁관로부설	-11.4373
▁판단되	-11.4373
▁차량적재함	-11.4373
▁받았음	-11.4374
▁1/3	-11.4374
▁압송배관	-11.4374
▁근육통	-11.4374
▁전동기계	-11.4374
▁빨려들어가	-11.4374
▁한의원	-11.4374
▁진위	-11.4375
▁사진촬영	-11.4375
▁오창	-11.4375
▁토대로	-11.4375
▁매설작업	-11.4375
▁있었던	-11.4376
▁제작회사	-11.4376
▁미끄러질	-11.4377
▁펴기	-11.4378
▁인접구조물	-11.4378
▁빗자루	-11.4378
▁유류	-11.4378
▁엘레베이터	-11.4379
▁십자	-11.4379
▁통증호소	-11.4379
▁외주부	-11.4379
▁페인트통	-11.4379
▁진술함	-11.4379
▁변압기	-11.438
▁횡돌기	-11.438
▁햄머드릴	-11.438
▁에어리스	-11.438
▁건설공구	-11.438
▁미추	-11.438
▁스트레스	-11.438
▁고령자	-11.438
▁프리	-11.4381
▁자연석	-11.4381
▁특정	-11.4381
▁부표	-11.4381
▁침사지	-11.4381
▁con	-11.4381
▁오염	-11.4381
▁출구	-11.4381
▁Pit	-11.4382
▁대응하였으나	-11.4382
▁장해물	-11.4382
▁노출기준	-11.4382
▁협조	-11.4382
▁대블럭	-11.4383
▁블록쌓기	-11.4383
▁물려	-11.4383
▁자동바	-11.4383
▁주변환경	-11.4383
▁빈번	-11.4383
▁합벽폼	-11.4385
▁제연덕트	-11.4385
일반산업단지	-11.4385
▁첫째마디	-11.4385
▁걷다	-11.4385
▁건물내	-11.4386
▁복사뼈	-11.4386
▁앉았다	-11.4386
▁송기	-11.4386
▁강부재	-11.4386
▁맹	-11.4387
▁무관	-11.4387
▁기반	-11.4387
▁선큰	-11.4388
▁상황입니다	-11.4388
▁측판	-11.4388
▁경향	-11.4388
▁실어	-11.439
▁승차	-11.439
):	-11.439
▁리퍼	-11.4391
▁손가락끼임	-11.4391
▁전원선	-11.4392
▁내려오는중	-11.4392
틀비계	-11.4392
열상	-11.4392
▁성형	-11.4393
▁상세불명	-11.4394
▁스트럽	-11.4394
▁플랫폼	-11.4394
▁Line	-11.4394
▁용마루	-11.4394
▁부디치	-11.4394
▁하역운반기계	-11.4394
▁보호장구	-11.4395
▁Deck	-11.4395
▁열다가	-11.4395
▁움직이며	-11.4395
▁07:30	-11.4396
▁일주일	-11.4396
▁가격하였음	-11.4397
▁견	-11.4397
▁가설작업대	-11.4398
▁잠수사	-11.4399
▁자문	-11.4399
▁방진	-11.44
▁느끼고	-11.44
▁기초판	-11.44
▁임시고정	-11.4401
▁손목골절	-11.4401
▁화물차량	-11.4401
▁적재방법	-11.4402
▁부대토목	-11.4402
▁하수관	-11.4403
▁토석	-11.4403
▁접촉됨	-11.4404
▁매달고	-11.4405
▁고체연료통	-11.4407
기전	-11.4407
▁배수시설	-11.4407
▁진행하였고	-11.4407
▁수청	-11.4407
▁마루판	-11.4407
▁현수막	-11.4408
▁스리브	-11.4408
▁김천	-11.441
▁잡석	-11.4411
▁인적	-11.4412
▁응	-11.4412
▁원주시	-11.4413
▁실외기실	-11.4413
▁라쳇	-11.4414
▁지휘자	-11.4414
▁당기던중	-11.4415
▁건식	-11.4415
기가	-11.4416
▁조종원	-11.4417
▁스텐	-11.4418
▁주틀	-11.4418
▁내밀어	-11.4418
▁지하철	-11.4418
▁하강장	-11.4418
▁있는데	-11.4419
뒤	-11.442
▁목수반장	-11.442
▁임팩	-11.4421
▁전기시설	-11.4421
▁빈도	-11.4421
▁커터기	-11.4421
▁요소	-11.4422
▁PIPE	-11.4422
▁EGI	-11.4422
▁CSI	-11.4422
▁승용차	-11.4422
▁타일공사	-11.4423
▁부상사고	-11.4423
▁정비하여	-11.4427
▁폐수처리	-11.4427
▁계단식	-11.4428
▁적재상태	-11.4428
▁이슬	-11.443
▁주철근	-11.4431
▁원위치	-11.4431
▁철근팀	-11.4435
▁콘테이너	-11.4436
▁잭베이스	-11.4437
▁속대	-11.4438
상단	-11.4439
▁떨어뜨리	-11.444
▁No	-11.4443
▁수평력	-11.4444
▁넘어오다	-11.4444
▁방지시설	-11.4445
▁사무실에	-11.4445
▁잘라	-11.4445
▁좌측발목	-11.4446
▁달	-11.4448
전원	-11.4448
▁고정점	-11.445
▁투바이	-11.4451
▁땅바닥	-11.4452
▁장비반입구	-11.4456
▁병용	-11.4458
▁48	-11.4459
▁안전하	-11.446
▁주기	-11.4465
pe	-11.4466
▁Cable	-11.4467
▁목부위	-11.4468
▁계단부	-11.4469
▁보호대	-11.447
▁4,5	-11.4471
▁정기검사	-11.4471
▁잡자재	-11.4473
▁갱폼에	-11.4475
▁작용하중	-11.4476
▁대상물	-11.4477
▁고혈압	-11.448
▁부설작업	-11.4484
▁작동되어	-11.4485
▁잘못되어	-11.4485
▁중요	-11.4486
▁진행하면서	-11.4486
▁운전자에게	-11.4489
▁올려주던	-11.449
▁수거	-11.4491
▁사용해야	-11.4492
▁이송되어	-11.4493
▁업	-11.4495
질병	-11.4498
▁상자	-11.45
▁내외	-11.45
▁넣던	-11.4504
▁UT	-11.4505
▁두개	-11.4506
▁보존	-11.4506
수받이	-11.4507
▁장철근	-11.4507
설명서	-11.4511
▁수조	-11.4512
▁종이	-11.4515
▁철물이	-11.4516
▁퇴근후	-11.4516
▁석재판	-11.4518
▁이와	-11.4522
▁사고신고	-11.4522
▁막는	-11.4524
▁양중용	-11.4525
▁구름방지	-11.4526
(400	-11.4531
(300	-11.4533
▁전동기	-11.4537
시행	-11.4537
▁좌우로	-11.4537
▁원청에	-11.454
▁옹벽에	-11.4542
▁비산방지조치	-11.4542
▁수정작업을	-11.4543
▁사용하다가	-11.4547
▁소방서	-11.4549
▁늘어	-11.455
▁휴일	-11.4551
▁바닥면과	-11.4552
▁새로	-11.4553
▁밀착되	-11.4558
▁오르	-11.4562
▁참석	-11.4565
▁시공하기	-11.4568
▁손상되	-11.4569
▁K	-11.457
▁무릎통증	-11.4572
▁신고후	-11.4575
▁아산	-11.4575
▁타설공사	-11.4579
▁부착작업	-11.4584
▁해체하다	-11.4587
트리	-11.4591
▁타격되어	-11.4597
▁고임목에	-11.4599
▁벽과	-11.4599
▁흙바닥	-11.4602
▁손톱부위	-11.4603
▁날아가	-11.4603
▁충돌되어	-11.4608
▁진행하다가	-11.4609
▁칼에	-11.461
▁1/2	-11.4614
▁데크자재	-11.4615
▁이동하는중	-11.4617
하여야하나	-11.4628
▁503	-11.4632
▁중심에	-11.464
▁전지	-11.4642
▁무안	-11.4644
▁고정형	-11.4645
했어야	-11.4646
▁난간이	-11.4652
오는	-11.4654
미숙으로	-11.4657
▁위험표시	-11.4663
▁펌프실	-11.4671
후면	-11.4672
▁제동	-11.4673
▁운반작업을	-11.4676
▁전문의	-11.468
붕괴	-11.4681
▁첨부	-11.4684
▁현장작업	-11.4684
▁회의	-11.4689
▁철근조립작업	-11.4694
▁낙석이	-11.4695
▁상부가	-11.4698
▁주장하여	-11.4703
▁65	-11.4706
사람	-11.4706
프	-11.4707
▁팽팽	-11.4713
개인	-11.4714
일날	-11.4726
▁체결하던	-11.4727
▁절단사고	-11.4731
▁있었다	-11.4736
▁준비하는	-11.4739
▁철근인양	-11.4743
▁해체구간에서	-11.4743
FC	-11.4745
전선관	-11.4748
▁기초철근배근	-11.4752
eck	-11.4755
▁전선설치	-11.4757
▁조기	-11.4757
▁목재에	-11.4761
▁체결이	-11.4769
중심	-11.4769
원건설	-11.4775
▁젖어	-11.4781
▁고정작업중	-11.4784
▁당하는	-11.4784
▁기초에	-11.479
▁거터	-11.479
▁현장점검	-11.4795
▁버	-11.4799
▁36	-11.4805
좌	-11.4808
리며	-11.481
▁상기현장	-11.481
▁숙지하	-11.4823
▁맞춰	-11.4825
▁궤도에	-11.4828
▁39	-11.483
간에	-11.4843
수리	-11.4851
오던중	-11.4851
▁알폼해체	-11.4863
▁연결관	-11.4864
굴착기	-11.4866
인력	-11.487
▁중앙계단	-11.4873
턱에	-11.4877
밀리	-11.4879
▁야간에	-11.4881
▁친	-11.4883
측면	-11.4884
▁신호불량	-11.4886
사관	-11.4886
▁여는	-11.4888
▁운반기계에	-11.4894
▁통신선	-11.4896
▁동해	-11.4897
▁의자	-11.4901
▁실리	-11.4903
▁부합	-11.4903
▁휴대	-11.4907
▁건설사고	-11.4909
단부에	-11.4909
▁낮아	-11.4912
▁a	-11.4924
-5	-11.4926
▁기울여	-11.4929
▁통풍이	-11.4931
150	-11.4934
▁회전시키	-11.494
▁합벽구간	-11.4942
할려고	-11.4943
▁고정시키기	-11.4945
잃고	-11.4946
▁위쪽에	-11.4957
▁돕기	-11.4958
신호수를	-11.4961
▁날리	-11.4963
▁하차하던	-11.4966
▁뛰	-11.4978
시작	-11.4978
▁바지에	-11.4979
골절상을	-11.4983
▁인양함	-11.499
시장	-11.5012
▁조정작업	-11.5016
▁추락위험	-11.5019
▁세우던	-11.5029
통로용	-11.5043
물에	-11.5044
하역	-11.5048
▁몸쪽	-11.5048
미장	-11.505
▁취급시	-11.5061
하부로	-11.5062
le	-11.5065
▁사면에	-11.5068
▁사인	-11.5073
▁천정에	-11.5074
▁컷팅작업	-11.5078
▁오는	-11.5087
들을	-11.5087
▁전달하던	-11.5091
▁입회	-11.5092
소견	-11.5093
둥근톱	-11.5094
▁운송하는	-11.5097
▁돌리	-11.511
▁33	-11.511
탕	-11.5117
▁자체적	-11.5118
향	-11.5119
▁독	-11.5126
▁공공	-11.5132
소지	-11.5143
▁데크에	-11.5145
▁303	-11.5146
▁점토	-11.5149
▁자리에	-11.5158
쏘	-11.5158
:1	-11.5167
▁도면에	-11.5184
▁천막이	-11.5185
(0.6	-11.5188
▁얻	-11.5192
▁작업하기	-11.5201
▁철근반장	-11.5206
설계	-11.521
▁차량유도	-11.5214
거치	-11.5216
운전	-11.5225
▁정리하다	-11.5228
.○	-11.5228
빙	-11.523
작업용	-11.5231
▁beam	-11.5232
▁감지	-11.5234
겠다	-11.5238
EN	-11.5249
타공	-11.525
▁체중	-11.5256
oo	-11.5263
대한	-11.5265
양중	-11.5269
규정	-11.5281
▁알리	-11.5284
▁커	-11.5289
▁도색작업	-11.529
▁폐목	-11.5293
지않은	-11.5294
▁전북	-11.5296
그린	-11.5297
절차	-11.53
스판	-11.5301
중임	-11.5311
▁아이	-11.5311
322	-11.5316
피해자	-11.5317
▁지수판	-11.5317
▁심장	-11.5317
따라	-11.532
▁이로인	-11.532
밀어서	-11.532
힐	-11.532
규	-11.5322
버팀대	-11.5325
하차	-11.5326
ot	-11.5326
난간	-11.5327
광주	-11.5328
하였는데	-11.5332
쿨러	-11.5334
▁불규칙	-11.5336
▁회전하던	-11.5337
공영	-11.5338
엄	-11.5338
▁선임하여	-11.5343
계통	-11.5344
앵커	-11.5344
차례	-11.5345
복합	-11.5346
새끼손가락	-11.5347
테스트	-11.5347
기계장치	-11.5348
▁바라보	-11.5349
브레싱	-11.535
꺼	-11.5351
몰탈	-11.5353
잭	-11.5353
밴드	-11.5353
안전난간	-11.5354
파렛트	-11.5354
취부	-11.5355
▁타설구간	-11.5355
페인트	-11.5355
빠져	-11.5355
버튼	-11.5356
안전고리	-11.5356
소방서	-11.5356
▁주장하고	-11.5357
화요일	-11.5357
관리감독자	-11.5357
연장	-11.536
이었음	-11.5361
(03	-11.5362
▁재하	-11.5363
▁하남	-11.5365
판넬설치	-11.5365
▁작동시키	-11.5366
사고당시	-11.5366
▁화염	-11.5366
▁연선	-11.537
▁센터	-11.5371
▁씌우	-11.5372
▁고정시킨	-11.5373
드럼	-11.5374
면으로	-11.5374
BT	-11.5379
외상	-11.5381
석재	-11.5382
▁오르다	-11.5383
▁윗	-11.539
조경	-11.5392
▁도로변	-11.5397
분석	-11.5398
∼	-11.5398
▁공터	-11.5401
:10	-11.5401
파이프와	-11.5401
▁난방	-11.5402
지못하고	-11.5409
정돈하여	-11.5411
:35	-11.5412
▁일반인	-11.5417
▁피난안전구역	-11.5417
사고로	-11.5424
▁혈관	-11.5424
유지	-11.5427
▁적재해	-11.5428
▁작업조건에	-11.543
▁목재가공	-11.5432
망치로	-11.5433
▁피하던	-11.5433
▁선택	-11.5434
▁단열	-11.5436
▁병	-11.5437
▁출	-11.544
▁중심선	-11.5443
▁버팀대에	-11.5445
▁충돌사고	-11.5445
워	-11.5449
▁복원	-11.5451
놓다가	-11.5451
▁승탑	-11.546
▁네	-11.5464
▁잔해	-11.5466
▁확보하	-11.5466
▁2021.10.	-11.5471
▁미끄러지면	-11.5472
▁찌	-11.5472
▁바브켓	-11.5472
▁물탱크	-11.5473
▁우각	-11.5473
▁지표	-11.5474
▁나뭇가지에	-11.5474
▁흙막이벽	-11.5475
lock	-11.5477
렬	-11.548
▁딸려	-11.5481
저류조	-11.5482
▁멍애	-11.5483
▁불확실	-11.5483
▁슬레이트	-11.5483
▁u	-11.5483
▁듣지	-11.5483
▁스트랜드	-11.5483
▁콤프레셔	-11.5483
內	-11.5483
몹	-11.5483
▁리바운드	-11.5483
▁희망	-11.5483
녹생토	-11.5483
▁믹스트럭	-11.5483
▁쇠지랫대	-11.5483
▁눈꺼풀	-11.5483
▁유한기술	-11.5483
베이어	-11.5483
▁고압살수기	-11.5483
▁근고블록	-11.5483
▁유압실린더	-11.5483
▁프레타이	-11.5483
▁최대접지하중	-11.5483
▁텔레스코	-11.5483
▁위험물저장소	-11.5483
▁비상사태	-11.5483
▁튕긴	-11.5483
▁부탁	-11.5483
▁도급업체	-11.5483
▁재봉사	-11.5483
▁가공전로	-11.5483
▁긁혀	-11.5483
▁톤백마대	-11.5483
▁오늘	-11.5483
▁안전인증고시	-11.5483
▁찌름	-11.5483
▁보조기층	-11.5483
▁특별안전교육	-11.5483
▁최대적재하중	-11.5483
▁시건장치	-11.5483
▁독립	-11.5483
▁발파책임자	-11.5483
▁분야별	-11.5483
ax	-11.5483
▁허용응력	-11.5483
▁병원내원	-11.5483
▁족부	-11.5483
▁환봉	-11.5483
▁고사목	-11.5483
▁섬유로프	-11.5483
▁표준안전	-11.5483
건업	-11.5483
▁지양하고	-11.5483
▁계측항목	-11.5484
▁차량통행	-11.5484
▁조형물	-11.5484
▁과굴착	-11.5484
▁CPR	-11.5484
▁반깁스	-11.5484
▁너울성	-11.5484
▁보도블록	-11.5484
▁산소용기	-11.5484
▁MDF	-11.5484
▁가설수도	-11.5484
▁힌지	-11.5484
▁대각선	-11.5484
▁세울	-11.5484
▁베어링	-11.5484
▁물론	-11.5484
▁교통처리	-11.5484
▁용접불티	-11.5484
▁직선	-11.5484
▁행어	-11.5484
▁자재적치	-11.5484
▁절토부	-11.5485
▁내관	-11.5485
▁절취면	-11.5485
▁통신설비	-11.5485
▁먹줄	-11.5485
▁시험발파	-11.5485
▁넘어감	-11.5486
▁구급대원	-11.5486
▁올라온	-11.5486
▁통신시설	-11.5486
▁주케이블	-11.5486
▁어스	-11.5486
▁잠금	-11.5486
▁인지부족	-11.5486
▁16:20	-11.5487
▁탄력	-11.5487
▁반단면	-11.5487
▁방호설비	-11.5487
▁풀린	-11.5488
네오	-11.5488
▁헛딧어	-11.5488
▁데크철판	-11.5488
▁대수롭	-11.5488
▁사양	-11.5488
▁출입금지구역	-11.5489
▁신규채용	-11.5489
▁넘어뜨리	-11.5489
▁강설량	-11.5489
▁끌어당기	-11.5489
▁세륜장	-11.549
▁기준점	-11.549
▁공유	-11.549
▁안전대걸이	-11.5491
▁접착	-11.5491
▁안방	-11.5491
▁11:20	-11.5491
▁깨져	-11.5491
▁멍애재	-11.5491
▁당황	-11.5492
▁캔틸레버	-11.5492
▁스프링클러	-11.5492
▁플륨관	-11.5492
▁인공섬	-11.5492
▁Drum	-11.5492
▁면담	-11.5492
▁소규모	-11.5492
-2-2012)	-11.5493
▁넘어졌고	-11.5493
▁접착제	-11.5493
▁예비	-11.5493
▁일용노무자	-11.5493
▁나옴	-11.5493
▁쥐고	-11.5493
▁처지면서	-11.5494
▁같아	-11.5494
▁전신주	-11.5494
▁연석	-11.5494
▁강관틀	-11.5495
▁상해발생	-11.5496
▁기둥밴드	-11.5496
▁공사감독자	-11.5496
▁보조붐대	-11.5496
▁장비조작	-11.5496
▁현장직원	-11.5496
▁행인	-11.5497
▁숙련공	-11.5497
▁스카이장비	-11.5497
▁왼손등	-11.5497
▁접지선	-11.5498
▁외에	-11.5498
▁양산	-11.5498
▁배출구	-11.5498
▁CD	-11.5499
처리장	-11.5499
▁선체	-11.5499
▁방음판	-11.5499
▁용구	-11.55
▁원주	-11.55
▁만약	-11.55
▁석자재	-11.5501
▁유압식	-11.5501
▁철재거푸집	-11.5501
▁중량이	-11.5502
족지	-11.5502
▁BN	-11.5502
▁시공관리	-11.5502
▁않은채	-11.5502
▁전기판넬	-11.5503
▁포천	-11.5504
▁지시하였으나	-11.5504
▁감리단	-11.5505
▁타현장	-11.5506
▁가설공법	-11.5506
▁DA	-11.5506
▁휠	-11.5506
▁접히며	-11.5507
▁보걸이	-11.5507
▁트랩	-11.5507
▁사타구니	-11.5507
▁인명피해	-11.5508
▁Gate	-11.5508
▁새들	-11.5508
▁피스브라켓	-11.5508
▁수영장	-11.5508
▁전조등	-11.5508
▁펜스	-11.5508
▁오조작	-11.5508
▁비상정지장치	-11.5508
▁소변	-11.5509
▁관급자재	-11.5509
▁예초기	-11.5509
▁관리기준	-11.5509
▁안전보건교육	-11.5509
▁접합면	-11.551
▁샌드위치판넬	-11.551
▁점검사항	-11.551
▁목포	-11.5511
▁가지선	-11.5511
▁통로박스	-11.5512
▁용역공	-11.5512
Ton	-11.5512
▁조경공사	-11.5513
▁부딪치고	-11.5513
▁위생	-11.5513
앤씨	-11.5514
▁단락	-11.5515
▁병사	-11.5515
▁어지럼증	-11.5515
▁아닌곳	-11.5516
▁앞니	-11.5517
▁천정판넬	-11.5517
▁작업구간내	-11.5517
▁9>	-11.5517
▁개수	-11.5517
▁복장	-11.5517
▁치어	-11.5518
하였는지	-11.5518
▁걸이용	-11.5518
▁11:10	-11.5519
▁주변도로	-11.5519
▁떨어지고	-11.5519
▁끌고	-11.5519
▁천장재	-11.552
▁기다리는	-11.5521
▁설비공	-11.5521
▁추간판	-11.5522
▁일용	-11.5522
▁수령	-11.5522
(16	-11.5522
▁상태입니다	-11.5523
▁햄머	-11.5523
▁데이터	-11.5523
▁연구	-11.5524
▁닥트	-11.5524
▁우리	-11.5524
▁정읍	-11.5524
▁틀비계에	-11.5525
▁교실	-11.5525
▁부위별	-11.5525
▁수칙	-11.5526
▁올라오다	-11.5527
▁이동대차	-11.5528
:3	-11.5529
▁내려가면서	-11.553
▁운전사	-11.5531
▁개설공사	-11.5532
▁거푸집제작	-11.5533
▁화분	-11.5533
스타	-11.5534
▁렌탈장비	-11.5537
▁강관배관	-11.5537
개씩	-11.5537
▁감독관	-11.5538
▁맞추던	-11.5538
▁드레인	-11.5539
▁산승각	-11.5539
▁요령	-11.554
▁외력	-11.5542
▁바지선에	-11.5542
▁장진	-11.5542
▁탈락하며	-11.5542
▁수송	-11.5543
▁별표	-11.5544
▁근거하여	-11.5544
▁정지하고	-11.5544
▁수직망	-11.5545
(2021	-11.5546
▁가열	-11.5546
▁조사결과	-11.5547
▁이러	-11.5548
▁400	-11.5549
했으며	-11.5549
▁0.2	-11.5549
▁상부구조물	-11.5549
▁동파이프	-11.555
▁외측으로	-11.5552
▁BP	-11.5553
▁부석정리	-11.5554
▁밧줄	-11.5556
▁달기	-11.5556
▁솔져	-11.5557
▁당김	-11.5557
▁우수배관	-11.5559
▁도장공사	-11.556
▁진술서	-11.5566
▁가배관	-11.5567
▁기술적	-11.5567
▁무릎인대	-11.5567
▁일용직근로자	-11.5567
▁수행하기	-11.5567
▁뿐	-11.5572
▁개요	-11.5572
▁지하구조물	-11.5572
▁면허	-11.5574
ER	-11.5574
▁발견되어	-11.5576
▁주입구	-11.5576
▁0.9	-11.5577
앉아	-11.5577
▁회전력	-11.5577
▁쓸리	-11.5578
▁시저	-11.5578
▁용역근로자	-11.5579
▁불상	-11.558
▁약품	-11.558
▁부재별	-11.5581
▁멈춰	-11.5584
▁뒷쪽	-11.5587
▁둥근톱날	-11.5587
▁꺼내다	-11.5587
▁상부난간대	-11.5588
분리	-11.5588
방지장갑	-11.5589
▁성주	-11.5593
▁적재장소	-11.5595
▁추락하였습니다	-11.5595
▁여러개	-11.5597
▁수직하중	-11.5598
▁강선에	-11.5598
▁발진	-11.5603
▁소단부	-11.5603
▁천공위치	-11.5605
▁연결되는	-11.5606
▁코어기	-11.561
작업반장	-11.561
▁대기중인	-11.561
하였나	-11.5612
▁지간	-11.5613
번손가락	-11.5614
▁지키지	-11.5616
▁인중	-11.5617
▁작업인원	-11.5618
▁설정하여야	-11.562
▁테스트	-11.5621
▁아니하고	-11.5623
▁49	-11.5625
▁설치해	-11.5627
▁제거하다가	-11.563
▁소견서	-11.5639
▁가기	-11.5639
O	-11.5642
하중이	-11.5642
정지	-11.5646
▁판넬에	-11.5647
▁하겠다	-11.565
만들기	-11.5659
▁문서	-11.566
▁난로	-11.5661
▁오르려	-11.5662
▁시공성	-11.5664
▁작업대로	-11.5667
▁56	-11.5669
▁현장상황	-11.567
▁절단기가	-11.5671
▁양중작업중	-11.5672
▁와이어로	-11.5673
▁부착하고	-11.5676
▁차고	-11.5676
하였을	-11.5678
▁시도하다	-11.5679
▁타공작업	-11.5679
▁표준신호	-11.5684
▁장약작업	-11.5686
표지	-11.5691
▁계단실에	-11.5693
입	-11.5701
▁가슴쪽	-11.5709
▁동절기에	-11.5709
▁슬라브거푸집	-11.5718
가지	-11.5721
▁시방	-11.5723
7-3	-11.573
▁탑	-11.573
▁당기기	-11.5735
▁자재사이에	-11.574
내부로	-11.5743
▁하지않고	-11.5748
▁고정미흡	-11.5755
▁전공	-11.5755
문화	-11.5761
▁착	-11.5763
▁걸어주	-11.5764
▁근무한	-11.5773
▁타설전	-11.5779
▁빼려	-11.5784
동측	-11.5785
▁고정볼트	-11.5793
▁받으	-11.5794
▁토출	-11.5794
UT	-11.5798
▁대구시	-11.5799
▁하중으로	-11.5799
▁형태로	-11.5806
업	-11.5807
(2)	-11.5811
▁가정	-11.5811
▁외부비계에서	-11.5812
▁연마작업	-11.5814
▁매다	-11.5814
▁‘	-11.5816
▁비계계단	-11.5816
▁톱다이	-11.582
▁체	-11.5824
전기	-11.5826
뚜껑	-11.5827
▁최고	-11.5827
▁풀다	-11.5829
▁교	-11.5835
▁구로	-11.5836
▁입선작업	-11.5837
▁47	-11.5838
▁벌어지	-11.5843
▁주다	-11.5847
▁차장	-11.5853
▁제거할	-11.5853
하였음에도	-11.5854
▁신축공사장	-11.5857
▁토사면	-11.586
▁독성	-11.5864
▁비상계단	-11.5864
▁냉	-11.5871
▁배근중	-11.5885
플	-11.5887
단면	-11.5888
▁사각파이프를	-11.5892
,000	-11.5896
▁압력으로	-11.5903
공간이	-11.5908
▁물과	-11.5908
▁장전	-11.5913
▁구내	-11.5916
지않아	-11.5919
▁지적	-11.592
▁하면	-11.593
▁굴취	-11.5949
▁충분한지	-11.5952
판에	-11.5952
뿜칠	-11.5959
검진	-11.5959
▁수직철근에	-11.5962
▁같	-11.5964
▁하강시	-11.5965
▁임대	-11.5967
▁가스절단	-11.5969
▁옮겨붙	-11.597
▁석재시공	-11.5972
▁블럭이	-11.5981
▁당일에	-11.5985
치면서	-11.5987
▁손목뼈	-11.5989
▁트랙	-11.5991
▁폼에	-11.6
▁(2)	-11.6002
▁계단실로	-11.6004
▁해당작업	-11.6007
▁117	-11.6013
▁한후	-11.6019
▁다른작업자	-11.6022
▁(1	-11.6024
▁1.1	-11.6025
두어야	-11.6027
▁현장외부	-11.6028
빌	-11.6029
▁좋지	-11.6031
▁해당일	-11.6033
▁점검차	-11.6036
▁지나가	-11.6041
진행	-11.6041
▁철골빔	-11.6041
거푸집을	-11.6043
▁단가	-11.6061
장비가	-11.6062
▁소요되	-11.608
▁산출	-11.6081
▁o	-11.609
배치	-11.6098
▁진행방향	-11.6102
▁해체하면서	-11.6112
▁지중	-11.6112
▁기관	-11.6116
▁외함	-11.6119
▁배관용	-11.612
▁피트층	-11.6122
▁재료로	-11.6127
감독	-11.6134
▁그러지	-11.6134
:15	-11.6141
▁제일	-11.6143
▁젖어있	-11.615
물의	-11.6151
가시설	-11.6152
▁거의	-11.6154
▁전정	-11.6157
▁철거하여	-11.6158
▁확인해	-11.6158
철근이	-11.6162
▁되었	-11.617
받이	-11.6175
통증이	-11.6178
경과	-11.6183
▁알지	-11.6183
▁공중	-11.6189
▁고정조치	-11.6199
업체인	-11.6203
▁중점	-11.6212
▁높이조절	-11.6226
▁복	-11.6239
▁’2	-11.6249
▁후면부에	-11.6252
▁굳어	-11.6254
▁밟다	-11.6258
▁42	-11.6258
않고	-11.6259
▁거주지	-11.626
▁s	-11.6261
▁구조검토서	-11.6267
자로	-11.6272
들어	-11.628
i	-11.6282
▁고르	-11.6282
▁휴식시간을	-11.6288
금일	-11.6288
되나	-11.629
진단서	-11.6296
▁부착하	-11.6299
▁t	-11.6302
된다고	-11.6304
▁직사광선	-11.6307
검토	-11.6311
시킴	-11.6314
희	-11.6318
▁작업량	-11.6322
부착	-11.6324
▁아래쪽에	-11.6328
▁작업해야	-11.633
대와	-11.6334
단차	-11.6339
▁단지	-11.6342
▁진단받	-11.6342
각도	-11.6346
65	-11.635
엘리베이터	-11.635
▁코를	-11.6352
양생용	-11.6357
▁강관이	-11.6359
▁눕히	-11.636
▁지켜	-11.6369
▁제외	-11.6371
▁노출되	-11.6372
슈트	-11.638
200	-11.6381
▁오전에	-11.6387
받침대	-11.6393
눈	-11.6395
점이	-11.6406
~2	-11.6408
샤	-11.6412
▁방지하	-11.6419
지주	-11.6422
함마	-11.6422
농	-11.6424
머리	-11.6424
▁52	-11.6433
▁갔다	-11.6439
▁추가적	-11.644
▁형틀공사	-11.6442
▁튕겨나	-11.6444
전선	-11.6449
a	-11.6451
화로	-11.6452
옥상	-11.6453
▁비상시에	-11.6455
▁부딪쳤	-11.6457
▁사전작업	-11.646
▁꼬	-11.6461
람	-11.6464
▁의해서	-11.6472
▁사다리차	-11.6472
톱	-11.6473
▁미끌어지면	-11.6473
서울	-11.6474
발생장소	-11.6474
사다리에서	-11.6474
▁끌려	-11.6486
관절	-11.6492
▁탈락방지	-11.6492
테이프	-11.6492
▁녹이	-11.6501
드릴	-11.6505
▁놓여있	-11.6505
오르면서	-11.6506
▁원청	-11.651
관이	-11.651
▁아프	-11.6511
▁심사	-11.6512
▁시방에	-11.6513
추락높이	-11.6514
▁관리동	-11.6516
반생	-11.6516
였음	-11.6516
▁미세골절이	-11.6517
▁취급하	-11.6523
▁도르레	-11.6523
롤	-11.6525
소음	-11.6527
째	-11.6531
▁넘다	-11.6532
▁앵커볼트에	-11.6533
악	-11.6537
엄지	-11.6538
준하여	-11.6541
▁피하려	-11.6542
참	-11.6543
조각	-11.6547
g	-11.6549
▁사토장	-11.655
둘러	-11.655
받침	-11.6552
이엔지	-11.6552
적재	-11.6554
1.0)	-11.6557
▁적합하	-11.6557
▁흔들	-11.656
▁외부판넬	-11.6564
팔꿈치	-11.6569
흙막이	-11.657
2.4	-11.6571
보험급여	-11.6574
출혈	-11.6574
Anchor	-11.6575
Φ	-11.6575
▁의심되	-11.6575
▁하려는	-11.6576
육	-11.6577
끼	-11.6577
널	-11.6578
▁조정하기	-11.6579
▁익산	-11.6582
신축공사	-11.6583
▁테	-11.6583
소홀	-11.6587
절곡기	-11.6589
캡	-11.6593
▁깔	-11.6594
빈	-11.6597
첨부	-11.6597
운행	-11.6599
부설	-11.6599
값	-11.66
레버	-11.66
파레트	-11.6601
끈	-11.6601
결선	-11.6602
고혈압	-11.6602
낀	-11.6602
벌	-11.6602
Pipe	-11.6602
찬넬	-11.6604
밀폐공간	-11.6604
유공발판	-11.6604
추진관	-11.6604
철근콘크리트공사	-11.6605
부딪힘	-11.6606
멍에재	-11.6607
본체	-11.6608
활동	-11.6608
지내력	-11.6608
서포트	-11.6613
이동통로	-11.6613
▁조수석	-11.6615
엔씨	-11.6617
▁이로	-11.6618
각관	-11.6622
주소	-11.6627
오차	-11.6627
토목	-11.6627
사무실	-11.6627
근처	-11.6627
▁되면	-11.663
광장	-11.6633
마대	-11.6633
▁휘어	-11.6634
남자	-11.6636
성명	-11.6637
▁도배작업	-11.6638
손톱	-11.6638
발가락	-11.6639
앉으면서	-11.6639
레일	-11.6645
▁기인물	-11.6647
▁라	-11.6656
▁무전	-11.6657
차적	-11.6662
▁바탕	-11.6666
▁제약	-11.6667
▁외부인	-11.667
▁더미	-11.6671
▁증축	-11.6672
▁미숙에	-11.6674
▁세종	-11.6675
:50	-11.6681
▁고압전선	-11.6682
▁타격하던	-11.6683
▁거제	-11.6687
(1.0	-11.6687
▁마대자루	-11.6689
▁미숙련	-11.6689
▁미끄	-11.6694
기준에	-11.6695
▁이동시켜	-11.6696
▁법규	-11.6701
가연성	-11.6703
▁합격	-11.6707
▁초기에	-11.6709
▁추진기지	-11.6709
▁외곽	-11.671
v	-11.6711
▁좁아	-11.6711
▁코너부위	-11.6711
▁하는중	-11.6715
▁탑정	-11.6716
▁굴삭기와	-11.6716
잡고있는	-11.6716
론	-11.6717
▁쇠지레	-11.6718
▁수평방향	-11.6718
▁입력	-11.6718
▁일어	-11.6721
▁달아	-11.6723
▁튀어오르	-11.6727
▁들어와	-11.6727
▁가스농도	-11.6729
▁고령	-11.673
ed	-11.6731
ler	-11.6731
시켰	-11.6733
▁스트레	-11.6733
▁일괄	-11.6733
▁프라이머	-11.6733
곱	-11.6733
행정복지센터	-11.6733
Lock	-11.6733
▁Grating	-11.6733
▁̊	-11.6733
▁겨울철	-11.6733
▁모노레일	-11.6733
▁바뀌	-11.6733
▁방독마스크	-11.6733
▁뿌려	-11.6733
▁수납	-11.6733
▁시뮬레이션	-11.6733
▁익숙	-11.6733
▁장례식장	-11.6733
▁크람쉘	-11.6733
▁크래인	-11.6733
▁트래블러	-11.6733
낼	-11.6733
딘	-11.6733
▁느낀	-11.6733
▁테이핑	-11.6733
▁평균	-11.6733
▁젠다이	-11.6733
간접원인	-11.6733
▁나타내	-11.6733
▁암버럭	-11.6733
복선전철	-11.6733
▁발파모선	-11.6733
케이피	-11.6733
▁도화선	-11.6733
▁메인지브	-11.6733
▁건설안전보건	-11.6733
▁냉각탑	-11.6733
▁대처방안	-11.6733
▁발파시방	-11.6733
▁긴밀	-11.6733
▁블루폼	-11.6733
▁존치기간	-11.6733
▁연료탱크	-11.6733
▁솟음	-11.6733
▁미끄려져	-11.6733
▁시추조사	-11.6733
▁배척	-11.6733
▁병영	-11.6733
▁묻힘	-11.6734
▁안전불감증	-11.6734
▁스크린	-11.6734
▁두손	-11.6734
▁작업유형	-11.6734
▁잔존	-11.6734
▁현장관리	-11.6734
▁교통통제	-11.6734
▁미세조정	-11.6734
▁염려	-11.6734
▁해머드릴	-11.6734
▁아차사고	-11.6734
▁영무	-11.6734
=1.0	-11.6734
▁찍힌	-11.6734
▁외장판넬	-11.6734
▁고결	-11.6734
▁자키	-11.6734
광평건설	-11.6734
▁놓아둔	-11.6734
▁제한속도	-11.6734
▁다세대	-11.6734
▁진동롤러	-11.6734
▁토질조건	-11.6735
II	-11.6735
▁구조해석	-11.6735
▁연마석	-11.6735
▁동출입구	-11.6735
▁물고임	-11.6735
▁결근	-11.6735
▁미끌림	-11.6735
▁겹이음	-11.6735
▁합선	-11.6735
▁예상치	-11.6735
▁중간말뚝	-11.6735
▁우물통기초	-11.6736
▁향해	-11.6736
▁굵은	-11.6736
▁해상크레인	-11.6736
▁미배치	-11.6736
▁밀던	-11.6736
▁부속설비	-11.6736
▁내습	-11.6736
▁자유장	-11.6736
▁16:40	-11.6736
▁고철	-11.6736
▁호우	-11.6737
▁번선	-11.6737
이행되는지	-11.6737
▁다칠	-11.6737
▁권상장치	-11.6737
▁덕진	-11.6738
▁금속재	-11.6738
▁절개	-11.6738
▁누락	-11.6738
▁깨짐	-11.6739
▁14:50	-11.6739
▁벌어	-11.6739
▁촉	-11.6739
▁대체	-11.6739
▁산소병	-11.674
▁예상됨	-11.674
▁14:10	-11.6741
▁습윤	-11.6741
▁계류	-11.6742
▁아니되며	-11.6742
▁대각재	-11.6742
▁붙어있는	-11.6742
세종병원	-11.6743
▁라쳇바	-11.6743
▁국내	-11.6743
▁버럭	-11.6743
▁뻘	-11.6743
▁시나리오	-11.6743
▁수평조절목	-11.6743
▁쌍줄비계	-11.6743
▁Joint	-11.6743
▁웨빙띠	-11.6743
▁가스누출	-11.6743
▁지체	-11.6743
▁공조덕트	-11.6743
▁모르터	-11.6744
▁창원기전	-11.6744
▁선해체	-11.6744
▁진통제	-11.6744
▁신호불일치	-11.6744
▁생겼다고	-11.6744
▁안벽	-11.6744
▁타카건	-11.6744
▁말려들어감	-11.6744
▁병원치료	-11.6744
▁금액	-11.6744
▁핀구멍	-11.6744
▁제출하였습니다	-11.6745
▁합판절단	-11.6745
▁환기시설	-11.6745
▁403	-11.6745
▁속초	-11.6745
▁부딛히	-11.6745
▁가족	-11.6746
▁선택하여	-11.6746
▁발빠짐	-11.6746
▁기준치	-11.6746
▁각도절단기	-11.6747
▁바닥슬래브	-11.6747
▁부서지면서	-11.6747
▁13:40	-11.6747
▁지반다짐	-11.6747
▁효율적	-11.6748
▁피니셔	-11.6748
▁오인하여	-11.6748
▁관계자외	-11.6748
▁헬기장	-11.6749
▁차단막	-11.6749
▁알아	-11.6749
▁있지만	-11.6749
▁안구손상	-11.6749
▁빠져나가	-11.675
▁안전작업허가서	-11.675
천공기	-11.675
▁안전걸이	-11.6751
▁수직승강로	-11.6751
▁못하였음	-11.6751
▁가연물	-11.6752
▁보강방법	-11.6752
▁건임	-11.6752
▁개량	-11.6752
▁보강대책	-11.6753
▁조정장치	-11.6753
▁복용	-11.6753
▁왼손검지손가락	-11.6753
▁눈썹	-11.6754
:1.2	-11.6754
▁이송하였으며	-11.6754
▁본드	-11.6755
▁치료중임	-11.6755
▁유자격자	-11.6755
▁암질	-11.6755
▁급수배관	-11.6756
▁접지상태	-11.6756
▁붓기	-11.6757
▁덕트공	-11.6757
▁굴착기계	-11.6759
▁요도	-11.6759
▁급여	-11.676
▁팬	-11.6761
▁점보드릴	-11.6761
▁쿵	-11.6761
▁아킬레스건	-11.6761
▁턱끈	-11.6762
▁작동스위치	-11.6762
삼거리	-11.6762
▁좌대	-11.6762
▁특이	-11.6762
▁Base	-11.6762
▁국제	-11.6762
▁강화	-11.6762
▁경비원	-11.6762
▁장비운전자	-11.6763
▁소선	-11.6764
▁경사계	-11.6764
▁신장	-11.6764
▁눈주위	-11.6764
▁안전담당자	-11.6765
▁피하려고	-11.6765
▁고위험	-11.6765
▁대칭	-11.6765
▁구조틀	-11.6765
▁뽑아	-11.6766
▁부착시설	-11.6767
▁시스템서포트	-11.6767
▁스페이서	-11.6768
▁간식	-11.6768
▁버리	-11.6768
▁표식	-11.6768
▁안전블록	-11.6768
▁편중	-11.6769
▁지방	-11.6769
▁진행하였으며	-11.677
▁가체결	-11.6771
▁우안	-11.6772
▁쓰고	-11.6772
▁미사	-11.6772
:25	-11.6772
▁자재반입구	-11.6772
▁제설작업	-11.6773
▁조류	-11.6774
책상	-11.6774
▁입사	-11.6774
▁진출입로	-11.6775
▁일부승인	-11.6775
▁실시하였으며	-11.6775
▁위반	-11.6776
▁소화조	-11.6776
▁구부려	-11.6777
▁공용	-11.6777
▁개의	-11.6778
▁8>	-11.6778
▁뒷걸음치다	-11.6779
▁논산	-11.6779
▁마킹	-11.6779
▁공단	-11.6779
▁Hole	-11.678
▁180	-11.678
▁가공기계	-11.6781
▁형틀거푸집	-11.6781
▁북구	-11.6782
▁처치	-11.6782
▁재하자	-11.6782
▁보호망	-11.6783
▁우측손목	-11.6783
▁가공전선	-11.6783
오른	-11.6784
▁현재까지	-11.6784
▁평탄화	-11.6784
▁진행됨	-11.6784
▁귀가조치	-11.6784
▁자재창고에서	-11.6785
▁요한다	-11.6786
▁선택하여야	-11.6787
▁영하	-11.6788
▁치며	-11.6788
▁덮게	-11.6789
▁재개	-11.679
▁조형	-11.679
▁추정함	-11.679
▁진행하였으나	-11.6791
▁이틀	-11.6792
▁가공철근	-11.6795
▁범	-11.6796
▁작업시작전	-11.6796
▁추진기	-11.6796
▁업무시설	-11.6797
▁상부슬라브	-11.6797
▁차단하고	-11.6798
▁Sta	-11.6798
▁자만	-11.6798
▁덧	-11.6799
▁반입구	-11.6801
°	-11.6805
▁별관	-11.6805
▁준수하	-11.6807
▁계기	-11.6808
층세대	-11.6808
▁적용하여	-11.681
▁내려놓아야	-11.681
▁덮고	-11.6811
▁민원	-11.6813
도시	-11.6815
▁초진	-11.6816
▁상대	-11.6816
▁ᄃ	-11.6816
▁발주처	-11.682
▁통보하지	-11.6821
▁뒤쪽에	-11.6821
▁적치하지	-11.6822
▁주의하며	-11.6823
▁전라	-11.6824
▁수도관	-11.6826
▁이상여부	-11.6827
▁되어있지	-11.6828
▁시브	-11.6829
뼈에	-11.683
▁HD	-11.6832
▁척추뼈	-11.6832
시설에	-11.6832
▁중족골	-11.6834
▁동원	-11.6835
▁장애인	-11.6837
측량	-11.6837
▁가설발판	-11.6838
▁병명	-11.6838
▁대리	-11.6838
▁일상	-11.6838
▁깔목	-11.6838
▁응력이	-11.6839
▁우기	-11.6839
얇은	-11.6844
▁수행한다	-11.6844
▁상승중	-11.6846
▁일자	-11.6846
▁잡았	-11.6848
▁세심	-11.685
=6	-11.685
▁공사차량	-11.6851
▁장비기사와	-11.6851
▁교체작업중	-11.6851
▁디딤판	-11.6852
▁용접상태	-11.6853
▁보내	-11.6855
▁회로	-11.6858
▁물리	-11.6859
▁생활관	-11.6863
▁운	-11.6863
▁부서지	-11.6864
강관	-11.6864
26-1	-11.6867
▁적재하기	-11.6867
▁작동되는	-11.6868
▁작업준비중	-11.6868
▁효과적	-11.6869
▁주소	-11.6871
치고	-11.6872
도달구	-11.6873
▁부지내	-11.6874
▁본체와	-11.6876
▁버튼	-11.6877
▁마시	-11.6879
▁정지작업	-11.688
▁닿는	-11.6881
▁씻	-11.6888
▁한사람	-11.6889
▁추락사	-11.689
▁외주	-11.6891
▁공법이	-11.6891
▁하강중	-11.6893
▁모르	-11.6895
차단	-11.6898
▁안전부주의	-11.69
▁2020.12.	-11.6903
▁제조자	-11.6904
▁터널공	-11.6904
▁이용하고	-11.6905
▁대주	-11.6914
▁연세	-11.6916
▁쉬고	-11.6916
-10	-11.6918
▁보일러동	-11.6922
▁여성	-11.6922
▁공사시	-11.6922
▁조여	-11.6924
▁'21.	-11.6925
▁용수로	-11.6929
▁도서관	-11.6929
0-2011(	-11.693
오다가	-11.6932
▁고임	-11.6935
▁부분적	-11.6938
▁바닥상태	-11.6939
▁상대적	-11.6941
▁작업부위	-11.6943
▁돌리다	-11.6947
▁풀리는	-11.6947
▁나가는	-11.6952
▁전기실에서	-11.6953
▁공원	-11.6954
▁잡으	-11.6959
▁일치하지	-11.696
▁보드	-11.6962
단계별	-11.6963
▁Pile	-11.6967
상에서	-11.697
에스	-11.697
▁오후작업	-11.6971
▁클램프에	-11.6973
▁자르	-11.6974
▁차징카	-11.6976
▁박기	-11.6976
▁상수도관로	-11.6977
▁정리공	-11.6984
반적	-11.6985
▁반복작업에	-11.6985
▁잡아당기던	-11.6985
레	-11.6985
▁제거되지	-11.6989
▁******	-11.6991
▁압출시	-11.6993
▁중환자실	-11.6994
▁일어서다	-11.7001
▁겹치	-11.7001
발파	-11.7008
▁진료후	-11.7008
▁발열	-11.7014
▁급유	-11.702
▁눈부위	-11.7023
▁노력하	-11.7025
▁상에	-11.7028
▁보강하여	-11.7028
▁암거	-11.703
▁해체도중	-11.7031
▁군	-11.7032
▁드릴날	-11.7033
▁삼성	-11.7035
▁상승하는	-11.7036
지면	-11.7036
▁단차를	-11.704
▁종합병원	-11.7043
▁편리	-11.7053
▁닿으면	-11.7053
▁한명	-11.706
▁쌓던	-11.7061
▁연결작업중	-11.7066
▁꼬이	-11.7077
▁결속상태	-11.708
ag	-11.708
1.9	-11.7082
▁토사유실	-11.7086
로프에	-11.7087
자재와	-11.7088
2-1	-11.7089
▁조립이	-11.7091
▁쓰러	-11.7093
▁튀	-11.7102
▁화물칸	-11.7104
▁의식은	-11.7109
해둔	-11.711
▁타설면	-11.7114
▁날씨에	-11.7115
▁퇴근중	-11.7115
▁들어올리	-11.7118
출혈이	-11.7121
150)	-11.7123
크	-11.7129
▁업무와	-11.713
위지골	-11.713
▁철골조립	-11.7131
▁보조자	-11.7135
▁타설하기	-11.7142
▁반영한	-11.7143
▁절대	-11.7145
▁37	-11.7151
지가	-11.7155
▁전후에	-11.7155
▁철판자재	-11.7156
▁유의하여	-11.7157
▁반입하여	-11.716
▁좌측다리	-11.7166
기록	-11.7166
▁진행될	-11.7176
▁수동	-11.7179
벽면	-11.718
▁접안	-11.7188
소음성	-11.719
▁끝부위	-11.719
U	-11.7197
할때	-11.7204
▁등부위	-11.7206
▁놓기	-11.7206
사무실에서	-11.7209
▁인양하고	-11.7209
▁소견이	-11.7211
▁외측에	-11.7212
체계	-11.7213
▁헛딛으	-11.7215
듯	-11.7221
▁충돌방지	-11.7225
체제	-11.7227
▁분리작업	-11.7229
▁우려되	-11.7233
▁호소한	-11.7236
▁케이싱과	-11.7244
▁안쪽에서	-11.7245
▁재발	-11.7247
▁연결구간	-11.7249
주정도	-11.725
▁후송조치	-11.725
치수	-11.725
한테	-11.7252
▁들어올리려	-11.7257
▁올	-11.7259
▁임시야적장	-11.7262
▁방수로	-11.7263
결	-11.7268
▁이동시키기	-11.728
▁조이	-11.7289
▁수술예정	-11.7293
질병성	-11.7295
▁걸쳐져	-11.7296
시술	-11.7298
파악	-11.7301
장소에	-11.7301
▁자세에서	-11.7309
▁튀어나	-11.7311
▁굴착기와	-11.7312
사무실로	-11.732
▁끄지	-11.7326
▁고정불량	-11.7328
▁가장자리에	-11.7339
▁전체적	-11.7354
▁복도에	-11.7354
▁도로구간	-11.7357
▁사망하게	-11.7358
재의	-11.7364
이션	-11.7368
▁청소기	-11.738
▁놓던	-11.7384
중이며	-11.7386
▁도포작업	-11.7387
▁수립한	-11.7392
끼고	-11.7396
▁야적되어	-11.7405
▁공정이	-11.7406
▁701	-11.7409
▁전방으로	-11.7414
▁적어	-11.7421
▁부상재해	-11.7425
▁존재하	-11.7429
▁#3	-11.7438
물관	-11.7438
충	-11.7446
▁이들	-11.7448
▁중간층	-11.7452
▁괜찮	-11.7463
조립중	-11.7464
:55	-11.7465
▁설치되	-11.7468
▁확보한	-11.7476
▁시행하고	-11.748
통증	-11.7484
중이었으며	-11.7488
단을	-11.7492
▁2.3	-11.7497
▁등박스	-11.7508
철물	-11.7512
르며	-11.7516
▁상부트러스	-11.752
▁지중에	-11.7521
정리를	-11.7523
호에	-11.7526
▁조명기구	-11.7527
연결부	-11.7533
▁목공사	-11.7538
발가락이	-11.7538
▁늘	-11.7539
(14	-11.7542
58	-11.7542
암면	-11.7566
48	-11.757
▁중골	-11.7576
▁우측면	-11.7578
▁막으려	-11.7584
▁당겨지면	-11.7588
공간에서	-11.7593
▁넣기	-11.7595
▁구급대	-11.7595
▁도달	-11.7596
촬영을	-11.7603
보고서	-11.761
팔을	-11.7615
▁취하여	-11.7617
제작장에서	-11.7623
줄이	-11.7626
▁모아	-11.7627
▁2.9	-11.763
박기	-11.7639
▁유로폼자재	-11.764
▁걸지	-11.7644
▁차에	-11.7646
▁115	-11.7646
▁회복	-11.7647
성군	-11.7655
49	-11.7658
▁사항으로	-11.7658
▁정거장	-11.7663
기는	-11.7667
▁바닥철근에	-11.7669
연성	-11.7669
압에	-11.7675
담	-11.7682
▁형틀해체	-11.7698
-11	-11.7701
▁지붕위	-11.7712
▁내려주	-11.772
▁우마에	-11.7722
▁작업장치	-11.7724
▁공단에	-11.7727
상으로	-11.7735
요	-11.7739
▁하였다	-11.774
▁매뉴얼에	-11.7745
▁장갑에	-11.7758
일자	-11.7758
4.5	-11.7763
신호를	-11.7767
▁2,3	-11.7768
재질	-11.7769
▁곡	-11.7773
반출을	-11.7776
하는도중	-11.778
기사와	-11.7782
지점에	-11.7785
▁작업발판위에	-11.7794
▁풀어지	-11.7796
고임목	-11.7797
▁청소하던	-11.7803
▁가격해	-11.7807
▁입에	-11.781
▁일산	-11.7811
재해예방	-11.7811
▁절단할	-11.7813
▁타격하	-11.7816
▁보고한	-11.7821
▁토층	-11.7823
▁연결하던	-11.7826
협소	-11.7839
▁예정인	-11.7839
▁'21	-11.7852
상승	-11.7856
▁비계작업	-11.7856
▁인상작업	-11.7858
전달	-11.7859
미세골절	-11.7865
▁건네주	-11.7871
엠	-11.7873
가능	-11.7878
▁위험구간	-11.7879
파편이	-11.7882
▁구부리	-11.7891
신청	-11.7898
▁3.8	-11.7906
평동	-11.7909
▁순천	-11.7913
막이	-11.7917
▁가격당	-11.7918
극	-11.7918
▁당현장에	-11.7923
▁목공이	-11.7925
당사	-11.7926
자세로	-11.7927
▁에스	-11.793
▁시공되어	-11.7933
▁비산된	-11.7933
성토	-11.7934
▁벽사이	-11.7935
노출	-11.7943
▁기인	-11.7955
▁계획서에	-11.7959
진단결과	-11.7963
▁아산병원	-11.7969
두부	-11.797
후방	-11.7971
간선	-11.7974
’	-11.7974
선회	-11.7976
▁배관내	-11.7981
▁단차부에	-11.7981
감지기	-11.7982
케이싱	-11.7983
▁정기	-11.7985
▁엉켜있	-11.7985
▁외장	-11.7988
▁차륜	-11.7988
야적장	-11.799
▁천단부	-11.7992
앤	-11.7992
보험	-11.7997
방법에	-11.8
룸	-11.8
)]	-11.8002
쉬	-11.8004
밖	-11.8005
항타	-11.8005
▁확	-11.8008
끝	-11.8009
탱크	-11.8011
녹지	-11.8012
▁벗	-11.8013
텍스	-11.8018
▁위험방지	-11.8018
구배	-11.8018
Air	-11.8019
ᄋ	-11.802
▁내밀	-11.8022
자리	-11.8022
kN	-11.8022
▁설치높이	-11.8023
원의	-11.8025
생활관	-11.8026
ct	-11.8026
이중벽관	-11.8026
▁물러나	-11.8027
삼	-11.8027
견출	-11.8027
코아	-11.8027
Cable	-11.8029
링크	-11.8029
쇠	-11.803
▁작업반경에	-11.803
코킹	-11.8031
브라켓	-11.8031
호이스트	-11.8031
칸막이	-11.8032
플랜지	-11.8032
모래	-11.8032
CIP	-11.8033
집수정	-11.8033
수평재	-11.8033
OOO	-11.8033
“	-11.8034
이동식틀비계	-11.8034
미끄러져	-11.8034
강관비계	-11.8034
레미콘	-11.8034
아웃트리거	-11.8034
또는	-11.8034
핸드그라인더	-11.8034
MRI	-11.8034
사고경위	-11.8034
고소작업차	-11.8035
포설	-11.8035
흄관	-11.8035
쳤으나	-11.8035
요구	-11.8036
강우	-11.8036
수직재	-11.804
미만	-11.8042
▁참고하여	-11.8042
근육	-11.8043
수면	-11.8046
석고보드	-11.8046
사유	-11.8047
경위	-11.805
추후	-11.8052
운전석	-11.8052
끝부분	-11.8053
경력	-11.8054
당함	-11.8055
▁바깥	-11.8058
피부	-11.8059
관측	-11.806
지름	-11.8062
▁그로	-11.8063
▁500	-11.8065
▁뜯	-11.8068
태만	-11.8068
▁이의제기	-11.8071
장화	-11.8072
▁지열	-11.8073
정리정돈	-11.8079
▁분쇄	-11.8079
▁화물트럭	-11.8083
▁올라가기	-11.8084
oil	-11.8086
▁노상	-11.8087
▁어깨쪽	-11.8092
▁통제하여	-11.8094
▁비전기	-11.8098
4,5	-11.8098
▁확장공사	-11.8098
▁김해	-11.8099
▁버티	-11.8099
자상	-11.8099
▁6.1	-11.8101
▁위험장소에	-11.8103
▁크랙	-11.8107
▁안전조회	-11.8108
▁징크	-11.811
▁취하기	-11.811
다음	-11.8112
▁남겨	-11.8114
문이	-11.8115
▁시공중에	-11.8117
▁거푸집해체작업	-11.8118
면이	-11.8118
Pm	-11.812
스트	-11.812
▁양중시	-11.812
-15	-11.8121
▁작업상	-11.8124
내리	-11.8125
례	-11.8125
CC	-11.8126
▁살	-11.8128
키지	-11.8129
▁펼	-11.8129
▁사용해	-11.8132
▁뜨거운	-11.8136
▁고정중	-11.8137
▁벌어져	-11.8139
볼트가	-11.8143
▁찜	-11.8144
▁환	-11.8145
▁넘어지면	-11.8148
▁호출	-11.8149
to	-11.8152
▁구조계산	-11.8153
▁신우	-11.8154
▁방음	-11.8154
개월이	-11.8154
▁공조실	-11.8156
▁전선거치대	-11.8157
▁보험가입	-11.8157
즈	-11.8157
불똥	-11.8157
▁교통신호	-11.8157
▁그물망	-11.8157
able	-11.8158
▁익사	-11.8159
z	-11.816
▁절토	-11.816
▁차폐	-11.8161
▁순찰	-11.8161
▁닫힘	-11.8161
업중	-11.8161
▁하이드로	-11.8161
략	-11.8161
▁오르막	-11.8161
▁흡수	-11.8161
릿	-11.8162
▁마그네틱	-11.8162
▁퀵	-11.8162
Bracket	-11.8162
LINE	-11.8162
▁곤도라	-11.8162
▁공용욕실	-11.8162
▁내연기관	-11.8162
▁높낮이	-11.8162
▁떻	-11.8162
▁벤토나이트	-11.8162
▁세일이엔에스	-11.8162
▁소일네일링	-11.8162
▁수리시설개보수사업	-11.8162
▁실란트	-11.8162
▁어두운	-11.8162
▁전선펴기	-11.8162
▁지반지지력	-11.8162
▁커플링	-11.8162
▁콘트리트	-11.8162
▁파이프랙	-11.8162
▁폴리에틸렌	-11.8162
▁합성목재	-11.8162
▁호흡곤란	-11.8162
욱	-11.8162
츠	-11.8162
콤프레샤	-11.8162
편한세상	-11.8162
▁계약금액	-11.8162
▁유리운반대	-11.8162
됩니다	-11.8162
▁가설전등	-11.8162
▁인서트	-11.8162
▁노루발	-11.8162
▁리미트	-11.8162
▁장도리	-11.8162
▁쳐다보	-11.8162
놀이터	-11.8162
농협	-11.8162
▁접질렀다	-11.8162
▁일치하는지	-11.8162
lux	-11.8162
▁개보수사업	-11.8162
▁압축공기	-11.8162
▁강아치교	-11.8162
▁절토사면	-11.8162
▁부딛침	-11.8162
▁세트앙카	-11.8162
▁소흘	-11.8162
▁ooo	-11.8162
▁AREA	-11.8162
▁압밀침하	-11.8162
▁아침이슬	-11.8162
▁제반여건	-11.8162
▁세밀	-11.8162
▁커피	-11.8162
▁카리프트	-11.8162
▁관계전문가	-11.8162
▁한국전력	-11.8162
▁세부공정	-11.8162
▁연면적	-11.8162
▁염산	-11.8162
▁케이블트레이	-11.8162
▁용접불꽃	-11.8162
▁성애	-11.8162
▁진동로라	-11.8162
▁갔음	-11.8162
▁노즈	-11.8162
▁정상퇴근	-11.8162
▁발진기지	-11.8162
▁자가운전	-11.8162
▁튕김현상	-11.8162
▁민락	-11.8162
▁음주	-11.8162
▁유증기	-11.8162
▁뒤집어지면서	-11.8162
▁안전순찰	-11.8162
▁비상탈출구	-11.8162
▁튀어오름	-11.8162
▁부딪혔음	-11.8162
▁사모래통	-11.8162
▁가이드레일	-11.8162
▁가연성물질	-11.8162
Wheel	-11.8162
▁인장잭	-11.8162
▁절대치	-11.8163
▁배관조공	-11.8163
▁살포기	-11.8163
▁갱내	-11.8163
▁상재하중	-11.8163
▁완공	-11.8163
▁같으며	-11.8163
▁흐름도	-11.8163
▁손괴	-11.8163
▁아스콘포장	-11.8163
▁짚었음	-11.8163
▁급선회	-11.8163
▁앵글브레싱	-11.8163
▁탈출증	-11.8163
Hook	-11.8163
▁유도표지	-11.8164
▁전원차단	-11.8164
▁투광등	-11.8164
▁휘어져	-11.8164
▁기법	-11.8164
▁20~30	-11.8164
▁준비운동	-11.8164
▁록볼트	-11.8164
▁텐던	-11.8164
▁강행	-11.8164
▁장비운용	-11.8164
올라	-11.8164
▁로더	-11.8164
▁폭염	-11.8165
▁공간확보	-11.8165
▁미차단	-11.8165
~2.5	-11.8165
▁짧게	-11.8165
▁07:20	-11.8165
▁이음철판	-11.8165
▁다양	-11.8165
단붐	-11.8165
▁본건물	-11.8165
▁보조업무	-11.8166
▁판명됨	-11.8166
▁그리스	-11.8166
동앞	-11.8166
▁PKG	-11.8166
▁화공	-11.8166
▁잡음	-11.8166
▁몰탈통	-11.8166
▁파이프받침	-11.8166
▁화기사용	-11.8167
▁적하	-11.8167
▁배기가스	-11.8167
▁열배관	-11.8167
▁개별	-11.8167
▁마비	-11.8167
군데	-11.8167
▁못주머니	-11.8167
▁각입재	-11.8167
▁경사지붕	-11.8167
▁해체정리공	-11.8167
▁분해	-11.8167
▁전용철물	-11.8168
▁오거장비	-11.8168
nter	-11.8168
전용	-11.8168
빌라	-11.8168
▁흄관에	-11.8168
▁오산	-11.8168
▁테두리보	-11.8168
▁16:10	-11.8168
▁징후	-11.8169
▁수밀	-11.8169
▁손끼임	-11.8169
▁양중능력	-11.8169
▁정지시키고	-11.8169
▁침전조	-11.8169
▁걷어내	-11.8169
▁절연상태	-11.817
▁몸통	-11.817
▁상태였음	-11.817
▁회신	-11.817
▁해남	-11.817
▁화재감시자	-11.817
▁시트판	-11.817
▁분당	-11.817
▁자른	-11.817
코너스트러트	-11.8171
부자연스	-11.8171
소하천	-11.8171
▁퇴원함	-11.8171
▁정황	-11.8171
▁맹판	-11.8171
▁상현재	-11.8171
▁위치조정	-11.8171
▁지표수	-11.8171
▁위험범위	-11.8171
▁웨지	-11.8171
▁과속	-11.8173
▁파주시	-11.8173
형옹벽	-11.8173
▁소화전함	-11.8173
▁휀	-11.8173
▁털어내	-11.8173
▁비상정지	-11.8173
▁삼척	-11.8173
▁처리계획	-11.8173
▁배기휀	-11.8173
▁게비온	-11.8174
▁기왕증	-11.8174
▁기저질환	-11.8174
▁나일론	-11.8174
▁청탑지	-11.8174
▁컴	-11.8174
▁파주운정	-11.8174
▁아픔	-11.8174
▁데릭	-11.8174
▁폴딩도어	-11.8174
▁주택재개발	-11.8174
▁투하	-11.8174
▁평편	-11.8174
▁버클	-11.8174
▁차량운전자	-11.8174
▁풋스위치	-11.8174
▁지보재	-11.8174
▁진압	-11.8174
▁있었지만	-11.8174
▁소독	-11.8174
▁페이스트	-11.8174
▁늘어나	-11.8174
▁채취	-11.8174
▁잔가지	-11.8174
▁터짐	-11.8174
▁요추염좌	-11.8174
▁뛰어내린	-11.8175
▁섬유벨트	-11.8175
▁처리방법	-11.8175
▁리브	-11.8175
▁도료	-11.8175
▁완화	-11.8175
▁급결재	-11.8175
▁안전보건관리	-11.8175
▁굴절	-11.8175
▁마찰력	-11.8175
▁안전하카	-11.8176
▁수로박스	-11.8176
▁갈라	-11.8176
▁사고사례	-11.8177
▁잘못디뎌	-11.8177
▁사용하다	-11.8177
▁성토면	-11.8177
▁신축이음	-11.8177
▁양팔	-11.8177
▁후유증	-11.8177
▁치료비	-11.8178
▁전기용량	-11.8178
▁철물류	-11.8178
▁떼어내	-11.8178
▁08:20	-11.8178
▁운반경로	-11.8178
층계단	-11.8179
▁종류별	-11.8179
온도	-11.8179
▁다짐봉	-11.8179
▁타이바	-11.8179
▁미끄럼판	-11.8179
호장비	-11.8179
▁반영하여	-11.818
▁사전교육	-11.8181
▁정신	-11.8181
▁준공청소	-11.8181
▁구조요청	-11.8181
▁트러스교	-11.8182
▁넘어지고	-11.8182
▁따로	-11.8182
▁청사동	-11.8182
▁달리	-11.8182
▁호전	-11.8182
▁피재근로자	-11.8183
▁사전확인	-11.8183
▁몸상태	-11.8184
▁효	-11.8184
▁잡던	-11.8185
오르내릴	-11.8185
▁관로매설공사	-11.8185
하부에서	-11.8185
▁바닥타일	-11.8185
순환	-11.8185
▁재검사	-11.8185
▁지금	-11.8185
▁목재가공용	-11.8186
▁사실여부	-11.8186
▁흙손	-11.8186
▁조작반	-11.8187
▁바르고	-11.8187
▁북쪽	-11.8187
▁요구함	-11.8187
▁한계	-11.8188
▁무대	-11.8189
▁통증발생	-11.8189
▁방수시트	-11.8189
▁제관공	-11.8189
▁금전	-11.819
기술사	-11.819
▁전기설비	-11.819
85	-11.819
▁퇴근하였으나	-11.8191
▁사토	-11.8191
▁퇴근하였음	-11.8191
▁가드	-11.8192
▁알폼슬라브	-11.8192
▁대피장소	-11.8193
▁안전밸브	-11.8193
▁물호수	-11.8193
▁전동식	-11.8193
▁덩굴	-11.8194
▁농어촌	-11.8194
▁방식이	-11.8194
▁개방되어	-11.8194
▁공공하수처리시설	-11.8194
▁부천시	-11.8194
▁Column	-11.8194
▁SP	-11.8194
▁서포터	-11.8194
▁갈탄	-11.8194
▁점차	-11.8194
▁기압	-11.8194
NK	-11.8194
▁뒤집힘	-11.8195
▁테마	-11.8195
▁향하여	-11.8195
▁막힘	-11.8195
▁ACS	-11.8195
▁언덕	-11.8195
▁취함	-11.8195
▁잡아주고	-11.8195
▁동탄	-11.8195
▁상황이며	-11.8195
▁탑승구	-11.8196
▁사상	-11.8196
▁골절되었습니다	-11.8196
▁인발시험	-11.8197
▁편하중	-11.8198
~8	-11.8198
▁집게손가락	-11.8198
▁앉아있다	-11.8198
▁17:30	-11.8199
▁둘이	-11.8199
▁걸고리	-11.8199
▁광역상수	-11.82
▁사용목적	-11.82
▁공병	-11.82
▁감속기	-11.82
▁시설공사	-11.8201
▁후관동	-11.8202
풀	-11.8202
▁산소호스	-11.8203
▁철근밴딩기	-11.8203
▁하부지지대	-11.8203
▁돕던	-11.8204
▁담아서	-11.8204
▁두통	-11.8204
▁타격하였음	-11.8204
▁지진	-11.8204
▁가동하여	-11.8205
▁할석공	-11.8205
▁고려하고	-11.8206
▁굴	-11.8206
▁의무	-11.8206
▁그러나	-11.8208
▁상태였으며	-11.8208
▁뻗어	-11.8209
▁입원함	-11.8209
▁11>	-11.821
▁백호장비	-11.821
▁방수재	-11.8211
▁보안	-11.8211
▁조종수	-11.8212
그네식	-11.8212
질러	-11.8212
▁생태	-11.8213
▁유성	-11.8215
▁인장재	-11.8215
▁교량공사	-11.8215
▁우마위에서	-11.8215
▁화강석	-11.8215
▁지역주택조합	-11.8215
▁휘발유	-11.8215
▁필터	-11.8216
▁육교	-11.8216
▁끌어올리	-11.8216
▁처리됨	-11.8216
응력이	-11.8217
▁0.7	-11.8217
▁양끝	-11.8218
▁노반	-11.8218
▁말려들어가며	-11.8218
▁볼트해체	-11.8219
▁탄약고	-11.8219
▁발행한	-11.8222
▁보조원	-11.8222
▁고압전선로	-11.8223
▁환경적	-11.8223
▁파악하기	-11.8223
▁주입기	-11.8225
▁강관내부	-11.8225
▁측량기	-11.8225
▁기능공	-11.8226
▁안전설비	-11.8226
▁옆에있던	-11.8226
▁충돌됨	-11.8227
▁합성섬유	-11.8227
▁부착상태	-11.8228
▁타설량	-11.8228
▁가설보	-11.8228
▁기관실	-11.8228
▁하수급인	-11.8229
▁이런	-11.8229
▁넘기	-11.8229
▁골반뼈	-11.823
근로복지공단에	-11.8231
▁남양주	-11.8232
○○	-11.8232
하던도중	-11.8233
▁기존도로	-11.8233
▁사고당사자	-11.8234
▁Ch	-11.8234
▁체결하였으나	-11.8234
▁강진	-11.8234
▁통과하여	-11.8235
▁상부공	-11.8236
▁화학	-11.8237
▁곽	-11.8237
▁마개	-11.8237
▁Form	-11.8239
▁버스	-11.8239
▁회전축	-11.8241
▁밀폐공간에	-11.8241
5-1	-11.8241
▁뒷정리	-11.8241
▁보하부	-11.8242
▁좌회전	-11.8242
▁고도	-11.8244
▁구성된	-11.8245
▁비계기둥과	-11.8245
▁느꼈다	-11.8246
▁타설방법	-11.8246
▁나간	-11.8248
▁장점	-11.8248
▁골반부위	-11.8249
▁극	-11.8251
▁요동치	-11.8252
***)	-11.8254
북면	-11.8255
▁하겠습니다	-11.8258
▁중수골	-11.8259
▁불리	-11.8259
주장	-11.826
▁핸드레일과	-11.8261
▁ro	-11.8261
▁흘	-11.8262
▁고정철물	-11.8264
▁밀림방지	-11.8264
▁동작의	-11.8269
▁하역하기	-11.8271
▁이음부위	-11.8272
▁수원시	-11.8273
▁쉽고	-11.8273
▁경계선	-11.8274
▁뻗다	-11.8275
▁수직높이	-11.8275
▁결선	-11.8275
▁겹질리	-11.8277
▁목재거푸집	-11.8278
▁테이블	-11.8279
▁덕양	-11.8279
▁통신케이블	-11.828
▁타일공	-11.8281
▁묶고	-11.8281
▁장기	-11.8282
▁시공이음	-11.8283
평리	-11.8283
▁재해방지	-11.8284
▁변경하여	-11.8285
▁완료함	-11.8286
▁질의	-11.8289
▁처지	-11.8289
▁수위	-11.8289
▁타설장비	-11.829
▁재확인	-11.8292
▁전도위험	-11.8292
하우	-11.8294
▁절단석	-11.8294
▁학교	-11.8295
▁신호하	-11.8297
하단	-11.8299
(80	-11.8299
▁응급치료	-11.8304
고임	-11.8304
▁신호중	-11.8309
씌우기	-11.8309
(2020	-11.831
54	-11.8313
▁토압이	-11.8314
▁듯	-11.8314
▁중함마	-11.8314
)****	-11.8314
▁판단되어	-11.8314
▁교육하고	-11.8317
▁과적	-11.8318
▁실시하며	-11.8318
▁연결판	-11.8319
▁덕트설치	-11.8321
▁4.2	-11.8322
마자	-11.8323
▁암파쇄	-11.8325
▁직영근로자	-11.8326
▁장비별	-11.8327
▁필요할	-11.8327
▁흘러내리	-11.8328
▁물속	-11.8329
시점	-11.8329
▁가교	-11.833
▁안전상태	-11.8334
▁뒷편	-11.8334
▁개인용	-11.8335
▁할때	-11.8336
▁유지하기	-11.8337
▁부장	-11.8337
▁틀에	-11.8338
▁양주	-11.8338
희건설	-11.834
도로에서	-11.8341
▁운동	-11.8342
▁902	-11.8342
비해	-11.8342
▁파도	-11.8345
▁철근간격	-11.8346
▁p	-11.8347
공단	-11.8348
▁강관내	-11.8353
▁오른쪽발	-11.8354
▁데	-11.8356
▁안양	-11.8357
▁국가	-11.8361
▁운행하여	-11.8361
▁오른발목	-11.8361
▁∼	-11.8363
▁506	-11.8365
▁대전시	-11.8367
▁경찰서	-11.8367
▁추진공사	-11.837
▁청소작업중	-11.8371
사고이후	-11.8374
▁트	-11.8376
▁반력	-11.8378
▁명기	-11.838
▁통일	-11.8382
▁반도	-11.8383
파이프가	-11.8383
▁않다	-11.8386
▁기계장치	-11.8389
▁601	-11.8389
▁내국인	-11.8391
▁용접면	-11.8392
귀	-11.8394
▁중간난간대	-11.8396
면적	-11.8397
▁취하는	-11.8399
▁체결작업중	-11.8401
▁끼우던	-11.8402
▁(3)	-11.8403
다발을	-11.8403
▁수평도	-11.8405
▁사용된	-11.8406
▁개시	-11.8409
▁않으면	-11.8412
단계에서	-11.8414
▁얻어	-11.8414
▁운동장	-11.8418
▁위쪽으로	-11.842
▁해체자재	-11.8422
▁잡아당기다	-11.8422
▁시추	-11.8427
▁우측손가락	-11.8427
▁안전바	-11.8429
▁수평하중	-11.843
▁작업이동중	-11.843
▁번호	-11.8432
▁취하다	-11.8432
▁고정하려	-11.8434
▁충격함	-11.8434
철근배근	-11.8435
▁되었는지	-11.8436
부주의로	-11.8448
▁복공판에	-11.8453
대에	-11.8456
~1	-11.8464
▁상판에서	-11.8464
▁관내부	-11.8467
▁정지시키는	-11.8469
4-2	-11.848
▁체계적	-11.848
바르게	-11.8482
▁부지에서	-11.8483
9.	-11.8484
▁발등뼈	-11.8487
▁사천	-11.8488
지반위에	-11.8492
:30	-11.8496
도져	-11.8496
▁발생장소	-11.8497
▁도색	-11.8498
토질	-11.8499
중입니다	-11.85
었고	-11.8505
▁어깨부분	-11.851
안에	-11.8512
하겠다	-11.8512
▁이송중	-11.852
▁하강시키	-11.8521
▁2018	-11.8523
학교	-11.8524
요한	-11.8525
지거나	-11.853
▁강재와	-11.8531
대청	-11.8531
▁시작한	-11.8532
02)	-11.8545
▁수직상태	-11.8548
:20	-11.8549
▁수심	-11.8551
▁작업팀	-11.8554
▁안개	-11.856
천막을	-11.8561
▁배관공사	-11.8563
▁정비작업	-11.857
▁떨어졌	-11.8574
▁끊어	-11.8575
위험성	-11.8575
▁화물이	-11.8576
▁후문	-11.8578
▁신설공사	-11.8579
벽돌	-11.8579
▁배면에서	-11.858
▁설치하는중	-11.8588
▁아트	-11.8589
▁뒤편에	-11.859
▁상부자재	-11.8605
▁장치이	-11.8607
시공중	-11.861
▁이용해서	-11.861
▁측에서	-11.8611
▁길어	-11.8624
▁보유	-11.8625
▁내부작업	-11.8626
▁53	-11.8627
상부로	-11.8629
관리동	-11.8631
▁복층	-11.8635
ose	-11.8638
▁트럭이	-11.8639
▁급한	-11.8648
▁비상대피	-11.865
▁철선으로	-11.8652
=2.	-11.8655
▁단관파이프가	-11.8657
▁버켓으로	-11.8663
운동	-11.8663
전도방지용	-11.8671
1.0	-11.8673
3.0	-11.8676
▁근무하다	-11.8676
▁답단에	-11.868
5-5	-11.8683
▁오른쪽팔	-11.8684
▁상기인	-11.8687
▁홍성	-11.8689
▁하부트러스	-11.8691
▁래	-11.8692
치는	-11.8697
▁행	-11.8698
▁하차하여	-11.8702
▁꺼내	-11.8704
이었으며	-11.8705
이지만	-11.8706
▁감김	-11.8707
▁모서리부분	-11.8712
▁입회하	-11.8719
▁적재하	-11.8722
▁해체계획	-11.8722
▁전도한	-11.8726
▁복합적	-11.8728
▁보상	-11.8739
있	-11.8741
▁덮어놓	-11.8741
▁훅에	-11.8741
▁고정목	-11.8743
▁46	-11.875
일부	-11.8754
▁넘어지던	-11.8757
▁부대시설	-11.8758
▁과장	-11.8762
부로	-11.8765
:45	-11.8765
레스	-11.8774
▁용단작업	-11.8774
주기	-11.8778
4.7	-11.8779
▁나왔	-11.8783
발생일시	-11.8784
▁산성	-11.8788
확인후	-11.879
주일	-11.8791
▁11/2	-11.8792
▁갈비	-11.8792
1-1	-11.8799
▁측에	-11.8806
▁고여	-11.8812
▁수직방향	-11.8813
말	-11.8825
▁하단으로	-11.8828
▁비계기둥에	-11.8831
디디면서	-11.8831
▁체인이	-11.8835
▁보강한	-11.8836
▁동남	-11.8836
▁잠수기	-11.8838
000)	-11.884
주고	-11.8845
▁지휘에	-11.8847
▁경량철골	-11.8851
▁가복공	-11.8854
관리자와	-11.8854
0.9	-11.8855
rd	-11.8858
▁근무하던	-11.8871
▁반출하	-11.8883
줄에	-11.8885
가구	-11.8886
▁상판에	-11.8887
▁작업방향	-11.8892
▁03.	-11.8893
▁출입하여	-11.8895
▁대림	-11.8895
▁내장목공	-11.8898
▁커팅작업	-11.8898
경사면	-11.8901
돌이	-11.8904
oe	-11.8909
▁살피지	-11.891
▁데크설치	-11.8921
▁풀었	-11.8921
▁2019.12.1	-11.8923
▁슬	-11.8925
▁당시에	-11.8925
▁패	-11.8926
아무도	-11.8926
▁지연됨	-11.8927
▁놓으면	-11.8928
▁크레인작업	-11.8937
▁운반구에	-11.8938
▁한전	-11.894
조적	-11.8945
▁311	-11.8955
▁수정작업	-11.8957
산건설	-11.8958
▁틀어지	-11.8966
=3.	-11.898
▁사항들	-11.8987
▁데크플레이트에	-11.8989
시공을	-11.8996
▁기대놓	-11.9003
▁강남	-11.9006
믹서기	-11.901
기기	-11.9025
▁이동구간	-11.9027
일이상	-11.9027
-12	-11.9031
▁이동하며	-11.9031
과장	-11.9031
~4	-11.9032
없는	-11.905
택	-11.9053
불	-11.9055
나와	-11.9055
▁폭풍	-11.9056
자체	-11.906
사고발생경위	-11.9065
있음	-11.9073
▁동의	-11.9085
▁낙하물방지	-11.9091
▁배관연결	-11.9091
▁압축	-11.9092
▁강풍이	-11.9092
▁시공부위	-11.9095
▁추진시	-11.9096
미장작업	-11.9096
하는중	-11.9101
▁공사구역	-11.9104
56	-11.9108
▁도급사	-11.9112
ᄋᄋ	-11.9117
동화	-11.9122
청사	-11.9129
▁걸침	-11.913
▁배근되어	-11.9131
보링	-11.9136
▁조작자	-11.914
▁주위에서	-11.9143
▁힘들	-11.9144
▁디딤발	-11.9147
▁돌리는	-11.9156
▁그레이팅에	-11.9156
▁다쳤	-11.9158
▁경미	-11.9161
▁천막설치	-11.917
장비와	-11.9179
배근	-11.9189
▁경사로에	-11.9194
운전원이	-11.9201
상수도	-11.9207
사고인지	-11.9211
▁상의	-11.9212
비계위에서	-11.9215
▁부식방지	-11.9229
▁산재자	-11.9229
옆에서	-11.9233
▁공극	-11.9236
8-2011(	-11.9244
았음	-11.9246
▁f	-11.9247
화물	-11.9257
5-2	-11.9258
진건설	-11.9258
▁형틀설치	-11.9259
▁의자에	-11.9264
자고	-11.9266
과정에	-11.9267
▁인양후	-11.9267
#	-11.9268
조에	-11.9269
관과	-11.9269
ry	-11.9272
근무	-11.9276
▁작업높이	-11.9277
▁남자	-11.9281
▁트랙에	-11.9286
▁빼기	-11.9287
개조	-11.9288
l	-11.9289
▁추락하지	-11.929
▁절곡작업	-11.9291
사인	-11.9293
▁있었	-11.9295
▁접근하	-11.9295
▁320	-11.93
▁이동식사다리	-11.9304
▁머리위	-11.9306
▁주입을	-11.9318
▁운전석에	-11.9321
▁적치장	-11.9323
▁210	-11.9326
▁인지하였음	-11.9326
▁시방서에	-11.9334
▁분기	-11.9338
▁슈에	-11.9346
)2)	-11.9348
훈	-11.9357
▁2020.07.	-11.9361
▁법면에	-11.9364
▁걸다	-11.9366
▁펼쳐	-11.9367
연구원	-11.937
사항이	-11.9371
▁다이	-11.9374
치가	-11.938
▁전기발파	-11.9382
▁취급소	-11.9387
▁선단부	-11.9387
▁반입시	-11.9388
▁우회	-11.9388
▁취하던	-11.939
▁흐트러	-11.9396
착용	-11.9399
해져	-11.94
철근대차	-11.9404
대학병원	-11.9409
경사	-11.9412
지역에	-11.9415
▁합의	-11.9423
▁구급차를	-11.9424
싱	-11.9429
먹	-11.9432
▁다르	-11.9438
▁회	-11.9439
`	-11.9441
▁꺾	-11.9446
천막	-11.9449
▁적용된	-11.9453
*)	-11.9456
스라브	-11.9459
▁굴착면에	-11.946
패드	-11.9461
▁중이며	-11.9461
▁성토부	-11.9465
▁첨부하여	-11.9471
▁젖	-11.9473
조종기	-11.9473
말뚝	-11.9476
책	-11.9476
선반	-11.9478
1.1	-11.9479
도어	-11.9481
▁중환자실에	-11.9483
▁데크슬라브	-11.9486
▁응급실에	-11.9493
imb	-11.9493
78	-11.9495
이라고	-11.9496
J	-11.9498
맞아	-11.9503
▁벗겨	-11.9512
▁쌓아놓	-11.9514
작업후	-11.9514
▁바꾸	-11.9521
골절상	-11.9525
거푸집에	-11.9525
수목	-11.953
▁경감	-11.9536
중국인	-11.9537
탈락	-11.954
소리	-11.9541
▁구멍이	-11.9542
철거작업중	-11.9543
정비	-11.9545
ear	-11.9551
수직	-11.9551
허	-11.9551
거푸집동바리	-11.9552
용수	-11.9555
▁연결부에	-11.9557
▁작업대기중	-11.9558
안전망	-11.9558
개요	-11.9562
네	-11.9563
진입	-11.9567
▁차징카에	-11.9568
하수관	-11.9569
▁보에서	-11.9574
비계공	-11.9575
▁부딪혔으	-11.9576
혈관	-11.9577
투	-11.958
솔리	-11.9584
건설공사	-11.9586
▁찾아	-11.9588
정건설	-11.9592
▁낙하해	-11.9596
▁크레인기사	-11.9597
발목	-11.9605
베	-11.9609
▁완	-11.9609
였습니다	-11.9609
개선사업	-11.961
▁파워	-11.9613
케이지	-11.9615
▁2019.10.1	-11.9618
▁안전휀스	-11.962
▁부딛	-11.9621
종류	-11.9622
▁구부러	-11.9622
심한	-11.9626
▁꺽	-11.9627
담당	-11.9632
▁달려	-11.9639
보조	-11.9646
상단부	-11.9646
▁금속공	-11.9647
숙	-11.9648
결속	-11.9649
Stopper	-11.965
Lux	-11.9651
밸	-11.9652
양생	-11.9656
▁인식하	-11.9656
카고	-11.9656
▁전방에	-11.9662
끼여서	-11.9664
밴딩	-11.9667
범	-11.9667
관리자	-11.9668
직원	-11.9669
뜨	-11.967
1.4	-11.9671
아파트건설공사	-11.9673
오거	-11.9673
하는순간	-11.9673
조절	-11.9674
▁제관	-11.9675
▁배치되어	-11.9675
승강로	-11.9675
피복	-11.9676
▁공사작업	-11.9676
콘크리트공사	-11.9677
1.6	-11.9678
도달기지	-11.968
깨기	-11.9681
▁바로잡	-11.9683
CO	-11.9684
Sheet	-11.9685
pile	-11.9686
기능	-11.9686
덮기	-11.9687
▁협	-11.9688
Shoe	-11.9688
▁피하여	-11.969
종골	-11.969
제일병원	-11.969
테이블	-11.969
통신케이블	-11.9691
중족골	-11.9692
덧	-11.9692
알	-11.9692
개착	-11.9692
깔목	-11.9692
뿐	-11.9693
투바이	-11.9694
보호구	-11.9695
▁부하	-11.9695
배전반	-11.9695
Plate	-11.9696
깔기	-11.9696
외곽	-11.9696
NO	-11.9696
면허	-11.9696
세우기	-11.9697
하였지만	-11.9697
▁중정	-11.9697
찔림	-11.9697
모양	-11.9697
운영	-11.9697
금강	-11.9697
생명줄	-11.9697
달포대	-11.9698
매달기	-11.9698
베이스	-11.9698
반복적	-11.9698
플라스틱	-11.9698
비닐	-11.9699
휴대용	-11.9699
윈치	-11.97
▁현장인근	-11.97
▁이어	-11.97
휴식	-11.97
쓰레기	-11.97
근골격계	-11.97
특별	-11.97
데크플레이트	-11.97
응급실	-11.97
컨테이너	-11.97
▁증설	-11.97
대퇴부	-11.97
일용직	-11.97
체크	-11.97
찢어짐	-11.97
끼어	-11.9701
미끄러지면서	-11.9701
마스트	-11.9701
외측	-11.9701
미착용	-11.9701
바람	-11.9702
▁정위치에	-11.9702
트렌치	-11.9702
매트	-11.9703
밟고	-11.9703
물통	-11.9703
시스템동바리	-11.9703
해머	-11.9704
복도에서	-11.9704
요추부	-11.9704
킴	-11.9704
철골빔	-11.9705
통원	-11.9706
착지	-11.9706
크기	-11.9707
▁본사에	-11.9712
▁골조작업	-11.9713
향후	-11.9714
트레	-11.9717
전체	-11.9717
현장소장	-11.9717
▁넘어지	-11.9718
▁방향에서	-11.9721
TS	-11.9724
방수공사	-11.9725
교대	-11.9725
바닥이	-11.9726
본부	-11.9727
소형	-11.9728
종합병원	-11.9729
▁정리하여	-11.973
설치중	-11.9733
상태임	-11.9737
▁들다	-11.9741
▁평탄작업	-11.9743
고덕	-11.9745
▁펴고	-11.9747
▁경비실	-11.975
▁레	-11.9752
진입로	-11.9753
상판	-11.9754
대병원	-11.9754
▁모습	-11.9754
▁콘크리트면에	-11.9756
촌	-11.9756
▁부딧	-11.976
럽	-11.9762
▁틀어	-11.9763
다발	-11.9765
▁외관상	-11.9768
원형	-11.9771
보도	-11.9774
설치작업	-11.9775
파단	-11.9779
사고발생장소	-11.9781
빛	-11.9782
▁외벽에서	-11.9783
▁기록하여	-11.9784
▁투기장	-11.9784
분경나	-11.9792
센티	-11.9793
▁효과	-11.9794
▁탐	-11.9795
44	-11.9798
▁유자격	-11.9799
▁레미콘타설	-11.9801
▁지표면에	-11.9804
▁타공정	-11.9805
기계실	-11.9806
▁사선	-11.9806
▁보받이	-11.9808
▁올라가려	-11.9811
읍니다	-11.9811
르는	-11.9814
0.6	-11.9815
께	-11.9818
▁떨	-11.9819
▁제거하다	-11.982
롭게	-11.9821
▁쌍	-11.9822
▁휠라	-11.9823
▁골정	-11.9824
▁사보강	-11.9824
뉴얼	-11.9827
밥	-11.9827
▁Lift	-11.9828
▁아킬레스	-11.9828
▁휘니셔	-11.9828
▁초기대응	-11.9828
▁거푸	-11.9828
▁오랜	-11.9828
▁풋	-11.9828
컬	-11.9828
▁헤머	-11.9828
▁하부근로자	-11.9828
Slee	-11.9828
▁롯드	-11.9828
ator	-11.9828
lashing	-11.9828
span	-11.9828
▁support	-11.9828
▁까치발	-11.9828
▁돌맹이	-11.9828
▁랩핑	-11.9828
▁머캐덤	-11.9828
▁블레이드	-11.9828
▁쇳조각	-11.9828
▁스트롱백	-11.9828
▁스판크리트	-11.9828
▁아세틸렌	-11.9828
▁압력조정기	-11.9828
▁언더피닝	-11.9828
▁업지손가락	-11.9828
▁오수중계펌프장	-11.9828
▁오엔건설	-11.9828
▁용접방화포	-11.9828
▁움직일	-11.9828
▁유러폼	-11.9828
▁전동핸드카	-11.9828
▁초음파	-11.9828
▁취사식당	-11.9828
▁치장벽돌	-11.9828
▁쿠션재	-11.9828
▁하이랜더	-11.9828
▁허용적재하중	-11.9828
▁후방카메라	-11.9828
▁휴먼에러	-11.9828
졸음쉼터	-11.9828
크롤라드릴	-11.9828
파상풍	-11.9828
▁40~50	-11.9828
▁RAMP	-11.9828
▁골재분리기	-11.9828
▁날인거부	-11.9828
▁다섯번째	-11.9828
▁드롭	-11.9828
▁큐브앤	-11.9828
▁화이트금속	-11.9828
알류미늄	-11.9828
▁견갑골	-11.9828
▁도시환경정비사업	-11.9828
▁되메움	-11.9828
▁메탈라스	-11.9828
▁물러서	-11.9828
▁연삭날	-11.9828
▁영통자이	-11.9828
라운드	-11.9828
▁무수축	-11.9828
▁석션작업	-11.9828
▁시다볼트	-11.9828
▁화스너	-11.9828
▁빗맞아	-11.9828
▁전형적	-11.9828
▁성소병원에	-11.9828
▁교차가새	-11.9828
▁금풍건설	-11.9828
Sliding	-11.9828
▁빈틈	-11.9828
▁일용인부	-11.9828
ction	-11.9828
▁규준틀	-11.9828
▁벨트슬링	-11.9828
▁엔진양수기	-11.9828
▁모래주머니	-11.9828
▁횡배수관	-11.9828
▁겹친	-11.9829
▁접질렸다	-11.9829
▁휘말	-11.9829
▁WWT	-11.9829
센치	-11.9829
▁이음새	-11.9829
▁주차트레이	-11.9829
▁카고트럭	-11.9829
▁후사경	-11.9829
됐으나	-11.9829
▁부딧힘	-11.9829
▁북서측	-11.9829
▁사면보호	-11.9829
▁혈종	-11.9829
▁대퇴골	-11.9829
▁방책	-11.9829
▁폐콘	-11.9829
▁석탄	-11.9829
▁흘러내림	-11.9829
건설사업관리자	-11.9829
▁부딛친	-11.9829
▁수전설비	-11.9829
▁왼족	-11.9829
▁흔들거리	-11.9829
▁주치의	-11.9829
▁도갱	-11.9829
▁뛰어내렸으나	-11.9829
▁건강진단	-11.9829
▁경과관찰	-11.9829
▁서리로	-11.9829
▁차선변경	-11.9829
▁달대	-11.9829
▁오거드릴	-11.9829
▁법면부	-11.9829
▁펀치	-11.9829
▁테이블폼	-11.9829
▁강재토류판	-11.9829
▁전단강도	-11.9829
▁핸드폰	-11.9829
▁굄목	-11.9829
▁검정	-11.9829
▁오르막길	-11.9829
▁절반	-11.9829
▁온도변화	-11.9829
▁날짜	-11.9829
▁체류	-11.9829
▁복공철판	-11.9829
▁LNG	-11.9829
▁걸침길이	-11.9829
▁넘어졌습니다	-11.9829
▁무근콘크리트	-11.9829
▁도로경계석	-11.9829
▁패널옹벽	-11.9829
▁크롤러크레인	-11.9829
드라이비트	-11.9829
▁넘여져	-11.9829
▁내렸고	-11.9829
▁인접대지	-11.9829
▁달기로프	-11.9829
▁아크	-11.9829
▁원동기	-11.9829
▁10~15	-11.9829
▁맞았음	-11.9829
▁양극	-11.9829
▁수평구명줄	-11.9829
▁도모	-11.983
▁조경식재	-11.983
▁헌치부	-11.983
▁어지러움증	-11.983
▁기댄	-11.983
▁만족	-11.983
▁토압지지대	-11.983
▁기억	-11.983
▁두개골	-11.983
▁후진경보기	-11.983
▁구룡	-11.983
형개거	-11.983
▁있으니	-11.983
▁데임	-11.983
▁거쳐	-11.983
대신기공	-11.983
▁가설안전난간대	-11.983
▁고려대학교	-11.983
▁방화포	-11.983
▁달기기구	-11.983
▁스파	-11.983
▁지연되었음	-11.983
▁말림	-11.983
프라임	-11.983
▁인양능력표	-11.983
▁팅기	-11.983
▁흙더미	-11.983
▁방수액	-11.983
▁주행속도	-11.983
▁역류	-11.9831
▁이상토압	-11.9831
▁전동기계기구	-11.9831
카드	-11.9831
▁뒤집어	-11.9831
▁소부재	-11.9831
방호장치	-11.9831
▁핸들러	-11.9831
▁조급	-11.9831
▁지축	-11.9831
▁피난계획	-11.9831
▁추정되나	-11.9831
▁슬링로프	-11.9831
다가구주택	-11.9832
▁통보받음	-11.9832
▁입증	-11.9832
▁구동축	-11.9832
▁제수변	-11.9832
▁안전감시단	-11.9832
▁막음	-11.9832
▁거스	-11.9832
▁미파악	-11.9832
▁산업안전보건	-11.9832
Sea	-11.9832
▁표준방법	-11.9832
▁부석제거	-11.9832
▁천막보양	-11.9832
▁재건축	-11.9832
▁압축력	-11.9832
▁페인트칠	-11.9832
우므로	-11.9832
▁미부착	-11.9832
▁통보받아	-11.9832
▁철골세우기	-11.9832
▁송풍기	-11.9833
▁접질러짐	-11.9833
▁전원스위치	-11.9833
▁환기창	-11.9833
▁벗겨져	-11.9833
urn	-11.9833
▁상하수도관	-11.9833
▁대나무	-11.9833
▁오래	-11.9833
▁외피	-11.9833
▁미시행	-11.9833
▁물기제거	-11.9833
▁일체화	-11.9833
▁고저차	-11.9833
▁08:40	-11.9833
▁07:50	-11.9834
▁출혈발생	-11.9834
▁영화	-11.9834
체육센터	-11.9834
▁교행	-11.9834
▁13:20	-11.9834
▁운항	-11.9834
▁키락	-11.9834
▁트랜치	-11.9835
▁압착됨	-11.9835
▁턱밑	-11.9835
▁주주재	-11.9835
▁진공	-11.9835
▁북진	-11.9835
▁입게됨	-11.9835
▁30°	-11.9835
짜리	-11.9835
▁#4	-11.9835
▁받침기둥	-11.9836
▁고체	-11.9836
▁자재창고	-11.9836
▁주장하나	-11.9836
▁치료중입니다	-11.9836
▁응급기관	-11.9836
▁삽교	-11.9837
▁참여	-11.9837
▁트랜치관	-11.9837
▁복숭아	-11.9837
▁15:20	-11.9837
▁하부케이지	-11.9837
▁소유주	-11.9837
▁가져야	-11.9838
▁저항치	-11.9838
▁국립	-11.9838
▁회전반경내	-11.9838
▁방폭	-11.9838
▁기계굴착	-11.9839
▁흐르	-11.9839
▁지층상태	-11.9839
▁소방시설	-11.9839
택지개발사업	-11.9839
▁폭발성	-11.9839
▁계측계획	-11.9839
▁안전운전	-11.984
▁원통	-11.984
▁미달	-11.984
▁지수	-11.984
▁CDM	-11.984
▁공구통	-11.9841
▁수리시설	-11.9841
라이트	-11.9841
▁홀더선	-11.9841
▁트랜	-11.9841
▁연결호스	-11.9841
▁정착구	-11.9841
▁너울	-11.9841
▁행하고	-11.9842
ever	-11.9842
▁기계설비공사	-11.9842
▁흠	-11.9842
▁발바퀴	-11.9842
▁균형상실	-11.9842
▁회전근계	-11.9842
바퀴에	-11.9843
▁스펀지	-11.9843
▁파트너	-11.9843
▁뇌경색	-11.9843
▁쇠사슬	-11.9843
▁큐베컨	-11.9843
▁튼튼	-11.9843
▁해운대	-11.9843
▁Pulley	-11.9843
▁못뽑이	-11.9843
▁테트라	-11.9843
▁잔손보기	-11.9843
▁조립강주	-11.9843
▁가슴통증	-11.9843
▁세파볼트	-11.9843
▁갱문	-11.9843
▁직업병	-11.9843
▁냉동창고	-11.9843
▁디딤대	-11.9843
▁스마트	-11.9843
▁핸드그라인드	-11.9843
▁코팅합판	-11.9843
▁유량계	-11.9843
▁좌측눈	-11.9843
▁비파괴	-11.9843
ace	-11.9843
▁원위부	-11.9843
▁충전드릴	-11.9843
▁헤라	-11.9843
▁그라이더	-11.9843
▁맞춤	-11.9843
▁공용홀	-11.9843
▁손상유무	-11.9844
▁조여야	-11.9844
▁업무상질병	-11.9844
▁유사	-11.9844
▁연령	-11.9844
▁있었는데	-11.9844
▁추정되며	-11.9844
▁폭력	-11.9844
rail	-11.9844
▁발진대	-11.9844
▁13:10	-11.9844
▁쪽망	-11.9844
▁이송조치	-11.9844
▁고열	-11.9845
▁올려져	-11.9845
▁감당	-11.9845
▁제어하지	-11.9845
▁접근하다	-11.9845
인대파열	-11.9845
▁귀가하였으나	-11.9845
▁정착력	-11.9845
▁직종	-11.9845
▁작업공종	-11.9845
▁절토면	-11.9845
▁인장강도	-11.9846
침전지	-11.9846
▁노폭	-11.9846
▁쓰러져있는	-11.9846
▁발목부상	-11.9847
▁닫던	-11.9847
▁감식	-11.9847
▁Cl	-11.9847
▁09:40	-11.9847
▁튀지	-11.9847
▁이동식대차	-11.9847
▁10:20	-11.9848
▁전단철근	-11.9848
▁아래팔	-11.9848
▁밟자	-11.9848
▁좌측늑골	-11.9848
▁모선	-11.9848
▁재해발생사실	-11.9849
▁실시하되	-11.9849
▁냉동	-11.9849
▁계단통로	-11.985
▁외래	-11.985
▁주행체	-11.985
▁14:20	-11.985
▁신발장	-11.985
▁시공조건	-11.985
▁7~8	-11.985
▁대피소	-11.985
▁지급하여	-11.9851
▁외장재	-11.9851
▁측점	-11.9851
ump	-11.9851
▁처분	-11.9851
▁터널외부	-11.9851
발생한	-11.9851
▁튀어오르면서	-11.9851
▁사망원인	-11.9852
▁좋은	-11.9852
▁천막에	-11.9852
▁경고등	-11.9853
▁있었음에도	-11.9853
▁가구자재	-11.9853
▁15:50	-11.9854
▁타공종	-11.9854
▁데크판	-11.9854
▁생명	-11.9854
▁보형틀	-11.9854
.0+5	-11.9854
▁절단면에	-11.9855
▁걸어주고	-11.9855
▁출고	-11.9855
▁43	-11.9856
▁폭발이나	-11.9856
▁상하차	-11.9856
▁준수사항	-11.9856
▁곡선	-11.9856
▁단위작업	-11.9857
▁멍에제	-11.9857
▁바다	-11.9857
▁층별	-11.9857
▁협력	-11.9857
▁태화	-11.9857
▁인지하였으며	-11.9859
▁20%	-11.9859
▁냉각	-11.9859
▁신원	-11.9859
▁철심	-11.986
▁겹질러	-11.986
▁안전지대	-11.986
▁커터날	-11.986
▁풍화암	-11.986
▁이동동선	-11.9861
▁외벽거푸집	-11.9861
▁축선	-11.9861
▁선적	-11.9861
▁프로	-11.9861
▁여자	-11.9862
▁결점	-11.9862
공항	-11.9863
▁외쪽	-11.9863
.2)	-11.9864
▁옹벽블록	-11.9864
▁0.1	-11.9865
▁방호관	-11.9865
▁일광	-11.9866
▁팽창	-11.9866
▁발판고리	-11.9866
▁바른	-11.9866
▁지보설치	-11.9866
▁돌발적	-11.9867
▁항문	-11.9867
▁모재	-11.9867
▁라바콘	-11.9867
▁환풍기	-11.9867
▁Slab	-11.9867
▁깡통	-11.9867
▁주식회사	-11.9867
▁차집관로	-11.9867
▁척골	-11.9867
▁jack	-11.9867
▁바이스	-11.9867
▁후방십자인대	-11.9867
▁휴대폰	-11.9867
▁현황도	-11.9867
▁ᄀ자	-11.9867
▁진접	-11.9867
▁LPG	-11.9867
▁메디	-11.9867
▁건강검진	-11.9867
▁남원	-11.9867
▁영덕	-11.9868
▁꽃	-11.9868
▁뚝	-11.9868
▁혈압	-11.9868
▁명칭	-11.9868
▁CRC	-11.9868
▁자주식	-11.9868
미터이상	-11.9869
▁운반통로	-11.9869
▁부스러기	-11.9869
▁60°	-11.9869
▁임팩트	-11.987
▁빙판	-11.987
▁수평제	-11.987
▁수도배관	-11.9871
▁수축	-11.9871
▁미해체	-11.9871
▁구미	-11.9872
▁사보	-11.9873
▁파손됨	-11.9873
▁규명	-11.9873
▁등받이	-11.9873
▁위치이동	-11.9873
▁굴착방법	-11.9874
▁공구박스	-11.9874
▁발파공	-11.9874
▁15:40	-11.9874
▁추진방향	-11.9875
▁대차바퀴	-11.9875
▁가기위해	-11.9875
▁항공	-11.9875
(600*1200)	-11.9875
▁재해발생함	-11.9875
▁연골판	-11.9876
▁고인물	-11.9876
▁다른곳	-11.9876
▁끼우고	-11.9877
▁간편	-11.9877
▁통영	-11.9877
▁조립봉	-11.9878
▁고정시	-11.9878
▁디디는	-11.9878
개당	-11.9879
▁뒤돌아서	-11.9879
▁발견함	-11.9879
▁안됨	-11.988
조사중	-11.988
▁혼합기	-11.988
▁찾는	-11.988
▁결정하여	-11.988
▁안전기둥	-11.988
▁휘청거리	-11.9881
▁사용기계	-11.9881
▁걸려넘어짐	-11.9881
▁왼쪽허벅지	-11.9881
▁Tray	-11.9885
▁메달	-11.9886
▁수술함	-11.9886
▁집중되어	-11.9887
▁사용기준	-11.9887
▁양구	-11.9887
안동	-11.9887
▁화성	-11.9888
▁주사	-11.9888
▁천장공사	-11.9889
▁엉덩이뼈	-11.9889
▁재해당일	-11.9889
▁흘러나	-11.989
▁이격하여	-11.989
▁각입	-11.989
▁시키려	-11.9891
▁가공하기	-11.9891
▁평지	-11.9891
급계획	-11.9891
코리아	-11.9891
▁피하고	-11.9893
▁궁	-11.9893
▁서원토건	-11.9893
▁ON	-11.9893
▁금하고	-11.9893
▁소유	-11.9893
▁괴	-11.9893
수준	-11.9894
▁증후군	-11.9894
▁지질조사	-11.9894
▁가까이에	-11.9894
▁안전작업방법	-11.9895
▁주배관	-11.9896
▁출발하여	-11.9898
(0.5	-11.9898
▁계단거푸집	-11.9898
▁큰돌	-11.9898
▁가옥	-11.99
▁인장기	-11.99
다리가	-11.99
▁삽입하	-11.9901
▁사망진단서	-11.9902
▁송전선로	-11.9902
▁목표	-11.9903
하로	-11.9903
▁작업개요	-11.9903
▁한정	-11.9904
▁지지로프	-11.9904
▁영동병원	-11.9904
▁사재	-11.9905
▁충주	-11.9905
시경어디서	-11.9906
▁온실	-11.9906
▁꺼내는	-11.9907
▁빼려다	-11.9907
▁아니함	-11.9908
▁10>	-11.9909
▁무시한	-11.9909
▁정착장	-11.991
려는중	-11.9911
▁높고	-11.9911
▁강교	-11.9912
▁단차부위에	-11.9912
▁바탕으로	-11.9912
▁재검토	-11.9913
▁예정입니다	-11.9915
▁드라이버	-11.9918
▁GATE	-11.9918
▁다짐도	-11.9918
▁차도가	-11.9919
▁변색	-11.9919
▁압착사고	-11.9919
▁CV	-11.9919
▁이상이거나	-11.992
▁적재량	-11.992
팀장	-11.992
▁철근하역	-11.9921
▁상해사고	-11.9922
삼보	-11.9922
▁시스템자재	-11.9923
▁보관소	-11.9925
▁유지하거나	-11.9925
▁직접원인	-11.9925
▁구조물로	-11.9926
▁계속적	-11.9926
▁분포	-11.9926
▁송장	-11.9928
▁판넬공	-11.9929
▁추진하기	-11.9931
▁업무상재해	-11.9931
충돌증후군	-11.9933
▁가설물	-11.9937
▁비계구조물	-11.9938
▁왔으며	-11.9938
▁무의식중	-11.9939
▁항행	-11.9939
▁수집	-11.994
▁좌측가슴	-11.994
▁다짐장비	-11.9941
▁해석	-11.9941
▁앉음	-11.9942
▁논	-11.9942
▁지켜보자	-11.9942
▁살이	-11.9943
▁〈	-11.9944
(1.6	-11.9945
▁가공대	-11.9945
경에	-11.9947
▁1206	-11.9947
대지	-11.9948
▁베인사고	-11.9949
▁부딛치	-11.9949
▁승강발판	-11.995
▁목뼈	-11.9951
▁내려가서	-11.9952
▁설비공사	-11.9952
par	-11.9952
▁혼합물	-11.9954
장으로	-11.9957
▁세워두	-11.9958
▁콘크리트블록	-11.9958
▁경적	-11.9958
▁안전블럭	-11.9958
2-	-11.9959
▁발디딤	-11.9959
▁위험지역	-11.9959
▁이격된	-11.9959
▁808	-11.996
▁전기담당	-11.9961
▁박리	-11.9961
50)	-11.9962
용기	-11.9968
(500	-11.997
작업종료	-11.997
▁Shoe	-11.997
방지조치	-11.997
이전에	-11.9973
(75	-11.9973
력으로	-11.9974
▁과대	-11.9974
▁지휘하고	-11.9976
▁철근가공기	-11.9976
부지에서	-11.9976
▁알수없	-11.9977
▁스파크로	-11.9979
▁시트지	-11.998
의사	-11.9981
▁입구로	-11.9982
▁사디리	-11.9982
▁소재지	-11.9985
일오전	-11.9986
관동	-11.9986
▁뇌진탕	-11.9987
▁3.0	-11.9989
▁해저	-11.9993
▁미만인	-11.9994
▁끼어있던	-11.9994
▁붕괴사고	-11.9996
▁ᄋ	-11.9996
▁kN	-11.9996
▁밑받침	-11.9997
▁굴착장소	-11.9999
▁셋째	-11.9999
▁북면	-12
▁강구한	-12
▁태만으로	-12.0003
거친	-12.0003
▁정수	-12.0003
▁실시하다가	-12.0003
▁내리치	-12.0003
▁무지	-12.0004
▁밀어주	-12.0006
▁긴급조치	-12.0006
코일	-12.0007
it	-12.0009
▁결로	-12.0011
67	-12.0011
써	-12.0011
▁견출작업자	-12.0012
▁널	-12.0013
토막	-12.0015
머	-12.0015
알폼설치	-12.0015
▁공내	-12.0016
▁성분	-12.0017
양동이	-12.0017
걸려	-12.0017
공사현장에서	-12.0018
펌프	-12.0018
▁인정하	-12.0018
▁흙바닥에	-12.002
▁통선	-12.0022
▁시공에	-12.0023
▁직원인	-12.0025
증명	-12.0026
▁하부판넬	-12.0029
가설	-12.003
▁코부위	-12.0031
▁조립해	-12.0031
▁부상정도	-12.0033
▁첫단	-12.0033
-03	-12.0035
mX	-12.0035
상단에	-12.0039
▁한쪽면	-12.004
▁붙어서	-12.004
▁닦던	-12.0041
(150	-12.0044
▁관측	-12.0045
▁토사운반	-12.0045
▁보관함	-12.0047
▁리모델링공사	-12.0047
▁(4)	-12.0048
▁차례	-12.005
▁반경내에	-12.0055
▁신나	-12.0055
▁추락하였고	-12.0056
▁하였음에도	-12.0057
▁이음부분	-12.0057
▁때리	-12.0059
▁지상주차장	-12.0059
▁고정못	-12.006
▁용산	-12.0062
▁돌아오	-12.0063
▁장비사용	-12.0063
▁뒷걸음치	-12.0065
분구	-12.0072
▁이대	-12.0074
▁낙하위험	-12.0076
산단	-12.0076
▁각선	-12.0078
▁표준시방서	-12.0081
▁안경	-12.0081
650	-12.0082
헤드에	-12.0083
▁잡아주다	-12.0084
▁수직재에	-12.0085
29)	-12.0087
나우	-12.0088
▁밑부분	-12.0089
▁시점부에서	-12.009
운영계획	-12.009
▁입원후	-12.009
▁웅	-12.0094
두지	-12.0096
▁조경수	-12.0098
▁다져	-12.0098
증으로	-12.01
▁고정부위	-12.01
▁수정한	-12.01
락이	-12.0101
▁인양줄	-12.0101
▁조립순서	-12.0105
어트	-12.0108
▁성심병원	-12.0109
▁현장주변	-12.0109
▁진행되어	-12.0109
▁취급부주의	-12.0111
eader	-12.0114
▁뽑던	-12.0115
▁자주	-12.012
▁자차	-12.0124
정비사업	-12.0124
잡아	-12.0127
▁68	-12.0127
개만	-12.0129
▁연결시	-12.0131
▁사용중인	-12.0134
▁하여야하나	-12.0137
▁요청한	-12.0141
▁목재가공장	-12.0145
▁일한	-12.0148
▁유도등	-12.0151
▁해체작업자	-12.0152
▁붕괴방지	-12.0158
▁띠장설치	-12.0164
▁않았	-12.0169
▁오인	-12.0171
합	-12.0173
▁옹벽공사	-12.0173
▁인력운반작업	-12.0176
▁선회하	-12.0178
▁사용계획	-12.0181
목을	-12.0182
▁지주대	-12.0189
▁테크	-12.0189
▁뿜어	-12.0193
▁해체하려고	-12.0194
▁미간	-12.0196
▁대지	-12.0198
코드	-12.02
▁중간부위	-12.02
구조대	-12.0201
▁걸쳐놓	-12.0207
측구	-12.0207
▁당사현장	-12.0207
▁꼽아	-12.0208
▁정밀진단	-12.021
▁신호대	-12.0214
동작	-12.0217
▁굴착하고	-12.0218
▁엔진이	-12.0219
▁기초파일	-12.0227
RE	-12.0228
▁예초작업	-12.023
▁운행할	-12.0231
▁상승하여	-12.0234
▁나사를	-12.0236
창이	-12.0237
▁형틀근로자	-12.0239
▁검사하여	-12.0239
▁팔등	-12.0244
▁화물에	-12.0245
▁상가동	-12.0246
▁소음으로	-12.0247
▁용이하다	-12.0252
▁양중함	-12.0257
▁시행하여	-12.0259
▁학	-12.0261
▁계측값이	-12.0265
=0.	-12.0266
▁엉덩이부분	-12.0266
▁배관고정	-12.0271
▁잡기위	-12.0273
가루	-12.0274
▁지하실	-12.0277
▁풀링	-12.0278
▁형식으로	-12.0279
▁뛰어내리는	-12.028
▁세브란스	-12.0289
이었으나	-12.029
(02	-12.0292
:40	-12.0293
▁보제작	-12.0293
▁확인과	-12.0294
▁조정하여	-12.0297
▁%	-12.0302
짐을	-12.0303
uide	-12.0303
▁고소작업차에	-12.0304
▁적재시	-12.0313
▁보양작업중	-12.0317
▁위치함	-12.0323
검사를	-12.0324
문틀	-12.0326
▁추락했	-12.0328
▁위치하고	-12.0329
▁시점에	-12.0331
넣은	-12.0332
▁낮추	-12.0337
▁비계상부	-12.0338
층벽체	-12.0339
었으며	-12.034
▁검사한	-12.0341
▁인양높이	-12.0344
▁깔아놓	-12.0346
▁하역장소	-12.0347
동식	-12.0347
▁합	-12.0355
▁전후	-12.0358
▁잡을	-12.0359
했을	-12.0361
(*	-12.0363
▁코너부	-12.0365
▁지나다	-12.0368
▁306	-12.0371
▁수행한	-12.0371
▁전부	-12.0373
▁맨홀내부	-12.0378
(30	-12.0379
▁들은	-12.038
▁안전줄	-12.0381
▁조정하던	-12.0383
▁단일	-12.0386
▁시공업체	-12.0386
▁형성된	-12.0387
▁전자	-12.039
▁공법과	-12.0391
▁얘기	-12.0395
당겨	-12.0396
▁소나무가	-12.0396
▁콘크리트면	-12.0396
▁이동시키	-12.0399
▁2-1	-12.04
▁운반하	-12.0412
▁사고성	-12.0413
▁시공완료	-12.0413
▁해상에서	-12.0421
▁전기작업	-12.0422
세로	-12.0424
▁일치	-12.0432
▁소방설비	-12.0439
건축직영	-12.044
▁보건관리자	-12.0448
▁실족한	-12.0448
▁심의	-12.0455
▁발판해체	-12.0456
▁부서	-12.0458
~7	-12.046
(70	-12.046
▁작업미숙	-12.0462
▁솔	-12.0462
통에	-12.0467
▁설치전	-12.0473
▁대명	-12.0481
▁이동통로에	-12.0481
▁고정시켜	-12.0484
▁시공단계	-12.0484
신호수와	-12.0486
년이상	-12.0487
▁미끌어지	-12.0488
▁유리에	-12.0497
▁철근가공작업	-12.0498
남기업	-12.0506
▁인원수	-12.0518
▁길에	-12.0526
절단작업중	-12.0527
▁잡아서	-12.0527
도에	-12.0531
(30*4	-12.0532
않도록	-12.0544
▁교체한	-12.0547
▁위층	-12.055
어지면서	-12.0556
▁어깨뼈	-12.0557
단위별	-12.0557
▁굴착중	-12.0567
▁공사진행	-12.0569
▁오수맨홀	-12.0572
▁사각지대에	-12.0578
▁설계단계에	-12.0579
▁사용작업	-12.0586
per	-12.0589
공장에서	-12.0589
기로	-12.0589
▁알렸	-12.0591
보건설	-12.0596
)3.	-12.0598
▁주거	-12.0599
조립작업	-12.06
▁제재	-12.0603
▁훼손되	-12.0608
▁CU	-12.0608
▁운전석으로	-12.0615
▁실시중	-12.062
안군	-12.0621
▁붕괴재해	-12.0626
가슴	-12.0633
문을	-12.0634
▁척추가	-12.0635
▁서있	-12.0641
▁기울어지는	-12.0651
▁대용	-12.0658
▁2019.12.2	-12.0659
▁찔린사고	-12.0663
▁옆쪽에	-12.0667
▁춘천	-12.0667
▁작업의자	-12.0669
▁상부철근	-12.0669
▁버팀보에	-12.067
약품	-12.0674
▁공중에	-12.0678
/22	-12.0686
▁않았다	-12.0693
▁가져오	-12.0709
▁하부작업	-12.071
이력	-12.0711
▁하역장	-12.0712
600)	-12.0713
▁파일과	-12.0716
▁다니	-12.0719
▁최하단에	-12.072
▁것으로서	-12.073
▁재해근로자	-12.0733
▁강관비계에	-12.0735
자인	-12.0737
▁법령	-12.0738
설치후	-12.0738
▁****(	-12.0747
▁기어	-12.0747
1.7	-12.0747
▁브	-12.0749
부위로	-12.075
사리	-12.0751
▁안전난간에	-12.0754
상해를	-12.0755
▁근접작업	-12.0756
▁원도급사에	-12.0756
해체팀	-12.076
바닥을	-12.0763
▁집에	-12.0768
▁작업소	-12.0772
광건설	-12.0773
장비기사가	-12.0778
4.3	-12.0779
▁이격되어	-12.0784
건설에	-12.0791
▁사고라	-12.0799
운반용	-12.0807
사고입니다	-12.0818
유도원	-12.0823
▁부착한	-12.0823
▁고소작업자	-12.0836
▁전도재해	-12.0839
관리적	-12.0843
▁전달받	-12.0844
▁현장명	-12.0846
▁준비작업을	-12.0858
▁안정적	-12.0859
체의	-12.0868
번빔	-12.0875
▁종료시	-12.0875
▁가시설에	-12.0877
었다고	-12.0885
▁종아리부분	-12.0889
반생이	-12.0889
▁'20	-12.0891
나서	-12.0902
았으나	-12.0906
▁아주대	-12.0907
▁단부로	-12.091
공사현장	-12.0912
▁인양하	-12.0914
▁착용중이	-12.0917
▁해체구간	-12.0922
▁조립장	-12.0931
재해자의	-12.0933
▁신호수간	-12.0934
▁건물외부	-12.0936
▁발판위에	-12.0939
▁실시하	-12.0941
▁전개	-12.0941
▁수중작업	-12.0942
▁수문	-12.0947
▁실패	-12.0954
▁급수	-12.0961
▁나가던	-12.0961
▁정지시켜	-12.0965
전주	-12.0965
▁제작작업	-12.0967
정리작업	-12.0967
▁감던	-12.0972
절단작업	-12.0978
▁판개작업	-12.0978
▁체결중	-12.0983
량이	-12.0987
구급대에	-12.099
▁적재되	-12.0991
직	-12.1006
▁천장에	-12.1009
▁퇴근시	-12.101
몸	-12.1011
▁육상	-12.1011
▁절단날	-12.1012
기간이	-12.1029
▁당하여	-12.1034
.4	-12.1044
No	-12.1045
▁출입구에	-12.1045
▁탈영	-12.1055
▁박아	-12.1057
▁탈락이	-12.1061
▁보관중	-12.1072
▁인양고리에	-12.1078
▁고여있	-12.1084
▁뜯어	-12.1086
▁약화	-12.1098
▁일부구간	-12.11
▁기와	-12.1109
로써	-12.1109
진다	-12.1112
번계단	-12.1118
두고	-12.1119
▁화목	-12.112
신축공사현장	-12.1132
▁아니한	-12.1134
▁양지	-12.1138
▁배관철거	-12.1139
▁사춤작업	-12.1144
0(	-12.1147
장갑	-12.1149
▁중앙부에	-12.1153
개발사업	-12.1157
티앤	-12.1161
▁측부	-12.1163
부품	-12.1167
▁진행한	-12.1174
못을	-12.1179
순서는	-12.1181
▁사고현장	-12.1183
▁조치하여	-12.1185
▁상가주택	-12.1185
▁여기에	-12.1189
▁처리하	-12.119
표지판	-12.1192
과정	-12.1193
▁가슴부분	-12.1196
▁수행중	-12.1197
정비공사	-12.1198
▁송정	-12.1203
▁주우	-12.1204
▁붐대에	-12.1218
창고에서	-12.1219
▁그것	-12.1219
▁이동운반	-12.1219
었을	-12.122
▁전기자재	-12.1223
▁건설기계에	-12.1229
해체된	-12.1233
▁허리쪽	-12.1235
▁2020.04.	-12.1239
3-4	-12.1247
▁석면이	-12.125
▁쉬는	-12.1253
골절됨	-12.126
▁압출공법에	-12.1264
련	-12.1267
천리	-12.1267
▁렌탈에	-12.1269
작동	-12.1282
▁시켜야	-12.1284
오류로	-12.1285
▁미그러	-12.1287
주입	-12.1296
한다고	-12.1296
▁향하	-12.1297
▁오배수	-12.13
▁찢	-12.1309
의견서	-12.131
/26	-12.1312
▁사용후	-12.1315
받던중	-12.132
▁배출되	-12.1326
▁도로교통	-12.1332
▁해상작업	-12.1333
견	-12.1338
400	-12.1341
에걸려	-12.1343
▁가동중	-12.1343
▁배토	-12.1343
▁기타공사	-12.1345
▁부주의함	-12.1348
성모병원	-12.1351
▁거부	-12.136
▁핸드카에	-12.1362
▁재단작업	-12.1366
전화	-12.137
끝에	-12.1372
▁버림타설	-12.1372
▁후진하다	-12.1373
▁기계와	-12.1375
▁압	-12.1376
▁잡아야	-12.1378
6.5	-12.1384
횡대	-12.1384
▁점검하	-12.1386
▁2020.08.	-12.1389
▁설치지점	-12.139
▁타설한	-12.139
▁지반에서	-12.1391
▁철골구조	-12.1395
연골	-12.1407
력에	-12.1411
클	-12.1412
력이	-12.1413
함으로	-12.1418
▁전달하고	-12.1421
sta	-12.1431
▁넘어졌	-12.1434
▁전달하기	-12.1438
▁인장작업	-12.144
▁유로폼거푸집	-12.1441
▁작업발판위	-12.1445
옹	-12.145
요소	-12.1454
▁파악중	-12.1462
슬	-12.1464
▁잘리	-12.1465
들어감	-12.1473
▁쪽에	-12.1473
안쪽	-12.1473
철물이	-12.1474
북	-12.1476
개선공사	-12.1481
목적	-12.1485
이상이	-12.1485
▁작업대차에	-12.1491
▁활	-12.1491
▁기다리	-12.1492
▁판넬의	-12.1497
심이	-12.1497
렉	-12.15
유해	-12.1501
8)	-12.1502
▁중간난간대에	-12.1505
애	-12.1505
상해	-12.1507
▁충	-12.1507
2.9	-12.1507
휴	-12.1514
▁설계서에	-12.1517
▁물적	-12.1518
산리	-12.1522
▁탈	-12.1524
▁꺼	-12.1524
검사결과	-12.153
▁이형	-12.1533
컨	-12.1533
수탑	-12.1538
있다가	-12.1542
트랙	-12.1542
▁임의적	-12.155
▁ᄋᄋᄋᄋ	-12.155
▁철근위에	-12.1551
▁이용중	-12.1553
방치	-12.1559
▁뻗	-12.156
선과	-12.1564
▁통과하	-12.1566
모서리	-12.1567
▁벗기	-12.1568
▁역회전	-12.1578
대성	-12.1579
▁2020.05.1	-12.1579
웨이	-12.1579
▁제시한	-12.1581
미숙	-12.1582
▁철거하던	-12.1584
▁부천	-12.1585
▁갱폼발판	-12.1588
겸	-12.1588
▁구부	-12.1589
▁위험작업	-12.1589
뒤에	-12.1594
와이어로프	-12.1595
균열	-12.16
▁함으로	-12.16
▁2,3,4	-12.1601
우천	-12.1604
▁반경내	-12.1605
-05	-12.1608
▁한손	-12.1609
주어	-12.161
철도	-12.161
마무리	-12.1611
발견	-12.1611
발코니	-12.1616
▁겹질	-12.1622
물체	-12.1624
▁용접중	-12.1625
준수	-12.1626
▁점검하는	-12.1626
버팀보	-12.163
▁가하던	-12.163
스테이	-12.1631
▁도착전	-12.1636
▁옥상난간	-12.1637
검	-12.1639
력식	-12.1643
작용	-12.1645
▁방호선반에	-12.1646
논	-12.1648
통과	-12.1649
ro	-12.1651
▁작업과정에서	-12.1652
마이삭	-12.1653
찬	-12.1654
재해발생원인	-12.1654
응	-12.1655
▁시계	-12.1656
철수	-12.1658
▁상층부	-12.1658
집으로	-12.166
업을	-12.1662
연락	-12.1663
사이에서	-12.1663
마당	-12.1663
갱	-12.1666
출력	-12.1666
수대	-12.1667
공기	-12.1667
▁장소가	-12.1668
특수	-12.1668
무리	-12.1669
혈	-12.1669
허벅지	-12.167
폰	-12.1672
양수장	-12.1674
▁5.1	-12.1674
▁이상소견	-12.1676
▁작업지휘	-12.1676
핀제거	-12.1677
▁질	-12.1677
건축물	-12.1677
욕	-12.1678
달기	-12.1679
사랑	-12.168
▁힘의	-12.168
엘보	-12.1682
유치원	-12.1682
소매	-12.1684
큰	-12.1684
갈바	-12.1684
수도관	-12.1685
왕	-12.1685
전소	-12.1686
추간판탈출증	-12.1686
꼬	-12.1687
〈	-12.1689
바가지	-12.169
ᄃ	-12.169
201	-12.1691
뿌리	-12.1691
중수골	-12.1691
하겠습니다	-12.1691
조합	-12.1692
보행	-12.1692
클러치	-12.1693
득	-12.1693
취급	-12.1693
밧줄	-12.1693
▁휴	-12.1694
솔져	-12.1694
맨	-12.1694
콘테이너	-12.1694
잭베이스	-12.1694
건립공사	-12.1694
조종원	-12.1695
▁펜	-12.1695
신축	-12.1695
pit	-12.1695
채움	-12.1695
접촉	-12.1695
가설공사	-12.1696
통신	-12.1696
마스크	-12.1697
「	-12.1697
지연보고	-12.1697
프레임	-12.1697
저항	-12.1697
▁내용으로	-12.1697
브레이싱	-12.1698
▁덮기	-12.1698
규모	-12.1698
유압	-12.1698
펌프카	-12.1698
1200	-12.1698
받아치기	-12.1699
덤프	-12.1699
복숭아뼈	-12.1699
라이닝	-12.1699
경계선	-12.1699
클립	-12.1699
브레이커	-12.1699
골반	-12.17
슬리브	-12.17
버킷	-12.17
옷	-12.17
하도급사	-12.17
깔림	-12.17
환기구	-12.17
붐대	-12.17
화약류	-12.17
떨어짐	-12.1701
정밀	-12.1701
방안	-12.1701
사건	-12.1701
화물차	-12.1702
불어	-12.1702
▁사용안전	-12.1702
▁전기용	-12.1702
늑골골절	-12.1702
제품	-12.1703
피트	-12.1703
▁좌측면	-12.1703
탈형	-12.1703
일용근로자	-12.1704
안전장치	-12.1704
천안	-12.1704
11:00	-12.1705
효과	-12.1706
결함	-12.1706
외국인	-12.1707
철근콘크리트	-12.1708
타워크레인	-12.1708
통행로	-12.1708
13:30	-12.1709
자루	-12.1709
교통	-12.171
자갈	-12.171
▁질환이	-12.1711
내에	-12.1712
림으로	-12.1712
▁위험요소에	-12.1716
내측	-12.1718
배관공	-12.1718
2.6	-12.1719
▁호스에서	-12.172
강선	-12.1723
▁숨	-12.1723
▁보재	-12.1724
안전교육	-12.1726
6-1	-12.1727
Wi	-12.1727
조인트	-12.1728
▁2020.10.1	-12.1729
제거작업중	-12.1729
영상	-12.1729
▁진단이	-12.173
작업구간	-12.1731
지연사유	-12.1732
치를	-12.1739
밑에	-12.174
▁불발공	-12.1741
▁밀려나	-12.1741
▁준비해	-12.1742
▁천단	-12.1744
륜	-12.1746
▁해빙	-12.1747
때문	-12.1748
고소작업	-12.1751
휴일	-12.1761
▁아랫	-12.1762
경로	-12.1763
〉	-12.1764
석공사	-12.1764
통증을	-12.1765
ip	-12.1766
▁운반로	-12.1767
▁뒤돌아	-12.1767
▁외부시스템비계	-12.1767
대학	-12.1768
▁내리지	-12.1769
체인	-12.1773
▁부선	-12.1773
짐으로	-12.1774
▁꺼내기	-12.1774
▁혼	-12.1777
▁부딪혔	-12.1777
헤드가	-12.1778
지질	-12.1779
▁안되는	-12.1785
▁제설	-12.1788
8.	-12.179
타고	-12.1791
성분	-12.1791
15:00	-12.1793
▁인상작업중	-12.1793
▁상대방	-12.1793
▁산재요청	-12.1793
▁2019.11.1	-12.1797
바지선	-12.1797
▁시공하던	-12.1797
▁받으려	-12.1797
▁결속되어	-12.1798
▁실시하다	-12.18
▁'20.	-12.1802
▁유지되	-12.1803
▁하던중에	-12.1804
▁진출입	-12.1804
디딜	-12.1806
차량으로	-12.1806
차원	-12.1808
▁방재	-12.1809
▁어렵	-12.181
▁띄	-12.1812
▁낙반	-12.1812
고무	-12.1814
고소	-12.1815
자세	-12.1816
▁재료분리	-12.1816
▁악천	-12.1819
▁나르던	-12.1819
꿈	-12.182
ib	-12.1822
ap	-12.1823
▁인양하다	-12.1823
손가락을	-12.1824
위원회	-12.1824
공포	-12.1825
Q	-12.1825
릉	-12.1825
▁화재종합방재실	-12.1826
▁고층	-12.1826
▁탈출	-12.1826
ail	-12.1827
헌	-12.1827
ack	-12.1827
위험방지계획서	-12.1827
▁격자	-12.1827
▁근린생활	-12.1827
졌다	-12.1827
▁생겼	-12.1827
▁염증	-12.1828
▁싱크	-12.1828
부대	-12.1828
▁다녀	-12.1828
렛	-12.1828
쟈키	-12.1828
▁발헛디딤	-12.1828
-43-2012	-12.1828
▁여수토방수로	-12.1828
▁펌푸카	-12.1828
Front	-12.1828
▁1041,1042	-12.1828
▁Fan	-12.1828
▁SHOP	-12.1828
▁건조수축	-12.1828
▁격자지보	-12.1828
▁고드름	-12.1828
▁기상악화	-12.1828
▁놓쳤고	-12.1828
▁돌망태	-12.1828
▁몰랐	-12.1828
▁반납	-12.1828
▁밧데리	-12.1828
▁산출내역서	-12.1828
▁선택작업장치	-12.1828
▁선풍기	-12.1828
▁소요환기량	-12.1828
▁스티프너	-12.1828
▁승강안전기	-12.1828
▁암질판별	-12.1828
▁옮긴	-12.1828
▁이상징후	-12.1828
▁캐트워크	-12.1828
▁코너비드	-12.1828
▁클럽하우스	-12.1828
▁트랜스포터	-12.1828
▁프리캐스트	-12.1828
▁합리적	-12.1828
▁합성보	-12.1828
▁행그래브	-12.1828
발뒷굼치	-12.1828
파출소	-12.1828
퍼센트	-12.1828
▁LIFT	-12.1828
▁Purge	-12.1828
▁Rock	-12.1828
▁TANK	-12.1828
▁랙	-12.1828
▁부적격	-12.1828
▁쇼크	-12.1828
▁스톤매트리스	-12.1828
▁아산충무병원	-12.1828
▁전문기술자	-12.1828
▁존치	-12.1828
▁콤팩터	-12.1828
▁파견나	-12.1828
▁플랫타이	-12.1828
▁헐거워	-12.1828
▁현장정문	-12.1828
▁현장타설말뚝	-12.1828
롯데	-12.1828
20.03.02	-12.1828
line	-12.1828
ompressor	-12.1828
▁건널다리	-12.1828
▁책임기술자	-12.1828
글로벌	-12.1828
선수촌	-12.1828
▁hole	-12.1828
▁끼워넣	-12.1828
▁레이스	-12.1828
▁베란다	-12.1828
▁캐리지	-12.1828
경질우레탄	-12.1828
▁지도감독	-12.1828
▁컨베이어	-12.1828
▁빗나가	-12.1828
▁임계하중	-12.1828
▁햇빛	-12.1828
프리미엄	-12.1828
amber	-12.1828
▁못견디	-12.1828
▁산마루측구	-12.1828
▁불티비산방지포	-12.1828
▁상반신	-12.1828
모닝	-12.1828
▁평형추	-12.1828
▁강형부재	-12.1828
▁공사부장	-12.1828
▁공시체	-12.1828
▁던졌는데	-12.1828
▁최대반력	-12.1828
▁해상운송	-12.1828
신전건	-12.1828
▁감싸	-12.1828
▁경제성	-12.1828
▁인화물질	-12.1828
▁결착	-12.1828
▁보조역할	-12.1828
▁연고지	-12.1828
▁유가족	-12.1828
▁임목폐기물	-12.1828
▁Pad	-12.1828
▁뒤틀려	-12.1828
▁토운선	-12.1828
▁맞물리	-12.1829
▁이메일	-12.1829
▁횡갱	-12.1829
Slip	-12.1829
▁Channel	-12.1829
▁장마철	-12.1829
▁그리드	-12.1829
▁유압유닛	-12.1829
▁이의신청	-12.1829
▁폐합	-12.1829
▁비상연락망	-12.1829
▁약물치료	-12.1829
▁일단정지	-12.1829
▁덧댐	-12.1829
▁모으	-12.1829
▁과전류	-12.1829
▁실링벨트	-12.1829
▁방호울타리	-12.1829
▁분말	-12.1829
▁애자	-12.1829
▁산청군	-12.1829
▁가설분전함	-12.1829
처리분구	-12.1829
▁내리막길	-12.1829
sec	-12.1829
▁레바블럭	-12.1829
▁흙덩이	-12.1829
▁부적당	-12.1829
▁암판정	-12.1829
BAR	-12.1829
▁비탈길	-12.1829
▁재해복구사업	-12.1829
▁안정해석	-12.1829
내륙	-12.1829
▁병원후송	-12.1829
▁산재요양신청	-12.1829
▁어려우므로	-12.1829
▁권상드럼	-12.1829
▁면허증	-12.1829
▁미끌어짐	-12.1829
▁필름	-12.1829
복지관	-12.1829
ING	-12.1829
▁측량보조	-12.1829
▁급결제	-12.1829
▁비산불티	-12.1829
▁동우건설	-12.1829
▁민간	-12.1829
▁pt	-12.1829
▁지하매설	-12.1829
▁간이화장실	-12.1829
▁본인진술	-12.1829
▁집근처	-12.1829
▁택시	-12.1829
▁돌아감	-12.1829
▁상관관계	-12.1829
▁잔토처리	-12.1829
▁철콘	-12.1829
▁넘어졌으나	-12.1829
▁면끼	-12.1829
▁능력단위	-12.1829
▁선행굴착	-12.1829
▁작업편의	-12.1829
시켰으나	-12.1829
▁안전관리부서장	-12.1829
▁애기	-12.1829
▁쳐지며	-12.1829
감각신경	-12.1829
▁후속공정	-12.1829
▁용접재료	-12.1829
▁측면부	-12.1829
▁석재붙임	-12.1829
▁비트함마	-12.1829
▁정격속도	-12.1829
▁국부적	-12.1829
▁해머캡	-12.1829
▁무인타워크레인	-12.1829
▁보양비닐	-12.1829
▁동해안	-12.183
▁데크로드	-12.183
▁잡았으나	-12.183
▁지반개량	-12.183
▁사료	-12.183
▁채결	-12.183
▁팽창제	-12.183
▁이음철물	-12.183
▁정밀조사	-12.183
▁붙잡으려다	-12.183
▁떨어졌으며	-12.183
▁파이프서포터	-12.183
▁CON	-12.183
▁천창	-12.183
댐퍼	-12.183
▁열전도	-12.183
▁쏟아짐	-12.183
Sling	-12.183
▁총중량	-12.183
▁강재집수정	-12.183
▁매달림	-12.183
▁평활도	-12.183
▁소모	-12.183
SPAN	-12.183
▁건설안전	-12.183
▁침사조	-12.183
▁평상시	-12.183
▁여유길이	-12.183
▁오론	-12.183
레라	-12.183
▁건립사업	-12.183
▁부합여부	-12.183
▁멍애제	-12.183
▁단변	-12.1831
▁승차석	-12.1831
▁원심력	-12.1831
▁흔적	-12.1831
▁잠그	-12.1831
▁중간마디	-12.1831
▁콘크리트믹서트럭	-12.1831
▁자족	-12.1831
▁영구	-12.1831
▁소통부재	-12.1831
▁쓸림	-12.1831
▁찌임	-12.1831
▁남동측	-12.1831
▁고흥	-12.1831
▁수압시험	-12.1831
▁보여짐	-12.1831
▁삼각형	-12.1831
▁열려있는	-12.1831
▁경보설비	-12.1831
▁목록	-12.1831
▁조종석	-12.1831
▁피부염	-12.1831
▁지하수위계	-12.1831
▁못머리	-12.1832
▁덮친	-12.1832
▁혼선	-12.1832
▁객실	-12.1832
▁마른	-12.1832
▁면벽	-12.1832
▁테두리로프	-12.1832
▁부출입구	-12.1832
▁잡초	-12.1832
▁들러	-12.1832
▁검단	-12.1832
▁무근	-12.1832
▁접근통제	-12.1832
▁올바르게	-12.1832
▁거칠	-12.1832
▁녹아	-12.1832
▁부유물	-12.1832
▁사건임	-12.1832
▁영남	-12.1832
▁삐임	-12.1833
▁진동다짐	-12.1833
▁우측안구	-12.1833
▁원형맨홀	-12.1833
▁스터드볼트	-12.1833
▁본선터널	-12.1833
▁드릴비트	-12.1833
▁80%	-12.1833
▁토출구	-12.1833
▁도난	-12.1833
지연보고사유	-12.1833
▁감긴	-12.1833
▁미주시	-12.1833
▁닫아	-12.1833
▁고려사항	-12.1834
unch	-12.1834
▁부서져	-12.1834
▁응급수술	-12.1834
▁실리콘건	-12.1834
▁부속장치	-12.1834
▁삐긋함	-12.1834
▁꺼져	-12.1834
▁지지철물	-12.1834
▁마감처리	-12.1834
▁방염	-12.1834
깃발	-12.1834
=25	-12.1834
Sand	-12.1834
▁타격당함	-12.1834
▁축대	-12.1834
▁좌측엄지발가락	-12.1834
▁기저부	-12.1834
▁천공직경	-12.1834
▁조적벽돌	-12.1835
▁받쳐놓은	-12.1835
▁심각	-12.1835
*0.4	-12.1835
▁띄워	-12.1835
▁신장량	-12.1836
▁탈골됨	-12.1836
▁구석	-12.1836
▁외부마감재	-12.1836
▁제관사	-12.1836
▁죽전	-12.1836
▁경고음	-12.1836
▁포개	-12.1836
▁입원중임	-12.1836
▁재해예방계획	-12.1836
▁지정통로	-12.1836
▁급하강	-12.1836
▁다쳤다	-12.1836
▁요구사항	-12.1837
▁창호교체	-12.1837
▁지지구조	-12.1837
▁13:50	-12.1837
▁무릎관절	-12.1837
▁주의부족	-12.1837
▁내려옴	-12.1837
▁관리기준치	-12.1837
▁해채	-12.1837
▁공조	-12.1837
▁코킹공	-12.1837
▁Pa	-12.1838
▁지급계획	-12.1838
▁공해	-12.1838
산업단지	-12.1838
▁관리감	-12.1838
▁왼쪽손가락	-12.1838
▁잔열	-12.1838
▁연락방법	-12.1838
▁바탕면	-12.1839
▁전후진	-12.1839
▁운전조작	-12.1839
▁지지철판	-12.1839
▁발파암	-12.1839
▁경고표시	-12.1839
▁매몰됨	-12.1839
▁하부오거	-12.1839
▁도통시험기	-12.1839
▁분진발생	-12.1839
드려	-12.1839
▁단블럭	-12.184
▁서두르다	-12.184
▁작업허가서	-12.184
▁계상	-12.184
▁튀며	-12.184
▁보조공법	-12.184
▁노출시켜야	-12.184
▁발목염좌	-12.184
▁알린	-12.184
틀에	-12.184
▁조명설비	-12.1841
▁전체길이	-12.1841
▁인공	-12.1841
▁무더위	-12.1841
▁대피방법	-12.1841
▁인지시점	-12.1841
▁통상	-12.1841
▁배치플랜트	-12.1841
▁왼쪽옆구리	-12.1841
▁보강링	-12.1842
▁봉화	-12.1842
▁접혀	-12.1842
▁확립하여야	-12.1842
▁미세골절됨	-12.1842
=1.2	-12.1842
▁피난구	-12.1843
▁장단지	-12.1843
▁연직도	-12.1843
▁비계해체작업	-12.1843
▁취업	-12.1843
▁선행작업	-12.1843
공기정화시설	-12.1844
▁신규채용자	-12.1844
▁짓눌	-12.1844
▁해빙기	-12.1844
▁DCM	-12.1844
▁며칠	-12.1844
▁놓음	-12.1844
▁배제	-12.1844
▁구축하고	-12.1844
ant	-12.1844
,500	-12.1844
▁반대측	-12.1844
RP	-12.1844
▁수상함	-12.1844
▁골반부	-12.1844
▁부드	-12.1844
▁되게	-12.1845
▁토치	-12.1845
▁야외	-12.1845
▁최대하중	-12.1845
▁철근밴딩	-12.1845
▁서종	-12.1845
▁18:00	-12.1845
▁벽채	-12.1845
▁은평	-12.1845
▁포장장비	-12.1846
~105	-12.1846
▁mri	-12.1846
▁했는데	-12.1846
▁배선상태	-12.1846
▁고리체결	-12.1846
▁까뮤이	-12.1846
▁농촌중심지활성화	-12.1846
▁포인트	-12.1846
▁Bracing	-12.1846
▁OPEN	-12.1846
▁안전그네	-12.1846
▁질병판정위원회	-12.1846
▁카톨릭	-12.1846
▁신세계	-12.1846
▁접질렸음	-12.1846
▁아연도	-12.1846
▁천호	-12.1846
▁인허가기관	-12.1846
▁인성개발	-12.1846
▁급성심근경색	-12.1846
▁여굴	-12.1846
▁여자화장실	-12.1846
▁주제어동	-12.1846
▁심장마비	-12.1847
▁찌르	-12.1847
▁입찰	-12.1847
▁컷터칼	-12.1847
▁바켓	-12.1847
▁열교환기	-12.1847
▁보육시설	-12.1847
▁하중계	-12.1847
▁조금구	-12.1847
▁갈아입	-12.1847
▁괴산	-12.1847
▁경북대학교	-12.1847
▁팅겨	-12.1847
▁54	-12.1847
▁산재접수	-12.1847
▁고무판	-12.1847
▁습도	-12.1847
▁고박	-12.1847
▁건강관리	-12.1847
▁신경손상	-12.1847
▁허리디스크	-12.1848
▁현장인부	-12.1848
▁엉치뼈	-12.1848
▁스팀	-12.1848
▁요망	-12.1848
▁연락처	-12.1848
▁인화	-12.1849
▁11:15	-12.1849
▁볼트구멍	-12.1849
▁조정석	-12.1849
▁서산	-12.1849
(11	-12.1849
▁밴딩기계	-12.1849
▁법선	-12.1849
▁보수보강	-12.1849
▁종단	-12.185
SKY	-12.185
▁보강공법	-12.185
▁벗겨지며	-12.185
켓	-12.185
▁터널길이	-12.185
▁불안전한행동	-12.185
▁위치변경	-12.185
▁07:40	-12.185
▁피로도	-12.1851
▁사이즈	-12.1851
▁층간	-12.1851
*15	-12.1851
▁두부정리	-12.1851
▁진열	-12.1852
▁떨어졌고	-12.1852
▁12:00	-12.1852
▁저판	-12.1852
▁구입	-12.1852
의료시설	-12.1852
▁체조	-12.1852
▁투입장비	-12.1852
▁가능여부	-12.1852
▁강재공	-12.1852
▁시험실	-12.1853
▁나비	-12.1853
▁14:40	-12.1853
▁장비수리	-12.1854
▁약액	-12.1854
▁게시하고	-12.1854
▁보호장갑	-12.1854
▁벗고	-12.1854
▁축도	-12.1854
▁그루	-12.1854
▁우물	-12.1854
▁굽히	-12.1855
▁단순타박상	-12.1855
▁시행하였으며	-12.1855
▁미숙련공	-12.1855
▁07:00	-12.1855
▁손위치	-12.1856
▁지붕슬라브	-12.1856
▁엘	-12.1856
▁진화	-12.1856
▁쐐기형	-12.1856
▁매설공사	-12.1856
▁사용지침	-12.1856
▁협의체	-12.1857
리는	-12.1857
▁수평면과	-12.1857
톤차량	-12.1857
▁믹서통	-12.1858
▁8012	-12.1858
▁사용예정	-12.1858
▁위치선정	-12.1858
▁진료받은	-12.1859
▁비정상적	-12.1859
▁훼손되어	-12.1859
▁삼호	-12.1859
▁조회	-12.1859
▁안전관리계획	-12.186
▁배수구조물	-12.186
▁베이스판	-12.1861
▁강관비계파이프	-12.1861
▁슬링바에	-12.1861
▁입원하였고	-12.1861
▁자재양중	-12.1861
▁재시공	-12.1862
물류	-12.1862
▁못하였으며	-12.1862
▁능	-12.1862
mmx	-12.1862
▁가볼트	-12.1863
▁부력	-12.1863
▁탈의실	-12.1863
▁싣던중	-12.1864
▁인접해	-12.1864
▁구동부	-12.1864
▁탑승해	-12.1865
▁가로철근	-12.1865
▁도배작업중	-12.1865
▁배수공	-12.1865
▁보호장치	-12.1865
▁후송하였고	-12.1865
▁왼쪽팔목	-12.1865
왼손으로	-12.1866
촌동	-12.1866
평평	-12.1866
▁인양하중표에서	-12.1866
▁굴착공법	-12.1867
▁세운	-12.1867
▁와이어줄	-12.1867
ation	-12.1867
▁목격하지	-12.1868
▁사양서	-12.1868
▁하체	-12.1868
▁환기량	-12.1868
▁음봉	-12.1868
▁최적	-12.1868
End	-12.1868
리거	-12.1868
▁수정구	-12.1869
▁일반차량	-12.1869
▁창호틀	-12.1869
반동	-12.1869
▁젖혀지	-12.1869
▁순서별	-12.1869
▁풀려있는	-12.1869
▁발꿈치뼈	-12.187
▁이상현상	-12.187
▁승강장	-12.187
▁단선	-12.187
▁건드리	-12.1871
석고	-12.1871
▁기준선	-12.1871
▁세정	-12.1871
▁밀던중	-12.1871
▁결정됨	-12.1871
▁주로프	-12.1872
▁이송하였고	-12.1873
▁굴착단부	-12.1873
▁중심점	-12.1873
▁조경용	-12.1873
▁부목	-12.1873
▁기복	-12.1873
▁후륜	-12.1874
▁얼	-12.1874
▁원당	-12.1874
▁반사	-12.1874
▁정체	-12.1874
▁신고하였으며	-12.1875
건조물	-12.1875
▁하화	-12.1875
▁화기감시자	-12.1876
▁방출	-12.1876
▁둥	-12.1876
▁루바	-12.1877
▁냄새	-12.1877
▁바닦	-12.1877
▁대합실	-12.1877
▁슈퍼데크	-12.1877
▁밴더	-12.1877
▁벽체형틀	-12.1878
▁설지	-12.1878
▁우측갈비뼈	-12.1878
▁입상배관	-12.1878
공종별	-12.1878
제단	-12.1878
▁빈공간	-12.1879
▁주변확인	-12.1879
▁정박	-12.1879
▁판석	-12.1879
▁증축동	-12.188
▁전기기기	-12.188
▁제원표	-12.188
▁아크용접	-12.188
▁근원적	-12.1881
▁수직이동통로	-12.1881
▁하부철판	-12.1881
▁제한하고	-12.1882
▁돌쌓기	-12.1882
▁타사	-12.1882
▁넘어진것	-12.1883
▁괜찮은	-12.1884
▁벗겨지고	-12.1884
▁소홀히	-12.1884
▁전망	-12.1884
▁하도업체	-12.1884
▁터널공사	-12.1884
닫이	-12.1885
▁서행	-12.1885
▁버팀재	-12.1885
▁이해도	-12.1886
▁최하부	-12.1886
▁스라브거푸집	-12.1886
방석	-12.1886
리트	-12.1886
▁걷던	-12.1886
▁입상	-12.1887
조직	-12.1887
▁수술적	-12.1887
운동기구	-12.1888
▁확대	-12.1888
▁사이드	-12.1888
▁원형파이프	-12.1888
▁진행하였음	-12.1888
▁뛰어내렸	-12.1889
▁독자	-12.1889
▁차량통제	-12.1889
OOM	-12.1889
▁눌려있	-12.189
▁과하중	-12.189
▁보조빔	-12.1891
▁노동자	-12.1891
▁3~5	-12.1891
▁하역장비	-12.1891
대호	-12.1892
착장	-12.1893
▁보온작업중	-12.1893
▁바닥보	-12.1893
▁7,8	-12.1894
▁설치작업자	-12.1894
▁배수재	-12.1894
▁밀대	-12.1896
14:30	-12.1897
▁징	-12.1897
▁안전하중	-12.1897
▁굴착깊이	-12.1898
상차	-12.1899
▁엇	-12.1902
▁로라	-12.1902
▁차량운전원	-12.1902
▁유출부	-12.1902
▁날개부분	-12.1902
가려다	-12.1904
▁가새재	-12.1904
▁복사	-12.1906
▁배관라인	-12.1906
▁섬유	-12.1907
▁우미	-12.1908
▁살수차량	-12.1908
▁상관	-12.1908
▁slab	-12.1908
▁전완부	-12.1908
▁사무소	-12.1908
▁뭉치	-12.1908
▁테이프	-12.1909
▁뒤를	-12.1909
▁일상적	-12.191
▁나감	-12.191
▁문틈	-12.191
▁준비상태	-12.1911
▁진입부	-12.1911
▁해체도구	-12.1912
▁평택성모병원	-12.1912
▁오시	-12.1913
▁설치되었는지	-12.1913
▁공구에	-12.1914
▁팀원들	-12.1914
▁안전띠	-12.1914
▁외줄	-12.1914
▁슬라브철근	-12.1916
▁침실	-12.1916
▁조립ᆞ	-12.1916
▁잔해물	-12.1916
▁골절되고	-12.1917
▁볼트조립	-12.1917
▁약물	-12.1917
좌측검지	-12.1917
▁조절하고	-12.1917
▁견출작업중	-12.1918
▁태우	-12.1919
▁잔여분	-12.192
▁좌측손목	-12.192
▁정비하고	-12.1922
▁유공	-12.1924
송기관	-12.1924
▁표시하고	-12.1925
▁승강계단	-12.1925
▁뒷채움재	-12.1927
▁진료함	-12.1928
▁가다	-12.1929
▁빼고	-12.1929
이였고	-12.193
▁화재위험작업	-12.193
▁출근하지	-12.193
2.7	-12.1931
▁치료기간	-12.1933
▁공지	-12.1934
▁객	-12.1936
▁전화하여	-12.1936
▁타박상이라	-12.1938
▁동천	-12.1938
▁연장하여	-12.1938
▁취급작업	-12.1938
▁한곳에	-12.1939
▁0.6	-12.194
▁땀	-12.194
▁핸디	-12.194
▁bar	-12.1941
▁옹벽블럭	-12.1941
▁연결상태	-12.1941
▁전도되고	-12.1941
▁돌출부위에	-12.1941
▁Pump	-12.1942
▁필러	-12.1942
▁이동속도	-12.1943
▁사용미숙	-12.1943
▁시각	-12.1945
▁으	-12.1945
▁아니라고	-12.1945
▁밸브실	-12.1946
전압	-12.1946
▁지지대로	-12.1947
▁***(00	-12.1948
▁불대	-12.1948
▁정수지	-12.1949
▁일차	-12.1949
▁솟아	-12.1949
▁화물용	-12.1949
▁0.15	-12.195
▁지방도	-12.195
고속국도	-12.1951
▁쉬트	-12.1951
▁연기	-12.1952
▁발생경위	-12.1952
▁띠장재	-12.1953
신호수가	-12.1954
마트	-12.1954
▁기본적	-12.1955
▁ch	-12.1955
▁작업계획도	-12.1956
▁제자리	-12.1956
.5	-12.1957
평가	-12.1957
▁가이드빔	-12.1957
▁개방하여	-12.1959
(1.7	-12.1959
전자	-12.1961
▁밟았	-12.1962
▁하부작업대	-12.1962
▁그곳	-12.1963
▁치과	-12.1963
▁끝단부에	-12.1963
철선에	-12.1963
인줄	-12.1963
▁덤프기사	-12.1963
▁화상사고	-12.1964
▁5.5	-12.1964
새재	-12.1965
▁이상음	-12.1965
▁설치순서	-12.1966
▁쌓고	-12.1967
▁주형	-12.1967
▁콘크리트포장	-12.1967
▁시공전	-12.1968
▁유기	-12.1968
▁과중	-12.1968
▁짐칸	-12.197
▁판넬공사	-12.197
▁역방향	-12.197
▁소할	-12.1971
▁개개	-12.1971
▁퇴원조치	-12.1971
지상에서	-12.1972
▁PF	-12.1972
▁왕	-12.1972
▁추간판탈출증	-12.1973
대문	-12.1975
▁위치별	-12.1975
기초철근	-12.1976
▁현장확인	-12.1977
▁가능하고	-12.1979
▁들어갔	-12.1979
▁도장면	-12.198
▁흘러내	-12.198
주변에서	-12.1982
▁머	-12.1983
▁볼트류	-12.1983
▁통상적	-12.1984
▁진술이	-12.1986
▁통보하고	-12.1986
▁차주	-12.1986
▁곡관	-12.1986
보조공	-12.1986
▁복구작업	-12.1988
▁손상상태	-12.1989
▁청사	-12.1989
▁유리설치	-12.199
▁개발사업	-12.199
▁영상	-12.199
▁현장조건과	-12.199
▁전선정리	-12.1993
▁기인물이	-12.1994
▁커팅기	-12.1994
▁바가지	-12.1995
▁위치해	-12.1997
▁메시	-12.1997
▁부상임	-12.2
물받이	-12.2002
▁대피하	-12.2002
▁녹지	-12.2003
철망	-12.2003
▁2.6	-12.2004
▁임의작업	-12.2004
▁하상	-12.2004
▁찧은	-12.2005
ic	-12.2005
▁pile	-12.2005
▁Sheet	-12.2006
▁주지시키	-12.2007
MA	-12.2011
▁금강	-12.2012
▁이동하라	-12.2013
▁파레트에	-12.2015
▁거치하고	-12.2016
▁관자재	-12.2017
▁현장조치	-12.2018
▁작업장까지	-12.2021
▁배관실	-12.2022
의료원에	-12.2024
09(	-12.2025
▁해제하여	-12.2026
=7	-12.2029
▁적기	-12.2029
▁철거하고	-12.2029
▁수술하고	-12.2031
▁맞추	-12.2031
0)	-12.2033
▁치우쳐	-12.2033
▁처	-12.2034
▁보도구간	-12.2036
▁이었으며	-12.2038
▁상부근	-12.2038
▁연결철근	-12.2038
▁한쪽다리	-12.2039
▁Air	-12.204
▁이중벽관	-12.204
▁터	-12.2041
▁생	-12.2042
짝	-12.2043
주위에	-12.2043
▁발목부위에	-12.2043
▁구배	-12.2044
▁한개	-12.2044
▁나르	-12.2045
▁용성	-12.2046
▁시스템비계설치	-12.2047
▁측벽에서	-12.2048
▁외국인근로자	-12.2048
▁서로간	-12.2049
▁추락시	-12.2049
▁크로	-12.205
▁그로인	-12.205
러그	-12.2053
수평비계	-12.2053
▁철재물	-12.2054
00"	-12.2055
▁전기톱날	-12.2058
▁설치팀	-12.2059
▁왼발등	-12.2059
▁찔림사고	-12.2061
▁직전에	-12.2061
▁운반해서	-12.2062
이상인	-12.2064
▁나무가지	-12.2067
▁돌아와	-12.2069
▁탑승중	-12.2069
▁기초상부	-12.207
▁자가용	-12.2072
▁가설도로에서	-12.2072
▁해당공사	-12.2074
▁임목	-12.2074
▁정리정돈하고	-12.2075
▁대장	-12.2075
세워서	-12.2075
▁목부분	-12.2076
등분	-12.2076
▁우측제	-12.2078
▁철수중	-12.2078
차량이	-12.2079
일오후	-12.2079
▁규	-12.2081
ast	-12.2082
공법에	-12.2086
▁탄	-12.2086
▁교체공사	-12.2087
▁측정기	-12.2088
▁지상부	-12.2088
유도등	-12.2089
(3.5	-12.209
▁슬라이	-12.2092
▁승하강시	-12.2094
붙이기	-12.2096
▁간격재	-12.2096
▁창고동	-12.2097
▁구조부	-12.2098
(119	-12.21
▁빙	-12.2103
▁금속자재	-12.2104
▁준비하고	-12.2104
▁하였는데	-12.2104
한뒤	-12.2105
▁제작대	-12.2107
▁손가락끝	-12.2108
▁보강하고	-12.2109
▁보관장소	-12.211
▁굴착시	-12.2111
▁정상상태	-12.2111
end	-12.2111
▁le	-12.2114
▁2021.09.0	-12.2114
▁영동	-12.2114
▁하였	-12.2118
▁단부구간	-12.2118
▁말단부	-12.2118
식당	-12.2118
사고후	-12.2118
▁용접하기	-12.2121
▁이식	-12.2124
부분에서	-12.2124
3,4,5	-12.2125
에스앤	-12.2125
▁충격력	-12.2129
▁퇴근시간	-12.2133
18%	-12.2135
안전관리	-12.2136
▁보지못	-12.2137
)*	-12.2138
▁럭스	-12.2139
▁사정	-12.214
▁소속근로자	-12.2142
▁감전재해예방	-12.2143
파열로	-12.2143
안전지도	-12.2145
▁걸렸	-12.2146
전력	-12.2151
▁아래부분	-12.2155
▁현장방문하여	-12.2157
▁유해물질	-12.2158
▁예산	-12.2162
▁않는지	-12.2163
▁당겨서	-12.2165
▁파악한	-12.2166
▁제작공장	-12.2167
▁2-3	-12.2169
▁관리하고	-12.217
▁견고하고	-12.217
▁파단된	-12.2171
▁드	-12.2172
▁밀어올리	-12.2173
▁가야	-12.2173
▁하수급	-12.2174
▁흙막이판	-12.2177
-2015(	-12.2177
▁잠재	-12.2177
▁파워볼	-12.2179
▁지역에서	-12.2182
▁튜브	-12.2183
(32	-12.2183
▁운반기구	-12.2183
▁천공기에	-12.2184
▁작업속도	-12.2186
▁찾으	-12.2188
▁주주	-12.219
▁배치도	-12.2191
고속도로	-12.2195
▁-1	-12.2197
분만	-12.2199
▁수상에서	-12.22
▁2-2	-12.2206
▁신호하고	-12.2208
▁Span	-12.2208
▁보호용	-12.2208
▁상차중	-12.2209
▁계수	-12.2209
▁다친것	-12.2209
▁사용하거나	-12.2211
▁고리부분	-12.2211
(24	-12.2213
▁불안전상태	-12.2215
▁신고하게	-12.2216
▁절단함	-12.2219
▁험	-12.2221
▁간판	-12.2221
▁어깨부	-12.2223
▁쓰다	-12.2224
난간에	-12.2224
왔으며	-12.2224
▁철근조립장	-12.2225
▁취급에	-12.223
▁고지	-12.223
▁동서	-12.2236
▁콘크리트공	-12.2238
▁우마사다리	-12.224
▁유압기	-12.2242
축에	-12.2242
▁목공작업자	-12.2242
▁청소용	-12.2243
▁물류센터	-12.2248
예정인	-12.2251
배수관	-12.2256
▁쯤	-12.2264
▁시공되는	-12.2264
교육실시	-12.2265
▁정수장	-12.2267
▁넓어	-12.2268
▁크레인공법	-12.227
▁변경해	-12.2273
▁파쇄작업	-12.2274
시도	-12.2275
▁g	-12.2276
▁켜는	-12.2278
▁고정하며	-12.2278
▁의견서에	-12.2281
=2.8	-12.2282
/6	-12.2285
▁반선	-12.2287
▁안면과	-12.2288
▁조심	-12.229
▁운전하여	-12.2295
하수도	-12.2298
▁002	-12.2298
▁철골조	-12.2306
011)	-12.2307
▁건너가	-12.231
의료	-12.2311
~6	-12.2312
▁외부와	-12.2313
출입	-12.2314
했다가	-12.2315
(55	-12.2316
오일	-12.2322
▁바람직하	-12.2323
▁가설공사	-12.2323
▁자세불량	-12.2325
▁보사이	-12.2328
▁설치여부	-12.233
▁67	-12.2332
▁안전검사	-12.2333
▁소화수	-12.2336
현관문	-12.2337
▁인양준비	-12.234
비계발판	-12.2341
▁일어나다	-12.2341
▁적재용	-12.2343
▁수직면	-12.2351
▁태안	-12.2351
▁이동시키던	-12.2351
▁매달리	-12.2356
▁확보되어	-12.2358
리가	-12.2358
만원	-12.2359
어진	-12.2359
/17	-12.2365
▁사용하며	-12.2366
▁건물주	-12.2366
▁지반면	-12.2368
▁덜	-12.2369
▁완료되어	-12.2374
▁확인하	-12.2375
호스에	-12.2376
▁퍼티작업	-12.2379
▁넣어서	-12.2381
▁건물내부	-12.2381
트럭	-12.2385
▁기대어놓	-12.2386
버림	-12.2396
▁2021.12.	-12.2396
▁올라가고	-12.2397
▁오른발등	-12.2398
요양병원	-12.2401
증세	-12.2402
80)	-12.2403
▁누워있	-12.2406
▁곡면	-12.2406
13:35	-12.241
▁보통인부로	-12.2412
▁처짐이	-12.2418
▁목적에	-12.2419
성남시	-12.2425
천군	-12.2427
사가	-12.2432
▁압출공법	-12.2433
▁취급소에	-12.2435
안으로	-12.2441
▁파열이	-12.2443
▁이사	-12.2445
▁락	-12.2445
▁사고장소	-12.2446
동지하	-12.2447
4-	-12.2449
고장	-12.245
▁후크와	-12.2452
▁알려주어	-12.2454
퇴근	-12.2456
▁안전한지	-12.246
/13	-12.2463
피아	-12.2471
▁이동하였으나	-12.2472
▁형식이	-12.2472
800	-12.2475
딛음	-12.2475
▁교대보호	-12.2482
창틀	-12.2483
발성	-12.2483
▁눕히던	-12.2484
출입문	-12.2487
형식	-12.2489
▁지탱하다	-12.249
▁안전보건조치	-12.2491
것이	-12.2498
▁작업부위에	-12.2506
▁이동해야	-12.2509
▁블록제작장	-12.2511
기어	-12.2515
▁현장인	-12.2515
수를	-12.2519
▁움직이던	-12.2521
다리에	-12.2526
▁우측어깨를	-12.253
▁포장작업	-12.2534
▁치던	-12.254
▁보설치	-12.2543
전면	-12.2545
▁보다가	-12.2546
▁열어놓	-12.255
▁조립상태	-12.2575
▁배근도	-12.2577
▁PM	-12.2581
▁한면	-12.2582
▁경기	-12.2588
▁차도	-12.2591
사람이	-12.2592
에프	-12.2594
▁코일	-12.2594
빔자재	-12.2597
▁데크공	-12.2598
▁접촉되	-12.26
▁사건이	-12.2602
▁시작하	-12.2603
▁고정대	-12.2609
▁구조체에	-12.2612
▁맞추려	-12.2612
▁진도	-12.262
▁실측을	-12.2627
딛어	-12.2637
▁수평철근	-12.2638
▁굴착후	-12.2645
▁짚었	-12.2646
▁인양자재	-12.2659
▁경사지에	-12.266
건물의	-12.2661
▁해체함	-12.2661
▁최상층에	-12.2667
▁조사한	-12.2673
▁올리기	-12.2674
▁방지하는	-12.2676
마감재	-12.2681
회로	-12.2682
▁건조기	-12.2689
▁스라브에	-12.2691
▁높이기	-12.2692
▁정차중	-12.2695
▁현관문	-12.2695
▁위험반경	-12.2698
▁음	-12.2701
▁지붕공사	-12.2716
▁파라	-12.2718
▁의령	-12.272
▁기계작업	-12.2722
▁기자재	-12.2724
았지만	-12.2724
올린	-12.2726
▁굴착저면	-12.2732
▁있는줄	-12.2736
있어서	-12.274
▁중간에서	-12.2741
▁(2	-12.2743
▁2020.07.1	-12.2746
0.2	-12.2746
▁핸드믹서	-12.2747
▁외벽도장	-12.2748
▁하지작업	-12.2764
▁높다	-12.2766
▁대원	-12.2766
케	-12.2775
▁없다가	-12.2779
▁고정하다	-12.2781
▁비상연락	-12.2784
예상	-12.2787
▁가중	-12.279
▁2019.11.	-12.279
▁내서	-12.2792
▁바닥철근	-12.2796
▁발생하였으나	-12.2807
▁전소	-12.2807
▁녹방지	-12.2807
▁회피	-12.2828
▁지하수조	-12.2831
▁계획하여	-12.2844
▁양방향	-12.2849
▁체결부위	-12.2849
▁핸드카트에	-12.2854
▁중량물이	-12.2855
▁창문이	-12.2856
▁집중하중이	-12.2863
▁포함되어	-12.2863
.0+	-12.2864
▁수평빔	-12.2864
되	-12.2867
▁d	-12.2873
▁근무자	-12.2876
▁시스템공	-12.2877
▁파절	-12.2883
있었고	-12.2898
▁배관절단	-12.2907
플러	-12.2909
▁빔자재	-12.2916
▁벽쪽	-12.2922
▁출입구로	-12.2923
▁고장이	-12.2929
굴	-12.2931
▁지발	-12.2932
▁묻혀있	-12.2933
타운	-12.2935
▁안좋	-12.2935
▁해체정리	-12.2937
▁선장	-12.294
▁없었다	-12.2945
ll	-12.2945
▁후면부	-12.2947
▁배기	-12.295
6.(	-12.2954
▁01.	-12.2958
▁통풍	-12.296
ET	-12.2969
▁확인하다	-12.2971
판의	-12.2977
ater	-12.298
럼	-12.2995
605	-12.2996
랑이	-12.2997
▁장소와	-12.2997
▁토사유출	-12.2998
▁디디	-12.2998
▁방법이	-12.3005
▁토사유출로	-12.3006
▁중마	-12.3008
차가	-12.3014
▁비산되	-12.3014
해석	-12.3015
하였	-12.3015
격	-12.3017
IE	-12.3018
내는	-12.3023
▁전정작업	-12.3028
▁재해위험	-12.3028
복공판	-12.3034
▁묻어있	-12.3034
문에	-12.3043
▁합판조각	-12.3054
▁절단부위	-12.3058
▁살피	-12.3058
▁좌측손가락	-12.3061
▁공법에서	-12.3061
▁작업하였음	-12.3062
▁비로인	-12.3065
▁작업이동	-12.3065
▁인양한	-12.3075
×	-12.3075
덩어리	-12.3078
~1.5	-12.3084
▁제시하	-12.3087
지천	-12.3091
▁치기	-12.3095
작업발판에서	-12.3096
22-3	-12.31
협력업체에서	-12.31
치다가	-12.311
▁인양체	-12.3111
았으며	-12.3112
▁종합사무	-12.3114
▁후미부	-12.3116
▁입었	-12.3131
▁***)	-12.3132
▁운전시	-12.314
.6.	-12.3145
▁시선	-12.3146
870	-12.3152
오면서	-12.3153
▁핸드카트	-12.3156
▁안전사다리	-12.3159
▁정상출근하	-12.316
~17	-12.3164
=1.	-12.3166
▁집중하중	-12.3167
▁철거물	-12.3176
▁23.5	-12.3177
거푸집자재를	-12.3181
검진결과	-12.3188
▁가닥	-12.3195
▁절단하	-12.3196
▁압착되	-12.3199
34	-12.3199
지골	-12.3202
▁찾	-12.322
▁피하	-12.3223
내외	-12.3224
▁고정물	-12.3225
르게	-12.3232
회수	-12.3236
배관이	-12.3245
업체에서	-12.3246
월경	-12.3265
▁바가	-12.3266
▁파스	-12.3267
▁작업지반	-12.3273
47	-12.3277
-04	-12.3278
▁타작업자	-12.3282
103	-12.3282
ch	-12.3289
▁왼손바닥	-12.3289
5.5	-12.3296
곡면	-12.3296
▁서부	-12.3307
▁접합작업	-12.3308
자재정리	-12.3311
IR	-12.3318
▁재해일	-12.3322
절단중	-12.3327
설비배관	-12.3331
▁재료에	-12.3338
▁분리하다	-12.3343
음을	-12.3344
▁수화	-12.3348
▁교체하던	-12.3355
▁미끄러졌	-12.3366
전까지	-12.3366
▁해제작업	-12.338
▁완료시	-12.3381
▁끊	-12.3382
차선으로	-12.3384
비용	-12.3387
▁부안	-12.3397
mp	-12.3402
시험동	-12.342
▁관리하	-12.3424
냉장	-12.3424
비골	-12.3436
▁데크상부	-12.3441
정도로	-12.3442
▁이상없다	-12.3464
▁내용에	-12.3471
배기	-12.3473
▁기준이	-12.3475
단발판	-12.3477
리스	-12.3479
▁쓰이	-12.3481
▁서울병원	-12.3485
내림	-12.3489
▁작업공간에	-12.349
▁얘기하	-12.3501
▁뚜껑에	-12.3502
▁치료받	-12.3506
▁벽체미장	-12.3513
▁해체하	-12.3514
▁피트내	-12.3516
▁피재	-12.3516
▁현장에서재해자	-12.3521
취	-12.3521
리고	-12.3521
3-3	-12.3532
것	-12.3533
치료후	-12.3537
▁준용하여	-12.3538
종아리	-12.3539
▁나이	-12.354
(200	-12.3555
▁철근배근중	-12.3561
▁추진중	-12.3563
전으로	-12.3563
▁이음위치에	-12.3564
이음부	-12.3565
교에서	-12.3579
▁외부비계에	-12.3582
-2011(	-12.3582
나간	-12.3583
과학	-12.3584
1800)	-12.359
▁접근하던	-12.3592
환경	-12.3599
▁화물칸에	-12.3604
▁움직여서	-12.3607
판과	-12.3609
벽체와	-12.3609
▁ᄃ형	-12.361
손이	-12.361
▁용접하여	-12.3616
▁관로작업	-12.3617
장비에	-12.3623
운반도중	-12.3624
▁발등위	-12.3628
법인	-12.3628
▁한림	-12.3633
▁놓으려	-12.3639
800)	-12.365
▁700	-12.3654
보거푸집	-12.3658
▁부디	-12.3662
▁유로	-12.3674
하천	-12.3675
▁휘청	-12.3683
▁난연	-12.3686
▁동안에	-12.3692
▁덜어	-12.3694
ar	-12.3694
▁방식에	-12.3696
▁경제적	-12.3699
▁사고위치	-12.37
▁폭으로	-12.3705
손을	-12.3705
치로	-12.3705
:2	-12.3706
▁미착용상태	-12.3706
놓여있는	-12.3709
인수	-12.3719
하도급	-12.3729
미비	-12.3731
내려	-12.3732
경찰	-12.3734
Gu	-12.3741
▁이음작업	-12.3745
▁800	-12.3746
▁통과하던	-12.3751
▁절단하려	-12.3756
▁빠	-12.3758
리성	-12.3763
▁제지	-12.3769
▁Z	-12.377
▁가시설팀	-12.3772
았는데	-12.3776
상부의	-12.3776
▁유해성	-12.3779
▁건물쪽	-12.3785
▁85	-12.3787
▁상부측	-12.3788
뜨려	-12.3789
▁거치중	-12.3796
▁조심하여	-12.3801
트랙에	-12.3811
중앙	-12.3814
▁넘어오	-12.3815
▁경찰조사	-12.3816
▁열상사고	-12.3817
.3)	-12.3819
폼이	-12.3823
됨으로써	-12.3823
분포	-12.3827
▁게시하여	-12.3831
램프에서	-12.3832
:12	-12.3833
CT	-12.3836
병이	-12.3836
회전하던	-12.3838
▁체결했	-12.3841
▁급경사	-12.3842
▁떨어짐으로	-12.3845
3,4	-12.3848
▁기간에	-12.3854
▁최소화하	-12.3858
리체	-12.3859
시간에	-12.386
▁작업관리자	-12.3869
신고하여	-12.3879
현장으로	-12.3879
▁이동방지	-12.3879
▁굴착한	-12.388
으	-12.3884
연결작업중	-12.3884
척	-12.3887
전을	-12.3888
광역	-12.389
량과	-12.3892
▁좋	-12.3894
▁불씨	-12.3895
▁항로	-12.3896
age	-12.3901
170	-12.3907
▁지붕면	-12.3909
▁닦	-12.3909
▁작업부주의	-12.391
▁슬래브에	-12.3912
▁비계로	-12.3913
옹벽에서	-12.3913
-09	-12.3917
▁경사부	-12.3919
문짝	-12.3924
▁제작되어	-12.3931
▁준설토	-12.3931
원리	-12.3932
▁바닥면으로	-12.3933
짚어	-12.3935
▁수술진행	-12.3941
▁야적할	-12.3941
▁바르	-12.3947
못하여	-12.3948
▁내장공	-12.3948
▁3.4	-12.3952
▁서면	-12.3955
▁이음부에	-12.3963
이동식비계	-12.3964
영향	-12.3966
벼	-12.3968
1~	-12.3975
수레	-12.3979
회복	-12.398
▁8/2	-12.3982
1]	-12.3986
▁발생여부	-12.3988
승	-12.3989
방지망	-12.3993
일원	-12.3998
경보기	-12.3998
▁사람들	-12.3999
.1+	-12.4
▁맞은편에	-12.4002
장치로서	-12.4002
못	-12.4002
스톤	-12.4005
대대	-12.4008
▁설치하다	-12.4013
▁주계단	-12.4014
계전	-12.4016
▁열던	-12.4017
곤	-12.4018
▁야기	-12.4024
보호대	-12.4027
영업	-12.4029
▁뒷편에	-12.404
▁엔진장	-12.4042
였던	-12.4043
짜	-12.4044
니스	-12.4044
(1)	-12.4046
닥	-12.405
▁배수작업	-12.4051
▁상부작업	-12.4053
겠	-12.4054
면처리	-12.4055
스터	-12.4058
별표	-12.4061
ck	-12.4063
곳에서	-12.4066
▁뛰어내	-12.407
소방	-12.4071
밀	-12.4074
～	-12.4077
딩	-12.408
▁보충	-12.4081
설공사현장	-12.4085
으려	-12.4085
▁주저앉으	-12.4086
▁발생하기	-12.4089
더미	-12.4089
도화상	-12.4089
▁이루어져	-12.4089
▁관계기관에	-12.4092
▁눕혀	-12.4093
틸	-12.4094
인대가	-12.4094
▁'19	-12.4096
▁역화	-12.4097
려진	-12.4098
필요	-12.4098
미끄러짐	-12.4098
▁하부지반	-12.41
납품	-12.4103
전문병원	-12.4104
고가교	-12.4104
39	-12.4106
▁단속	-12.4106
▁2020.07.2	-12.4107
▁바닥사이	-12.4108
▁손바닥에	-12.4108
▁차후	-12.4112
▁작업투입	-12.4115
규칙	-12.4115
▁작동하던	-12.4115
▁관사	-12.4116
▁해체해	-12.4119
차이로	-12.412
▁양평	-12.4128
헤	-12.4128
▁입원조치	-12.4129
700	-12.4131
▁흡습	-12.4133
▁1800	-12.4134
답	-12.4136
▁판단하	-12.4138
제한	-12.4138
여건	-12.4142
▁디딤판에	-12.4143
접수	-12.4145
▁발주처에	-12.4146
행위	-12.4147
오류	-12.4151
▁제한하여	-12.4153
▁드라이독	-12.4154
춘	-12.4155
스트럿	-12.4155
휴게소	-12.4155
호매실	-12.4155
Setting	-12.4155
▁농업	-12.4158
Head	-12.4158
환기	-12.4159
용단작업	-12.416
트를	-12.4161
▁추락한사고	-12.4162
믹서	-12.4163
▁상승각	-12.4164
죽	-12.4164
유발	-12.4166
접지	-12.4166
았	-12.4169
옆구리	-12.4169
▁건입	-12.417
우려	-12.4171
블	-12.4172
쉴드	-12.4174
강하	-12.4175
한후	-12.4176
하중으로	-12.4176
부지내	-12.4176
각반	-12.4177
안전관리자	-12.4177
곽	-12.4178
노선	-12.4179
▁리프트에	-12.4179
잔	-12.4179
살	-12.418
▁명기하여	-12.4181
Buck	-12.4182
Zone	-12.4182
불순물	-12.4182
숲	-12.4182
확장	-12.4182
벨브	-12.4182
전기원형톱	-12.4182
착용하	-12.4183
근무기간	-12.4183
유공관	-12.4183
물류센터	-12.4184
6~7	-12.4184
버스	-12.4184
숙소	-12.4184
▁내려놓아	-12.4185
상병명	-12.4186
치아	-12.4186
르던	-12.4186
핸디	-12.4186
땀	-12.4186
bar	-12.4187
드라이버	-12.4187
▁작업면	-12.4187
▁계산하여	-12.4188
쉬트	-12.4188
▁2019.10.	-12.4188
요령	-12.4188
토류판	-12.4188
▁얹어	-12.4188
투기장	-12.4188
Pump	-12.4189
내리던	-12.4189
패	-12.4189
GATE	-12.4189
직접원인	-12.4189
지장물	-12.419
필러	-12.419
지방도	-12.419
해양	-12.4191
Form	-12.4191
붐	-12.4191
보조작업	-12.4193
훼손	-12.4193
일반	-12.4193
묶	-12.4194
임팩	-12.4194
산승각	-12.4194
드레인	-12.4194
수직망	-12.4194
승용차	-12.4194
라쳇	-12.4194
PIPE	-12.4194
EGI	-12.4194
찍	-12.4195
샌드위치	-12.4195
스텐	-12.4195
사망	-12.4195
코로나	-12.4195
CSI	-12.4195
압박골절	-12.4196
슬개골	-12.4196
저수지	-12.4196
페	-12.4196
Sta	-12.4196
몰딩	-12.4197
등록	-12.4197
관찰	-12.4198
거터	-12.4198
근골격계질환	-12.4198
개인질병	-12.4198
물품	-12.4198
금이감	-12.4198
유로품	-12.4198
中	-12.4198
배출	-12.4198
승강기	-12.4199
광대뼈	-12.4199
현장대리인	-12.4199
매듭	-12.4199
입술	-12.4199
이격거리	-12.4199
화학	-12.4199
퇴행성	-12.42
점심시간	-12.42
TBM	-12.42
브레이크	-12.42
방화문	-12.42
헛딛여	-12.42
그라우팅	-12.42
리어카	-12.42
가설재	-12.42
경미한	-12.42
세그먼트	-12.42
뒷걸음질	-12.42
해치발판	-12.42
슬링벨트	-12.4201
또한	-12.4201
떨어져	-12.4201
맞음	-12.4201
개인보호구	-12.4201
떨어진	-12.4201
안전난간대	-12.4201
시트파일	-12.4201
보완	-12.4202
콘판넬	-12.4202
네번째	-12.4202
매립	-12.4202
설계자	-12.4202
▁검측하여	-12.4203
휴식시간	-12.4203
산소	-12.4203
▁홍천	-12.4203
SC	-12.4203
최소	-12.4204
장애인	-12.4204
마모	-12.4204
쓰	-12.4204
포항	-12.4206
전락	-12.4206
단독	-12.4206
▁한곳	-12.4206
산업재해	-12.4206
공동구	-12.4206
건조로	-12.4207
EL	-12.4207
▁들어올	-12.4207
수문	-12.4207
도색	-12.4212
강당	-12.4212
슴	-12.4212
전류	-12.4213
지선	-12.4213
기울기	-12.4215
교각	-12.4215
조립식	-12.4217
▁끼임이	-12.4217
준비작업중	-12.4218
고압	-12.4218
전치	-12.4219
n	-12.4219
가시설공	-12.422
항목	-12.422
판정	-12.4221
고정상태	-12.4221
▁참조하여	-12.4226
눌리	-12.4226
용접용	-12.4228
폐수	-12.4229
구급대원	-12.423
개선	-12.423
▁타일작업자	-12.4232
초진	-12.4233
테라	-12.4233
날로	-12.4234
만성	-12.4234
무리한	-12.4235
▁다리골절	-12.4237
당사자	-12.4238
▁한림대	-12.4238
긴장	-12.4241
대전	-12.4244
답단	-12.4245
▁보강대	-12.4246
▁그네	-12.4247
부식	-12.4247
▁송천	-12.4248
▁분리되	-12.4248
치장	-12.4249
▁흔	-12.4249
파괴	-12.425
필요시	-12.425
는걸	-12.4253
.7	-12.4254
▁잡다	-12.4255
(29	-12.4256
미장공	-12.4259
▁대각	-12.4265
PT	-12.4266
▁만들	-12.4267
▁김영	-12.4268
점지지	-12.4268
작업대에서	-12.4269
▁타설작업시	-12.4269
▁초벌	-12.427
실적	-12.4271
신경	-12.4271
톱날	-12.4273
작업지시	-12.4273
러지면서	-12.4274
▁산악	-12.4276
계측	-12.4278
리아	-12.4278
▁송전선	-12.4278
객	-12.4282
찰	-12.4283
▁즉	-12.4285
라켓	-12.4287
▁점검하던	-12.4287
▁짧	-12.4287
저하	-12.4288
▁화기감시	-12.4291
불가	-12.4291
▁프	-12.4292
▁철근상부	-12.4294
▁유관기관	-12.4295
▁포디움	-12.4295
▁활석	-12.4296
판재	-12.4296
▁절곡부	-12.4298
측부	-12.4298
▁인력사무소	-12.4302
서류	-12.4303
▁세륜	-12.4305
0.15	-12.4306
oa	-12.4306
▁호전되	-12.4306
*1800	-12.4308
▁성도이엔지	-12.431
▁절취사면	-12.431
▁**.**	-12.4311
ter	-12.4311
▁현장방문	-12.4311
▁내진보강	-12.4311
지브	-12.4312
3.9	-12.4312
딪	-12.4312
▁빗	-12.4314
▁소방서에	-12.4314
▁도통시험	-12.4314
▁비운	-12.4316
▁정량	-12.4318
▁요양보험급여	-12.4318
▁도심	-12.4319
강동	-12.4319
▁나누	-12.4319
▁실험	-12.432
▁파괴되	-12.4321
▁생략	-12.4321
▁안내표지	-12.4321
▁들지	-12.4322
▁2021.08.1	-12.4323
▁샤워	-12.4324
체험	-12.4324
~2.0	-12.4325
춤	-12.4325
신고후	-12.4325
킹	-12.4325
ook	-12.4326
▁싸	-12.4326
딪혀	-12.4326
ool	-12.4326
▁삼각	-12.4326
▁화물적재	-12.4326
닐	-12.4327
▁‘21	-12.4327
▁잉여	-12.4327
내기	-12.4327
늬	-12.4327
릅	-12.4327
균열이	-12.4327
쟈	-12.4327
델	-12.4328
▁쿨	-12.4328
▁옮길	-12.4328
▁마주	-12.4328
닌	-12.4328
▁불연재	-12.4328
잉	-12.4328
▁방아쇠	-12.4328
▁삼자현	-12.4328
마이크로파일	-12.4328
▁swc	-12.4328
▁저류지	-12.4328
▁함바식당	-12.4328
-81-2011	-12.4328
Level	-12.4328
chin	-12.4328
▁'***'	-12.4328
▁594-41	-12.4328
▁Code	-12.4328
▁Girth	-12.4328
▁bolt	-12.4328
▁가물막이	-12.4328
▁간이소화장치	-12.4328
▁갈퀴	-12.4328
▁결핍	-12.4328
▁그라스울	-12.4328
▁기계식주차설비	-12.4328
▁깔판ᆞ깔목	-12.4328
▁나타낸	-12.4328
▁내부마찰각	-12.4328
▁담벼락	-12.4328
▁라메르호	-12.4328
▁라지에이터	-12.4328
▁로터리	-12.4328
▁마운드	-12.4328
▁맨바스켓	-12.4328
▁메놀	-12.4328
▁무겁	-12.4328
▁무석면시멘트판	-12.4328
▁부체도로	-12.4328
▁비복근	-12.4328
▁숫돌	-12.4328
▁신반포센트럴자이	-12.4328
▁쓰레기봉투	-12.4328
▁아침식사	-12.4328
▁압접	-12.4328
▁어긋남	-12.4328
▁엇갈리	-12.4328
▁연삭숫돌	-12.4328
▁올레건설	-12.4328
▁용접ᆞ용단	-12.4328
▁원인불상	-12.4328
▁원터치	-12.4328
▁월드플랜	-12.4328
▁윙	-12.4328
▁유기용제	-12.4328
▁이소시아네이트	-12.4328
▁자동전격방지기	-12.4328
▁자립도	-12.4328
▁자전거	-12.4328
▁저녁식사	-12.4328
▁차광안경	-12.4328
▁침매공법	-12.4328
▁카라비너	-12.4328
▁캐비닛	-12.4328
▁커브길	-12.4328
▁콤푸레샤	-12.4328
▁콧잔등	-12.4328
▁펌핑	-12.4328
▁합성수지	-12.4328
▁헛손질	-12.4328
▁화살촉	-12.4328
기성소화조	-12.4328
롱	-12.4328
수동홀딩기	-12.4328
엑셀파이프	-12.4328
윈찌	-12.4328
컨벤션	-12.4328
흡착기에	-12.4328
crete	-12.4328
▁HRSG	-12.4328
▁낙하격발	-12.4328
▁롯드렌치	-12.4328
▁마을안길	-12.4328
▁맨홀인상틀	-12.4328
▁방풍실	-12.4328
▁브레이스	-12.4328
▁새손병원	-12.4328
▁섭취	-12.4328
▁아케이드	-12.4328
▁유제살포	-12.4328
▁입찰참가	-12.4328
▁타공흡음판	-12.4328
▁토크렌치	-12.4328
▁회음부	-12.4328
온풍기	-12.4328
▁2～3	-12.4328
▁PRS	-12.4328
▁빠레트	-12.4328
▁서귀포	-12.4328
▁설계변경금액확정	-12.4328
▁씨스템	-12.4328
▁혼잡	-12.4328
삼흥전력	-12.4328
Chain	-12.4328
▁MPa	-12.4328
▁급정거	-12.4328
▁레이저	-12.4328
▁가판대	-12.4328
▁건전지	-12.4328
▁열린상처	-12.4328
▁크리프	-12.4328
▁헐거움	-12.4328
까봐	-12.4328
Space	-12.4328
▁널부러	-12.4328
▁발을헛디뎌	-12.4328
▁합병증	-12.4328
▁상하동시작업	-12.4328
▁증개축	-12.4328
▁철써포트	-12.4328
▁경음기	-12.4328
▁라이싱	-12.4328
▁붙임재료	-12.4328
Roller	-12.4328
Segment	-12.4328
▁Roof	-12.4328
▁물류창고	-12.4328
▁양양방향	-12.4328
▁윤활유	-12.4328
▁잡석다짐	-12.4328
▁행잉	-12.4328
▁SLAB	-12.4328
▁수성페인트	-12.4328
[...]
